{"merges": [[";", "<|WB|>", ";<|WB|>"], [",", "<|WB|>", ",<|WB|>"], ["i", "n", "in"], ["r", "e", "re"], ["-", ">", "->"], [")", "<|WB|>", ")<|WB|>"], ["t", "e", "te"], ["s", "t", "st"], [")", ";<|WB|>", ");<|WB|>"], ["l", "e", "le"], ["e", "r", "er"], ["s", "e", "se"], ["a", "l", "al"], ["a", "g", "ag"], ["e", "n", "en"], ["c", "o", "co"], ["a", "t", "at"], ["a", "r", "ar"], [".", "<|WB|>", ".<|WB|>"], ["c", "h", "ch"], ["d", "e", "de"], ["l", "i", "li"], ["s", "<|WB|>", "s<|WB|>"], ["c", "k", "ck"], ["o", "r", "or"], ["u", "r", "ur"], ["l", "o", "lo"], ["m", "e", "me"], ["s", "i", "si"], ["o", "n", "on"], ["t", "<|WB|>", "t<|WB|>"], ["a", "n", "an"], ["P", "ag", "Pag"], ["(", "p", "(p"], ["=", "=", "=="], ["d", "<|WB|>", "d<|WB|>"], ["t", "_", "t_"], ["E", "_", "E_"], ["t", "r", "tr"], ["u", "n", "un"], ["z", "e", "ze"], ["t", "i", "ti"], ["in", "g", "ing"], ["c", "e", "ce"], ["->", "p", "->p"], ["f", "f", "ff"], [":", "<|WB|>", ":<|WB|>"], ["a", "s", "as"], ["o", "p", "op"], ["a", "b", "ab"], ["m", "p", "mp"], ["li", "te", "lite"], ["s", "q", "sq"], ["le", "n", "len"], ["n", "e", "ne"], ["sq", "lite", "sqlite"], ["*", "*", "**"], ["l", "l", "ll"], ["v", "e", "ve"], ["sqlite", "3", "sqlite3"], ["i", "t", "it"], ["re", "e", "ree"], ["a", "d", "ad"], ["a", "te", "ate"], ["in", "t", "int"], ["I", "T", "IT"], ["d", "i", "di"], ["r", "o", "ro"], ["b", "u", "bu"], ["n", "o", "no"], ["i", "le", "ile"], ["e", "v", "ev"], ["si", "ze", "size"], ["-", "-", "--"], ["S", "T", "ST"], ["st", "r", "str"], ["a", "p", "ap"], ["in", "e", "ine"], ["te", "r", "ter"], ["e", "t", "et"], ["i", "d", "id"], ["R", "E", "RE"], ["Pag", "er", "Pager"], ["]", "<|WB|>", "]<|WB|>"], ["u", "t", "ut"], ["c", "t", "ct"], ["E", "R", "ER"], ["0", "<|WB|>", "0<|WB|>"], ["Pag", "e", "Page"], ["c", "ur", "cur"], ["t", "h", "th"], ["_", "f", "_f"], [")", ")<|WB|>", "))<|WB|>"], ["I", "N", "IN"], ["r", "i", "ri"], ["co", "n", "con"], ["y", "<|WB|>", "y<|WB|>"], ["B", "t", "Bt"], ["R", "e", "Re"], ["f", "(", "f("], ["I", "n", "In"], ["p", "o", "po"], ["T", "_", "T_"], ["s", "_", "s_"], ["d", "_", "d_"], ["ing", "<|WB|>", "ing<|WB|>"], ["q", "u", "qu"], ["a", "me", "ame"], ["\"", ",<|WB|>", "\",<|WB|>"], ["ch", "e", "che"], ["b", "a", "ba"], ["u", "m", "um"], ["h", "e", "he"], ["s", ",<|WB|>", "s,<|WB|>"], ["s", "er", "ser"], ["Q", "L", "QL"], ["li", "st", "list"], ["C", "ur", "Cur"], ["IT", "E_", "ITE_"], ["S", "QL", "SQL"], ["g", "e", "ge"], ["p", "e", "pe"], ["\"", "<|WB|>", "\"<|WB|>"], ["E", "N", "EN"], ["SQL", "ITE_", "SQLITE_"], ["se", "t", "set"], ["(", "&", "(&"], ["l", "_", "l_"], ["F", "ile", "File"], ["u", "p", "up"], ["_", "S", "_S"], ["m", "o", "mo"], ["e", "x", "ex"], ["d", "b", "db"], ["ch", "ar", "char"], ["i", "ze", "ize"], ["L", "o", "Lo"], ["O", "P", "OP"], ["s", "h", "sh"], ["O", "p", "Op"], ["bu", "f", "buf"], ["o", "l", "ol"], ["e", "y", "ey"], ["(", "(", "(("], ["A", "L", "AL"], ["->", "n", "->n"], ["en", "t", "ent"], ["me", "m", "mem"], ["L", "O", "LO"], ["a", "c", "ac"], ["lo", "c", "loc"], ["H", "A", "HA"], ["ab", "le", "able"], ["_", "t", "_t"], ["[", "i", "[i"], ["lo", "ck", "lock"], ["0", "x", "0x"], ["*", "p", "*p"], ["f", "o", "fo"], ["at", "a", "ata"], ["_", "p", "_p"], ["**", "**", "****"], ["re", "v", "rev"], ["A", "T", "AT"], [")", ");<|WB|>", "));<|WB|>"], ["i", "s", "is"], ["ti", "on", "tion"], ["r", "a", "ra"], ["S", "ize", "Size"], ["d", "o", "do"], ["ne", "w", "new"], ["s", "c", "sc"], ["u", "e", "ue"], ["f", "i", "fi"], [")", ",<|WB|>", "),<|WB|>"], ["at", "h", "ath"], ["0", "0", "00"], ["l", "ag", "lag"], ["(", ")<|WB|>", "()<|WB|>"], ["l", "a", "la"], ["e", "m", "em"], ["ba", "se", "base"], ["m", "m", "mm"], ["co", "l", "col"], ["re", "s", "res"], ["M", "A", "MA"], ["m", "a", "ma"], ["v", "al", "val"], ["]", ";<|WB|>", "];<|WB|>"], ["d", "(", "d("], ["s", "or", "sor"], ["i", "l", "il"], ["C", "K", "CK"], ["al", "loc", "alloc"], ["e", "ll", "ell"], ["i", "p", "ip"], ["ag", "e", "age"], ["a", "re", "are"], ["+", "+", "++"], ["l", "ine", "line"], ["t", "o", "to"], ["d", ",<|WB|>", "d,<|WB|>"], ["co", "mp", "comp"], ["t", "(", "t("], ["A", "G", "AG"], ["C", "ell", "Cell"], ["*", ")", "*)"], ["x", "_", "x_"], ["C", "O", "CO"], ["qu", "i", "qui"], ["Lo", "ck", "Lock"], ["!", "=", "!="], ["as", "h", "ash"], ["m", "_", "m_"], ["ti", "me", "time"], ["al", "l", "all"], ["M", "E", "ME"], ["o", "ur", "our"], ["s", ".<|WB|>", "s.<|WB|>"], ["(", "#", "(#"], ["u", "l", "ul"], ["n", "t", "nt"], ["s", "[", "s["], ["s", "p", "sp"], ["S", "_", "S_"], ["]", ".", "]."], ["at", "i", "ati"], ["r", "an", "ran"], ["o", "ff", "off"], ["M", "em", "Mem"], ["en", "t_", "ent_"], ["S", "E", "SE"], ["st", "<|WB|>", "st<|WB|>"], ["i", "g", "ig"], ["y", "te", "yte"], ["O", "R", "OR"], ["_", "in", "_in"], ["==", "0<|WB|>", "==0<|WB|>"], ["co", "un", "coun"], ["y", "pe", "ype"], ["1", "<|WB|>", "1<|WB|>"], [")", ".<|WB|>", ").<|WB|>"], ["'", "<|WB|>", "'<|WB|>"], ["v", "er", "ver"], ["a", "ve", "ave"], ["c", "<|WB|>", "c<|WB|>"], ["o", "f(", "of("], ["v", "_", "v_"], ["v", "o", "vo"], ["n", "ame", "name"], ["U", "R", "UR"], ["U", "N", "UN"], ["ev", "ent_", "event_"], ["A", "R", "AR"], ["s", "(", "s("], ["no", "de", "node"], ["--", "--", "----"], ["n", "al", "nal"], ["(", "!", "(!"], ["s", ".", "s."], ["size", "of(", "sizeof("], ["i", "x", "ix"], ["qui", "ck", "quick"], ["tr", "y", "try"], ["k", "ey", "key"], ["re", "ad", "read"], ["u", "c", "uc"], ["p", "->", "p->"], ["L", "E", "LE"], ["e", "w", "ew"], ["de", "f", "def"], ["M", "_", "M_"], ["3", "2", "32"], ["N", "o", "No"], ["ri", "te", "rite"], ["T", "R", "TR"], ["o", "u", "ou"], ["p", "Pager", "pPager"], ["quick", "list", "quicklist"], ["n", "um", "num"], ["v", "i", "vi"], ["(", "u", "(u"], ["h", "ash", "hash"], ["E", "V", "EV"], ["_", "m", "_m"], ["Bt", "ree", "Btree"], ["n", "g", "ng"], ["p", "Op", "pOp"], ["st", "_", "st_"], ["p", "r", "pr"], ["d", "r", "dr"], ["re", "a", "rea"], ["s", "->", "s->"], ["-", "1", "-1"], ["S", "h", "Sh"], ["c", "a", "ca"], ["D", "ata", "Data"], ["st", "ar", "star"], ["g", "et", "get"], ["_", "re", "_re"], ["S", "t", "St"], ["b", "yte", "byte"], ["N", "ew", "New"], ["(", "\"", "(\""], ["co", "mm", "comm"], ["(", "i", "(i"], ["u", "se", "use"], ["P", "g", "Pg"], ["L", "L", "LL"], ["o", "o", "oo"], ["6", "4", "64"], ["p", "Cur", "pCur"], ["re", "en", "reen"], ["di", "ct", "dict"], ["OP", "_", "OP_"], ["p", "C", "pC"], ["w", "in", "win"], ["s", ";<|WB|>", "s;<|WB|>"], ["C", "H", "CH"], ["->", "a", "->a"], ["f", "or", "for"], ["f", "lag", "flag"], ["ati", "on", "ation"], ["p", "ro", "pro"], ["[", "0", "[0"], ["u", "te", "ute"], ["A", "D", "AD"], ["i", "c", "ic"], ["D", "e", "De"], ["LO", "CK", "LOCK"], ["our", "nal", "ournal"], ["D", "b", "Db"], ["C", "o", "Co"], ["ER", "_", "ER_"], ["ne", "x", "nex"], ["st", "at", "stat"], ["s", "l", "sl"], ["s", "z", "sz"], ["O", "N", "ON"], ["vo", "id", "void"], ["b", "e", "be"], ["l", "u", "lu"], ["a", "y", "ay"], ["o", "ut", "out"], ["m", "at", "mat"], ["P", "AG", "PAG"], ["d", "ate", "date"], ["2", "<|WB|>", "2<|WB|>"], ["en", "d", "end"], ["L", "ine", "Line"], ["un", "ix", "unix"], ["(p", "Pager", "(pPager"], ["op", "t", "opt"], ["MA", "X", "MAX"], ["u", "b", "ub"], ["D", "E", "DE"], ["S", "I", "SI"], ["er", "<|WB|>", "er<|WB|>"], ["che", "ck", "check"], ["pOp", "->p", "pOp->p"], ["T", "E", "TE"], ["h", "o", "ho"], ["s", "d", "sd"], ["mo", "de", "mode"], ["y", "n", "yn"], ["E", "n", "En"], ["->", "i", "->i"], ["s", "g", "sg"], ["****", "****", "********"], ["al", "<|WB|>", "al<|WB|>"], ["_", "b", "_b"], ["S", "HA", "SHA"], ["f", "ree", "free"], ["er", "r", "err"], ["ba", "ck", "back"], ["\\", "n", "\\n"], ["K", "ey", "Key"], ["f", "ile", "file"], ["d", ".<|WB|>", "d.<|WB|>"], ["\"", ");<|WB|>", "\");<|WB|>"], ["as", "ser", "asser"], ["==", "==", "===="], ["w", "_", "w_"], ["_", "ST", "_ST"], ["(", "*", "(*"], ["_", "c", "_c"], ["R", "O", "RO"], ["k", "e", "ke"], ["]", ",<|WB|>", "],<|WB|>"], ["[", "1", "[1"], ["si", "g", "sig"], ["pPager", "->", "pPager->"], ["pr", "int", "print"], ["t", ",<|WB|>", "t,<|WB|>"], ["d", "ata", "data"], ["m", "ap", "map"], ["a", "il", "ail"], ["++", ";<|WB|>", "++;<|WB|>"], ["m", "<|WB|>", "m<|WB|>"], ["an", "d", "and"], ["M", "P", "MP"], ["def", "ine", "define"], ["len", "<|WB|>", "len<|WB|>"], ["F", "_", "F_"], ["re", "f", "ref"], ["U", "n", "Un"], ["co", "de", "code"], ["P", "ath", "Path"], ["ran", "ch", "ranch"], ["p", "ut", "put"], ["db", "e", "dbe"], [".", "h", ".h"], ["T", "<|WB|>", "T<|WB|>"], ["E", "<|WB|>", "E<|WB|>"], ["L", "_", "L_"], ["t", "ab", "tab"], ["a", "ce", "ace"], ["en", "try", "entry"], ["(", "int", "(int"], ["p", "Page", "pPage"], ["w", "rite", "write"], ["str", "uc", "struc"], [">", "=", ">="], ["i", "te", "ite"], ["ar", "g", "arg"], ["N", "O", "NO"], ["u", "s", "us"], ["(", "z", "(z"], ["x", "<|WB|>", "x<|WB|>"], ["t", "ree", "tree"], ["A", "C", "AC"], ["u", "ll", "ull"], ["D", "_", "D_"], ["sqlite3", "Pager", "sqlite3Pager"], ["Cur", "sor", "Cursor"], ["in", "d", "ind"], ["p", "y", "py"], ["V", "dbe", "Vdbe"], ["r", "c", "rc"], ["sqlite3", "Btree", "sqlite3Btree"], ["o", "w", "ow"], ["A", "B", "AB"], ["lo", "w", "low"], ["No", "de", "Node"], ["ar", "ch", "arch"], ["M", "o", "Mo"], ["r", "r", "rr"], ["s", ");<|WB|>", "s);<|WB|>"], ["k", "<|WB|>", "k<|WB|>"], ["s", ")<|WB|>", "s)<|WB|>"], ["struc", "t<|WB|>", "struct<|WB|>"], ["ST", "_", "ST_"], ["C", "on", "Con"], ["(", "void", "(void"], ["]", ");<|WB|>", "]);<|WB|>"], ["i", "f(", "if("], ["a", "se", "ase"], ["a", "f", "af"], ["l", "y", "ly"], ["(", "c", "(c"], ["SHA", "1", "SHA1"], [",", "0x", ",0x"], ["i", "m", "im"], ["st", "ate", "state"], ["sl", "ab", "slab"], ["O", "ff", "Off"], ["S", "H", "SH"], ["S", "S", "SS"], ["I", "P", "IP"], ["ge", "t_", "get_"], ["L", "U", "LU"], ["d", ";<|WB|>", "d;<|WB|>"], ["con", "st<|WB|>", "const<|WB|>"], ["T", "I", "TI"], ["C", "UR", "CUR"], ["ST", "AT", "STAT"], ["asser", "t(", "assert("], ["z", "ip", "zip"], ["coun", "t", "count"], ["bu", "ff", "buff"], ["define", "d(", "defined("], ["{", "<|WB|>", "{<|WB|>"], ["qu", "e", "que"], ["i", "f", "if"], ["p", "re", "pre"], [".", ".", ".."], ["N", "U", "NU"], ["!=", "0<|WB|>", "!=0<|WB|>"], ["t", "ype", "type"], ["print", "f(", "printf("], ["ti", "ve", "tive"], ["ev", "ent", "event"], ["g", "no", "gno"], ["L", "I", "LI"], ["st", "rea", "strea"], [")", "{<|WB|>", "){<|WB|>"], ["u", "v_", "uv_"], ["an", "ge", "ange"], ["val", "ue", "value"], ["p", "Bt", "pBt"], ["cur", "re", "curre"], ["1", "6", "16"], ["_f", "ree", "_free"], ["l", "y<|WB|>", "ly<|WB|>"], ["in", "t<|WB|>", "int<|WB|>"], ["se", "arch", "search"], ["G", "et", "Get"], ["W", "R", "WR"], ["I", "d", "Id"], ["s", "ave", "save"], ["ro", "w", "row"], ["i", "st", "ist"], ["mo", "ve", "move"], ["d", ")<|WB|>", "d)<|WB|>"], ["M", "O", "MO"], ["->", "h", "->h"], ["i", "r", "ir"], ["in", "s_", "ins_"], ["cur", "sor", "cursor"], ["B", "T", "BT"], ["s", "o", "so"], ["ou", "t_", "out_"], ["e", "l", "el"], ["ut", "o", "uto"], ["A", "N", "AN"], ["ra", "w", "raw"], ["F", "ree", "Free"], ["_", "_", "__"], ["c", "b", "cb"], ["base", "->", "base->"], ["_", "w", "_w"], ["p", "tr", "ptr"], ["m", "sg", "msg"], ["m", "i", "mi"], ["le", "te", "lete"], ["in", "fo", "info"], ["ng", "x_", "ngx_"], ["p", "ar", "par"], ["or", "y", "ory"], ["(", ");<|WB|>", "();<|WB|>"], ["mem", "c", "memc"], ["Sh", "m", "Shm"], ["I", "O", "IO"], ["D", "<|WB|>", "D<|WB|>"], ["a", "ck", "ack"], ["e", "k", "ek"], ["F", "L", "FL"], ["comp", "res", "compres"], ["V", "al", "Val"], ["+", "1", "+1"], ["IN", "G", "ING"], [">", "<|WB|>", "><|WB|>"], ["ma", "x", "max"], ["n", "<|WB|>", "n<|WB|>"], ["C", "h", "Ch"], ["T", "ype", "Type"], ["<", "=", "<="], ["p", "age", "page"], ["le", "ar", "lear"], ["t", ";<|WB|>", "t;<|WB|>"], ["RE", "AD", "READ"], ["m", "ent", "ment"], ["(", "struct<|WB|>", "(struct<|WB|>"], ["E", "P", "EP"], ["p", "<|WB|>", "p<|WB|>"], ["_", "P", "_P"], ["sqlite3", "_", "sqlite3_"], ["PAG", "ER_", "PAGER_"], ["(int", ")", "(int)"], ["F", "I", "FI"], ["re", "g", "reg"], ["an", "ce", "ance"], ["E", "rr", "Err"], ["L", "EN", "LEN"], ["w", "or", "wor"], ["D", "I", "DI"], ["ig", "h", "igh"], ["ol", "d", "old"], ["un", "c", "unc"], ["ag", "er", "ager"], ["STAT", "E", "STATE"], ["l", "<|WB|>", "l<|WB|>"], ["si", "on", "sion"], ["on", "e", "one"], ["(", "<|WB|>", "(<|WB|>"], ["que", "ue", "queue"], ["de", "x", "dex"], ["m", "in", "min"], ["s", "te", "ste"], ["(", "const<|WB|>", "(const<|WB|>"], ["CO", "MP", "COMP"], ["j", "ournal", "journal"], ["----", "----", "--------"], ["c", "reen", "creen"], ["u", "re", "ure"], ["S", "et", "Set"], ["C", "_", "C_"], ["ct", "x", "ctx"], ["s", "k", "sk"], ["2", "0", "20"], ["strea", "m", "stream"], ["Z", "IP", "ZIP"], ["(", "f", "(f"], ["re", "d", "red"], ["po", "int", "point"], ["he", "ck", "heck"], ["s", "[i", "s[i"], ["F", "lag", "Flag"], ["E", "x", "Ex"], ["D", "O", "DO"], ["m", "ar", "mar"], ["(", "n", "(n"], ["v", "f", "vf"], ["ate", "<|WB|>", "ate<|WB|>"], ["mat", "ch", "match"], ["FL", "AG", "FLAG"], ["LI", "ST_", "LIST_"], [".", "n", ".n"], ["i", "d<|WB|>", "id<|WB|>"], ["N", "ex", "Nex"], ["_", "B", "_B"], ["t", "y", "ty"], ["ca", "che", "cache"], ["o", "s", "os"], ["at", "tr", "attr"], ["h", "v", "hv"], ["p", "ager", "pager"], ["opt", "s->", "opts->"], ["ex", "p", "exp"], ["T", "H", "TH"], ["S", "ave", "Save"], ["o", "f", "of"], ["g", "h", "gh"], ["WR", "IT", "WRIT"], ["ce", "s", "ces"], ["sc", "reen", "screen"], ["S", "<|WB|>", "S<|WB|>"], ["r", "u", "ru"], ["cur", "win", "curwin"], ["sd", "s", "sds"], ["p", "ath", "path"], ["ER", "R", "ERR"], ["Z", "E", "ZE"], ["(", "t", "(t"], ["COMP", "RE", "COMPRE"], ["star", "t", "start"], ["en", "t<|WB|>", "ent<|WB|>"], ["l", "in", "lin"], ["c", "t_", "ct_"], [".h", "\"<|WB|>", ".h\"<|WB|>"], ["sqlite3", "Vdbe", "sqlite3Vdbe"], ["Id", "x", "Idx"], ["a", "uto", "auto"], ["ac", "tive", "active"], ["s", "ub", "sub"], ["'", ",<|WB|>", "',<|WB|>"], ["Size", "<|WB|>", "Size<|WB|>"], ["l", "an", "lan"], ["e", "d", "ed"], ["lo", "se", "lose"], [")", ")", "))"], ["ME", "M_", "MEM_"], ["in", "it", "init"], ["[", "P", "[P"], ["le", "<|WB|>", "le<|WB|>"], ["te", "x", "tex"], ["IN", "T", "INT"], ["->", "t", "->t"], ["->", "ev", "->ev"], ["i", "se", "ise"], ["a", "in", "ain"], ["sig", "ne", "signe"], ["_", "u", "_u"], ["1", "2", "12"], ["g", "_", "g_"], ["E", "X", "EX"], ["(p", "Bt", "(pBt"], ["0", ")<|WB|>", "0)<|WB|>"], ["size", "<|WB|>", "size<|WB|>"], ["b", "tree", "btree"], ["H", "dr", "Hdr"], ["op", "en", "open"], ["lo", "ng", "long"], ["*", "<|WB|>", "*<|WB|>"], ["c", "l", "cl"], ["1", ",<|WB|>", "1,<|WB|>"], ["V", "E_", "VE_"], ["m", "er", "mer"], ["l", "d", "ld"], ["L", "E_", "LE_"], ["ay", "lo", "aylo"], ["th", "e", "the"], ["o", "<|WB|>", "o<|WB|>"], ["w", "h", "wh"], ["T", "Y", "TY"], ["_", "t<|WB|>", "_t<|WB|>"], ["J", "ournal", "Journal"], ["ch", "ange", "change"], ["Op", "en", "Open"], [".", "p", ".p"], ["tion", "<|WB|>", "tion<|WB|>"], ["_", "char", "_char"], ["g", "i", "gi"], ["flag", "s<|WB|>", "flags<|WB|>"], ["(", "s", "(s"], ["po", "si", "posi"], ["m", "alloc", "malloc"], ["W", "rite", "Write"], ["j", "e", "je"], ["it", "h", "ith"], ["he", "ad", "head"], ["yn", "c", "ync"], ["I", "s", "Is"], ["K", "_", "K_"], ["In", "fo", "Info"], ["lu", "a", "lua"], ["O", "_", "O_"], ["new", "_", "new_"], ["o", "b", "ob"], ["r", "<|WB|>", "r<|WB|>"], ["in", "ser", "inser"], ["able", "<|WB|>", "able<|WB|>"], ["(", "a", "(a"], ["R", "oo", "Roo"], ["NU", "LL", "NULL"], ["d", ");<|WB|>", "d);<|WB|>"], ["N", "ame", "Name"], ["te", "n", "ten"], ["th", "read", "thread"], ["->", "b", "->b"], ["D", "E_", "DE_"], ["G", "E", "GE"], ["cur", "l", "curl"], ["B", "u", "Bu"], ["re", "c", "rec"], ["ce", "ll", "cell"], ["(", "e", "(e"], ["sk", "ip", "skip"], ["at", "ch", "atch"], ["O", "ut", "Out"], ["ME", "M", "MEM"], ["F", "F", "FF"], ["S", "e", "Se"], ["str", "ing", "string"], ["(", "h", "(h"], ["ra", "y", "ray"], ["p", "la", "pla"], ["m", "d", "md"], ["un", "signe", "unsigne"], ["P", "aylo", "Paylo"], ["l", "num", "lnum"], ["le", "ase", "lease"], ["or", "<|WB|>", "or<|WB|>"], ["a", "che", "ache"], ["un", "k", "unk"], ["(", "char", "(char"], ["I", "node", "Inode"], ["ce", "<|WB|>", "ce<|WB|>"], ["p", "er", "per"], ["or", "t", "ort"], ["m", "b", "mb"], ["in", "ter", "inter"], ["g", "th", "gth"], ["[", "2", "[2"], ["e", "d<|WB|>", "ed<|WB|>"], ["te", "d<|WB|>", "ted<|WB|>"], ["4", "<|WB|>", "4<|WB|>"], ["P", "ro", "Pro"], ["B", "U", "BU"], ["(p", "C", "(pC"], ["_b", "ranch", "_branch"], ["S", "creen", "Screen"], ["File", ".", "File."], ["1", "0", "10"], ["pe", "c", "pec"], ["3", "<|WB|>", "3<|WB|>"], ["M", "ap", "Map"], ["N", "AL", "NAL"], ["x", "d", "xd"], ["se", "t<|WB|>", "set<|WB|>"], ["Co", "mp", "Comp"], ["i", "ter", "iter"], ["P", "tr", "Ptr"], ["1", ")<|WB|>", "1)<|WB|>"], ["I", "D", "ID"], ["s", ":<|WB|>", "s:<|WB|>"], ["]", ")<|WB|>", "])<|WB|>"], ["memc", "py", "memcpy"], ["ro", "m", "rom"], ["W", "al", "Wal"], ["L", "en", "Len"], ["A", "d", "Ad"], ["S", "p", "Sp"], ["and", "le", "andle"], ["printf(", "\"", "printf(\""], ["id", "th", "idth"], ["do", "_", "do_"], ["r", "[P", "r[P"], ["i", "t<|WB|>", "it<|WB|>"], ["A", "r", "Ar"], ["po", "s", "pos"], ["s", "y", "sy"], ["CH", "E", "CHE"], ["id", "x", "idx"], ["_", "time", "_time"], ["curre", "n", "curren"], ["all", "back", "allback"], ["la", "st", "last"], ["U", "P", "UP"], ["len", ");<|WB|>", "len);<|WB|>"], ["Off", "set", "Offset"], ["\"", ",", "\","], ["U", "T", "UT"], ["p", "File", "pFile"], ["->i", "o", "->io"], ["up", "date", "update"], ["?", "<|WB|>", "?<|WB|>"], ["S", "up", "Sup"], ["ol", "d_", "old_"], ["O", "UR", "OUR"], ["curwin", "->", "curwin->"], ["====", "====", "========"], ["w", "e", "we"], ["g", "u", "gu"], ["g", "<|WB|>", "g<|WB|>"], ["i", "e", "ie"], ["unsigne", "d<|WB|>", "unsigned<|WB|>"], ["l", ",<|WB|>", "l,<|WB|>"], [")", "))<|WB|>", ")))<|WB|>"], ["V", "E", "VE"], ["_in", "fo", "_info"], [">", "0<|WB|>", ">0<|WB|>"], ["F", "i", "Fi"], ["mem", "set", "memset"], ["ff", "ff", "ffff"], ["Save", "point", "Savepoint"], ["A", "I", "AI"], ["sp", "ace", "space"], ["as", "k", "ask"], ["%", "s", "%s"], ["********", "********", "****************"], ["R", "ow", "Row"], ["o", "t", "ot"], ["c", "t<|WB|>", "ct<|WB|>"], ["b", "er", "ber"], ["_S", "I", "_SI"], ["EN", "D", "END"], ["_", "RE", "_RE"], ["col", "<|WB|>", "col<|WB|>"], ["2", ")<|WB|>", "2)<|WB|>"], ["re", "ate", "reate"], ["ap", "p", "app"], ["us", "able", "usable"], ["->a", "Data", "->aData"], ["_f", "ile", "_file"], ["->", "z", "->z"], ["a", "1", "a1"], ["uv_", "_", "uv__"], ["a", "st", "ast"], ["lo", "b", "lob"], ["ute", "x", "utex"], ["o", "ver", "over"], ["2", "5", "25"], ["nex", "t", "next"], ["x", "y", "xy"], ["(", "b", "(b"], ["er", "o", "ero"], ["off", "set", "offset"], ["i", "t_", "it_"], ["Sh", "are", "Share"], ["ation", "<|WB|>", "ation<|WB|>"], ["C", "ol", "Col"], ["mar", "k", "mark"], ["p", "at", "pat"], ["(void", ")<|WB|>", "(void)<|WB|>"], ["len", ";<|WB|>", "len;<|WB|>"], ["buf", ",<|WB|>", "buf,<|WB|>"], ["O", "RE", "ORE"], ["zip", "list", "ziplist"], ["l", "ru", "lru"], ["w", "ar", "war"], ["to", "t", "tot"], ["fi", "ll", "fill"], ["ho", "st", "host"], ["C", "heck", "Check"], ["K", "E", "KE"], ["_t", "o", "_to"], ["sh", "a1", "sha1"], ["f", "a", "fa"], ["p", "rev", "prev"], ["n", "on", "non"], ["it", "y", "ity"], ["te", "mp", "temp"], ["ST", "R", "STR"], ["'", ":<|WB|>", "':<|WB|>"], ["C", "ache", "Cache"], ["==", "SQLITE_", "==SQLITE_"], ["li", "m", "lim"], ["ad", "d", "add"], ["Re", "ad", "Read"], ["2", ",<|WB|>", "2,<|WB|>"], ["C", "A", "CA"], ["Re", "f", "Ref"], ["L", "A", "LA"], ["B", "A", "BA"], [")", "==0<|WB|>", ")==0<|WB|>"], ["pCur", "->", "pCur->"], ["sp", "at", "spat"], ["p", ",<|WB|>", "p,<|WB|>"], ["un", "d", "und"], ["0", ",<|WB|>", "0,<|WB|>"], ["(", "size", "(size"], ["_", "de", "_de"], ["vf", "l", "vfl"], ["(p", "tr", "(ptr"], ["compres", "s", "compress"], ["2", "4", "24"], ["ter", "<|WB|>", "ter<|WB|>"], ["H", "e", "He"], ["t", "able", "table"], ["[0", "]<|WB|>", "[0]<|WB|>"], ["EV", "EN", "EVEN"], ["o", "id", "oid"], ["I", "G", "IG"], ["T", "r", "Tr"], ["ve", "<|WB|>", "ve<|WB|>"], ["in", ",<|WB|>", "in,<|WB|>"], ["r", "ag", "rag"], ["(", "int<|WB|>", "(int<|WB|>"], ["->p", "Bt", "->pBt"], ["Db", "Page", "DbPage"], ["Pager", "<|WB|>", "Pager<|WB|>"], ["a", "d<|WB|>", "ad<|WB|>"], ["r", "ame", "rame"], ["ct", "or", "ctor"], ["op", "tion", "option"], ["co", "d", "cod"], ["Mo", "de", "Mode"], ["Sup", "er", "Super"], ["00", "00", "0000"], ["P", "_", "P_"], ["AC", "E", "ACE"], ["*", "z", "*z"], ["OP", "EN", "OPEN"], ["curl", "x_", "curlx_"], ["S", "tr", "Str"], ["len", "ame", "lename"], ["C", "<|WB|>", "C<|WB|>"], ["c", "mp", "cmp"], ["in", "c", "inc"], ["(", ").<|WB|>", "().<|WB|>"], ["lin", "k", "link"], ["curren", "t_", "current_"], ["\"", ".<|WB|>", "\".<|WB|>"], ["ck", "et", "cket"], ["M", "et", "Met"], ["UN", "D", "UND"], ["->p", "gno", "->pgno"], ["J", "OUR", "JOUR"], ["JOUR", "NAL", "JOURNAL"], ["en", "d_", "end_"], ["pla", "ce", "place"], ["coun", "t<|WB|>", "count<|WB|>"], ["t", "x", "tx"], ["MO", "DE_", "MODE_"], ["Shm", "Node", "ShmNode"], ["st", "o", "sto"], ["are", "nt", "arent"], ["[", "]<|WB|>", "[]<|WB|>"], ["&", "p", "&p"], ["T", "(", "T("], ["S", "E_", "SE_"], ["tr", "l_", "trl_"], ["vi", "m_", "vim_"], ["O", "K", "OK"], ["node", "->", "node->"], ["c", "nt", "cnt"], ["i", "s_", "is_"], ["3", ")<|WB|>", "3)<|WB|>"], ["ing", ".<|WB|>", "ing.<|WB|>"], ["f", "d", "fd"], ["(", "d", "(d"], ["_f", "a", "_fa"], ["Paylo", "ad", "Payload"], ["'", "s<|WB|>", "'s<|WB|>"], ["s", "w", "sw"], ["a", "e", "ae"], ["f", "low", "flow"], ["--", ";<|WB|>", "--;<|WB|>"], ["[0", "]", "[0]"], ["ST", "ORE", "STORE"], ["s", "pec", "spec"], ["5", "<|WB|>", "5<|WB|>"], ["la", "y", "lay"], ["t", "m", "tm"], ["c", "lear", "clear"], ["p", "p", "pp"], ["T", "o", "To"], ["\\n", "\",<|WB|>", "\\n\",<|WB|>"], ["val", "id", "valid"], ["(", "unsigned<|WB|>", "(unsigned<|WB|>"], ["_", "no", "_no"], ["r", "->io", "r->io"], ["r->io", ".", "r->io."], ["CUR", "LU", "CURLU"], ["1", ".", "1."], ["i", "<|WB|>", "i<|WB|>"], ["\"", ")<|WB|>", "\")<|WB|>"], ["(", "x", "(x"], ["MAX", "_", "MAX_"], ["wor", "k", "work"], ["s", "che", "sche"], ["e", "mp", "emp"], ["ur", "l", "url"], ["St", "ate", "State"], ["_t", ")", "_t)"], ["star", "t_", "start_"], ["TY", "P", "TYP"], ["(p", "Page", "(pPage"], ["A", "_", "A_"], ["a", "<|WB|>", "a<|WB|>"], ["tr", "an", "tran"], ["(#", "3", "(#3"], ["g", "er", "ger"], ["C", "HA", "CHA"], ["al", "_", "al_"], ["new", "_branch", "new_branch"], ["Sp", "ace", "Space"], ["I", "S", "IS"], ["comm", "it", "commit"], ["M", "D", "MD"], ["N", "G", "NG"], ["OP", "_S", "OP_S"], ["1", "1", "11"], ["lo", "g", "log"], ["i", "o", "io"], ["len", ",<|WB|>", "len,<|WB|>"], ["Val", "ue", "Value"], ["U", "L", "UL"], ["_", "(\"", "_(\""], ["In", "t", "Int"], ["En", "try", "Entry"], ["p", "In", "pIn"], ["O", "ld", "Old"], ["(", "ev", "(ev"], ["Y", "<|WB|>", "Y<|WB|>"], ["len", "(", "len("], ["%", "d", "%d"], ["c", "_", "c_"], ["flag", "s", "flags"], ["RE", "E_", "REE_"], ["byte", "(&", "byte(&"], ["se", "t_", "set_"], ["curwin->", "w_", "curwin->w_"], ["Screen", "Line", "ScreenLine"], ["(", "quicklist", "(quicklist"], ["DO", "STORE", "DOSTORE"], ["DOSTORE", "STATE", "DOSTORESTATE"], ["ma", "in", "main"], ["co", "r", "cor"], ["tex", "t", "text"], ["err", "or", "error"], ["ul", "t", "ult"], ["8", "<|WB|>", "8<|WB|>"], ["in", "dex", "index"], ["Lo", "op", "Loop"], ["_S", "E", "_SE"], ["r", "_", "r_"], ["E", "D", "ED"], ["V", "_", "V_"], ["ri", "o", "rio"], ["f", "in", "fin"], ["re", "<|WB|>", "re<|WB|>"], ["se", "<|WB|>", "se<|WB|>"], ["a", "v", "av"], ["S", "ER", "SER"], ["OR", "E_", "ORE_"], ["\"", "),<|WB|>", "\"),<|WB|>"], ["D", "B", "DB"], ["op", "up", "opup"], ["O", "ver", "Over"], ["um", "n", "umn"], ["w", "idth", "width"], ["Y", "_", "Y_"], ["S", "S_", "SS_"], ["(", "is", "(is"], ["a", "Mem", "aMem"], ["Y", "N", "YN"], ["(", "base", "(base"], ["(pPager", "->", "(pPager->"], ["5", ")<|WB|>", "5)<|WB|>"], ["9", ")<|WB|>", "9)<|WB|>"], ["O", "n", "On"], ["ar", "ray", "array"], ["LOCK", "<|WB|>", "LOCK<|WB|>"], ["F", "d", "Fd"], ["T", "able", "Table"], ["B", "yte", "Byte"], ["TYP", "E_", "TYPE_"], ["w", "r", "wr"], ["ul", "ti", "ulti"], ["[", "n", "[n"], ["ite", "m_", "item_"], ["Roo", "t", "Root"], ["(p", "Cur", "(pCur"], ["p", "Pg", "pPg"], ["w", "p->", "wp->"], ["slab", "s_", "slabs_"], ["de", "<|WB|>", "de<|WB|>"], ["do", "w", "dow"], ["T", "ab", "Tab"], ["y", ",<|WB|>", "y,<|WB|>"], ["or", "m", "orm"], ["O", "M", "OM"], ["HA", "VE_", "HAVE_"], ["A", "F", "AF"], ["IN", "T_", "INT_"], ["SQLITE_", "IO", "SQLITE_IO"], ["R", "_", "R_"], ["cur", "buf", "curbuf"], ["int", "set", "intset"], ["q", "l", "ql"], ["(i", "hv", "(ihv"], ["8", ")<|WB|>", "8)<|WB|>"], ["6", ")<|WB|>", "6)<|WB|>"], ["d", "u", "du"], ["posi", "t", "posit"], ["L", "e", "Le"], ["Page", "<|WB|>", "Page<|WB|>"], ["H", "E", "HE"], ["b", "ranch", "branch"], ["EVEN", "T_", "EVENT_"], ["p", "gno", "pgno"], ["\\", "\"", "\\\""], ["A", "T_", "AT_"], ["(", "Pager<|WB|>", "(Pager<|WB|>"], ["a", "mp", "amp"], ["(", "di", "(di"], ["->", "u", "->u"], ["->h", "t_", "->ht_"], ["_", "col", "_col"], ["F", "rame", "Frame"], ["re", "compress", "recompress"], ["COMPRE", "SS", "COMPRESS"], ["p", "u", "pu"], ["ing", ",<|WB|>", "ing,<|WB|>"], ["ce", "p", "cep"], ["CO", "N", "CON"], ["il", "d", "ild"], ["in", "put", "input"], ["posit", "ory", "pository"], ["z", "malloc", "zmalloc"], ["ute", "x_", "utex_"], ["pBt", "->p", "pBt->p"], ["SHA1", "_ST", "SHA1_ST"], ["SHA1_ST", "ORE_", "SHA1_STORE_"], ["SHA1_STORE_", "STATE", "SHA1_STORE_STATE"], ["SHA1", "_RE", "SHA1_RE"], ["SHA1_RE", "COMPRESS", "SHA1_RECOMPRESS"], ["sha1", "recompress", "sha1recompress"], ["sha1recompress", "_fa", "sha1recompress_fa"], ["sha1recompress_fa", "st_", "sha1recompress_fast_"], ["b", "o", "bo"], ["i", "ll", "ill"], ["(#", "4", "(#4"], ["ate", "d<|WB|>", "ated<|WB|>"], ["at", "or", "ator"], ["de", "bu", "debu"], ["h", "as", "has"], ["len", "gth", "length"], ["al", "ize", "alize"], ["the", "_re", "the_re"], ["the_re", "pository", "the_repository"], ["(p", ",<|WB|>", "(p,<|WB|>"], ["s", "r", "sr"], ["SI", "ZE", "SIZE"], ["AR", "CH", "ARCH"], ["SHA1_STORE_STATE", "(", "SHA1_STORE_STATE("], ["SHA1_RECOMPRESS", "(", "SHA1_RECOMPRESS("], ["(ihv", "in,<|WB|>", "(ihvin,<|WB|>"], ["4", ")<|WB|>", "4)<|WB|>"], ["t", "a", "ta"], ["c", ",<|WB|>", "c,<|WB|>"], ["our", "ce", "ource"], ["o", "k", "ok"], ["cod", "ing", "coding"], ["len", ")<|WB|>", "len)<|WB|>"], ["O", "s", "Os"], ["RO", "UND", "ROUND"], ["no", "w", "now"], ["all", "y<|WB|>", "ally<|WB|>"], ["re", "d<|WB|>", "red<|WB|>"], ["\\n", "\");<|WB|>", "\\n\");<|WB|>"], ["->p", "rev", "->prev"], ["_m", "utex_", "_mutex_"], ["_free", "(", "_free("], ["->", "e", "->e"], ["St", "at", "Stat"], ["->n", "Cell", "->nCell"], ["event_", "base", "event_base"], ["-", "0", "-0"], ["7", ")<|WB|>", "7)<|WB|>"], ["9", "9", "99"], ["or", "ig", "orig"], ["S", "y", "Sy"], ["0", ";<|WB|>", "0;<|WB|>"], ["\"", ";<|WB|>", "\";<|WB|>"], ["s[i", "].", "s[i]."], ["free", "(", "free("], ["ite", "m", "item"], ["h", "andle", "handle"], ["U", "SE", "USE"], ["_", "C", "_C"], ["UN", "I", "UNI"], ["_f", "or", "_for"], ["O", "vfl", "Ovfl"], ["op", "code", "opcode"], ["V", "ER", "VER"], ["ZIP", "LIST_", "ZIPLIST_"], ["line", "<|WB|>", "line<|WB|>"], ["non", "-", "non-"], ["di", "ff", "diff"], ["P", "O", "PO"], ["Bu", "f", "Buf"], ["tr", "a", "tra"], ["P", "RO", "PRO"], ["P", "END", "PEND"], ["ti", "l_", "til_"], ["(pPager", "->p", "(pPager->p"], ["M", "a", "Ma"], ["(#", "2", "(#2"], ["e", "p", "ep"], ["je", "ct", "ject"], ["_", "mode", "_mode"], ["L", "ist", "List"], ["Q", "U", "QU"], ["Pg", "no", "Pgno"], ["M", "utex", "Mutex"], ["i", "<", "i<"], ["BT", "REE_", "BTREE_"], ["[", "pOp->p", "[pOp->p"], ["P", "rev", "Prev"], ["buff", "er", "buffer"], ["mer", "ge", "merge"], ["ter", "m", "term"], ["oo", "k", "ook"], ["File", "<|WB|>", "File<|WB|>"], ["comm", "on", "common"], ["T", "AI", "TAI"], ["IT", "E", "ITE"], ["[", "h", "[h"], ["P", "arent", "Parent"], ["F", "E", "FE"], ["screen", "_", "screen_"], ["(z", "l", "(zl"], ["con", "fi", "confi"], ["a", "m", "am"], ["i", "ti", "iti"], ["Nex", "t", "Next"], ["O", "ri", "Ori"], ["Share", "d", "Shared"], ["tot", "al", "total"], ["if", "be", "ifbe"], ["re", "q", "req"], ["e", "<|WB|>", "e<|WB|>"], ["ch", "<|WB|>", "ch<|WB|>"], ["L", "ast", "Last"], ["vo", "id<|WB|>", "void<|WB|>"], ["p", "i", "pi"], ["re", "n", "ren"], ["s", "n", "sn"], ["g", "ra", "gra"], ["De", "lete", "Delete"], ["A", "l", "Al"], ["UNI", "X", "UNIX"], [")", "!=0<|WB|>", ")!=0<|WB|>"], ["Over", "flow", "Overflow"], ["_ST", "EP", "_STEP"], ["spat", "s[", "spats["], ["sche", "me", "scheme"], ["num", "ber", "number"], ["c", "lose", "close"], ["ser", "ve", "serve"], ["c", "al", "cal"], ["->", "flags<|WB|>", "->flags<|WB|>"], ["_f", "lag", "_flag"], ["HA", "SH", "HASH"], ["'", ")<|WB|>", "')<|WB|>"], ["AL", "LO", "ALLO"], ["Bt", "Cursor", "BtCursor"], ["_", "size", "_size"], [")", "(", ")("], ["la", "st_", "last_"], ["File", "Lock", "FileLock"], ["COMPRE", "SS_", "COMPRESS_"], ["on", "<|WB|>", "on<|WB|>"], ["e", "s<|WB|>", "es<|WB|>"], ["se", "n", "sen"], ["fi", "r", "fir"], ["g", "r", "gr"], ["sto", "re", "store"], [".", "t", ".t"], ["m", "y", "my"], ["'", ".<|WB|>", "'.<|WB|>"], ["A", "t", "At"], ["i", "me", "ime"], ["D", "i", "Di"], ["D", "AT", "DAT"], ["re", "alloc", "realloc"], ["(", "key", "(key"], ["re", "t", "ret"], ["se", "le", "sele"], ["pro", "xy", "proxy"], ["s", "ync", "sync"], ["co", "py", "copy"], ["re", "place", "replace"], ["s", "\",<|WB|>", "s\",<|WB|>"], ["(", "new", "(new"], ["_", "F", "_F"], ["((", "\"", "((\""], ["sqlite3", "Os", "sqlite3Os"], ["con", "ch", "conch"], ["an", "<|WB|>", "an<|WB|>"], ["curre", "nt", "current"], ["en", "<|WB|>", "en<|WB|>"], ["Co", "mm", "Comm"], ["ar", "<|WB|>", "ar<|WB|>"], ["lo", "op", "loop"], ["m", "x", "mx"], ["U", "p", "Up"], ["[", "4", "[4"], ["0", ");<|WB|>", "0);<|WB|>"], ["P", "RE", "PRE"], ["u", "int", "uint"], ["bu", "cket", "bucket"], ["A", "SS", "ASS"], ["N", "ull", "Null"], ["M", "IN", "MIN"], ["6", "<|WB|>", "6<|WB|>"], ["g", "o", "go"], ["I", "f", "If"], ["p", "ri", "pri"], ["ro", "ll", "roll"], ["d", "s<|WB|>", "ds<|WB|>"], ["t", "ail", "tail"], ["L", ",<|WB|>", "L,<|WB|>"], ["s", "ource", "source"], ["In", "ser", "Inser"], ["*", "/", "*/"], ["Err", "or", "Error"], ["c", "r", "cr"], ["2", ");<|WB|>", "2);<|WB|>"], ["[i", "]<|WB|>", "[i]<|WB|>"], ["I", "ter", "Iter"], ["event", "Loop", "eventLoop"], ["T", "ran", "Tran"], ["WRIT", "E", "WRITE"], ["Mo", "ve", "Move"], [".", "i", ".i"], ["O", "U", "OU"], ["check", "out_", "checkout_"], ["V", "I", "VI"], ["MD", "5", "MD5"], ["SE", "ARCH", "SEARCH"], ["state", "->", "state->"], ["L", "<|WB|>", "L<|WB|>"], ["1", "4", "14"], ["wh", "ile", "while"], ["r", "un", "run"], ["e", "c", "ec"], ["s", "/", "s/"], ["<", "<", "<<"], [".h", "><|WB|>", ".h><|WB|>"], ["(", "sizeof(", "(sizeof("], ["HE", "AD", "HEAD"], ["p", "_", "p_"], ["DE", "F", "DEF"], ["Btree", "<|WB|>", "Btree<|WB|>"], ["==", "1<|WB|>", "==1<|WB|>"], ["Val", "id", "Valid"], ["->", "x", "->x"], ["sqlite3", "_file", "sqlite3_file"], ["(p", "File", "(pFile"], ["_p", "tr", "_ptr"], ["he", "l", "hel"], ["ig", "no", "igno"], ["al", "i", "ali"], ["H", "O", "HO"], ["t", "y<|WB|>", "ty<|WB|>"], ["%", "u", "%u"], ["ob", "ject", "object"], ["p", ")<|WB|>", "p)<|WB|>"], ["Met", "ho", "Metho"], ["N", "T", "NT"], ["'", ";<|WB|>", "';<|WB|>"], ["_SI", "ZE", "_SIZE"], ["TR", "ACE", "TRACE"], ["No", "t", "Not"], [">=", "0<|WB|>", ">=0<|WB|>"], ["_", "stat", "_stat"], ["--------", "--------", "----------------"], ["_c", "b", "_cb"], ["ev", "cb", "evcb"], ["s", "u", "su"], ["-", "2", "-2"], ["c", "md", "cmd"], ["1", "8", "18"], ["t", "s<|WB|>", "ts<|WB|>"], ["nex", "t_", "next_"], ["v", "ar", "var"], ["nex", "t<|WB|>", "next<|WB|>"], ["S", "P", "SP"], ["par", "se", "parse"], ["V", "AL", "VAL"], ["s", "ac", "sac"], ["Ori", "g", "Orig"], ["TI", "ME", "TIME"], ["Re", "c", "Rec"], ["ON", "L", "ONL"], ["Fi", "lename", "Filename"], ["De", "st", "Dest"], ["char", "*)", "char*)"], ["[", "3", "[3"], ["(", "db", "(db"], ["U", "LL", "ULL"], ["lru", "_", "lru_"], ["8", ",", "8,"], ["pC", "tx", "pCtx"], ["con", "n", "conn"], ["sqlite3Vdbe", "Mem", "sqlite3VdbeMem"], ["7", "<|WB|>", "7<|WB|>"], ["sh", "ow", "show"], ["sw", "it", "swit"], ["j", "u", "ju"], ["p", "h", "ph"], ["se", "con", "secon"], ["er", ",<|WB|>", "er,<|WB|>"], ["li", "c", "lic"], ["P", "o", "Po"], ["v", "ent", "vent"], ["In", "it", "Init"], ["C", "T_", "CT_"], ["e", "Lock", "eLock"], ["info", ".n", "info.n"], ["se", "ek", "seek"], ["->t", "m_", "->tm_"], ["long", ")", "long)"], ["ev", "->ev", "ev->ev"], ["ct", "l", "ctl"], ["Cur", "l_", "Curl_"], ["if(", "!", "if(!"], ["pC", "->", "pC->"], ["xd", "f", "xdf"], ["1", "9", "19"], ["er", "s<|WB|>", "ers<|WB|>"], ["st", "op", "stop"], ["te", "nt", "tent"], ["c", "an", "can"], ["1", ";<|WB|>", "1;<|WB|>"], ["z", "ero", "zero"], ["(", "))<|WB|>", "())<|WB|>"], ["[1", "]<|WB|>", "[1]<|WB|>"], ["(", "the_repository", "(the_repository"], ["Flag", "s<|WB|>", "Flags<|WB|>"], ["save", "d_", "saved_"], ["C", "trl_", "Ctrl_"], ["po", "s.", "pos."], ["ASS", "ER", "ASSER"], ["U", "V_", "UV_"], ["JOURNAL", "MODE_", "JOURNALMODE_"], ["pOp->p", "4", "pOp->p4"], ["f", "e", "fe"], ["s", "s<|WB|>", "ss<|WB|>"], ["in", "<|WB|>", "in<|WB|>"], ["5", "3", "53"], ["i", "mp", "imp"], ["f", "<|WB|>", "f<|WB|>"], ["AT", "H", "ATH"], ["si", "b", "sib"], ["c", "li", "cli"], ["name", "<|WB|>", "name<|WB|>"], ["s", "s", "ss"], ["p", "c", "pc"], ["(", "),<|WB|>", "(),<|WB|>"], ["c", "allback", "callback"], ["IN", "IT", "INIT"], ["hash", "_", "hash_"], ["he", "x", "hex"], ["comm", "it_", "commit_"], ["->n", "ame", "->name"], ["_", "base", "_base"], ["F", "ind", "Find"], ["==", "PAGER_", "==PAGER_"], ["Comp", "are", "Compare"], ["CHA", "R", "CHAR"], ["curbuf", "->b", "curbuf->b"], ["set", "t", "sett"], ["t", "t", "tt"], ["th", "<|WB|>", "th<|WB|>"], ["er", "y", "ery"], ["1", "00", "100"], ["inser", "t", "insert"], ["lock", "_", "lock_"], ["line", "_", "line_"], ["ad", "d_", "add_"], ["1", ");<|WB|>", "1);<|WB|>"], ["memc", "mp", "memcmp"], ["U", "SE_", "USE_"], ["C", "T", "CT"], ["(p", "Pg", "(pPg"], ["C", "lose", "Close"], ["L", "im", "Lim"], ["rev", "32", "rev32"], ["event_", "debu", "event_debu"], ["EV", "LIST_", "EVLIST_"], ["8,", "8,", "8,8,"], ["sd", "sc", "sdsc"], ["a", "Op", "aOp"], ["de", "d<|WB|>", "ded<|WB|>"], ["m", "ent<|WB|>", "ment<|WB|>"], ["(", "P", "(P"], ["\"", "\\", "\"\\"], ["LE", "TE", "LETE"], ["A", "ME", "AME"], ["N", "E", "NE"], ["AL", "<|WB|>", "AL<|WB|>"], ["S", "OR", "SOR"], ["EX", "C", "EXC"], ["pCur", "->p", "pCur->p"], ["64", ")", "64)"], ["(u", "8", "(u8"], ["O", "FF", "OFF"], ["F", "rom", "From"], ["F", "ULL", "FULL"], ["ch", "unk", "chunk"], ["e", "ek", "eek"], ["se", "d<|WB|>", "sed<|WB|>"], ["i", "sh", "ish"], ["K", "e", "Ke"], ["/", "/", "//"], ["d", "ay", "day"], ["name", ",<|WB|>", "name,<|WB|>"], ["he", "ap", "heap"], ["an", "et", "anet"], ["m", "t", "mt"], ["ise", "ct_", "isect_"], ["d", "_f", "d_f"], ["V", "f", "Vf"], ["F", "C", "FC"], ["Y", "TE", "YTE"], ["S", "YN", "SYN"], ["New", "[i", "New[i"], ["OP", "FLAG", "OPFLAG"], ["EN", "TR", "ENTR"], ["FE", "AT_", "FEAT_"], ["cursor", "_", "cursor_"], ["_time", "out", "_timeout"], ["p", "Inode", "pInode"], ["!", "<|WB|>", "!<|WB|>"], ["e", "le", "ele"], ["m", "ulti", "multi"], ["He", "ad", "Head"], ["f", "ull", "full"], ["..", ".", "..."], ["F", "or", "For"], ["re", "nt", "rent"], ["ter", "n", "tern"], ["ac", "u", "acu"], ["str", "n", "strn"], ["TAI", "L", "TAIL"], ["_in", "ser", "_inser"], ["C", "E", "CE"], ["get", "4", "get4"], ["a", "Data", "aData"], ["S", "K", "SK"], ["BA", "CK", "BACK"], ["p", "New", "pNew"], ["_", "h", "_h"], ["new_branch", "_info", "new_branch_info"], ["m", "l_", "ml_"], ["_p", "_", "_p_"], ["zip", "map", "zipmap"], ["LU", "A_", "LUA_"], ["ScreenLine", "s", "ScreenLines"], ["Re", "lease", "Release"], ["se", "l", "sel"], ["de", "lete", "delete"], ["r", ",<|WB|>", "r,<|WB|>"], ["s", "a", "sa"], ["In", "put", "Input"], ["V", "er", "Ver"], ["te", "ger", "teger"], ["t", "v", "tv"], ["buf", "_", "buf_"], ["BU", "G", "BUG"], ["\"", "%", "\"%"], ["[i", "].", "[i]."], ["p", "Mem", "pMem"], ["e", "State", "eState"], ["SQLITE_IO", "ERR", "SQLITE_IOERR"], ["FLAG", "S_", "FLAGS_"], ["Un", "lock", "Unlock"], ["H", "D", "HD"], ["char", "_", "char_"], ["rev32", "ifbe", "rev32ifbe"], ["OP_S", "eek", "OP_Seek"], ["lim", "it", "limit"], ["de", "p", "dep"], ["c", "lu", "clu"], ["b", "it", "bit"], ["use", "d", "used"], ["Ke", "y<|WB|>", "Key<|WB|>"], ["y", "e", "ye"], ["ar", "ge", "arge"], ["acu", "um", "acuum"], ["z", "l", "zl"], ["T", ";<|WB|>", "T;<|WB|>"], [",", "&", ",&"], ["l", "c", "lc"], ["L", "IN", "LIN"], ["CUR", "SOR", "CURSOR"], ["(", "*p", "(*p"], ["x", "x", "xx"], ["==", "OP_", "==OP_"], ["f", "ind", "find"], ["con", "t", "cont"], ["fi", "x", "fix"], ["re", "p", "rep"], ["li", "gh", "ligh"], ["for", "ce", "force"], ["do", "m", "dom"], ["m", "an", "man"], [".", "c", ".c"], ["Co", "un", "Coun"], ["Up", "date", "Update"], ["B", "e", "Be"], ["gu", "age", "guage"], ["I", "o", "Io"], ["f", "y", "fy"], ["DE", "LETE", "DELETE"], ["In", "dex", "Index"], ["(p", ");<|WB|>", "(p);<|WB|>"], ["che", "ma", "chema"], ["BtCursor", "<|WB|>", "BtCursor<|WB|>"], ["MA", "P_", "MAP_"], ["P", "AR", "PAR"], ["+", "n", "+n"], ["age", "Size", "ageSize"], ["p", "->n", "p->n"], ["stream", "->", "stream->"], ["F", "pos", "Fpos"], ["Fpos", "Map", "FposMap"], ["th", "er", "ther"], ["sett", "ing", "setting"], ["m", "on", "mon"], ["ure", "<|WB|>", "ure<|WB|>"], ["igno", "re", "ignore"], ["g", "ro", "gro"], ["re", "ct", "rect"], ["swit", "ch", "switch"], ["en", "er", "ener"], ["M", "B", "MB"], ["i", "fi", "ifi"], ["list", "<|WB|>", "list<|WB|>"], ["a", "w", "aw"], ["St", "ar", "Star"], ["f", "rag", "frag"], ["2", ";<|WB|>", "2;<|WB|>"], ["C", "reate", "Create"], ["defined(", "__", "defined(__"], ["ITE", "M_", "ITEM_"], ["ter", "m_", "term_"], ["_S", "HA", "_SHA"], ["PAG", "E", "PAGE"], ["SHA", "RE", "SHARE"], ["->", "db", "->db"], ["PEND", "ING", "PENDING"], ["SQLITE_", "OPEN", "SQLITE_OPEN"], ["_", "s", "_s"], ["wp->", "w_", "wp->w_"], ["Re", "gi", "Regi"], ["pPager", "->p", "pPager->p"], ["pPager->", "db", "pPager->db"], ["a", "ct", "act"], ["re", "lease", "release"], ["en", "d<|WB|>", "end<|WB|>"], ["de", "x<|WB|>", "dex<|WB|>"], ["c", ")<|WB|>", "c)<|WB|>"], ["n", "orm", "norm"], ["for", "mat", "format"], ["b", ".", "b."], ["P", "ar", "Par"], ["*", "s", "*s"], ["[", "j", "[j"], ["T", "ER", "TER"], [")", "==", ")=="], ["->p", "DbPage", "->pDbPage"], ["MA", "SK", "MASK"], ["(", "sqlite3_", "(sqlite3_"], ["_t", "ree", "_tree"], ["str", "(", "str("], ["size", "_", "size_"], ["comp", "l_", "compl_"], ["lnum", "<|WB|>", "lnum<|WB|>"], ["R", "U", "RU"], ["_", "attr", "_attr"], ["g", "g", "gg"], ["c", "tion", "ction"], ["at", "ing<|WB|>", "ating<|WB|>"], ["+", "1<|WB|>", "+1<|WB|>"], ["vi", "r", "vir"], ["in", "k", "ink"], ["L", "an", "Lan"], ["mem", "ory", "memory"], ["A", "V", "AV"], ["d", "yn", "dyn"], ["Len", "gth", "Length"], ["_in", "it", "_init"], ["(", "'", "('"], ["d", "\",<|WB|>", "d\",<|WB|>"], ["te", "d_", "ted_"], ["db", "->n", "db->n"], ["(p", "In", "(pIn"], ["k", "en", "ken"], ["L", "RU", "LRU"], ["ctx", "->", "ctx->"], ["r->io.", "conn", "r->io.conn"], ["ZIP", "_", "ZIP_"], ["3", ",<|WB|>", "3,<|WB|>"], ["A", "ll", "All"], ["sc", "roll", "scroll"], ["f", "g", "fg"], ["s", "af", "saf"], ["en", "tr", "entr"], ["N", "um", "Num"], ["en", "ter", "enter"], ["le", "ve", "leve"], ["size", ";<|WB|>", "size;<|WB|>"], ["f", "d,<|WB|>", "fd,<|WB|>"], ["FI", "LE_", "FILE_"], ["(void", ")", "(void)"], ["R", "R", "RR"], ["EXC", "LU", "EXCLU"], ["EXCLU", "SI", "EXCLUSI"], ["(u", "32", "(u32"], ["Z", "E_", "ZE_"], ["F", "OR", "FOR"], ["sqlite3", "P", "sqlite3P"], ["curwin->w_", "cursor", "curwin->w_cursor"], ["Ch", "ar", "Char"], ["(&", "base->", "(&base->"], ["ma", "x_", "max_"], ["ca", "st_", "cast_"], ["S", "D", "SD"], ["p", "ShmNode", "pShmNode"], ["pager", "_", "pager_"], ["LA", "SH", "LASH"], ["tr", "i", "tri"], ["h", "i", "hi"], ["A", "P", "AP"], ["o", "c", "oc"], ["t", ".<|WB|>", "t.<|WB|>"], ["di", "s", "dis"], ["t", "op", "top"], ["d", "up", "dup"], ["are", "n", "aren"], ["me", "th", "meth"], ["F", "in", "Fin"], ["ces", "s", "cess"], ["p", ");<|WB|>", "p);<|WB|>"], ["UN", "USE", "UNUSE"], ["A", "UL", "AUL"], ["buf", ");<|WB|>", "buf);<|WB|>"], ["CHE", "CK", "CHECK"], ["IT", "_", "IT_"], ["M", "alloc", "Malloc"], ["S", "chema", "Schema"], ["p", "->p", "p->p"], ["pPage", "->", "pPage->"], ["0x", "0", "0x0"], ["sqlite3_file", "<|WB|>", "sqlite3_file<|WB|>"], ["C", "LE", "CLE"], ["d", "->ht_", "d->ht_"], ["col", ";<|WB|>", "col;<|WB|>"], ["lan", "g", "lang"], ["VI", "M_", "VIM_"], ["========", "========", "================"], ["D", "ir", "Dir"], ["pPager->", "journal", "pPager->journal"], ["Col", "umn", "Column"], ["|", "MEM_", "|MEM_"], ["Re", "al", "Real"], ["c", "i", "ci"], ["mode", "<|WB|>", "mode<|WB|>"], ["ca", "se", "case"], ["ou", "t<|WB|>", "out<|WB|>"], ["O", "S", "OS"], ["s", "yn", "syn"], ["T", "ra", "Tra"], ["A", "pp", "App"], ["s", "um", "sum"], ["m", "ask", "mask"], ["g", "it", "git"], ["ut", "f", "utf"], ["_", "arg", "_arg"], ["Ar", "ray", "Array"], ["sac", "tion", "saction"], ["size", ");<|WB|>", "size);<|WB|>"], [".t", "v_", ".tv_"], ["O", "L", "OL"], ["ad", "dr", "addr"], [")", "->", ")->"], ["_f", "in", "_fin"], ["AB", "LE_", "ABLE_"], ["ON", "_", "ON_"], ["_ST", "AT", "_STAT"], ["BT", "C", "BTC"], ["BTC", "F_", "BTCF_"], ["->", "usable", "->usable"], ["O", "UT", "OUT"], ["p", "X", "pX"], ["AC", "TI", "ACTI"], ["_S", "H", "_SH"], ["H", "L_", "HL_"], ["sc", "all", "scall"], ["WRIT", "ER_", "WRITER_"], ["r[P", "1", "r[P1"], ["confi", "g", "config"], ["s", "up", "sup"], ["for", "m", "form"], ["op", "er", "oper"], ["A", "n", "An"], ["g", "oo", "goo"], ["Ar", "g", "Arg"], ["S", "C", "SC"], ["i", "al", "ial"], ["(char", "<|WB|>", "(char<|WB|>"], ["C", "lear", "Clear"], ["X", "_", "X_"], ["er", "_", "er_"], ["F", "IN", "FIN"], ["(", "_(\"", "(_(\""], ["U", "C", "UC"], ["sqlite3", "_mutex_", "sqlite3_mutex_"], ["FC", "NT", "FCNT"], ["CLE", "AR", "CLEAR"], ["e", "d_", "ed_"], ["_", "d", "_d"], ["]", "=", "]="], ["(u", "v_", "(uv_"], ["h", "a", "ha"], ["a", "y<|WB|>", "ay<|WB|>"], ["u", "ser", "user"], ["f", "li", "fli"], ["(#", "5", "(#5"], ["e", "ren", "eren"], ["U", "se", "Use"], ["4", "8", "48"], ["de", "code", "decode"], ["X", "<|WB|>", "X<|WB|>"], ["y", ".<|WB|>", "y.<|WB|>"], ["v", "<|WB|>", "v<|WB|>"], ["T", ",<|WB|>", "T,<|WB|>"], ["en", "coding", "encoding"], ["E", "vent", "Event"], ["str", "cmp", "strcmp"], ["sn", "printf(", "snprintf("], ["(i", "ter", "(iter"], ["N", "D", "ND"], ["in", "_", "in_"], ["\\", "0", "\\0"], ["\"", "--", "\"--"], ["\\n", "\"<|WB|>", "\\n\"<|WB|>"], ["->p", "Pager", "->pPager"], ["Z", "E<|WB|>", "ZE<|WB|>"], ["_", "T<|WB|>", "_T<|WB|>"], ["msg", "_", "msg_"], ["_char", "<|WB|>", "_char<|WB|>"], ["j", "v_", "jv_"], ["uc", ".", "uc."], ["uc.", "pCur", "uc.pCur"], ["uc.pCur", "sor", "uc.pCursor"], ["ff", "init", "ffinit"], ["sion", "<|WB|>", "sion<|WB|>"], ["t", "ing<|WB|>", "ting<|WB|>"], ["gu", "i", "gui"], ["en", "c", "enc"], ["or", "d", "ord"], ["time", "<|WB|>", "time<|WB|>"], ["ac", "ter", "acter"], ["ac", "cep", "accep"], ["ook", "mark", "ookmark"], ["g", "res", "gres"], ["ch", "r", "chr"], ["2", "]<|WB|>", "2]<|WB|>"], ["|", "<|WB|>", "|<|WB|>"], ["A", "c", "Ac"], ["p", "opup", "popup"], [":", "//", "://"], ["Str", "ing", "String"], ["lock", "<|WB|>", "lock<|WB|>"], ["di", "r", "dir"], ["p", ";<|WB|>", "p;<|WB|>"], ["are", "a", "area"], ["ck", "e", "cke"], ["DEF", "AUL", "DEFAUL"], ["P", "TR", "PTR"], ["mem", "move", "memmove"], ["SQLITE_OPEN", "_", "SQLITE_OPEN_"], ["(pPager", ",<|WB|>", "(pPager,<|WB|>"], ["dict", "Get", "dictGet"], ["LO", "NG", "LONG"], ["_p", "at", "_pat"], ["lock", "ing", "locking"], ["u", "til_", "util_"], ["EV", "U", "EVU"], ["EVU", "TI", "EVUTI"], ["EVUTI", "L_", "EVUTIL_"], ["R", "D", "RD"], ["sdsc", "at", "sdscat"], ["w", "i", "wi"], ["h", "igh", "high"], ["di", "sp", "disp"], ["3", "3", "33"], ["le", "d<|WB|>", "led<|WB|>"], ["c", "al<|WB|>", "cal<|WB|>"], ["po", "s<|WB|>", "pos<|WB|>"], ["sc", "ri", "scri"], ["fir", "st", "first"], ["dow", "n", "down"], ["d", ":<|WB|>", "d:<|WB|>"], ["L", "-", "L-"], ["le", "ad", "lead"], ["B", "<|WB|>", "B<|WB|>"], ["si", "ve", "sive"], ["P", "G", "PG"], ["b", "al", "bal"], ["di", "e", "die"], ["T", "ime", "Time"], ["sp", "li", "spli"], ["st", "ack", "stack"], ["setting", "s.", "settings."], ["U", "E", "UE"], ["(", "void<|WB|>", "(void<|WB|>"], ["s[", "0", "s[0"], ["W", "A", "WA"], ["size", ",<|WB|>", "size,<|WB|>"], ["ONL", "Y", "ONLY"], ["DE", "BUG", "DEBUG"], ["Z", "ero", "Zero"], ["i", "Cell", "iCell"], ["C", "TR", "CTR"], ["Sy", "scall", "Syscall"], ["Path", ",<|WB|>", "Path,<|WB|>"], ["pCtx", "->", "pCtx->"], ["[", "off", "[off"], ["reg", "match", "regmatch"], ["mi", "b", "mib"], ["te", "<|WB|>", "te<|WB|>"], ["Ch", "ange", "Change"], ["M", "<|WB|>", "M<|WB|>"], ["b", "<|WB|>", "b<|WB|>"], ["le", "an", "lean"], ["R", "o", "Ro"], ["le", "f", "lef"], ["5", "6", "56"], ["u", "sh", "ush"], ["cl", "as", "clas"], ["0", "2", "02"], ["AB", "LE", "ABLE"], ["di", "git", "digit"], ["St", "ack", "Stack"], ["_to", "_", "_to_"], ["W", "AR", "WAR"], ["r", "n", "rn"], ["emp", "ty", "empty"], ["/", "*", "/*"], ["T", "E_", "TE_"], ["p", "Cell", "pCell"], ["(u32", ")", "(u32)"], ["unc", "ate", "uncate"], ["to", "_", "to_"], ["write", "_", "write_"], ["(", "opts->", "(opts->"], ["al", "l_", "all_"], ["event_base", "_", "event_base_"], ["cl", "si", "clsi"], ["(", "t,<|WB|>", "(t,<|WB|>"], ["curlx_", "dyn", "curlx_dyn"], ["sqlite3P", "cache", "sqlite3Pcache"], ["line", "FposMap", "lineFposMap"], ["(", "File.", "(File."], ["ctx", "->i", "ctx->i"], ["ctx->i", "hv", "ctx->ihv"], ["j", "q", "jq"], ["pIn", "1", "pIn1"], ["at", "<|WB|>", "at<|WB|>"], ["a", "i", "ai"], ["in", "pu", "inpu"], ["6", "0", "60"], ["ste", "m", "stem"], ["S", "ub", "Sub"], ["lu", "sh", "lush"], ["(", "m", "(m"], ["IN", "SER", "INSER"], ["F", "unc", "Func"], ["-", "1<|WB|>", "-1<|WB|>"], ["KE", "EP", "KEEP"], ["str", "len", "strlen"], [",", "NULL", ",NULL"], ["DEFAUL", "T_", "DEFAULT_"], ["_re", "f", "_ref"], ["off", "set<|WB|>", "offset<|WB|>"], ["r", "int", "rint"], ["p", "Lock", "pLock"], ["(", "Btree<|WB|>", "(Btree<|WB|>"], [")", "+", ")+"], ["(", "w", "(w"], ["I", "C", "IC"], ["S", "ync", "Sync"], ["F", "S", "FS"], ["Comm", "it", "Commit"], ["Tr", "unk", "Trunk"], ["pC", "heck", "pCheck"], ["_", "NO", "_NO"], ["I", "S_", "IS_"], ["red", "raw", "redraw"], ["int", "rev32ifbe", "intrev32ifbe"], ["total", "s.", "totals."], ["pFile", "->", "pFile->"], ["(", "sqlite3_file<|WB|>", "(sqlite3_file<|WB|>"], ["P", "4", "P4"], ["rea", "k", "reak"], ["x", ",<|WB|>", "x,<|WB|>"], ["}", "<|WB|>", "}<|WB|>"], ["c", "reate", "create"], ["c", "m", "cm"], ["ri", "gh", "righ"], ["li", "ke", "like"], ["bu", "mp", "bump"], ["p", "as", "pas"], ["le", "r", "ler"], ["o", "m", "om"], ["u", "t<|WB|>", "ut<|WB|>"], ["fo", "o", "foo"], ["sh", "are", "share"], ["se", "nt", "sent"], ["loc", "al", "local"], ["as", "k<|WB|>", "ask<|WB|>"], ["qu", "ery", "query"], ["++", ")<|WB|>", "++)<|WB|>"], ["t", "mp", "tmp"], ["N", "ON", "NON"], [".", "f", ".f"], [",", "\"", ",\""], ["p", "thread", "pthread"], ["void", ")<|WB|>", "void)<|WB|>"], ["I", "SE", "ISE"], ["ALLO", "C_", "ALLOC_"], ["CO", "RR", "CORR"], ["CORR", "UP", "CORRUP"], ["QU", "I", "QUI"], ["Size", ";<|WB|>", "Size;<|WB|>"], ["Re", "serve", "Reserve"], ["SQLITE_", "FCNT", "SQLITE_FCNT"], ["OU", "T_", "OUT_"], ["->p", "ath", "->path"], ["->", "type", "->type"], ["(di", "ct<|WB|>", "(dict<|WB|>"], ["ENTR", "Y", "ENTRY"], ["ra", "w_", "raw_"], ["(", "base->", "(base->"], ["F", "M", "FM"], ["_t", "*<|WB|>", "_t*<|WB|>"], ["PRO", "X", "PROX"], ["mm", "ap", "mmap"], ["a", "Syscall", "aSyscall"], ["of", "st", "ofst"], ["MEM", "_S", "MEM_S"], ["opcode", "==OP_", "opcode==OP_"], ["or", "g", "org"], ["du", "le", "dule"], ["te", "st", "test"], ["vi", "m", "vim"], ["do", "t", "dot"], ["]", ".<|WB|>", "].<|WB|>"], ["P", "er", "Per"], [")", ":<|WB|>", "):<|WB|>"], ["we", "igh", "weigh"], ["row", "<|WB|>", "row<|WB|>"], ["R", "A", "RA"], ["meth", "o", "metho"], ["s", "ol", "sol"], ["i", "on", "ion"], ["c", "raw", "craw"], ["c", ";<|WB|>", "c;<|WB|>"], ["iter", "->", "iter->"], ["size", ")<|WB|>", "size)<|WB|>"], ["C", "LO", "CLO"], ["ve", "c", "vec"], ["TE", "ST", "TEST"], ["V", "acuum", "Vacuum"], ["SHARE", "D_", "SHARED_"], ["F", "ir", "Fir"], ["flags", "&", "flags&"], ["(", "BtCursor<|WB|>", "(BtCursor<|WB|>"], ["Po", "si", "Posi"], ["Key", "Info", "KeyInfo"], ["TRACE", "((\"", "TRACE((\""], ["S", "rc", "Src"], ["n", "Cell", "nCell"], ["i", "Free", "iFree"], ["memcpy", "(&", "memcpy(&"], ["Lim", "it", "Limit"], ["n", "New", "nNew"], ["opt", "s", "opts"], ["(", "v", "(v"], ["CO", "L", "COL"], ["_no", "ti", "_noti"], ["ri", "o<|WB|>", "rio<|WB|>"], ["(", "ngx_", "(ngx_"], ["_S", "creen", "_Screen"], ["HASH", "C", "HASHC"], ["HASHC", "LASH", "HASHCLASH"], ["HASHCLASH", "_SHA", "HASHCLASH_SHA"], ["HASHCLASH_SHA", "1", "HASHCLASH_SHA1"], ["HASHCLASH_SHA1", "COMPRESS_", "HASHCLASH_SHA1COMPRESS_"], ["HASHCLASH_SHA1COMPRESS_", "ROUND", "HASHCLASH_SHA1COMPRESS_ROUND"], ["->", "uc.pCursor", "->uc.pCursor"], ["ation", "s<|WB|>", "ations<|WB|>"], ["i", "ou", "iou"], ["h", "int", "hint"], ["comp", "lete", "complete"], ["age", "<|WB|>", "age<|WB|>"], ["ke", "y<|WB|>", "key<|WB|>"], ["i", "c<|WB|>", "ic<|WB|>"], ["w", "o", "wo"], ["c", "all", "call"], ["tt", "p", "ttp"], ["g", "in", "gin"], ["Bu", "ff", "Buff"], ["con", "ne", "conne"], ["sig", "n", "sign"], ["le", "af", "leaf"], ["char", "<|WB|>", "char<|WB|>"], ["Metho", "d", "Method"], [",", "sizeof(", ",sizeof("], ["memset", "(&", "memset(&"], ["_flag", "s<|WB|>", "_flags<|WB|>"], ["T", ")<|WB|>", "T)<|WB|>"], ["_", "un", "_un"], ["H", "ash", "Hash"], ["buf", "[", "buf["], ["->", "object", "->object"], ["buf", ".", "buf."], ["\"", "));<|WB|>", "\"));<|WB|>"], ["Se", "ek", "Seek"], ["*)", "p", "*)p"], ["0", "==", "0=="], ["(", ")", "()"], ["sqlite3", "Wal", "sqlite3Wal"], [")", "!=", ")!="], ["Off", "set<|WB|>", "Offset<|WB|>"], ["+", "2", "+2"], ["T", "mp", "Tmp"], ["[2", "]<|WB|>", "[2]<|WB|>"], ["P", "3", "P3"], ["(", "d,<|WB|>", "(d,<|WB|>"], ["_", "MAX", "_MAX"], ["(size", "_t)", "(size_t)"], ["ev", "ic", "evic"], ["item", "stat", "itemstat"], ["s[", "off", "s[off"], ["].", "p", "].p"], ["sh", "o", "sho"], ["tion", "s<|WB|>", "tions<|WB|>"], ["u", "s<|WB|>", "us<|WB|>"], ["it", "y<|WB|>", "ity<|WB|>"], ["4", "0", "40"], ["b", "ad", "bad"], ["6", "5", "65"], ["p", "ack", "pack"], ["n", "ull", "null"], ["st", "ance", "stance"], ["p", "t", "pt"], ["En", "d", "End"], ["pro", "ces", "proces"], ["gra", "m", "gram"], ["ag", "ic", "agic"], ["P", "re", "Pre"], ["ran", "ge", "range"], ["st", "amp", "stamp"], ["ind", "ent", "indent"], ["ER", "<|WB|>", "ER<|WB|>"], ["in", "iti", "initi"], ["nex", "t;<|WB|>", "next;<|WB|>"], ["arg", "v", "argv"], ["name", ");<|WB|>", "name);<|WB|>"], ["->t", "ail", "->tail"], ["mp", "ty", "mpty"], ["(a", "e", "(ae"], ["ERR", "OR", "ERROR"], ["_in", "ter", "_inter"], ["_p", "ro", "_pro"], ["y", "_", "y_"], ["(", "it", "(it"], ["[i", "];<|WB|>", "[i];<|WB|>"], ["'", ");<|WB|>", "');<|WB|>"], ["M", "M", "MM"], ["SQLITE_", "OM", "SQLITE_OM"], ["*", ",", "*,"], ["get4", "byte(&", "get4byte(&"], ["Lo", "cal", "Local"], [")", "));<|WB|>", ")));<|WB|>"], ["branch", "_info", "branch_info"], ["opt", "s.", "opts."], ["_", "l", "_l"], ["tm", "->tm_", "tm->tm_"], ["EV", "_", "EV_"], ["entry", ".", "entry."], ["Regi", "on", "Region"], ["->p", "Inode", "->pInode"], ["ffinit", "y", "ffinity"], ["ex", "ist", "exist"], ["y", "y", "yy"], ["er", ".<|WB|>", "er.<|WB|>"], ["-1", "]<|WB|>", "-1]<|WB|>"], ["T", "a", "Ta"], ["on", "ce", "once"], ["ly", ",<|WB|>", "ly,<|WB|>"], ["T", "C", "TC"], ["ation", ".<|WB|>", "ation.<|WB|>"], ["av", "ail", "avail"], ["qu", "o", "quo"], ["ation", ",<|WB|>", "ation,<|WB|>"], ["bal", "ance", "balance"], ["row", ",<|WB|>", "row,<|WB|>"], ["val", "<|WB|>", "val<|WB|>"], ["data", ",<|WB|>", "data,<|WB|>"], ["*/", "<|WB|>", "*/<|WB|>"], ["alloc", "ate", "allocate"], ["eventLoop", "->", "eventLoop->"], ["A", "E_", "AE_"], ["AL", "I", "ALI"], ["_p", "ath", "_path"], ["un", "lock", "unlock"], ["check", "_", "check_"], ["(", "Mem", "(Mem"], ["sqlite3Btree", "Cursor", "sqlite3BtreeCursor"], ["<", "0<|WB|>", "<0<|WB|>"], ["[", "p", "[p"], ["!", "defined(", "!defined("], ["et", "ch", "etch"], ["f", "rom", "from"], ["_w", "ith", "_with"], ["_t", "ype", "_type"], ["Re", "hash", "Rehash"], ["->", "key", "->key"], ["ins_", "compl_", "ins_compl_"], ["save", "_", "save_"], ["(char", "_u", "(char_u"], ["(base", ",<|WB|>", "(base,<|WB|>"], ["cur", "l_", "curl_"], ["B", "lob", "Blob"], ["do_", "item_", "do_item_"], ["strea", "m_", "stream_"], ["(", "unix", "(unix"], ["lua", "_", "lua_"], ["M", "TYPE_", "MTYPE_"], ["PAG", "ER", "PAGER"], ["_char", "s.", "_chars."], ["->u", ".i", "->u.i"], ["T", "h", "Th"], ["H", "int", "Hint"], ["Ma", "x", "Max"], ["c", "re", "cre"], ["mo", "di", "modi"], ["en", "able", "enable"], ["d", "-", "d-"], ["s", "lo", "slo"], ["sz", "<|WB|>", "sz<|WB|>"], ["ly", ".<|WB|>", "ly.<|WB|>"], ["8", "5", "85"], ["3", "0", "30"], ["id", ",<|WB|>", "id,<|WB|>"], ["po", "int<|WB|>", "point<|WB|>"], ["\"", ":", "\":"], ["a", "ir", "air"], ["4", ",<|WB|>", "4,<|WB|>"], ["f", "er", "fer"], ["out", "put", "output"], ["(", "1", "(1"], ["(", "l", "(l"], ["t", ")<|WB|>", "t)<|WB|>"], ["(", "re", "(re"], ["buf", "<|WB|>", "buf<|WB|>"], ["M", "S", "MS"], ["get", "2", "get2"], ["(", "SQLITE_", "(SQLITE_"], ["WRIT", "E<|WB|>", "WRITE<|WB|>"], ["Y", "TE_", "YTE_"], ["16", ")", "16)"], ["T", "emp", "Temp"], ["[0", "];<|WB|>", "[0];<|WB|>"], ["s", "Check", "sCheck"], ["update", "_", "update_"], ["F", "AL", "FAL"], ["CTR", "L-", "CTRL-"], ["TAIL", "Q", "TAILQ"], ["slabs_", "clsi", "slabs_clsi"], ["HA", "ND", "HAND"], ["NG", "X_", "NGX_"], ["(u", "_char<|WB|>", "(u_char<|WB|>"], ["_w", "idth", "_width"], ["AT", "OM", "ATOM"], ["->e", "FileLock", "->eFileLock"], ["(quicklist", "<|WB|>", "(quicklist<|WB|>"], ["mi", "o", "mio"], ["].", "pat", "].pat"], ["u", "->", "u->"], ["un", "d<|WB|>", "und<|WB|>"], ["1", "5", "15"], ["b", "in", "bin"], ["2", "2", "22"], ["gro", "up", "group"], ["star", "t<|WB|>", "start<|WB|>"], ["_", "con", "_con"], ["ter", "min", "termin"], ["9", "<|WB|>", "9<|WB|>"], ["te", "d.<|WB|>", "ted.<|WB|>"], ["O", "F", "OF"], ["sh", "ort", "short"], ["h", "ttp", "http"], ["OK", "<|WB|>", "OK<|WB|>"], ["str", "<|WB|>", "str<|WB|>"], ["64", "<|WB|>", "64<|WB|>"], ["el", "d", "eld"], ["S", "te", "Ste"], ["Path", "<|WB|>", "Path<|WB|>"], ["ran", "dom", "random"], ["(", "de", "(de"], ["do", "ub", "doub"], ["at", "ab", "atab"], ["atab", "ase", "atabase"], ["fa", "ile", "faile"], ["asser", "t", "assert"], ["-1", ")<|WB|>", "-1)<|WB|>"], ["E", "C", "EC"], ["NO", "_", "NO_"], ["I", "C_", "IC_"], ["sqlite3", "_free", "sqlite3_free"], ["B", "it", "Bit"], ["Paylo", "ad<|WB|>", "Payload<|WB|>"], ["data", "[", "data["], ["AV", "EP", "AVEP"], ["entry", ",<|WB|>", "entry,<|WB|>"], ["Hdr", "<|WB|>", "Hdr<|WB|>"], ["R", "aw", "Raw"], ["HD", "R_", "HDR_"], ["L", "AR", "LAR"], ["LEN", "G", "LENG"], ["T_", "C", "T_C"], ["entry", "->", "entry->"], ["size_", "exp", "size_exp"], ["curwin->w_cursor", ".", "curwin->w_cursor."], ["(", "L,<|WB|>", "(L,<|WB|>"], ["Pager", ".", "Pager."], ["s_", "char", "s_char"], ["(p", "Op", "(pOp"], ["V", "tab", "Vtab"], ["f", "old", "fold"], ["af", "ter", "after"], ["c", "um", "cum"], ["h", "<|WB|>", "h<|WB|>"], ["m", "en", "men"], ["A", "<|WB|>", "A<|WB|>"], ["g", "lob", "glob"], ["Head", "er", "Header"], ["1", "7", "17"], ["3", "7", "37"], ["mat", "che", "matche"], ["co", "m", "com"], ["secon", "d", "second"], ["ati", "ve", "ative"], ["x", "e", "xe"], ["ll", "<|WB|>", "ll<|WB|>"], ["con", "tent", "content"], ["e", "st", "est"], ["i", "li", "ili"], ["vir", "t", "virt"], ["ex", "tra", "extra"], ["sig", "nal", "signal"], ["Line", "<|WB|>", "Line<|WB|>"], ["Data", "<|WB|>", "Data<|WB|>"], ["FI", "LE", "FILE"], ["*)", "&", "*)&"], ["ti", "mer", "timer"], ["r", "up", "rup"], ["(", "err", "(err"], ["6", ",", "6,"], ["READ", "_", "READ_"], ["++", "<|WB|>", "++<|WB|>"], ["B", "ISE", "BISE"], ["check", "out", "checkout"], ["****************", "****************", "********************************"], ["Type", "==", "Type=="], ["Nex", "t<|WB|>", "Next<|WB|>"], ["rc", "==SQLITE_", "rc==SQLITE_"], ["IG", "H", "IGH"], ["0x", "8", "0x8"], ["B", "us", "Bus"], ["SQLITE_FCNT", "L_", "SQLITE_FCNTL_"], ["RE", "SER", "RESER"], ["He", "ap", "Heap"], ["re", "hash", "rehash"], ["di", "ct_", "dict_"], ["(u", "int", "(uint"], ["_ptr", "2", "_ptr2"], ["R", "E_", "RE_"], ["%s", "%s", "%s%s"], ["Err", "no", "Errno"], ["M", "ask", "Mask"], ["conch", "File", "conchFile"], ["_", "quicklist", "_quicklist"], ["lc", "s_char", "lcs_char"], ["pOp->p", "2", "pOp->p2"], ["aMem", "[pOp->p", "aMem[pOp->p"], ["P", "2", "P2"], ["r[P", "3", "r[P3"], ["p", "Frame", "pFrame"], ["r[P", "2", "r[P2"], ["f", "ul", "ful"], ["u", "gh", "ugh"], ["one", "<|WB|>", "one<|WB|>"], ["b", "reak", "break"], ["p", "or", "por"], ["p", "res", "pres"], ["p", "ort", "port"], ["fi", "lename", "filename"], ["t", "-", "t-"], ["in", "dex<|WB|>", "index<|WB|>"], ["f", "unc", "func"], ["G", "_", "G_"], ["D", ")<|WB|>", "D)<|WB|>"], ["s", "uc", "suc"], ["e", "sc", "esc"], ["O", "l", "Ol"], ["eren", "ce", "erence"], ["c", "ar", "car"], ["er", "ge", "erge"], ["s", "()<|WB|>", "s()<|WB|>"], ["c", "alloc", "calloc"], ["->", "next", "->next"], ["P", "L", "PL"], ["S", ")<|WB|>", "S)<|WB|>"], ["se", "c<|WB|>", "sec<|WB|>"], ["On", "ly", "Only"], ["->object", ".", "->object."], ["_", "n", "_n"], ["BT", "S_", "BTS_"], ["H", "as", "Has"], ["->", "ap", "->ap"], ["((", "int", "((int"], ["Ptr", "map", "Ptrmap"], ["MA", "P", "MAP"], ["[h", "dr", "[hdr"], ["]", "==", "]=="], ["n", "Byte", "nByte"], ["Bus", "y", "Busy"], ["RESER", "VE", "RESERVE"], ["(pPager", ");<|WB|>", "(pPager);<|WB|>"], ["p", "Parent", "pParent"], ["LENG", "TH", "LENGTH"], ["_", "name", "_name"], ["ch", "_", "ch_"], ["ti", "d", "tid"], ["(d", "->ht_", "(d->ht_"], ["]", "[", "]["], ["w", "_p_", "w_p_"], ["ST", "<|WB|>", "ST<|WB|>"], ["event_debu", "g_", "event_debug_"], ["uv__", "stream_", "uv__stream_"], ["MD5", "_", "MD5_"], ["L", "CK", "LCK"], ["pCur", "rent", "pCurrent"], ["type", "==", "type=="], ["SQLITE_IOERR", "_", "SQLITE_IOERR_"], ["p", "Fd", "pFd"], ["SH", "M_", "SHM_"], ["len", "+", "len+"], ["(", "rio<|WB|>", "(rio<|WB|>"], ["_p", "opup", "_popup"], ["SD", "S_", "SDS_"], ["pOp->p", "3", "pOp->p3"], ["pOp", "->", "pOp->"], ["j", "o", "jo"], ["op", "ti", "opti"], ["def", "a", "defa"], ["cont", "ain", "contain"], ["A", "b", "Ab"], ["en", "ti", "enti"], ["w", "ay", "way"], ["3", "8", "38"], ["N", "e", "Ne"], ["data", "<|WB|>", "data<|WB|>"], ["be", "fo", "befo"], ["ate", "r", "ater"], ["type", "<|WB|>", "type<|WB|>"], ["amp", "le", "ample"], ["\"", "/", "\"/"], ["st", ",<|WB|>", "st,<|WB|>"], ["Inser", "t", "Insert"], ["po", "w", "pow"], ["Lan", "guage", "Language"], ["or", "ter", "orter"], ["res", "ul", "resul"], ["de", "l", "del"], ["*", "f", "*f"], ["te", "d", "ted"], ["l", ".", "l."], ["M", "E_", "ME_"], ["cnt", "l", "cntl"], ["_C", "LO", "_CLO"], ["stat", "s_", "stats_"], ["coun", "t_", "count_"], ["ok", "up", "okup"], ["CO", "MM", "COMM"], ["release", "Page", "releasePage"], ["for", "(i", "for(i"], ["PENDING", "_B", "PENDING_B"], ["pPage", "->nCell", "pPage->nCell"], ["Re", "s", "Res"], ["Ch", "ild", "Child"], ["RO", "LL", "ROLL"], ["(p", "o", "(po"], ["[", "k", "[k"], ["App", "end", "Append"], ["n", "r_", "nr_"], ["app", "ly", "apply"], ["FAL", "SE", "FALSE"], ["*)", "\"", "*)\""], ["_p", "ut", "_put"], ["ASSER", "T(", "ASSERT("], [",", "7", ",7"], ["sy", "sc", "sysc"], ["sysc", "all_", "syscall_"], ["syscall_", "ptr", "syscall_ptr"], ["p", "Out", "pOut"], ["==PAGER_", "JOURNALMODE_", "==PAGER_JOURNALMODE_"], ["quicklist", "->", "quicklist->"], ["r->io.conn", ".", "r->io.conn."], ["AB", "_", "AB_"], ["B", "ranch", "Branch"], ["rea", "d<|WB|>", "read<|WB|>"], ["me", "<|WB|>", "me<|WB|>"], ["-", "<|WB|>", "-<|WB|>"], ["b", "le", "ble"], ["ke", "<|WB|>", "ke<|WB|>"], ["li", "mi", "limi"], ["st", "y", "sty"], ["ur", "n", "urn"], ["b", "y", "by"], ["F", "a", "Fa"], ["on", "g", "ong"], ["wr", "it", "writ"], ["p", "op", "pop"], ["Ad", "d", "Add"], ["u", "ff", "uff"], ["off", "<|WB|>", "off<|WB|>"], ["DI", "R", "DIR"], ["en", "code", "encode"], ["KE", "Y", "KEY"], ["[i", "]);<|WB|>", "[i]);<|WB|>"], ["2", "00", "200"], ["`", "<|WB|>", "`<|WB|>"], ["CA", "CHE", "CACHE"], ["0x", "ffff", "0xffff"], ["N", "_", "N_"], ["+1", ");<|WB|>", "+1);<|WB|>"], ["_", "option", "_option"], ["_P", "ATH", "_PATH"], ["DAT", "E_", "DATE_"], ["Tra", "ce", "Trace"], ["M", "sg", "Msg"], ["(pBt", ",<|WB|>", "(pBt,<|WB|>"], ["pCur", "->i", "pCur->i"], ["n", "Page", "nPage"], ["O", "VER", "OVER"], ["def", "rag", "defrag"], ["An", "d", "And"], ["->n", "Ref", "->nRef"], ["FI", "X", "FIX"], ["_p", "age", "_page"], ["PG", "HDR_", "PGHDR_"], ["mem", "_", "mem_"], ["old_", "branch_info", "old_branch_info"], ["um", "my", "ummy"], ["(", "dict", "(dict"], ["1", ",", "1,"], ["replace", "_", "replace_"], ["W", "IN", "WIN"], ["VIM_", "CLEAR", "VIM_CLEAR"], ["_m", "ap", "_map"], ["_m", "alloc", "_malloc"], [":", "\\n\");<|WB|>", ":\\n\");<|WB|>"], ["_t", "*)", "_t*)"], ["queue", "d_f", "queued_f"], ["UV_", "HAND", "UV_HAND"], ["UV_HAND", "LE_", "UV_HANDLE_"], ["lua", "H", "luaH"], ["(sqlite3_", "syscall_ptr", "(sqlite3_syscall_ptr"], ["(sqlite3_syscall_ptr", ")", "(sqlite3_syscall_ptr)"], ["(pPager->p", "Wal", "(pPager->pWal"], ["quicklist", "De", "quicklistDe"], ["l", "p", "lp"], ["inpu", "t_", "input_"], ["op", "ac", "opac"], ["SEARCH", "_", "SEARCH_"], ["p->", "ae", "p->ae"], ["pC", "x", "pCx"], ["comm", "and", "command"], ["use", "<|WB|>", "use<|WB|>"], ["wh", "ite", "white"], ["w", "he", "whe"], ["use", "d<|WB|>", "used<|WB|>"], ["ro", "bu", "robu"], ["P", "ATH", "PATH"], ["r", ")<|WB|>", "r)<|WB|>"], ["var", "i", "vari"], ["b", "ar", "bar"], ["re", "l", "rel"], ["ad", "v", "adv"], ["7", "6", "76"], ["0", ".", "0."], ["a", "le", "ale"], ["fi", "l", "fil"], ["space", "<|WB|>", "space<|WB|>"], ["tr", "ol", "trol"], ["r", "c<|WB|>", "rc<|WB|>"], ["b", "r", "br"], ["st", "or", "stor"], ["cor", "d", "cord"], ["skip", "pe", "skippe"], ["norm", "al", "normal"], ["v", "en", "ven"], ["u", "x", "ux"], ["s", "co", "sco"], ["dep", "th", "depth"], ["ist", "ic", "istic"], ["Ex", "p", "Exp"], ["(", "line", "(line"], ["po", "inter", "pointer"], ["in", "teger", "integer"], ["s[", "]<|WB|>", "s[]<|WB|>"], ["st", "age", "stage"], ["ali", "z", "aliz"], ["Nex", "t(", "Next("], ["le", "ep", "leep"], ["TC", "P_", "TCP_"], ["l", ";<|WB|>", "l;<|WB|>"], ["_", ")<|WB|>", "_)<|WB|>"], ["m", ");<|WB|>", "m);<|WB|>"], ["(p", "ath", "(path"], ["pthread", "_mutex_", "pthread_mutex_"], ["EN", "ABLE_", "ENABLE_"], ["count", ";<|WB|>", "count;<|WB|>"], ["-1", ");<|WB|>", "-1);<|WB|>"], ["t", ");<|WB|>", "t);<|WB|>"], ["gi", "t_", "git_"], ["++", "]<|WB|>", "++]<|WB|>"], ["SQLITE_OM", "IT_", "SQLITE_OMIT_"], ["Lock", "<|WB|>", "Lock<|WB|>"], ["CORRUP", "T_", "CORRUPT_"], ["C", "R", "CR"], ["C", "sr", "Csr"], ["(pBt", "->pPager", "(pBt->pPager"], ["[", "8", "[8"], ["->n", "Overflow", "->nOverflow"], ["pPage", "->aData", "pPage->aData"], ["ptr", "<|WB|>", "ptr<|WB|>"], ["H", "andle", "Handle"], ["clu", "sive", "clusive"], ["MEM", "OR", "MEMOR"], ["u", "8", "u8"], ["z", "Super", "zSuper"], ["pCur->p", "Page", "pCur->pPage"], ["(", "k", "(k"], ["(ptr", ",<|WB|>", "(ptr,<|WB|>"], ["ap", "New", "apNew"], ["work", "tree", "worktree"], ["OP", "T_", "OPT_"], ["'", "/", "'/"], ["_", "se", "_se"], ["assert(", "!", "assert(!"], ["TR", "UE", "TRUE"], ["ml_", "get_", "ml_get_"], ["_", "active", "_active"], ["u", "al_", "ual_"], ["'", "\\", "'\\"], ["_noti", "fy", "_notify"], ["_", "intset", "_intset"], ["En", "coding", "Encoding"], ["6,", "6,", "6,6,"], [",7", ",7", ",7,7"], ["unix", "File", "unixFile"], ["].", "pCurrent", "].pCurrent"], ["].pCurrent", ")<|WB|>", "].pCurrent)<|WB|>"], ["P", "Cache", "PCache"], ["pPager", "->n", "pPager->n"], ["At", "tr", "Attr"], ["opac", "ity", "opacity"], ["p->ae", "_u", "p->ae_u"], ["lcs_char", "s.", "lcs_chars."], ["CURLU", "E_", "CURLUE_"], ["Vdbe", "Branch", "VdbeBranch"], ["p", "Tab", "pTab"], ["xd", "l_", "xdl_"], ["zmalloc", "_", "zmalloc_"], ["w", "<|WB|>", "w<|WB|>"], ["o", "ther", "other"], ["tex", "t<|WB|>", "text<|WB|>"], ["m", "is", "mis"], ["all", "<|WB|>", "all<|WB|>"], ["f", "ail", "fail"], ["m", "id", "mid"], ["W", "ith", "With"], ["ate", "s<|WB|>", "ates<|WB|>"], ["Lo", "cal<|WB|>", "Local<|WB|>"], ["al", "low", "allow"], ["L", "i", "Li"], ["ma", "int", "maint"], ["ti", "c", "tic"], ["res", "ult", "result"], ["no", "-", "no-"], ["m", ",<|WB|>", "m,<|WB|>"], ["V", "ar", "Var"], ["7", "7", "77"], ["C", "allback", "Callback"], ["sh", "if", "shif"], ["re", "-", "re-"], ["l", "arge", "large"], ["M", "AT", "MAT"], ["v", "a", "va"], ["f", "r", "fr"], ["coun", "ter", "counter"], ["he", "ad<|WB|>", "head<|WB|>"], ["d", "ent", "dent"], ["hel", "lo", "hello"], ["str", "len(", "strlen("], ["doub", "le", "double"], ["TE", "X", "TEX"], ["-1", ";<|WB|>", "-1;<|WB|>"], ["comp", "ute", "compute"], ["while", "(", "while("], ["->", "next<|WB|>", "->next<|WB|>"], [")", "*", ")*"], ["->", "m", "->m"], ["D", ",<|WB|>", "D,<|WB|>"], ["L", ")<|WB|>", "L)<|WB|>"], ["->a", "i", "->ai"], ["\"", "-", "\"-"], ["LE", "F", "LEF"], ["byte", "<|WB|>", "byte<|WB|>"], ["Share", "d<|WB|>", "Shared<|WB|>"], ["Shared", "Cache", "SharedCache"], ["->", "flags&", "->flags&"], ["Tran", "saction", "Transaction"], ["in", "valid", "invalid"], ["SE", "T", "SET"], ["En", "d<|WB|>", "End<|WB|>"], ["0x", "7", "0x7"], ["o", "vfl", "ovfl"], ["memcpy", "(", "memcpy("], [")", "?", ")?"], ["*", "new", "*new"], ["p", "Db", "pDb"], ["0", ",", "0,"], ["F", "etch", "Fetch"], ["sz", "Cell", "szCell"], ["(p", "Out", "(pOut"], ["_f", "rom", "_from"], ["_m", "sg", "_msg"], ["d", "ummy", "dummy"], ["c", "trl_", "ctrl_"], ["di", "d_", "did_"], ["em", "sg", "emsg"], ["Re", "do", "Redo"], ["2", "cell", "2cell"], ["po", "s->", "pos->"], ["EV", "_CLO", "EV_CLO"], ["curl", "x", "curlx"], ["bump", "_", "bump_"], ["req", "->", "req->"], ["ip", "tr", "iptr"], ["->h", ",<|WB|>", "->h,<|WB|>"], ["Comp", "res", "Compres"], ["search", "_", "search_"], ["AF", "F_", "AFF_"], ["ser", "ial", "serial"], ["z", "m", "zm"], ["act", "y", "acty"], ["at", "or<|WB|>", "ator<|WB|>"], ["comp", "le", "comple"], ["h", "it", "hit"], ["re", "move", "remove"], ["lo", "s", "los"], ["32", "<|WB|>", "32<|WB|>"], ["3", "4", "34"], ["rev", "er", "rever"], ["le", "ment", "lement"], ["3", "5", "35"], ["3", "6", "36"], ["qu", "al", "qual"], ["F", "o", "Fo"], ["sele", "ct", "select"], ["d", "raw", "draw"], ["ne", "ed", "need"], ["spec", "ifi", "specifi"], ["I", "D<|WB|>", "ID<|WB|>"], ["state", "<|WB|>", "state<|WB|>"], ["node", "<|WB|>", "node<|WB|>"], ["b", ",<|WB|>", "b,<|WB|>"], ["ye", "ar", "year"], ["quo", "te", "quote"], ["f", "lo", "flo"], ["re", "sh", "resh"], ["te", "gr", "tegr"], ["saf", "e", "safe"], ["CO", "UN", "COUN"], ["z", "free(", "zfree("], ["so", "ck", "sock"], ["(f", "d,<|WB|>", "(fd,<|WB|>"], ["LOCK", ")<|WB|>", "LOCK)<|WB|>"], ["D", "ING", "DING"], ["N", "<|WB|>", "N<|WB|>"], ["as", "so", "asso"], ["(size", "_t<|WB|>", "(size_t<|WB|>"], ["-", "5", "-5"], ["FI", "R", "FIR"], ["read", "_", "read_"], ["_w", "ar", "_war"], ["A", "UT", "AUT"], ["CA", "CH", "CACH"], ["Fir", "st", "First"], ["t", "->", "t->"], ["SQLITE_", "ENABLE_", "SQLITE_ENABLE_"], ["->usable", "Size", "->usableSize"], ["+1", ";<|WB|>", "+1;<|WB|>"], ["(pBt", ")<|WB|>", "(pBt)<|WB|>"], ["PTR", "MAP_", "PTRMAP_"], ["Par", "se", "Parse"], ["(u", "16)", "(u16)"], ["AME", "TER", "AMETER"], ["Le", "af", "Leaf"], ["LO", "W", "LOW"], ["Ro", "ll", "Roll"], ["Roll", "back", "Rollback"], ["B", "YTE", "BYTE"], ["S", "AVEP", "SAVEP"], ["O", "ut<|WB|>", "Out<|WB|>"], ["U", "B", "UB"], ["_", "dict", "_dict"], ["tid", "x", "tidx"], ["Redo", "buff", "Redobuff"], ["col", ")<|WB|>", "col)<|WB|>"], ["_pat", "tern", "_pattern"], ["U", "S_", "US_"], ["ev", "util_", "evutil_"], ["as", "ync", "async"], ["FM", "T_", "FMT_"], ["8,8,", "8,8,", "8,8,8,8,"], ["(db", ",<|WB|>", "(db,<|WB|>"], ["PAGER_", "JOURNALMODE_", "PAGER_JOURNALMODE_"], ["lang", "Stack", "langStack"], ["se", "d_", "sed_"], ["Con", "n", "Conn"], ["sds", "new", "sdsnew"], ["_Screen", "Line", "_ScreenLine"], ["fill", "_chars.", "fill_chars."], ["jq", "_u", "jq_u"], ["jq_u", "til_", "jq_util_"], ["MEM_S", "tr", "MEM_Str"], ["(pC", "->uc.pCursor", "(pC->uc.pCursor"], ["ZIP_", "INT_", "ZIP_INT_"], ["an", "d<|WB|>", "and<|WB|>"], ["ste", "p", "step"], ["2", "9", "29"], ["w", "a", "wa"], ["ser", "ver", "server"], ["(", "g", "(g"], ["s", "pe", "spe"], ["in", "st", "inst"], ["8", "9", "89"], ["X", "D", "XD"], ["str", "i", "stri"], ["m", "il", "mil"], ["a", ",<|WB|>", "a,<|WB|>"], ["qui", "re", "quire"], ["Type", "<|WB|>", "Type<|WB|>"], ["an", "y", "any"], ["K", "<|WB|>", "K<|WB|>"], ["A", "uto", "Auto"], ["op", "<|WB|>", "op<|WB|>"], ["s", "ur", "sur"], ["sib", "le", "sible"], ["app", "end", "append"], ["b", "lock", "block"], ["und", "er", "under"], ["ON", "<|WB|>", "ON<|WB|>"], ["tion", ".<|WB|>", "tion.<|WB|>"], ["ca", "st", "cast"], ["(", "arg", "(arg"], ["[4", "]<|WB|>", "[4]<|WB|>"], ["c", "p", "cp"], ["byte", "s<|WB|>", "bytes<|WB|>"], ["in", "t_", "int_"], ["*", "b", "*b"], ["Iter", "ator", "Iterator"], ["TCP_", "KEEP", "TCP_KEEP"], ["id", ");<|WB|>", "id);<|WB|>"], ["(", "hash", "(hash"], ["an", "d_", "and_"], ["cke", "t_", "cket_"], ["str", "buf_", "strbuf_"], ["BISE", "CT_", "BISECT_"], ["str", ",<|WB|>", "str,<|WB|>"], ["set", "up", "setup"], ["_p", "ush", "_push"], ["BA", "SE_", "BASE_"], [")", "\",<|WB|>", ")\",<|WB|>"], ["TR", "AN", "TRAN"], ["2", "^", "2^"], ["AUT", "O", "AUTO"], ["Be", "gin", "Begin"], ["T", "AB", "TAB"], ["E", "D<|WB|>", "ED<|WB|>"], ["pBt", "->", "pBt->"], ["pCur->i", "Page", "pCur->iPage"], ["Key", ",<|WB|>", "Key,<|WB|>"], ["i", "Page", "iPage"], ["h", "dr", "hdr"], ["head", "er", "header"], ["db", "->a", "db->a"], ["M", "map", "Mmap"], ["SI", "ZE_", "SIZE_"], ["1", "->aData", "1->aData"], ["Met", "a", "Meta"], ["[3", "]<|WB|>", "[3]<|WB|>"], ["(pPager", ")<|WB|>", "(pPager)<|WB|>"], ["ROLL", "BACK", "ROLLBACK"], ["Save", "point<|WB|>", "Savepoint<|WB|>"], ["Is", "Valid", "IsValid"], ["[i", "]", "[i]"], ["_in", "dex", "_index"], ["C", "AT", "CAT"], ["maint", "ain", "maintain"], ["c", "fg", "cfg"], ["00", "0", "000"], ["time", "stamp", "timestamp"], ["match", "_", "match_"], ["DI", "C", "DIC"], ["DIC", "TH", "DICTH"], ["DICTH", "T_", "DICTHT_"], [",NULL", ");<|WB|>", ",NULL);<|WB|>"], ["len", "]<|WB|>", "len]<|WB|>"], ["TEST", "(\"", "TEST(\""], ["In", "s", "Ins"], ["ne", "ed_", "need_"], ["To", "Redobuff", "ToRedobuff"], ["(*", "mb", "(*mb"], ["(", "H", "(H"], ["event_debu", "g", "event_debug"], ["md", "5", "md5"], ["f", "s", "fs"], ["SQLITE_IO", "CA", "SQLITE_IOCA"], ["os", "F", "osF"], ["_mode", "=", "_mode="], ["Io", "Find", "IoFind"], ["I", "ST", "IST"], ["lock", "Pro", "lockPro"], ["q", "l,<|WB|>", "ql,<|WB|>"], ["ql", "->", "ql->"], ["Line", "Offset", "LineOffset"], [".c", "term", ".cterm"], ["regmatch", ".", "regmatch."], ["VdbeBranch", "Ta", "VdbeBranchTa"], ["VdbeBranchTa", "ken", "VdbeBranchTaken"], ["A", "ffinity", "Affinity"], ["w", "ith", "with"], ["g", "ue", "gue"], ["k", ",<|WB|>", "k,<|WB|>"], ["r", "ap", "rap"], ["en", "o", "eno"], ["di", "sc", "disc"], ["g", "ener", "gener"], ["ar", "y<|WB|>", "ary<|WB|>"], ["pi", "ck", "pick"], ["ex", "ec", "exec"], ["b", "lan", "blan"], ["G", "<|WB|>", "G<|WB|>"], ["s", "rc", "src"], ["W", "_", "W_"], ["pri", "or", "prior"], ["O", "ne", "One"], ["ow", "n", "own"], ["ge", "st", "gest"], ["z", "one", "zone"], ["col", "umn", "column"], ["1", "0000", "10000"], ["ba", "si", "basi"], ["stat", "u", "statu"], ["--", ")<|WB|>", "--)<|WB|>"], ["L", "ink", "Link"], ["->prev", "<|WB|>", "->prev<|WB|>"], ["r", ";<|WB|>", "r;<|WB|>"], ["host", "name", "hostname"], ["F", "O", "FO"], ["_", "lock", "_lock"], ["c", ");<|WB|>", "c);<|WB|>"], ["D", ";<|WB|>", "D;<|WB|>"], ["count", ");<|WB|>", "count);<|WB|>"], ["L", "AT", "LAT"], ["In", "cr", "Incr"], ["P", "T", "PT"], ["(p", "Mem", "(pMem"], ["LOCK", "_", "LOCK_"], ["CURSOR", "_", "CURSOR_"], ["(i", "64)", "(i64)"], ["R", "AN", "RAN"], ["put", "4", "put4"], ["-", "4", "-4"], ["A", "IN", "AIN"], ["LO", "B", "LOB"], ["_S", "YN", "_SYN"], ["P", "ER", "PER"], ["Name", ",<|WB|>", "Name,<|WB|>"], ["pCur->", "info.n", "pCur->info.n"], ["i", "New", "iNew"], ["p->", "ap", "p->ap"], ["->", "index", "->index"], ["d", "5", "d5"], ["d->ht_", "table", "d->ht_table"], ["(", "_", "(_"], ["TAILQ", "_", "TAILQ_"], ["LOCK", "ING", "LOCKING"], ["EVLIST_", "ACTI", "EVLIST_ACTI"], ["evic", "ted_", "evicted_"], ["Se", "ctor", "Sector"], ["UNIX", "_SH", "UNIX_SH"], ["UNIX_SH", "M_", "UNIX_SHM_"], ["j", "f", "jf"], ["sd", "s<|WB|>", "sds<|WB|>"], ["CHAR", "ST", "CHARST"], ["CHARST", "AB_", "CHARSTAB_"], ["CHARSTAB_", "ENTRY", "CHARSTAB_ENTRY"], ["slab", "clas", "slabclas"], ["p", "Rec", "pRec"], ["->u", ".", "->u."], ["(", "MEM_", "(MEM_"], ["raw", "len", "rawlen"], ["char*)", "\"", "char*)\""], ["a", "st<|WB|>", "ast<|WB|>"], ["al", ",<|WB|>", "al,<|WB|>"], ["igh", "t<|WB|>", "ight<|WB|>"], ["di", "rec", "direc"], ["ed", "it", "edit"], ["ie", "s<|WB|>", "ies<|WB|>"], ["ro", "m<|WB|>", "rom<|WB|>"], ["u", "<|WB|>", "u<|WB|>"], ["n", "t<|WB|>", "nt<|WB|>"], ["tr", "y<|WB|>", "try<|WB|>"], ["n", "ing", "ning"], ["sy", "stem", "system"], ["mo", "use", "mouse"], ["3", "9", "39"], ["cli", "ck", "click"], ["on", "ly", "only"], ["F", "<|WB|>", "F<|WB|>"], [",", "p", ",p"], ["ce", "s<|WB|>", "ces<|WB|>"], ["e", "d.<|WB|>", "ed.<|WB|>"], ["pe", "d<|WB|>", "ped<|WB|>"], ["no", "_", "no_"], ["ge", "x", "gex"], ["20", "18", "2018"], ["f", "t", "ft"], ["8", ",<|WB|>", "8,<|WB|>"], ["6", ",<|WB|>", "6,<|WB|>"], ["leve", "l", "level"], ["S", "O", "SO"], ["h", "um", "hum"], ["\"", "))<|WB|>", "\"))<|WB|>"], ["(i", "te", "(ite"], ["b", "isect_", "bisect_"], ["die", "(_(\"", "die(_(\""], ["*", "a", "*a"], ["_b", "isect_", "_bisect_"], ["In", "teger", "Integer"], ["_for", "mat", "_format"], ["F", "AI", "FAI"], ["RE", "G", "REG"], ["un", "link", "unlink"], ["M", "agic", "Magic"], ["Al", "loc", "Alloc"], ["Table", "Lock", "TableLock"], ["==", "0)<|WB|>", "==0)<|WB|>"], ["al", "lo", "allo"], ["M", "EN", "MEN"], ["Y", "S", "YS"], ["(u8", ")", "(u8)"], ["e", "Type", "eType"], ["+", "sz", "+sz"], ["GE", "T_", "GET_"], [">", "1<|WB|>", ">1<|WB|>"], ["BU", "S", "BUS"], [">", ">", ">>"], ["Tr", "uncate", "Truncate"], ["J", "rn", "Jrn"], ["fin", "alize", "finalize"], ["(p", "New", "(pNew"], ["p", "Dest", "pDest"], ["->n", "Mem", "->nMem"], ["%", "ll", "%ll"], ["VER", "SI", "VERSI"], ["C", "E_", "CE_"], ["po", "s,<|WB|>", "pos,<|WB|>"], ["_p", "ar", "_par"], ["(", "date", "(date"], ["_f", "unc", "_func"], ["buf", ",", "buf,"], ["(d->ht_", "size_exp", "(d->ht_size_exp"], ["k", "v", "kv"], ["_SI", "ZE<|WB|>", "_SIZE<|WB|>"], ["defined(", "FEAT_", "defined(FEAT_"], ["_inser", "t_", "_insert_"], ["out_", "str(", "out_str("], ["vim", "_free(", "vim_free("], ["width", "<|WB|>", "width<|WB|>"], ["L", "F_", "LF_"], ["*/", ",<|WB|>", "*/,<|WB|>"], ["_time", "out_", "_timeout_"], ["(ev", "->ev", "(ev->ev"], ["->ev", "cb", "->evcb"], ["UR", "E_", "URE_"], ["common", "_timeout", "common_timeout"], ["_t", "ail", "_tail"], ["stream", "_t*<|WB|>", "stream_t*<|WB|>"], ["size", "_t", "size_t"], ["Char", "acter", "Character"], ["UNIX", "FILE_", "UNIXFILE_"], ["x", "work", "xwork"], ["SQLITE_", "SHM_", "SQLITE_SHM_"], ["PROX", "Y_", "PROXY_"], ["o", "st", "ost"], ["(pPager->p", "PCache", "(pPager->pPCache"], ["pPager->journal", "Off", "pPager->journalOff"], ["\\", "x", "\\x"], ["Input", "File", "InputFile"], ["v", "String", "vString"], ["r->io.", "file", "r->io.file"], ["ScreenLines", "UC", "ScreenLinesUC"], ["_f", "ill", "_fill"], ["p->ae_u", ".cterm", "p->ae_u.cterm"], ["SHA1", "D", "SHA1D"], ["SHA1", "COMPRESS_", "SHA1COMPRESS_"], ["SHA1COMPRESS_", "FULL", "SHA1COMPRESS_FULL"], ["SHA1COMPRESS_FULL", "_", "SHA1COMPRESS_FULL_"], ["SHA1COMPRESS_FULL_", "ROUND", "SHA1COMPRESS_FULL_ROUND"], ["jq_util_", "input_", "jq_util_input_"], ["pC->", "seek", "pC->seek"], ["id", "acty", "idacty"], ["an", "t<|WB|>", "ant<|WB|>"], ["n", "i", "ni"], ["s", "\"<|WB|>", "s\"<|WB|>"], ["'", "t<|WB|>", "'t<|WB|>"], ["rev", "i", "revi"], ["d", "ing<|WB|>", "ding<|WB|>"], ["z", "<|WB|>", "z<|WB|>"], ["ele", "ment", "element"], ["high", "ligh", "highligh"], ["f", "l", "fl"], ["1", "+", "1+"], ["or", "y<|WB|>", "ory<|WB|>"], ["b", "er<|WB|>", "ber<|WB|>"], ["<", "C", "<C"], ["for", "war", "forwar"], ["un", "i", "uni"], ["wor", "d", "word"], ["inser", "t_", "insert_"], ["e", "di", "edi"], ["C", "op", "Cop"], ["pre", "fix", "prefix"], ["lo", "ad", "load"], ["c", "la", "cla"], ["ex", "ample", "example"], ["tion", ",<|WB|>", "tion,<|WB|>"], ["al", "le", "alle"], ["te", "d,<|WB|>", "ted,<|WB|>"], ["w", "al", "wal"], ["s", "://", "s://"], ["*", ")<|WB|>", "*)<|WB|>"], ["modi", "fi", "modifi"], ["tive", "<|WB|>", "tive<|WB|>"], ["hash", "<|WB|>", "hash<|WB|>"], ["sol", "ute", "solute"], ["e", "d,<|WB|>", "ed,<|WB|>"], ["con", "fli", "confli"], ["ref", "erence", "reference"], ["dr", "op", "drop"], ["p", "end", "pend"], ["on", "ic", "onic"], ["gr", "ap", "grap"], ["par", "t", "part"], ["s", "))<|WB|>", "s))<|WB|>"], ["d", "atabase", "database"], ["IN", "TE", "INTE"], ["(p", "<|WB|>", "(p<|WB|>"], ["_", "list", "_list"], ["rec", "la", "recla"], ["Pro", "gram", "Program"], ["G", "ener", "Gener"], ["(", "list", "(list"], ["node", ")<|WB|>", "node)<|WB|>"], ["(iter", "->", "(iter->"], ["D", "ON", "DON"], ["like", "ly", "likely"], ["s(", ");<|WB|>", "s();<|WB|>"], ["en", "d(", "end("], ["A", "F_", "AF_"], ["Ad", "dr", "Addr"], ["po", "s;<|WB|>", "pos;<|WB|>"], ["P", "A", "PA"], ["G", "IT", "GIT"], ["N", "AME", "NAME"], ["(the_repository", ",<|WB|>", "(the_repository,<|WB|>"], ["s", ")", "s)"], ["Bt", "Shared<|WB|>", "BtShared<|WB|>"], ["SharedCache", "TableLock", "SharedCacheTableLock"], ["pBt", "->n", "pBt->n"], ["SQLITE_", "CORRUPT_", "SQLITE_CORRUPT_"], ["eLock", "==", "eLock=="], ["EXCLUSI", "VE", "EXCLUSIVE"], ["(p", "->", "(p->"], ["Ma", "ke", "Make"], ["tegr", "ity", "tegrity"], ["sqlite3Pager", "Get", "sqlite3PagerGet"], ["O", "f", "Of"], ["PAR", "AMETER", "PARAMETER"], ["(pPage", ",<|WB|>", "(pPage,<|WB|>"], ["Cell", "Size", "CellSize"], ["->h", "dr", "->hdr"], ["data", "[hdr", "data[hdr"], ["->pgno", "<|WB|>", "->pgno<|WB|>"], ["Ex", "ist", "Exist"], ["W", "AL", "WAL"], ["TIME", "OUT", "TIMEOUT"], ["(p", ",", "(p,"], ["->", "is", "->is"], ["S", "to", "Sto"], ["ap", "New[i", "apNew[i"], ["T", ":<|WB|>", "T:<|WB|>"], ["or", "ph", "orph"], ["N", "_(\"", "N_(\""], ["->type", "->", "->type->"], ["*", "h", "*h"], ["con", "ce", "conce"], ["lnum", ";<|WB|>", "lnum;<|WB|>"], ["change", "d", "changed"], ["(c", ",<|WB|>", "(c,<|WB|>"], ["AT", "TR", "ATTR"], ["col", ",<|WB|>", "col,<|WB|>"], ["(char_u", ")", "(char_u)"], ["event_", "callback", "event_callback"], ["_c", "allback", "_callback"], ["ctl", "->", "ctl->"], ["(char", "*)", "(char*)"], ["size", "s_", "sizes_"], ["lru_", "maintain", "lru_maintain"], ["L", "AB", "LAB"], ["(", "stream", "(stream"], ["queued_f", "d", "queued_fd"], ["P", "FMT_", "PFMT_"], ["info", ".", "info."], ["u", "u", "uu"], ["(", "*)", "(*)"], [".", "l_", ".l_"], ["(unix", "File<|WB|>", "(unixFile<|WB|>"], ["Path", ");<|WB|>", "Path);<|WB|>"], ["db", "File", "dbFile"], ["pPager->", "eState", "pPager->eState"], ["P", "LA", "PLA"], ["rio", "Conn", "rioConn"], ["Screen", "Attr", "ScreenAttr"], ["(", "row,<|WB|>", "(row,<|WB|>"], ["se", "p", "sep"], ["CHARSTAB_ENTRY", "(&", "CHARSTAB_ENTRY(&"], ["i", "hv", "ihv"], ["ur", "l_", "url_"], ["jv_", "string", "jv_string"], ["(pOp", "->p", "(pOp->p"], ["pOp->p", "5", "pOp->p5"], ["(", "ZIPLIST_", "(ZIPLIST_"], ["B", "l", "Bl"], ["b", "le<|WB|>", "ble<|WB|>"], ["n", ",<|WB|>", "n,<|WB|>"], ["si", "ve<|WB|>", "sive<|WB|>"], ["b", "ind", "bind"], ["di", "rect", "direct"], ["le", "s<|WB|>", "les<|WB|>"], ["2", "8", "28"], ["g", ",<|WB|>", "g,<|WB|>"], ["8", "0", "80"], [".", "0<|WB|>", ".0<|WB|>"], ["v", ",<|WB|>", "v,<|WB|>"], ["ing", ")<|WB|>", "ing)<|WB|>"], ["value", "<|WB|>", "value<|WB|>"], ["back", "war", "backwar"], ["ine", "<|WB|>", "ine<|WB|>"], ["at", ",<|WB|>", "at,<|WB|>"], ["ne", "g", "neg"], ["er", "o<|WB|>", "ero<|WB|>"], ["http", "s://", "https://"], [".", "com", ".com"], ["w", "as", "was"], ["i", "ck", "ick"], ["e", "ff", "eff"], ["B", "ack", "Back"], ["ho", "me", "home"], ["c", "tr", "ctr"], ["Un", "ix", "Unix"], ["ig", "n", "ign"], ["ul", "ate", "ulate"], ["(", "r", "(r"], ["}", ";<|WB|>", "};<|WB|>"], ["d", "one", "done"], ["NULL", "<|WB|>", "NULL<|WB|>"], ["Free", "<|WB|>", "Free<|WB|>"], ["Un", "link", "Unlink"], ["I", "ter<|WB|>", "Iter<|WB|>"], ["s.", "h", "s.h"], ["LL", "<|WB|>", "LL<|WB|>"], ["Re", "size", "Resize"], ["ma", "x<|WB|>", "max<|WB|>"], ["count", ")<|WB|>", "count)<|WB|>"], ["use", "c<|WB|>", "usec<|WB|>"], ["val", ",<|WB|>", "val,<|WB|>"], ["M", "ER", "MER"], ["entr", "y<|WB|>", "entry<|WB|>"], [")", ",", "),"], ["IN", "VAL", "INVAL"], ["goo", "d_", "good_"], ["SE", "<|WB|>", "SE<|WB|>"], ["str", "dup", "strdup"], [")", "&", ")&"], ["_", "v", "_v"], ["d", "Lock", "dLock"], ["Bit", "vec", "Bitvec"], ["sqlite3Pager", "Write", "sqlite3PagerWrite"], ["UNUSE", "D_", "UNUSED_"], ["UNUSED_", "PARAMETER", "UNUSED_PARAMETER"], ["Size", ");<|WB|>", "Size);<|WB|>"], ["0x", "ff", "0xff"], ["CACH", "E_", "CACHE_"], ["3", ");<|WB|>", "3);<|WB|>"], ["s", ").<|WB|>", "s).<|WB|>"], ["sub", "-", "sub-"], ["(p", "Cell", "(pCell"], ["i", "Last", "iLast"], ["e", "Mode", "eMode"], ["P", "h", "Ph"], ["Ph", "ase", "Phase"], ["sz", ");<|WB|>", "sz);<|WB|>"], ["AP", "PEND", "APPEND"], ["a", "Heap", "aHeap"], ["ate", "_", "ate_"], ["!", "opts->", "!opts->"], ["SE", "T_", "SET_"], ["parse", "_", "parse_"], ["D", "A", "DA"], ["R", "IGH", "RIGH"], ["p", "um", "pum"], ["_m", "l.", "_ml."], ["lnum", ",<|WB|>", "lnum,<|WB|>"], ["HL_", "ATTR", "HL_ATTR"], ["te", "st_", "test_"], ["D", "EN", "DEN"], ["V", "Is", "VIs"], ["_", "event", "_event"], ["s_", "to", "s_to"], ["s[", "id", "s[id"], ["(", "ctx", "(ctx"], ["unix", "Shm", "unixShm"], ["z", "Name", "zName"], ["lockPro", "xy", "lockProxy"], ["Journal", "<|WB|>", "Journal<|WB|>"], ["PLA", "IN", "PLAIN"], ["g_", "col", "g_col"], ["idx", "].pat", "idx].pat"], ["spats[", "0", "spats[0"], ["].", "off", "].off"], ["CURLU", "_", "CURLU_"], ["ue", "<|WB|>", "ue<|WB|>"], ["U", "S", "US"], ["ro", "ugh", "rough"], ["i", "de", "ide"], ["se", "s<|WB|>", "ses<|WB|>"], ["co", "lo", "colo"], ["s", ",", "s,"], ["e", "p<|WB|>", "ep<|WB|>"], ["..", ".<|WB|>", "...<|WB|>"], ["i", ",<|WB|>", "i,<|WB|>"], ["f", "ol", "fol"], ["e", "ar", "ear"], ["ce", ",<|WB|>", "ce,<|WB|>"], ["ati", "c", "atic"], ["code", "<|WB|>", "code<|WB|>"], ["si", "de", "side"], ["Q", "u", "Qu"], ["inc", "lu", "inclu"], ["re", "po", "repo"], ["4", "4", "44"], ["le", "ss<|WB|>", "less<|WB|>"], ["s", "ing<|WB|>", "sing<|WB|>"], ["ter", "s<|WB|>", "ters<|WB|>"], ["m", "u", "mu"], ["if", "y", "ify"], ["esc", "ap", "escap"], ["(", "in", "(in"], ["(p", "ar", "(par"], ["me", "t", "met"], ["str", "u", "stru"], ["Al", "low", "Allow"], ["_", "<|WB|>", "_<|WB|>"], ["st", "d", "std"], ["lan", "guage", "language"], ["I", "C<|WB|>", "IC<|WB|>"], ["sel", "f", "self"], ["di", "stance", "distance"], ["un", "k<|WB|>", "unk<|WB|>"], ["pre", "sent", "present"], ["re", "cor", "recor"], ["t", "s,<|WB|>", "ts,<|WB|>"], ["de", "st", "dest"], ["co", "rr", "corr"], ["b", "len", "blen"], ["w", "atch", "watch"], ["ro", "y", "roy"], ["[1", "];<|WB|>", "[1];<|WB|>"], ["I", "AL", "IAL"], ["UNUSE", "D", "UNUSED"], ["(x", ")<|WB|>", "(x)<|WB|>"], ["AN", "E", "ANE"], ["s", "'<|WB|>", "s'<|WB|>"], ["s->", "s", "s->s"], ["_", "len<|WB|>", "_len<|WB|>"], ["T", "O", "TO"], ["TH", "READ", "THREAD"], ["(", "buf,<|WB|>", "(buf,<|WB|>"], ["oid", ",<|WB|>", "oid,<|WB|>"], ["buf", ")<|WB|>", "buf)<|WB|>"], ["s(", "void)<|WB|>", "s(void)<|WB|>"], ["G", "E_", "GE_"], ["s", "(&", "s(&"], ["Tran", "s", "Trans"], ["(Mem", "Page<|WB|>", "(MemPage<|WB|>"], ["BTCF_", "Valid", "BTCF_Valid"], ["b", "lob", "blob"], ["ve", "ctor", "vector"], ["G", "E<|WB|>", "GE<|WB|>"], ["De", "fer", "Defer"], ["ptr", "map", "ptrmap"], [")", "/", ")/"], ["Ex", "tra", "Extra"], ["Parse", "Cell", "ParseCell"], ["PAG", "E_", "PAGE_"], ["get2", "byte(&", "get2byte(&"], ["data", "[i", "data[i"], ["1", "2<|WB|>", "12<|WB|>"], ["->pDbPage", ");<|WB|>", "->pDbPage);<|WB|>"], ["Busy", "Handle", "BusyHandle"], ["F", "ull", "Full"], ["(", "0,<|WB|>", "(0,<|WB|>"], ["Size", ",<|WB|>", "Size,<|WB|>"], ["V", "FS", "VFS"], ["Ver", "sion", "Version"], ["LE", "A", "LEA"], ["C", "or", "Cor"], ["[i", "i", "[ii"], ["ix", "N", "ixN"], ["[i", "],<|WB|>", "[i],<|WB|>"], ["QUI", "CK", "QUICK"], ["RO", "W", "ROW"], ["LAR", "GE", "LARGE"], ["str", "_", "str_"], ["orph", "an", "orphan"], ["I", "SS", "ISS"], ["exp", "i", "expi"], ["alloc", "(", "alloc("], ["ar", "get", "arget"], ["AC", "E_", "ACE_"], ["(", "curwin", "(curwin"], ["curbuf->b", "_p_", "curbuf->b_p_"], ["))", "))<|WB|>", "))))<|WB|>"], ["common", "_timeout_", "common_timeout_"], ["t", "v_", "tv_"], ["_", "signal", "_signal"], ["base->", "event_", "base->event_"], ["slabs_clsi", "d", "slabs_clsid"], ["compres", "s<|WB|>", "compress<|WB|>"], ["SP", "I", "SPI"], ["Buff", "er", "Buffer"], ["curlx_dyn", "_", "curlx_dyn_"], ["v", "xwork", "vxwork"], ["O", "STR", "OSTR"], ["OSTR", "ACE", "OSTRACE"], ["OSTRACE", "((\"", "OSTRACE((\""], ["PRE", "FIX", "PREFIX"], ["(u", "->", "(u->"], ["Mo", "dule", "Module"], ["all", "ctl", "allctl"], ["page", "<|WB|>", "page<|WB|>"], ["I", "<|WB|>", "I<|WB|>"], ["i", "s<|WB|>", "is<|WB|>"], ["ati", "ve<|WB|>", "ative<|WB|>"], ["2", "7", "27"], ["2", "3", "23"], ["s", "he", "she"], [",", "b", ",b"], ["idacty", "l", "idactyl"], ["f", "al", "fal"], ["or", "t<|WB|>", "ort<|WB|>"], ["bu", "il", "buil"], ["ig", "ger", "igger"], ["n", "ap", "nap"], ["64", ")<|WB|>", "64)<|WB|>"], ["comp", "o", "compo"], ["N", "B", "NB"], ["inter", "nal", "internal"], ["lite", "r", "liter"], ["re", "store", "restore"], ["[1", "]", "[1]"], ["s", "m", "sm"], ["di", "ct<|WB|>", "dict<|WB|>"], ["1", "]<|WB|>", "1]<|WB|>"], ["T", "est", "Test"], ["e", "t<|WB|>", "et<|WB|>"], ["co", "ver", "cover"], [".", ")<|WB|>", ".)<|WB|>"], ["length", "<|WB|>", "length<|WB|>"], ["h", "our", "hour"], ["grap", "h", "graph"], ["er", "-", "er-"], ["at", "om", "atom"], ["tr", "ack", "track"], ["str", "a", "stra"], ["corr", "up", "corrup"], ["n", ")<|WB|>", "n)<|WB|>"], ["5", ",<|WB|>", "5,<|WB|>"], ["Mem", "ory", "Memory"], ["T", "ail", "Tail"], ["(", "node->", "(node->"], ["z", "free", "zfree"], ["memset", "(", "memset("], ["Data", ");<|WB|>", "Data);<|WB|>"], ["B", "E", "BE"], ["ANE", "T_", "ANET_"], ["E", "T", "ET"], ["65", "53", "6553"], ["main", "ten", "mainten"], ["mainten", "ance", "maintenance"], ["MO", "VE", "MOVE"], ["_", "thread", "_thread"], ["m", ";<|WB|>", "m;<|WB|>"], ["commit", "->object.", "commit->object."], ["(p", ")<|WB|>", "(p)<|WB|>"], ["f(", "&", "f(&"], ["coun", "t,<|WB|>", "count,<|WB|>"], ["[0", "],<|WB|>", "[0],<|WB|>"], ["TRAN", "S_", "TRANS_"], ["==", "2<|WB|>", "==2<|WB|>"], ["s(", "<|WB|>", "s(<|WB|>"], ["sqlite3", "Bitvec", "sqlite3Bitvec"], ["->p", "Page", "->pPage"], ["Inser", "t(", "Insert("], ["Defer", "red", "Deferred"], ["!=", "SQLITE_", "!=SQLITE_"], ["In", "it<|WB|>", "Init<|WB|>"], ["sqlite3Pager", "Un", "sqlite3PagerUn"], ["SI", "ZE<|WB|>", "SIZE<|WB|>"], ["->hdr", "Offset", "->hdrOffset"], ["*", "2", "*2"], ["f", "et", "fet"], ["z", "Filename", "zFilename"], ["IN", "_", "IN_"], ["Tmp", "Space", "TmpSpace"], ["-1", "]", "-1]"], ["==", "0", "==0"], ["ixN", "x", "ixNx"], ["ap", "Old", "apOld"], ["[", "5", "[5"], ["_P", "RE", "_PRE"], ["pCheck", "->", "pCheck->"], [".", "z", ".z"], ["ing", "_", "ing_"], ["(", "state", "(state"], ["->t", "v_", "->tv_"], ["%", "02", "%02"], ["N", "OR", "NOR"], ["NOR", "M", "NORM"], ["DI", "CT_", "DICT_"], ["dict", "Entry", "dictEntry"], ["[h", "tidx", "[htidx"], ["Ad", "d(", "Add("], ["stat", "s->", "stats->"], ["K", "_S", "K_S"], ["rev", "ins_", "revins_"], ["_ml.", "ml_", "_ml.ml_"], ["_", "line", "_line"], ["I", "F", "IF"], ["popup", "_", "popup_"], ["red", "raw_", "redraw_"], ["HL_ATTR", "(H", "HL_ATTR(H"], ["m", "ch_", "mch_"], ["mch_", "memmove", "mch_memmove"], ["M", ")<|WB|>", "M)<|WB|>"], ["event_", "queue", "event_queue"], ["time", "out", "timeout"], ["(base", ");<|WB|>", "(base);<|WB|>"], ["active", "queue", "activequeue"], ["0x", "f", "0xf"], ["is", ",", "is,"], ["(is", ",", "(is,"], ["lru_maintain", "er_", "lru_maintainer_"], ["_S", "LAB", "_SLAB"], ["O_", "RD", "O_RD"], ["0x", "1", "0x1"], ["z", "f", "zf"], ["val", ".", "val."], ["strn", "cmp", "strncmp"], ["Character", "istic", "Characteristic"], ["))", "aSyscall", "))aSyscall"], ["SYN", "C_", "SYNC_"], ["pFd", "->", "pFd->"], ["ck", "sum", "cksum"], ["Dir", "ty", "Dirty"], ["ScreenLinesUC", "[off", "ScreenLinesUC[off"], ["_ScreenLine", "s", "_ScreenLines"], ["].off", ".", "].off."], ["g", "->", "g->"], ["state->", "current_", "state->current_"], ["OPFLAG", "_", "OPFLAG_"], ["OP_", "Idx", "OP_Idx"], ["(zl", ",", "(zl,"], ["je", "_m", "je_m"], ["je_m", "allctl", "je_mallctl"], ["ise", "<|WB|>", "ise<|WB|>"], ["sh", "<|WB|>", "sh<|WB|>"], [".", "org", ".org"], ["ure", "s<|WB|>", "ures<|WB|>"], ["v", "is", "vis"], ["over", "lay", "overlay"], ["7", "0", "70"], ["S", "o", "So"], ["ne", "d<|WB|>", "ned<|WB|>"], ["1", "3", "13"], ["re", ",<|WB|>", "re,<|WB|>"], ["<C", "-", "<C-"], ["q", "<|WB|>", "q<|WB|>"], ["R", "<|WB|>", "R<|WB|>"], ["32", ")<|WB|>", "32)<|WB|>"], ["8", "6", "86"], ["6", "7", "67"], ["s[", "n", "s[n"], ["S", "nap", "Snap"], ["dis", "able", "disable"], ["it", ",<|WB|>", "it,<|WB|>"], ["long", "<|WB|>", "long<|WB|>"], ["che", "d<|WB|>", "ched<|WB|>"], ["Co", "de", "Code"], ["me", "ss", "mess"], ["str", "ing<|WB|>", "string<|WB|>"], ["E", "p", "Ep"], ["(#", "1", "(#1"], ["ut", "h", "uth"], ["in", "o", "ino"], ["f", "m", "fm"], ["B", "ookmark", "Bookmark"], ["cod", "ing<|WB|>", "coding<|WB|>"], ["st", "uff", "stuff"], ["Open", "<|WB|>", "Open<|WB|>"], ["(", "-", "(-"], ["Star", "t", "Start"], ["ing", ":<|WB|>", "ing:<|WB|>"], ["Lo", "g", "Log"], ["de", "scri", "descri"], ["'", ".", "'."], ["cont", "in", "contin"], ["tr", "ace", "trace"], ["th", "ree", "three"], ["re", "st", "rest"], ["Num", "ber", "Number"], ["ic", "ro", "icro"], ["g", "ot", "got"], ["C", "an", "Can"], ["=", "<|WB|>", "=<|WB|>"], ["R", "I", "RI"], ["NULL", ",<|WB|>", "NULL,<|WB|>"], ["leve", "l<|WB|>", "level<|WB|>"], ["value", ");<|WB|>", "value);<|WB|>"], ["->", "next;<|WB|>", "->next;<|WB|>"], ["glob", "al", "global"], ["_ST", "AR", "_STAR"], ["--", "<|WB|>", "--<|WB|>"], ["<", "sy", "<sy"], ["<sy", "s/", "<sys/"], ["Event", "Loop", "EventLoop"], ["initi", "alize", "initialize"], ["(", "un", "(un"], ["id", ";<|WB|>", "id;<|WB|>"], ["mi", "z", "miz"], ["C", "AL", "CAL"], ["B", "LOCK", "BLOCK"], ["LE", "<|WB|>", "LE<|WB|>"], ["or", "t_", "ort_"], ["uint", "32", "uint32"], [")", "\\n\",<|WB|>", ")\\n\",<|WB|>"], ["oid", "_to_", "oid_to_"], ["fin", "d_", "find_"], ["INT", "ER", "INTER"], ["_c", "lear", "_clear"], ["-", "byte<|WB|>", "-byte<|WB|>"], ["U", "U", "UU"], ["rint", "f(", "rintf("], ["Nex", "t;<|WB|>", "Next;<|WB|>"], ["*p", "Page", "*pPage"], ["Not", "Null", "NotNull"], ["Key", ";<|WB|>", "Key;<|WB|>"], ["SE", "E", "SEE"], ["Posi", "tion", "Position"], ["Move", "to", "Moveto"], ["AL", "IG", "ALIG"], ["_P", "TR", "_PTR"], ["SQLITE_", "MAX_", "SQLITE_MAX_"], [")", "==SQLITE_", ")==SQLITE_"], ["ex", "clusive", "exclusive"], ["auto", "-", "auto-"], ["n", "Re", "nRe"], ["p", "g", "pg"], ["Ste", "p", "Step"], ["SAVEP", "O", "SAVEPO"], ["RE", "LEA", "RELEA"], ["N", "EV", "NEV"], ["p", "Root", "pRoot"], ["i", "A", "iA"], ["IN", "C", "INC"], ["_pro", "gres", "_progres"], [")", "),<|WB|>", ")),<|WB|>"], ["(", "new_", "(new_"], ["ce", "_", "ce_"], ["buf", ";<|WB|>", "buf;<|WB|>"], ["NE", "ED", "NEED"], ["_m", "atch", "_match"], ["opt", "s,<|WB|>", "opts,<|WB|>"], ["po", "s);<|WB|>", "pos);<|WB|>"], ["OFF", "<|WB|>", "OFF<|WB|>"], ["_", "auto", "_auto"], ["_d", "ash", "_dash"], ["LI", "M", "LIM"], ["(", "num", "(num"], ["DICTHT_", "SIZE", "DICTHT_SIZE"], ["Fin", "d(", "Find("], ["LEN", "<|WB|>", "LEN<|WB|>"], ["orig", "_", "orig_"], ["L", "ong", "Long"], ["(void", ");<|WB|>", "(void);<|WB|>"], ["de", "l_", "del_"], ["use", "d_", "used_"], ["x_", "mode", "x_mode"], ["(", "win", "(win"], ["replace_", "stack", "replace_stack"], ["C", "MP", "CMP"], ["EVENT_", "_", "EVENT__"], ["ASSER", "T", "ASSERT"], ["FIR", "ST", "FIRST"], ["_f", "n", "_fn"], ["is", "->", "is->"], ["long)", "totals.", "long)totals."], ["c", "msg", "cmsg"], ["BU", "FF", "BUFF"], ["'/", "'<|WB|>", "'/'<|WB|>"], ["ce", "Characteristic", "ceCharacteristic"], ["vxwork", "s", "vxworks"], ["RESERVE", "D_", "RESERVED_"], ["pFile", "->eFileLock", "pFile->eFileLock"], ["a", "Lock", "aLock"], ["journal", "_mode=", "journal_mode="], ["(pC", "tx", "(pCtx"], ["PAGER_", "WRITER_", "PAGER_WRITER_"], ["pPager", "->a", "pPager->a"], ["Super", "Journal", "SuperJournal"], ["QUICK", "LIST_", "QUICKLIST_"], ["(", "ql,<|WB|>", "(ql,<|WB|>"], ["r", "g", "rg"], ["[n", "].", "[n]."], ["file", "s[", "files["], ["1", "_STEP", "1_STEP"], ["_B", "W", "_BW"], ["(u", ",<|WB|>", "(u,<|WB|>"], ["j", "v", "jv"], ["S", "orter", "Sorter"], ["CUR", "TYPE_", "CURTYPE_"], ["P4", "_", "P4_"], ["pOp", "[1", "pOp[1"], ["T", "K_", "TK_"], ["A", "gg", "Agg"], ["re", "cur", "recur"], ["or", "s<|WB|>", "ors<|WB|>"], ["a", "s<|WB|>", "as<|WB|>"], ["ter", ",<|WB|>", "ter,<|WB|>"], ["o", "d", "od"], ["le", "ave", "leave"], ["u", "res", "ures"], ["ap", "<|WB|>", "ap<|WB|>"], ["re", "si", "resi"], ["so", "me", "some"], ["p", "[", "p["], ["ent", "s<|WB|>", "ents<|WB|>"], ["ne", "t", "net"], ["c", "as", "cas"], ["ar", "d<|WB|>", "ard<|WB|>"], ["ol", "<|WB|>", "ol<|WB|>"], ["ju", "mp", "jump"], ["no", "ti", "noti"], ["ine", "d<|WB|>", "ined<|WB|>"], ["on", "-", "on-"], ["ser", "<|WB|>", "ser<|WB|>"], ["a", "m<|WB|>", "am<|WB|>"], ["S", "im", "Sim"], ["a", "de", "ade"], ["f", "d<|WB|>", "fd<|WB|>"], ["low", "er", "lower"], ["s", "-", "s-"], ["te", "n<|WB|>", "ten<|WB|>"], ["ce", "d<|WB|>", "ced<|WB|>"], ["go", "to", "goto"], ["re", "main", "remain"], ["k", "k", "kk"], ["se", "qu", "sequ"], ["d", "n", "dn"], ["ap", "pro", "appro"], ["re", "set", "reset"], ["C", "P", "CP"], ["qu", "er", "quer"], ["ou", "gh", "ough"], ["2018", "-0", "2018-0"], ["tr", "ie", "trie"], ["H", "el", "Hel"], ["I", "mp", "Imp"], ["d", ",", "d,"], ["g", ".", "g."], ["L", "AN", "LAN"], ["T", "able<|WB|>", "Table<|WB|>"], ["s", "un", "sun"], ["reg", "ion", "region"], ["ju", "st", "just"], ["st", "re", "stre"], ["Fi", "el", "Fiel"], ["di", "gest", "digest"], ["RE", "AT", "REAT"], ["y", ")<|WB|>", "y)<|WB|>"], ["name", ";<|WB|>", "name;<|WB|>"], ["DELETE", "<|WB|>", "DELETE<|WB|>"], ["tran", "saction", "transaction"], ["strcmp", "(", "strcmp("], ["r", ");<|WB|>", "r);<|WB|>"], ["Li", "st<|WB|>", "List<|WB|>"], ["O", "ther", "Other"], ["Data", ";<|WB|>", "Data;<|WB|>"], ["E", ")<|WB|>", "E)<|WB|>"], ["flag", "s;<|WB|>", "flags;<|WB|>"], ["CLO", "EX", "CLOEX"], ["__", ")<|WB|>", "__)<|WB|>"], ["val", ");<|WB|>", "val);<|WB|>"], ["OR", "T_", "ORT_"], ["m", ")<|WB|>", "m)<|WB|>"], ["*", ");<|WB|>", "*);<|WB|>"], ["en", "v", "env"], ["stop", "_", "stop_"], ["'", "%", "'%"], ["sho", "w_", "show_"], ["oid_to_", "hex", "oid_to_hex"], ["str", "buf", "strbuf"], ["strbuf_", "add", "strbuf_add"], ["_re", "lease", "_release"], ["(", "current_", "(current_"], ["lo", "okup", "lookup"], ["EN", "O", "ENO"], ["cm", "d_", "cmd_"], ["read", "-", "read-"], ["Flag", "s", "Flags"], ["s", "(p", "s(p"], ["p", "Iter", "pIter"], ["Row", "<|WB|>", "Row<|WB|>"], ["St", "ate<|WB|>", "State<|WB|>"], ["ap", "Page", "apPage"], ["Idx", "Key", "IdxKey"], ["AL", "WA", "ALWA"], ["i", "Ptr", "iPtr"], ["put4", "byte(&", "put4byte(&"], ["sqlite3PagerUn", "ref", "sqlite3PagerUnref"], ["Var", "int", "Varint"], ["(pPg", ");<|WB|>", "(pPg);<|WB|>"], ["PT", "F_", "PTF_"], ["Page", "Ref", "PageRef"], ["Name", "<|WB|>", "Name<|WB|>"], ["TE", "MP", "TEMP"], ["!", "is", "!is"], ["get4", "byte", "get4byte"], ["W", "AL<|WB|>", "WAL<|WB|>"], ["In", "tegrity", "Integrity"], ["En", "try<|WB|>", "Entry<|WB|>"], ["(u", "64)", "(u64)"], ["NEV", "ER", "NEVER"], ["R", "igh", "Righ"], ["]", "++;<|WB|>", "]++;<|WB|>"], ["ap", "Cell", "apCell"], ["W", "IT", "WIT"], ["D", "one", "Done"], ["p", "Old", "pOld"], ["IT", "I", "ITI"], ["))", "!=0<|WB|>", "))!=0<|WB|>"], ["W", "OR", "WOR"], ["opts", "->p", "opts->p"], ["S", "Z", "SZ"], ["c", "/", "c/"], ["date", "_", "date_"], ["'", "))<|WB|>", "'))<|WB|>"], ["Rehash", "ing", "Rehashing"], ["entry", ");<|WB|>", "entry);<|WB|>"], ["col", "nr_", "colnr_"], ["vim_", "is", "vim_is"], ["out_str(", "T_", "out_str(T_"], ["G", "H", "GH"], ["S", "yn", "Syn"], ["_no", "lock_", "_nolock_"], ["time", "out_", "timeout_"], ["min", "_", "min_"], [".", "ev", ".ev"], ["disp", "atch", "dispatch"], ["s[i", "];<|WB|>", "s[i];<|WB|>"], ["as", "sign", "assign"], ["COMM", "ON_", "COMMON_"], ["_", "q", "_q"], ["(ite", "m<|WB|>", "(item<|WB|>"], ["itemstat", "s[i].", "itemstats[i]."], ["lru_", "bump_", "lru_bump_"], ["UN", "K", "UNK"], ["(uv_", "stream_t*<|WB|>", "(uv_stream_t*<|WB|>"], ["_cb", "<|WB|>", "_cb<|WB|>"], ["_w", "atch", "_watch"], ["O", "S_", "OS_"], ["ngx_", "hash", "ngx_hash"], ["ATOM", "IC_", "ATOMIC_"], ["LCK", "<|WB|>", "LCK<|WB|>"], ["e", "FileLock", "eFileLock"], ["mmap", "Size", "mmapSize"], ["se", "ctor", "sector"], ["EXCLUSI", "VE_", "EXCLUSIVE_"], ["S", "em", "Sem"], ["Reserve", "dLock", "ReservedLock"], ["(p", "ShmNode", "(pShmNode"], ["i", "Hdr", "iHdr"], ["SPI", "LL", "SPILL"], ["STAT", "US_", "STATUS_"], ["_S", "Z", "_SZ"], ["quicklist", "Compres", "quicklistCompres"], ["r->io.conn", "set", "r->io.connset"], ["pres", "sed_", "pressed_"], ["_h", "l", "_hl"], ["tab", "[n].", "tab[n]."], ["SDS_", "TYPE_", "SDS_TYPE_"], ["to", "ken", "token"], ["d(", "\"", "d(\""], ["p->ap", "Csr", "p->apCsr"], ["|MEM_", "Int", "|MEM_Int"], ["sqlite3VdbeMem", "Set", "sqlite3VdbeMemSet"], ["].", "opcode==OP_", "].opcode==OP_"], ["mem", "IsValid", "memIsValid"], ["r[P3", "]=", "r[P3]="], ["r[P1", "]<|WB|>", "r[P1]<|WB|>"], ["V", "Cur", "VCur"], [".p", "rev", ".prev"], ["vi", "ew", "view"], ["r", "op", "rop"], ["open", "<|WB|>", "open<|WB|>"], ["um", "<|WB|>", "um<|WB|>"], ["we", "b", "web"], ["u", "al<|WB|>", "ual<|WB|>"], ["t", "ain", "tain"], ["in", "di", "indi"]], "vocab": {"0": "\u0000", "1": "\u0001", "2": "\u0002", "3": "\u0003", "4": "\u0004", "5": "\u0005", "6": "\u0006", "7": "\u0007", "8": "\b", "9": "\t", "10": "\n", "11": "\u000b", "12": "\f", "13": "\r", "14": "\u000e", "15": "\u000f", "16": "\u0010", "17": "\u0011", "18": "\u0012", "19": "\u0013", "20": "\u0014", "21": "\u0015", "22": "\u0016", "23": "\u0017", "24": "\u0018", "25": "\u0019", "26": "\u001a", "27": "\u001b", "28": "\u001c", "29": "\u001d", "30": "\u001e", "31": "\u001f", "32": " ", "33": "!", "34": "\"", "35": "#", "36": "$", "37": "%", "38": "&", "39": "'", "40": "(", "41": ")", "42": "*", "43": "+", "44": ",", "45": "-", "46": ".", "47": "/", "48": "0", "49": "1", "50": "2", "51": "3", "52": "4", "53": "5", "54": "6", "55": "7", "56": "8", "57": "9", "58": ":", "59": ";", "60": "<", "61": "=", "62": ">", "63": "?", "64": "@", "65": "A", "66": "B", "67": "C", "68": "D", "69": "E", "70": "F", "71": "G", "72": "H", "73": "I", "74": "J", "75": "K", "76": "L", "77": "M", "78": "N", "79": "O", "80": "P", "81": "Q", "82": "R", "83": "S", "84": "T", "85": "U", "86": "V", "87": "W", "88": "X", "89": "Y", "90": "Z", "91": "[", "92": "\\", "93": "]", "94": "^", "95": "_", "96": "`", "97": "a", "98": "b", "99": "c", "100": "d", "101": "e", "102": "f", "103": "g", "104": "h", "105": "i", "106": "j", "107": "k", "108": "l", "109": "m", "110": "n", "111": "o", "112": "p", "113": "q", "114": "r", "115": "s", "116": "t", "117": "u", "118": "v", "119": "w", "120": "x", "121": "y", "122": "z", "123": "{", "124": "|", "125": "}", "126": "~", "127": "\u007f", "128": "\u0080", "129": "\u0081", "130": "\u0082", "131": "\u0083", "132": "\u0084", "133": "\u0085", "134": "\u0086", "135": "\u0087", "136": "\u0088", "137": "\u0089", "138": "\u008a", "139": "\u008b", "140": "\u008c", "141": "\u008d", "142": "\u008e", "143": "\u008f", "144": "\u0090", "145": "\u0091", "146": "\u0092", "147": "\u0093", "148": "\u0094", "149": "\u0095", "150": "\u0096", "151": "\u0097", "152": "\u0098", "153": "\u0099", "154": "\u009a", "155": "\u009b", "156": "\u009c", "157": "\u009d", "158": "\u009e", "159": "\u009f", "160": "\u00a0", "161": "\u00a1", "162": "\u00a2", "163": "\u00a3", "164": "\u00a4", "165": "\u00a5", "166": "\u00a6", "167": "\u00a7", "168": "\u00a8", "169": "\u00a9", "170": "\u00aa", "171": "\u00ab", "172": "\u00ac", "173": "\u00ad", "174": "\u00ae", "175": "\u00af", "176": "\u00b0", "177": "\u00b1", "178": "\u00b2", "179": "\u00b3", "180": "\u00b4", "181": "\u00b5", "182": "\u00b6", "183": "\u00b7", "184": "\u00b8", "185": "\u00b9", "186": "\u00ba", "187": "\u00bb", "188": "\u00bc", "189": "\u00bd", "190": "\u00be", "191": "\u00bf", "192": "\u00c0", "193": "\u00c1", "194": "\u00c2", "195": "\u00c3", "196": "\u00c4", "197": "\u00c5", "198": "\u00c6", "199": "\u00c7", "200": "\u00c8", "201": "\u00c9", "202": "\u00ca", "203": "\u00cb", "204": "\u00cc", "205": "\u00cd", "206": "\u00ce", "207": "\u00cf", "208": "\u00d0", "209": "\u00d1", "210": "\u00d2", "211": "\u00d3", "212": "\u00d4", "213": "\u00d5", "214": "\u00d6", "215": "\u00d7", "216": "\u00d8", "217": "\u00d9", "218": "\u00da", "219": "\u00db", "220": "\u00dc", "221": "\u00dd", "222": "\u00de", "223": "\u00df", "224": "\u00e0", "225": "\u00e1", "226": "\u00e2", "227": "\u00e3", "228": "\u00e4", "229": "\u00e5", "230": "\u00e6", "231": "\u00e7", "232": "\u00e8", "233": "\u00e9", "234": "\u00ea", "235": "\u00eb", "236": "\u00ec", "237": "\u00ed", "238": "\u00ee", "239": "\u00ef", "240": "\u00f0", "241": "\u00f1", "242": "\u00f2", "243": "\u00f3", "244": "\u00f4", "245": "\u00f5", "246": "\u00f6", "247": "\u00f7", "248": "\u00f8", "249": "\u00f9", "250": "\u00fa", "251": "\u00fb", "252": "\u00fc", "253": "\u00fd", "254": "\u00fe", "255": "\u00ff", "256": "<|EOS|>", "257": "<|WB|>", "258": "\ud83d", "259": "\udc40", "260": "\u0161", "261": "\u0107", "262": "\u0161", "263": "\u0107", "264": "\u0144", "265": "\u0144", "266": "\u0144", "267": "\u0144", "268": "\u0144", "269": "\u2014", "270": "\u2014", "271": "\u2014", "272": "\u2014", "273": "\u2014", "274": "\u2014", "275": "\u2014", "276": "\u2014", "277": "\u2014", "278": "\u2014", "279": "\u2014", "280": "\u2014", "281": "\u2014", "282": "\u2014", "283": "\u2014", "284": "\u2014", "285": "\u2013", "286": "\u2013", "287": "\u2019", "288": "\u2019", "289": "\u203a", "290": ";<|WB|>", "291": ",<|WB|>", "292": "in", "293": "re", "294": "->", "295": ")<|WB|>", "296": "te", "297": "st", "298": ");<|WB|>", "299": "le", "300": "er", "301": "se", "302": "al", "303": "ag", "304": "en", "305": "co", "306": "at", "307": "ar", "308": ".<|WB|>", "309": "ch", "310": "de", "311": "li", "312": "s<|WB|>", "313": "ck", "314": "or", "315": "ur", "316": "lo", "317": "me", "318": "si", "319": "on", "320": "t<|WB|>", "321": "an", "322": "Pag", "323": "(p", "324": "==", "325": "d<|WB|>", "326": "t_", "327": "E_", "328": "tr", "329": "un", "330": "ze", "331": "ti", "332": "ing", "333": "ce", "334": "->p", "335": "ff", "336": ":<|WB|>", "337": "as", "338": "op", "339": "ab", "340": "mp", "341": "lite", "342": "sq", "343": "len", "344": "ne", "345": "sqlite", "346": "**", "347": "ll", "348": "ve", "349": "sqlite3", "350": "it", "351": "ree", "352": "ad", "353": "ate", "354": "int", "355": "IT", "356": "di", "357": "ro", "358": "bu", "359": "no", "360": "ile", "361": "ev", "362": "size", "363": "--", "364": "ST", "365": "str", "366": "ap", "367": "ine", "368": "ter", "369": "et", "370": "id", "371": "RE", "372": "Pager", "373": "]<|WB|>", "374": "ut", "375": "ct", "376": "ER", "377": "0<|WB|>", "378": "Page", "379": "cur", "380": "th", "381": "_f", "382": "))<|WB|>", "383": "IN", "384": "ri", "385": "con", "386": "y<|WB|>", "387": "Bt", "388": "Re", "389": "f(", "390": "In", "391": "po", "392": "T_", "393": "s_", "394": "d_", "395": "ing<|WB|>", "396": "qu", "397": "ame", "398": "\",<|WB|>", "399": "che", "400": "ba", "401": "um", "402": "he", "403": "s,<|WB|>", "404": "ser", "405": "QL", "406": "list", "407": "Cur", "408": "ITE_", "409": "SQL", "410": "ge", "411": "pe", "412": "\"<|WB|>", "413": "EN", "414": "SQLITE_", "415": "set", "416": "(&", "417": "l_", "418": "File", "419": "up", "420": "_S", "421": "mo", "422": "ex", "423": "db", "424": "char", "425": "ize", "426": "Lo", "427": "OP", "428": "sh", "429": "Op", "430": "buf", "431": "ol", "432": "ey", "433": "((", "434": "AL", "435": "->n", "436": "ent", "437": "mem", "438": "LO", "439": "ac", "440": "loc", "441": "HA", "442": "able", "443": "_t", "444": "[i", "445": "lock", "446": "0x", "447": "*p", "448": "fo", "449": "ata", "450": "_p", "451": "****", "452": "rev", "453": "AT", "454": "));<|WB|>", "455": "is", "456": "tion", "457": "ra", "458": "Size", "459": "do", "460": "new", "461": "sc", "462": "ue", "463": "fi", "464": "),<|WB|>", "465": "ath", "466": "00", "467": "lag", "468": "()<|WB|>", "469": "la", "470": "em", "471": "base", "472": "mm", "473": "col", "474": "res", "475": "MA", "476": "ma", "477": "val", "478": "];<|WB|>", "479": "d(", "480": "sor", "481": "il", "482": "CK", "483": "alloc", "484": "ell", "485": "ip", "486": "age", "487": "are", "488": "++", "489": "line", "490": "to", "491": "d,<|WB|>", "492": "comp", "493": "t(", "494": "AG", "495": "Cell", "496": "*)", "497": "x_", "498": "CO", "499": "qui", "500": "Lock", "501": "!=", "502": "ash", "503": "m_", "504": "time", "505": "all", "506": "ME", "507": "our", "508": "s.<|WB|>", "509": "(#", "510": "ul", "511": "nt", "512": "s[", "513": "sp", "514": "S_", "515": "].", "516": "ati", "517": "ran", "518": "off", "519": "Mem", "520": "ent_", "521": "SE", "522": "st<|WB|>", "523": "ig", "524": "yte", "525": "OR", "526": "_in", "527": "==0<|WB|>", "528": "coun", "529": "ype", "530": "1<|WB|>", "531": ").<|WB|>", "532": "'<|WB|>", "533": "ver", "534": "ave", "535": "c<|WB|>", "536": "of(", "537": "v_", "538": "vo", "539": "name", "540": "UR", "541": "UN", "542": "event_", "543": "AR", "544": "s(", "545": "node", "546": "----", "547": "nal", "548": "(!", "549": "s.", "550": "sizeof(", "551": "ix", "552": "quick", "553": "try", "554": "key", "555": "read", "556": "uc", "557": "p->", "558": "LE", "559": "ew", "560": "def", "561": "M_", "562": "32", "563": "No", "564": "rite", "565": "TR", "566": "ou", "567": "pPager", "568": "quicklist", "569": "num", "570": "vi", "571": "(u", "572": "hash", "573": "EV", "574": "_m", "575": "Btree", "576": "ng", "577": "pOp", "578": "st_", "579": "pr", "580": "dr", "581": "rea", "582": "s->", "583": "-1", "584": "Sh", "585": "ca", "586": "Data", "587": "star", "588": "get", "589": "_re", "590": "St", "591": "byte", "592": "New", "593": "(\"", "594": "comm", "595": "(i", "596": "use", "597": "Pg", "598": "LL", "599": "oo", "600": "64", "601": "pCur", "602": "reen", "603": "dict", "604": "OP_", "605": "pC", "606": "win", "607": "s;<|WB|>", "608": "CH", "609": "->a", "610": "for", "611": "flag", "612": "ation", "613": "pro", "614": "[0", "615": "ute", "616": "AD", "617": "ic", "618": "De", "619": "LOCK", "620": "ournal", "621": "Db", "622": "Co", "623": "ER_", "624": "nex", "625": "stat", "626": "sl", "627": "sz", "628": "ON", "629": "void", "630": "be", "631": "lu", "632": "ay", "633": "out", "634": "mat", "635": "PAG", "636": "date", "637": "2<|WB|>", "638": "end", "639": "Line", "640": "unix", "641": "(pPager", "642": "opt", "643": "MAX", "644": "ub", "645": "DE", "646": "SI", "647": "er<|WB|>", "648": "check", "649": "pOp->p", "650": "TE", "651": "ho", "652": "sd", "653": "mode", "654": "yn", "655": "En", "656": "->i", "657": "sg", "658": "********", "659": "al<|WB|>", "660": "_b", "661": "SHA", "662": "free", "663": "err", "664": "back", "665": "\\n", "666": "Key", "667": "file", "668": "d.<|WB|>", "669": "\");<|WB|>", "670": "asser", "671": "====", "672": "w_", "673": "_ST", "674": "(*", "675": "_c", "676": "RO", "677": "ke", "678": "],<|WB|>", "679": "[1", "680": "sig", "681": "pPager->", "682": "print", "683": "t,<|WB|>", "684": "data", "685": "map", "686": "ail", "687": "++;<|WB|>", "688": "m<|WB|>", "689": "and", "690": "MP", "691": "define", "692": "len<|WB|>", "693": "F_", "694": "ref", "695": "Un", "696": "code", "697": "Path", "698": "ranch", "699": "put", "700": "dbe", "701": ".h", "702": "T<|WB|>", "703": "E<|WB|>", "704": "L_", "705": "tab", "706": "ace", "707": "entry", "708": "(int", "709": "pPage", "710": "write", "711": "struc", "712": ">=", "713": "ite", "714": "arg", "715": "NO", "716": "us", "717": "(z", "718": "x<|WB|>", "719": "tree", "720": "AC", "721": "ull", "722": "D_", "723": "sqlite3Pager", "724": "Cursor", "725": "ind", "726": "py", "727": "Vdbe", "728": "rc", "729": "sqlite3Btree", "730": "ow", "731": "AB", "732": "low", "733": "Node", "734": "arch", "735": "Mo", "736": "rr", "737": "s);<|WB|>", "738": "k<|WB|>", "739": "s)<|WB|>", "740": "struct<|WB|>", "741": "ST_", "742": "Con", "743": "(void", "744": "]);<|WB|>", "745": "if(", "746": "ase", "747": "af", "748": "ly", "749": "(c", "750": "SHA1", "751": ",0x", "752": "im", "753": "state", "754": "slab", "755": "Off", "756": "SH", "757": "SS", "758": "IP", "759": "get_", "760": "LU", "761": "d;<|WB|>", "762": "const<|WB|>", "763": "TI", "764": "CUR", "765": "STAT", "766": "assert(", "767": "zip", "768": "count", "769": "buff", "770": "defined(", "771": "{<|WB|>", "772": "que", "773": "if", "774": "pre", "775": "..", "776": "NU", "777": "!=0<|WB|>", "778": "type", "779": "printf(", "780": "tive", "781": "event", "782": "gno", "783": "LI", "784": "strea", "785": "){<|WB|>", "786": "uv_", "787": "ange", "788": "value", "789": "pBt", "790": "curre", "791": "16", "792": "_free", "793": "ly<|WB|>", "794": "int<|WB|>", "795": "search", "796": "Get", "797": "WR", "798": "Id", "799": "save", "800": "row", "801": "ist", "802": "move", "803": "d)<|WB|>", "804": "MO", "805": "->h", "806": "ir", "807": "ins_", "808": "cursor", "809": "BT", "810": "so", "811": "out_", "812": "el", "813": "uto", "814": "AN", "815": "raw", "816": "Free", "817": "__", "818": "cb", "819": "base->", "820": "_w", "821": "ptr", "822": "msg", "823": "mi", "824": "lete", "825": "info", "826": "ngx_", "827": "par", "828": "ory", "829": "();<|WB|>", "830": "memc", "831": "Shm", "832": "IO", "833": "D<|WB|>", "834": "ack", "835": "ek", "836": "FL", "837": "compres", "838": "Val", "839": "+1", "840": "ING", "841": "><|WB|>", "842": "max", "843": "n<|WB|>", "844": "Ch", "845": "Type", "846": "<=", "847": "page", "848": "lear", "849": "t;<|WB|>", "850": "READ", "851": "ment", "852": "(struct<|WB|>", "853": "EP", "854": "p<|WB|>", "855": "_P", "856": "sqlite3_", "857": "PAGER_", "858": "(int)", "859": "FI", "860": "reg", "861": "ance", "862": "Err", "863": "LEN", "864": "wor", "865": "DI", "866": "igh", "867": "old", "868": "unc", "869": "ager", "870": "STATE", "871": "l<|WB|>", "872": "sion", "873": "one", "874": "(<|WB|>", "875": "queue", "876": "dex", "877": "min", "878": "ste", "879": "(const<|WB|>", "880": "COMP", "881": "journal", "882": "--------", "883": "creen", "884": "ure", "885": "Set", "886": "C_", "887": "ctx", "888": "sk", "889": "20", "890": "stream", "891": "ZIP", "892": "(f", "893": "red", "894": "point", "895": "heck", "896": "s[i", "897": "Flag", "898": "Ex", "899": "DO", "900": "mar", "901": "(n", "902": "vf", "903": "ate<|WB|>", "904": "match", "905": "FLAG", "906": "LIST_", "907": ".n", "908": "id<|WB|>", "909": "Nex", "910": "_B", "911": "ty", "912": "cache", "913": "os", "914": "attr", "915": "hv", "916": "pager", "917": "opts->", "918": "exp", "919": "TH", "920": "Save", "921": "of", "922": "gh", "923": "WRIT", "924": "ces", "925": "screen", "926": "S<|WB|>", "927": "ru", "928": "curwin", "929": "sds", "930": "path", "931": "ERR", "932": "ZE", "933": "(t", "934": "COMPRE", "935": "start", "936": "ent<|WB|>", "937": "lin", "938": "ct_", "939": ".h\"<|WB|>", "940": "sqlite3Vdbe", "941": "Idx", "942": "auto", "943": "active", "944": "sub", "945": "',<|WB|>", "946": "Size<|WB|>", "947": "lan", "948": "ed", "949": "lose", "950": "))", "951": "MEM_", "952": "init", "953": "[P", "954": "le<|WB|>", "955": "tex", "956": "INT", "957": "->t", "958": "->ev", "959": "ise", "960": "ain", "961": "signe", "962": "_u", "963": "12", "964": "g_", "965": "EX", "966": "(pBt", "967": "0)<|WB|>", "968": "size<|WB|>", "969": "btree", "970": "Hdr", "971": "open", "972": "long", "973": "*<|WB|>", "974": "cl", "975": "1,<|WB|>", "976": "VE_", "977": "mer", "978": "ld", "979": "LE_", "980": "aylo", "981": "the", "982": "o<|WB|>", "983": "wh", "984": "TY", "985": "_t<|WB|>", "986": "Journal", "987": "change", "988": "Open", "989": ".p", "990": "tion<|WB|>", "991": "_char", "992": "gi", "993": "flags<|WB|>", "994": "(s", "995": "posi", "996": "malloc", "997": "Write", "998": "je", "999": "ith", "1000": "head", "1001": "ync", "1002": "Is", "1003": "K_", "1004": "Info", "1005": "lua", "1006": "O_", "1007": "new_", "1008": "ob", "1009": "r<|WB|>", "1010": "inser", "1011": "able<|WB|>", "1012": "(a", "1013": "Roo", "1014": "NULL", "1015": "d);<|WB|>", "1016": "Name", "1017": "ten", "1018": "thread", "1019": "->b", "1020": "DE_", "1021": "GE", "1022": "curl", "1023": "Bu", "1024": "rec", "1025": "cell", "1026": "(e", "1027": "skip", "1028": "atch", "1029": "Out", "1030": "MEM", "1031": "FF", "1032": "Se", "1033": "string", "1034": "(h", "1035": "ray", "1036": "pla", "1037": "md", "1038": "unsigne", "1039": "Paylo", "1040": "lnum", "1041": "lease", "1042": "or<|WB|>", "1043": "ache", "1044": "unk", "1045": "(char", "1046": "Inode", "1047": "ce<|WB|>", "1048": "per", "1049": "ort", "1050": "mb", "1051": "inter", "1052": "gth", "1053": "[2", "1054": "ed<|WB|>", "1055": "ted<|WB|>", "1056": "4<|WB|>", "1057": "Pro", "1058": "BU", "1059": "(pC", "1060": "_branch", "1061": "Screen", "1062": "File.", "1063": "10", "1064": "pec", "1065": "3<|WB|>", "1066": "Map", "1067": "NAL", "1068": "xd", "1069": "set<|WB|>", "1070": "Comp", "1071": "iter", "1072": "Ptr", "1073": "1)<|WB|>", "1074": "ID", "1075": "s:<|WB|>", "1076": "])<|WB|>", "1077": "memcpy", "1078": "rom", "1079": "Wal", "1080": "Len", "1081": "Ad", "1082": "Sp", "1083": "andle", "1084": "printf(\"", "1085": "idth", "1086": "do_", "1087": "r[P", "1088": "it<|WB|>", "1089": "Ar", "1090": "pos", "1091": "sy", "1092": "CHE", "1093": "idx", "1094": "_time", "1095": "curren", "1096": "allback", "1097": "last", "1098": "UP", "1099": "len);<|WB|>", "1100": "Offset", "1101": "\",", "1102": "UT", "1103": "pFile", "1104": "->io", "1105": "update", "1106": "?<|WB|>", "1107": "Sup", "1108": "old_", "1109": "OUR", "1110": "curwin->", "1111": "========", "1112": "we", "1113": "gu", "1114": "g<|WB|>", "1115": "ie", "1116": "unsigned<|WB|>", "1117": "l,<|WB|>", "1118": ")))<|WB|>", "1119": "VE", "1120": "_info", "1121": ">0<|WB|>", "1122": "Fi", "1123": "memset", "1124": "ffff", "1125": "Savepoint", "1126": "AI", "1127": "space", "1128": "ask", "1129": "%s", "1130": "****************", "1131": "Row", "1132": "ot", "1133": "ct<|WB|>", "1134": "ber", "1135": "_SI", "1136": "END", "1137": "_RE", "1138": "col<|WB|>", "1139": "2)<|WB|>", "1140": "reate", "1141": "app", "1142": "usable", "1143": "->aData", "1144": "_file", "1145": "->z", "1146": "a1", "1147": "uv__", "1148": "ast", "1149": "lob", "1150": "utex", "1151": "over", "1152": "25", "1153": "next", "1154": "xy", "1155": "(b", "1156": "ero", "1157": "offset", "1158": "it_", "1159": "Share", "1160": "ation<|WB|>", "1161": "Col", "1162": "mark", "1163": "pat", "1164": "(void)<|WB|>", "1165": "len;<|WB|>", "1166": "buf,<|WB|>", "1167": "ORE", "1168": "ziplist", "1169": "lru", "1170": "war", "1171": "tot", "1172": "fill", "1173": "host", "1174": "Check", "1175": "KE", "1176": "_to", "1177": "sha1", "1178": "fa", "1179": "prev", "1180": "non", "1181": "ity", "1182": "temp", "1183": "STR", "1184": "':<|WB|>", "1185": "Cache", "1186": "==SQLITE_", "1187": "lim", "1188": "add", "1189": "Read", "1190": "2,<|WB|>", "1191": "CA", "1192": "Ref", "1193": "LA", "1194": "BA", "1195": ")==0<|WB|>", "1196": "pCur->", "1197": "spat", "1198": "p,<|WB|>", "1199": "und", "1200": "0,<|WB|>", "1201": "(size", "1202": "_de", "1203": "vfl", "1204": "(ptr", "1205": "compress", "1206": "24", "1207": "ter<|WB|>", "1208": "He", "1209": "table", "1210": "[0]<|WB|>", "1211": "EVEN", "1212": "oid", "1213": "IG", "1214": "Tr", "1215": "ve<|WB|>", "1216": "in,<|WB|>", "1217": "rag", "1218": "(int<|WB|>", "1219": "->pBt", "1220": "DbPage", "1221": "Pager<|WB|>", "1222": "ad<|WB|>", "1223": "rame", "1224": "ctor", "1225": "option", "1226": "cod", "1227": "Mode", "1228": "Super", "1229": "0000", "1230": "P_", "1231": "ACE", "1232": "*z", "1233": "OPEN", "1234": "curlx_", "1235": "Str", "1236": "lename", "1237": "C<|WB|>", "1238": "cmp", "1239": "inc", "1240": "().<|WB|>", "1241": "link", "1242": "current_", "1243": "\".<|WB|>", "1244": "cket", "1245": "Met", "1246": "UND", "1247": "->pgno", "1248": "JOUR", "1249": "JOURNAL", "1250": "end_", "1251": "place", "1252": "count<|WB|>", "1253": "tx", "1254": "MODE_", "1255": "ShmNode", "1256": "sto", "1257": "arent", "1258": "[]<|WB|>", "1259": "&p", "1260": "T(", "1261": "SE_", "1262": "trl_", "1263": "vim_", "1264": "OK", "1265": "node->", "1266": "cnt", "1267": "is_", "1268": "3)<|WB|>", "1269": "ing.<|WB|>", "1270": "fd", "1271": "(d", "1272": "_fa", "1273": "Payload", "1274": "'s<|WB|>", "1275": "sw", "1276": "ae", "1277": "flow", "1278": "--;<|WB|>", "1279": "[0]", "1280": "STORE", "1281": "spec", "1282": "5<|WB|>", "1283": "lay", "1284": "tm", "1285": "clear", "1286": "pp", "1287": "To", "1288": "\\n\",<|WB|>", "1289": "valid", "1290": "(unsigned<|WB|>", "1291": "_no", "1292": "r->io", "1293": "r->io.", "1294": "CURLU", "1295": "1.", "1296": "i<|WB|>", "1297": "\")<|WB|>", "1298": "(x", "1299": "MAX_", "1300": "work", "1301": "sche", "1302": "emp", "1303": "url", "1304": "State", "1305": "_t)", "1306": "start_", "1307": "TYP", "1308": "(pPage", "1309": "A_", "1310": "a<|WB|>", "1311": "tran", "1312": "(#3", "1313": "ger", "1314": "CHA", "1315": "al_", "1316": "new_branch", "1317": "Space", "1318": "IS", "1319": "commit", "1320": "MD", "1321": "NG", "1322": "OP_S", "1323": "11", "1324": "log", "1325": "io", "1326": "len,<|WB|>", "1327": "Value", "1328": "UL", "1329": "_(\"", "1330": "Int", "1331": "Entry", "1332": "pIn", "1333": "Old", "1334": "(ev", "1335": "Y<|WB|>", "1336": "len(", "1337": "%d", "1338": "c_", "1339": "flags", "1340": "REE_", "1341": "byte(&", "1342": "set_", "1343": "curwin->w_", "1344": "ScreenLine", "1345": "(quicklist", "1346": "DOSTORE", "1347": "DOSTORESTATE", "1348": "main", "1349": "cor", "1350": "text", "1351": "error", "1352": "ult", "1353": "8<|WB|>", "1354": "index", "1355": "Loop", "1356": "_SE", "1357": "r_", "1358": "ED", "1359": "V_", "1360": "rio", "1361": "fin", "1362": "re<|WB|>", "1363": "se<|WB|>", "1364": "av", "1365": "SER", "1366": "ORE_", "1367": "\"),<|WB|>", "1368": "DB", "1369": "opup", "1370": "Over", "1371": "umn", "1372": "width", "1373": "Y_", "1374": "SS_", "1375": "(is", "1376": "aMem", "1377": "YN", "1378": "(base", "1379": "(pPager->", "1380": "5)<|WB|>", "1381": "9)<|WB|>", "1382": "On", "1383": "array", "1384": "LOCK<|WB|>", "1385": "Fd", "1386": "Table", "1387": "Byte", "1388": "TYPE_", "1389": "wr", "1390": "ulti", "1391": "[n", "1392": "item_", "1393": "Root", "1394": "(pCur", "1395": "pPg", "1396": "wp->", "1397": "slabs_", "1398": "de<|WB|>", "1399": "dow", "1400": "Tab", "1401": "y,<|WB|>", "1402": "orm", "1403": "OM", "1404": "HAVE_", "1405": "AF", "1406": "INT_", "1407": "SQLITE_IO", "1408": "R_", "1409": "curbuf", "1410": "intset", "1411": "ql", "1412": "(ihv", "1413": "8)<|WB|>", "1414": "6)<|WB|>", "1415": "du", "1416": "posit", "1417": "Le", "1418": "Page<|WB|>", "1419": "HE", "1420": "branch", "1421": "EVENT_", "1422": "pgno", "1423": "\\\"", "1424": "AT_", "1425": "(Pager<|WB|>", "1426": "amp", "1427": "(di", "1428": "->u", "1429": "->ht_", "1430": "_col", "1431": "Frame", "1432": "recompress", "1433": "COMPRESS", "1434": "pu", "1435": "ing,<|WB|>", "1436": "cep", "1437": "CON", "1438": "ild", "1439": "input", "1440": "pository", "1441": "zmalloc", "1442": "utex_", "1443": "pBt->p", "1444": "SHA1_ST", "1445": "SHA1_STORE_", "1446": "SHA1_STORE_STATE", "1447": "SHA1_RE", "1448": "SHA1_RECOMPRESS", "1449": "sha1recompress", "1450": "sha1recompress_fa", "1451": "sha1recompress_fast_", "1452": "bo", "1453": "ill", "1454": "(#4", "1455": "ated<|WB|>", "1456": "ator", "1457": "debu", "1458": "has", "1459": "length", "1460": "alize", "1461": "the_re", "1462": "the_repository", "1463": "(p,<|WB|>", "1464": "sr", "1465": "SIZE", "1466": "ARCH", "1467": "SHA1_STORE_STATE(", "1468": "SHA1_RECOMPRESS(", "1469": "(ihvin,<|WB|>", "1470": "4)<|WB|>", "1471": "ta", "1472": "c,<|WB|>", "1473": "ource", "1474": "ok", "1475": "coding", "1476": "len)<|WB|>", "1477": "Os", "1478": "ROUND", "1479": "now", "1480": "ally<|WB|>", "1481": "red<|WB|>", "1482": "\\n\");<|WB|>", "1483": "->prev", "1484": "_mutex_", "1485": "_free(", "1486": "->e", "1487": "Stat", "1488": "->nCell", "1489": "event_base", "1490": "-0", "1491": "7)<|WB|>", "1492": "99", "1493": "orig", "1494": "Sy", "1495": "0;<|WB|>", "1496": "\";<|WB|>", "1497": "s[i].", "1498": "free(", "1499": "item", "1500": "handle", "1501": "USE", "1502": "_C", "1503": "UNI", "1504": "_for", "1505": "Ovfl", "1506": "opcode", "1507": "VER", "1508": "ZIPLIST_", "1509": "line<|WB|>", "1510": "non-", "1511": "diff", "1512": "PO", "1513": "Buf", "1514": "tra", "1515": "PRO", "1516": "PEND", "1517": "til_", "1518": "(pPager->p", "1519": "Ma", "1520": "(#2", "1521": "ep", "1522": "ject", "1523": "_mode", "1524": "List", "1525": "QU", "1526": "Pgno", "1527": "Mutex", "1528": "i<", "1529": "BTREE_", "1530": "[pOp->p", "1531": "Prev", "1532": "buffer", "1533": "merge", "1534": "term", "1535": "ook", "1536": "File<|WB|>", "1537": "common", "1538": "TAI", "1539": "ITE", "1540": "[h", "1541": "Parent", "1542": "FE", "1543": "screen_", "1544": "(zl", "1545": "confi", "1546": "am", "1547": "iti", "1548": "Next", "1549": "Ori", "1550": "Shared", "1551": "total", "1552": "ifbe", "1553": "req", "1554": "e<|WB|>", "1555": "ch<|WB|>", "1556": "Last", "1557": "void<|WB|>", "1558": "pi", "1559": "ren", "1560": "sn", "1561": "gra", "1562": "Delete", "1563": "Al", "1564": "UNIX", "1565": ")!=0<|WB|>", "1566": "Overflow", "1567": "_STEP", "1568": "spats[", "1569": "scheme", "1570": "number", "1571": "close", "1572": "serve", "1573": "cal", "1574": "->flags<|WB|>", "1575": "_flag", "1576": "HASH", "1577": "')<|WB|>", "1578": "ALLO", "1579": "BtCursor", "1580": "_size", "1581": ")(", "1582": "last_", "1583": "FileLock", "1584": "COMPRESS_", "1585": "on<|WB|>", "1586": "es<|WB|>", "1587": "sen", "1588": "fir", "1589": "gr", "1590": "store", "1591": ".t", "1592": "my", "1593": "'.<|WB|>", "1594": "At", "1595": "ime", "1596": "Di", "1597": "DAT", "1598": "realloc", "1599": "(key", "1600": "ret", "1601": "sele", "1602": "proxy", "1603": "sync", "1604": "copy", "1605": "replace", "1606": "s\",<|WB|>", "1607": "(new", "1608": "_F", "1609": "((\"", "1610": "sqlite3Os", "1611": "conch", "1612": "an<|WB|>", "1613": "current", "1614": "en<|WB|>", "1615": "Comm", "1616": "ar<|WB|>", "1617": "loop", "1618": "mx", "1619": "Up", "1620": "[4", "1621": "0);<|WB|>", "1622": "PRE", "1623": "uint", "1624": "bucket", "1625": "ASS", "1626": "Null", "1627": "MIN", "1628": "6<|WB|>", "1629": "go", "1630": "If", "1631": "pri", "1632": "roll", "1633": "ds<|WB|>", "1634": "tail", "1635": "L,<|WB|>", "1636": "source", "1637": "Inser", "1638": "*/", "1639": "Error", "1640": "cr", "1641": "2);<|WB|>", "1642": "[i]<|WB|>", "1643": "Iter", "1644": "eventLoop", "1645": "Tran", "1646": "WRITE", "1647": "Move", "1648": ".i", "1649": "OU", "1650": "checkout_", "1651": "VI", "1652": "MD5", "1653": "SEARCH", "1654": "state->", "1655": "L<|WB|>", "1656": "14", "1657": "while", "1658": "run", "1659": "ec", "1660": "s/", "1661": "<<", "1662": ".h><|WB|>", "1663": "(sizeof(", "1664": "HEAD", "1665": "p_", "1666": "DEF", "1667": "Btree<|WB|>", "1668": "==1<|WB|>", "1669": "Valid", "1670": "->x", "1671": "sqlite3_file", "1672": "(pFile", "1673": "_ptr", "1674": "hel", "1675": "igno", "1676": "ali", "1677": "HO", "1678": "ty<|WB|>", "1679": "%u", "1680": "object", "1681": "p)<|WB|>", "1682": "Metho", "1683": "NT", "1684": "';<|WB|>", "1685": "_SIZE", "1686": "TRACE", "1687": "Not", "1688": ">=0<|WB|>", "1689": "_stat", "1690": "----------------", "1691": "_cb", "1692": "evcb", "1693": "su", "1694": "-2", "1695": "cmd", "1696": "18", "1697": "ts<|WB|>", "1698": "next_", "1699": "var", "1700": "next<|WB|>", "1701": "SP", "1702": "parse", "1703": "VAL", "1704": "sac", "1705": "Orig", "1706": "TIME", "1707": "Rec", "1708": "ONL", "1709": "Filename", "1710": "Dest", "1711": "char*)", "1712": "[3", "1713": "(db", "1714": "ULL", "1715": "lru_", "1716": "8,", "1717": "pCtx", "1718": "conn", "1719": "sqlite3VdbeMem", "1720": "7<|WB|>", "1721": "show", "1722": "swit", "1723": "ju", "1724": "ph", "1725": "secon", "1726": "er,<|WB|>", "1727": "lic", "1728": "Po", "1729": "vent", "1730": "Init", "1731": "CT_", "1732": "eLock", "1733": "info.n", "1734": "seek", "1735": "->tm_", "1736": "long)", "1737": "ev->ev", "1738": "ctl", "1739": "Curl_", "1740": "if(!", "1741": "pC->", "1742": "xdf", "1743": "19", "1744": "ers<|WB|>", "1745": "stop", "1746": "tent", "1747": "can", "1748": "1;<|WB|>", "1749": "zero", "1750": "())<|WB|>", "1751": "[1]<|WB|>", "1752": "(the_repository", "1753": "Flags<|WB|>", "1754": "saved_", "1755": "Ctrl_", "1756": "pos.", "1757": "ASSER", "1758": "UV_", "1759": "JOURNALMODE_", "1760": "pOp->p4", "1761": "fe", "1762": "ss<|WB|>", "1763": "in<|WB|>", "1764": "53", "1765": "imp", "1766": "f<|WB|>", "1767": "ATH", "1768": "sib", "1769": "cli", "1770": "name<|WB|>", "1771": "ss", "1772": "pc", "1773": "(),<|WB|>", "1774": "callback", "1775": "INIT", "1776": "hash_", "1777": "hex", "1778": "commit_", "1779": "->name", "1780": "_base", "1781": "Find", "1782": "==PAGER_", "1783": "Compare", "1784": "CHAR", "1785": "curbuf->b", "1786": "sett", "1787": "tt", "1788": "th<|WB|>", "1789": "ery", "1790": "100", "1791": "insert", "1792": "lock_", "1793": "line_", "1794": "add_", "1795": "1);<|WB|>", "1796": "memcmp", "1797": "USE_", "1798": "CT", "1799": "(pPg", "1800": "Close", "1801": "Lim", "1802": "rev32", "1803": "event_debu", "1804": "EVLIST_", "1805": "8,8,", "1806": "sdsc", "1807": "aOp", "1808": "ded<|WB|>", "1809": "ment<|WB|>", "1810": "(P", "1811": "\"\\", "1812": "LETE", "1813": "AME", "1814": "NE", "1815": "AL<|WB|>", "1816": "SOR", "1817": "EXC", "1818": "pCur->p", "1819": "64)", "1820": "(u8", "1821": "OFF", "1822": "From", "1823": "FULL", "1824": "chunk", "1825": "eek", "1826": "sed<|WB|>", "1827": "ish", "1828": "Ke", "1829": "//", "1830": "day", "1831": "name,<|WB|>", "1832": "heap", "1833": "anet", "1834": "mt", "1835": "isect_", "1836": "d_f", "1837": "Vf", "1838": "FC", "1839": "YTE", "1840": "SYN", "1841": "New[i", "1842": "OPFLAG", "1843": "ENTR", "1844": "FEAT_", "1845": "cursor_", "1846": "_timeout", "1847": "pInode", "1848": "!<|WB|>", "1849": "ele", "1850": "multi", "1851": "Head", "1852": "full", "1853": "...", "1854": "For", "1855": "rent", "1856": "tern", "1857": "acu", "1858": "strn", "1859": "TAIL", "1860": "_inser", "1861": "CE", "1862": "get4", "1863": "aData", "1864": "SK", "1865": "BACK", "1866": "pNew", "1867": "_h", "1868": "new_branch_info", "1869": "ml_", "1870": "_p_", "1871": "zipmap", "1872": "LUA_", "1873": "ScreenLines", "1874": "Release", "1875": "sel", "1876": "delete", "1877": "r,<|WB|>", "1878": "sa", "1879": "Input", "1880": "Ver", "1881": "teger", "1882": "tv", "1883": "buf_", "1884": "BUG", "1885": "\"%", "1886": "[i].", "1887": "pMem", "1888": "eState", "1889": "SQLITE_IOERR", "1890": "FLAGS_", "1891": "Unlock", "1892": "HD", "1893": "char_", "1894": "rev32ifbe", "1895": "OP_Seek", "1896": "limit", "1897": "dep", "1898": "clu", "1899": "bit", "1900": "used", "1901": "Key<|WB|>", "1902": "ye", "1903": "arge", "1904": "acuum", "1905": "zl", "1906": "T;<|WB|>", "1907": ",&", "1908": "lc", "1909": "LIN", "1910": "CURSOR", "1911": "(*p", "1912": "xx", "1913": "==OP_", "1914": "find", "1915": "cont", "1916": "fix", "1917": "rep", "1918": "ligh", "1919": "force", "1920": "dom", "1921": "man", "1922": ".c", "1923": "Coun", "1924": "Update", "1925": "Be", "1926": "guage", "1927": "Io", "1928": "fy", "1929": "DELETE", "1930": "Index", "1931": "(p);<|WB|>", "1932": "chema", "1933": "BtCursor<|WB|>", "1934": "MAP_", "1935": "PAR", "1936": "+n", "1937": "ageSize", "1938": "p->n", "1939": "stream->", "1940": "Fpos", "1941": "FposMap", "1942": "ther", "1943": "setting", "1944": "mon", "1945": "ure<|WB|>", "1946": "ignore", "1947": "gro", "1948": "rect", "1949": "switch", "1950": "ener", "1951": "MB", "1952": "ifi", "1953": "list<|WB|>", "1954": "aw", "1955": "Star", "1956": "frag", "1957": "2;<|WB|>", "1958": "Create", "1959": "defined(__", "1960": "ITEM_", "1961": "term_", "1962": "_SHA", "1963": "PAGE", "1964": "SHARE", "1965": "->db", "1966": "PENDING", "1967": "SQLITE_OPEN", "1968": "_s", "1969": "wp->w_", "1970": "Regi", "1971": "pPager->p", "1972": "pPager->db", "1973": "act", "1974": "release", "1975": "end<|WB|>", "1976": "dex<|WB|>", "1977": "c)<|WB|>", "1978": "norm", "1979": "format", "1980": "b.", "1981": "Par", "1982": "*s", "1983": "[j", "1984": "TER", "1985": ")==", "1986": "->pDbPage", "1987": "MASK", "1988": "(sqlite3_", "1989": "_tree", "1990": "str(", "1991": "size_", "1992": "compl_", "1993": "lnum<|WB|>", "1994": "RU", "1995": "_attr", "1996": "gg", "1997": "ction", "1998": "ating<|WB|>", "1999": "+1<|WB|>", "2000": "vir", "2001": "ink", "2002": "Lan", "2003": "memory", "2004": "AV", "2005": "dyn", "2006": "Length", "2007": "_init", "2008": "('", "2009": "d\",<|WB|>", "2010": "ted_", "2011": "db->n", "2012": "(pIn", "2013": "ken", "2014": "LRU", "2015": "ctx->", "2016": "r->io.conn", "2017": "ZIP_", "2018": "3,<|WB|>", "2019": "All", "2020": "scroll", "2021": "fg", "2022": "saf", "2023": "entr", "2024": "Num", "2025": "enter", "2026": "leve", "2027": "size;<|WB|>", "2028": "fd,<|WB|>", "2029": "FILE_", "2030": "(void)", "2031": "RR", "2032": "EXCLU", "2033": "EXCLUSI", "2034": "(u32", "2035": "ZE_", "2036": "FOR", "2037": "sqlite3P", "2038": "curwin->w_cursor", "2039": "Char", "2040": "(&base->", "2041": "max_", "2042": "cast_", "2043": "SD", "2044": "pShmNode", "2045": "pager_", "2046": "LASH", "2047": "tri", "2048": "hi", "2049": "AP", "2050": "oc", "2051": "t.<|WB|>", "2052": "dis", "2053": "top", "2054": "dup", "2055": "aren", "2056": "meth", "2057": "Fin", "2058": "cess", "2059": "p);<|WB|>", "2060": "UNUSE", "2061": "AUL", "2062": "buf);<|WB|>", "2063": "CHECK", "2064": "IT_", "2065": "Malloc", "2066": "Schema", "2067": "p->p", "2068": "pPage->", "2069": "0x0", "2070": "sqlite3_file<|WB|>", "2071": "CLE", "2072": "d->ht_", "2073": "col;<|WB|>", "2074": "lang", "2075": "VIM_", "2076": "================", "2077": "Dir", "2078": "pPager->journal", "2079": "Column", "2080": "|MEM_", "2081": "Real", "2082": "ci", "2083": "mode<|WB|>", "2084": "case", "2085": "out<|WB|>", "2086": "OS", "2087": "syn", "2088": "Tra", "2089": "App", "2090": "sum", "2091": "mask", "2092": "git", "2093": "utf", "2094": "_arg", "2095": "Array", "2096": "saction", "2097": "size);<|WB|>", "2098": ".tv_", "2099": "OL", "2100": "addr", "2101": ")->", "2102": "_fin", "2103": "ABLE_", "2104": "ON_", "2105": "_STAT", "2106": "BTC", "2107": "BTCF_", "2108": "->usable", "2109": "OUT", "2110": "pX", "2111": "ACTI", "2112": "_SH", "2113": "HL_", "2114": "scall", "2115": "WRITER_", "2116": "r[P1", "2117": "config", "2118": "sup", "2119": "form", "2120": "oper", "2121": "An", "2122": "goo", "2123": "Arg", "2124": "SC", "2125": "ial", "2126": "(char<|WB|>", "2127": "Clear", "2128": "X_", "2129": "er_", "2130": "FIN", "2131": "(_(\"", "2132": "UC", "2133": "sqlite3_mutex_", "2134": "FCNT", "2135": "CLEAR", "2136": "ed_", "2137": "_d", "2138": "]=", "2139": "(uv_", "2140": "ha", "2141": "ay<|WB|>", "2142": "user", "2143": "fli", "2144": "(#5", "2145": "eren", "2146": "Use", "2147": "48", "2148": "decode", "2149": "X<|WB|>", "2150": "y.<|WB|>", "2151": "v<|WB|>", "2152": "T,<|WB|>", "2153": "encoding", "2154": "Event", "2155": "strcmp", "2156": "snprintf(", "2157": "(iter", "2158": "ND", "2159": "in_", "2160": "\\0", "2161": "\"--", "2162": "\\n\"<|WB|>", "2163": "->pPager", "2164": "ZE<|WB|>", "2165": "_T<|WB|>", "2166": "msg_", "2167": "_char<|WB|>", "2168": "jv_", "2169": "uc.", "2170": "uc.pCur", "2171": "uc.pCursor", "2172": "ffinit", "2173": "sion<|WB|>", "2174": "ting<|WB|>", "2175": "gui", "2176": "enc", "2177": "ord", "2178": "time<|WB|>", "2179": "acter", "2180": "accep", "2181": "ookmark", "2182": "gres", "2183": "chr", "2184": "2]<|WB|>", "2185": "|<|WB|>", "2186": "Ac", "2187": "popup", "2188": "://", "2189": "String", "2190": "lock<|WB|>", "2191": "dir", "2192": "p;<|WB|>", "2193": "area", "2194": "cke", "2195": "DEFAUL", "2196": "PTR", "2197": "memmove", "2198": "SQLITE_OPEN_", "2199": "(pPager,<|WB|>", "2200": "dictGet", "2201": "LONG", "2202": "_pat", "2203": "locking", "2204": "util_", "2205": "EVU", "2206": "EVUTI", "2207": "EVUTIL_", "2208": "RD", "2209": "sdscat", "2210": "wi", "2211": "high", "2212": "disp", "2213": "33", "2214": "led<|WB|>", "2215": "cal<|WB|>", "2216": "pos<|WB|>", "2217": "scri", "2218": "first", "2219": "down", "2220": "d:<|WB|>", "2221": "L-", "2222": "lead", "2223": "B<|WB|>", "2224": "sive", "2225": "PG", "2226": "bal", "2227": "die", "2228": "Time", "2229": "spli", "2230": "stack", "2231": "settings.", "2232": "UE", "2233": "(void<|WB|>", "2234": "s[0", "2235": "WA", "2236": "size,<|WB|>", "2237": "ONLY", "2238": "DEBUG", "2239": "Zero", "2240": "iCell", "2241": "CTR", "2242": "Syscall", "2243": "Path,<|WB|>", "2244": "pCtx->", "2245": "[off", "2246": "regmatch", "2247": "mib", "2248": "te<|WB|>", "2249": "Change", "2250": "M<|WB|>", "2251": "b<|WB|>", "2252": "lean", "2253": "Ro", "2254": "lef", "2255": "56", "2256": "ush", "2257": "clas", "2258": "02", "2259": "ABLE", "2260": "digit", "2261": "Stack", "2262": "_to_", "2263": "WAR", "2264": "rn", "2265": "empty", "2266": "/*", "2267": "TE_", "2268": "pCell", "2269": "(u32)", "2270": "uncate", "2271": "to_", "2272": "write_", "2273": "(opts->", "2274": "all_", "2275": "event_base_", "2276": "clsi", "2277": "(t,<|WB|>", "2278": "curlx_dyn", "2279": "sqlite3Pcache", "2280": "lineFposMap", "2281": "(File.", "2282": "ctx->i", "2283": "ctx->ihv", "2284": "jq", "2285": "pIn1", "2286": "at<|WB|>", "2287": "ai", "2288": "inpu", "2289": "60", "2290": "stem", "2291": "Sub", "2292": "lush", "2293": "(m", "2294": "INSER", "2295": "Func", "2296": "-1<|WB|>", "2297": "KEEP", "2298": "strlen", "2299": ",NULL", "2300": "DEFAULT_", "2301": "_ref", "2302": "offset<|WB|>", "2303": "rint", "2304": "pLock", "2305": "(Btree<|WB|>", "2306": ")+", "2307": "(w", "2308": "IC", "2309": "Sync", "2310": "FS", "2311": "Commit", "2312": "Trunk", "2313": "pCheck", "2314": "_NO", "2315": "IS_", "2316": "redraw", "2317": "intrev32ifbe", "2318": "totals.", "2319": "pFile->", "2320": "(sqlite3_file<|WB|>", "2321": "P4", "2322": "reak", "2323": "x,<|WB|>", "2324": "}<|WB|>", "2325": "create", "2326": "cm", "2327": "righ", "2328": "like", "2329": "bump", "2330": "pas", "2331": "ler", "2332": "om", "2333": "ut<|WB|>", "2334": "foo", "2335": "share", "2336": "sent", "2337": "local", "2338": "ask<|WB|>", "2339": "query", "2340": "++)<|WB|>", "2341": "tmp", "2342": "NON", "2343": ".f", "2344": ",\"", "2345": "pthread", "2346": "void)<|WB|>", "2347": "ISE", "2348": "ALLOC_", "2349": "CORR", "2350": "CORRUP", "2351": "QUI", "2352": "Size;<|WB|>", "2353": "Reserve", "2354": "SQLITE_FCNT", "2355": "OUT_", "2356": "->path", "2357": "->type", "2358": "(dict<|WB|>", "2359": "ENTRY", "2360": "raw_", "2361": "(base->", "2362": "FM", "2363": "_t*<|WB|>", "2364": "PROX", "2365": "mmap", "2366": "aSyscall", "2367": "ofst", "2368": "MEM_S", "2369": "opcode==OP_", "2370": "org", "2371": "dule", "2372": "test", "2373": "vim", "2374": "dot", "2375": "].<|WB|>", "2376": "Per", "2377": "):<|WB|>", "2378": "weigh", "2379": "row<|WB|>", "2380": "RA", "2381": "metho", "2382": "sol", "2383": "ion", "2384": "craw", "2385": "c;<|WB|>", "2386": "iter->", "2387": "size)<|WB|>", "2388": "CLO", "2389": "vec", "2390": "TEST", "2391": "Vacuum", "2392": "SHARED_", "2393": "Fir", "2394": "flags&", "2395": "(BtCursor<|WB|>", "2396": "Posi", "2397": "KeyInfo", "2398": "TRACE((\"", "2399": "Src", "2400": "nCell", "2401": "iFree", "2402": "memcpy(&", "2403": "Limit", "2404": "nNew", "2405": "opts", "2406": "(v", "2407": "COL", "2408": "_noti", "2409": "rio<|WB|>", "2410": "(ngx_", "2411": "_Screen", "2412": "HASHC", "2413": "HASHCLASH", "2414": "HASHCLASH_SHA", "2415": "HASHCLASH_SHA1", "2416": "HASHCLASH_SHA1COMPRESS_", "2417": "HASHCLASH_SHA1COMPRESS_ROUND", "2418": "->uc.pCursor", "2419": "ations<|WB|>", "2420": "iou", "2421": "hint", "2422": "complete", "2423": "age<|WB|>", "2424": "key<|WB|>", "2425": "ic<|WB|>", "2426": "wo", "2427": "call", "2428": "ttp", "2429": "gin", "2430": "Buff", "2431": "conne", "2432": "sign", "2433": "leaf", "2434": "char<|WB|>", "2435": "Method", "2436": ",sizeof(", "2437": "memset(&", "2438": "_flags<|WB|>", "2439": "T)<|WB|>", "2440": "_un", "2441": "Hash", "2442": "buf[", "2443": "->object", "2444": "buf.", "2445": "\"));<|WB|>", "2446": "Seek", "2447": "*)p", "2448": "0==", "2449": "()", "2450": "sqlite3Wal", "2451": ")!=", "2452": "Offset<|WB|>", "2453": "+2", "2454": "Tmp", "2455": "[2]<|WB|>", "2456": "P3", "2457": "(d,<|WB|>", "2458": "_MAX", "2459": "(size_t)", "2460": "evic", "2461": "itemstat", "2462": "s[off", "2463": "].p", "2464": "sho", "2465": "tions<|WB|>", "2466": "us<|WB|>", "2467": "ity<|WB|>", "2468": "40", "2469": "bad", "2470": "65", "2471": "pack", "2472": "null", "2473": "stance", "2474": "pt", "2475": "End", "2476": "proces", "2477": "gram", "2478": "agic", "2479": "Pre", "2480": "range", "2481": "stamp", "2482": "indent", "2483": "ER<|WB|>", "2484": "initi", "2485": "next;<|WB|>", "2486": "argv", "2487": "name);<|WB|>", "2488": "->tail", "2489": "mpty", "2490": "(ae", "2491": "ERROR", "2492": "_inter", "2493": "_pro", "2494": "y_", "2495": "(it", "2496": "[i];<|WB|>", "2497": "');<|WB|>", "2498": "MM", "2499": "SQLITE_OM", "2500": "*,", "2501": "get4byte(&", "2502": "Local", "2503": ")));<|WB|>", "2504": "branch_info", "2505": "opts.", "2506": "_l", "2507": "tm->tm_", "2508": "EV_", "2509": "entry.", "2510": "Region", "2511": "->pInode", "2512": "ffinity", "2513": "exist", "2514": "yy", "2515": "er.<|WB|>", "2516": "-1]<|WB|>", "2517": "Ta", "2518": "once", "2519": "ly,<|WB|>", "2520": "TC", "2521": "ation.<|WB|>", "2522": "avail", "2523": "quo", "2524": "ation,<|WB|>", "2525": "balance", "2526": "row,<|WB|>", "2527": "val<|WB|>", "2528": "data,<|WB|>", "2529": "*/<|WB|>", "2530": "allocate", "2531": "eventLoop->", "2532": "AE_", "2533": "ALI", "2534": "_path", "2535": "unlock", "2536": "check_", "2537": "(Mem", "2538": "sqlite3BtreeCursor", "2539": "<0<|WB|>", "2540": "[p", "2541": "!defined(", "2542": "etch", "2543": "from", "2544": "_with", "2545": "_type", "2546": "Rehash", "2547": "->key", "2548": "ins_compl_", "2549": "save_", "2550": "(char_u", "2551": "(base,<|WB|>", "2552": "curl_", "2553": "Blob", "2554": "do_item_", "2555": "stream_", "2556": "(unix", "2557": "lua_", "2558": "MTYPE_", "2559": "PAGER", "2560": "_chars.", "2561": "->u.i", "2562": "Th", "2563": "Hint", "2564": "Max", "2565": "cre", "2566": "modi", "2567": "enable", "2568": "d-", "2569": "slo", "2570": "sz<|WB|>", "2571": "ly.<|WB|>", "2572": "85", "2573": "30", "2574": "id,<|WB|>", "2575": "point<|WB|>", "2576": "\":", "2577": "air", "2578": "4,<|WB|>", "2579": "fer", "2580": "output", "2581": "(1", "2582": "(l", "2583": "t)<|WB|>", "2584": "(re", "2585": "buf<|WB|>", "2586": "MS", "2587": "get2", "2588": "(SQLITE_", "2589": "WRITE<|WB|>", "2590": "YTE_", "2591": "16)", "2592": "Temp", "2593": "[0];<|WB|>", "2594": "sCheck", "2595": "update_", "2596": "FAL", "2597": "CTRL-", "2598": "TAILQ", "2599": "slabs_clsi", "2600": "HAND", "2601": "NGX_", "2602": "(u_char<|WB|>", "2603": "_width", "2604": "ATOM", "2605": "->eFileLock", "2606": "(quicklist<|WB|>", "2607": "mio", "2608": "].pat", "2609": "u->", "2610": "und<|WB|>", "2611": "15", "2612": "bin", "2613": "22", "2614": "group", "2615": "start<|WB|>", "2616": "_con", "2617": "termin", "2618": "9<|WB|>", "2619": "ted.<|WB|>", "2620": "OF", "2621": "short", "2622": "http", "2623": "OK<|WB|>", "2624": "str<|WB|>", "2625": "64<|WB|>", "2626": "eld", "2627": "Ste", "2628": "Path<|WB|>", "2629": "random", "2630": "(de", "2631": "doub", "2632": "atab", "2633": "atabase", "2634": "faile", "2635": "assert", "2636": "-1)<|WB|>", "2637": "EC", "2638": "NO_", "2639": "IC_", "2640": "sqlite3_free", "2641": "Bit", "2642": "Payload<|WB|>", "2643": "data[", "2644": "AVEP", "2645": "entry,<|WB|>", "2646": "Hdr<|WB|>", "2647": "Raw", "2648": "HDR_", "2649": "LAR", "2650": "LENG", "2651": "T_C", "2652": "entry->", "2653": "size_exp", "2654": "curwin->w_cursor.", "2655": "(L,<|WB|>", "2656": "Pager.", "2657": "s_char", "2658": "(pOp", "2659": "Vtab", "2660": "fold", "2661": "after", "2662": "cum", "2663": "h<|WB|>", "2664": "men", "2665": "A<|WB|>", "2666": "glob", "2667": "Header", "2668": "17", "2669": "37", "2670": "matche", "2671": "com", "2672": "second", "2673": "ative", "2674": "xe", "2675": "ll<|WB|>", "2676": "content", "2677": "est", "2678": "ili", "2679": "virt", "2680": "extra", "2681": "signal", "2682": "Line<|WB|>", "2683": "Data<|WB|>", "2684": "FILE", "2685": "*)&", "2686": "timer", "2687": "rup", "2688": "(err", "2689": "6,", "2690": "READ_", "2691": "++<|WB|>", "2692": "BISE", "2693": "checkout", "2694": "********************************", "2695": "Type==", "2696": "Next<|WB|>", "2697": "rc==SQLITE_", "2698": "IGH", "2699": "0x8", "2700": "Bus", "2701": "SQLITE_FCNTL_", "2702": "RESER", "2703": "Heap", "2704": "rehash", "2705": "dict_", "2706": "(uint", "2707": "_ptr2", "2708": "RE_", "2709": "%s%s", "2710": "Errno", "2711": "Mask", "2712": "conchFile", "2713": "_quicklist", "2714": "lcs_char", "2715": "pOp->p2", "2716": "aMem[pOp->p", "2717": "P2", "2718": "r[P3", "2719": "pFrame", "2720": "r[P2", "2721": "ful", "2722": "ugh", "2723": "one<|WB|>", "2724": "break", "2725": "por", "2726": "pres", "2727": "port", "2728": "filename", "2729": "t-", "2730": "index<|WB|>", "2731": "func", "2732": "G_", "2733": "D)<|WB|>", "2734": "suc", "2735": "esc", "2736": "Ol", "2737": "erence", "2738": "car", "2739": "erge", "2740": "s()<|WB|>", "2741": "calloc", "2742": "->next", "2743": "PL", "2744": "S)<|WB|>", "2745": "sec<|WB|>", "2746": "Only", "2747": "->object.", "2748": "_n", "2749": "BTS_", "2750": "Has", "2751": "->ap", "2752": "((int", "2753": "Ptrmap", "2754": "MAP", "2755": "[hdr", "2756": "]==", "2757": "nByte", "2758": "Busy", "2759": "RESERVE", "2760": "(pPager);<|WB|>", "2761": "pParent", "2762": "LENGTH", "2763": "_name", "2764": "ch_", "2765": "tid", "2766": "(d->ht_", "2767": "][", "2768": "w_p_", "2769": "ST<|WB|>", "2770": "event_debug_", "2771": "uv__stream_", "2772": "MD5_", "2773": "LCK", "2774": "pCurrent", "2775": "type==", "2776": "SQLITE_IOERR_", "2777": "pFd", "2778": "SHM_", "2779": "len+", "2780": "(rio<|WB|>", "2781": "_popup", "2782": "SDS_", "2783": "pOp->p3", "2784": "pOp->", "2785": "jo", "2786": "opti", "2787": "defa", "2788": "contain", "2789": "Ab", "2790": "enti", "2791": "way", "2792": "38", "2793": "Ne", "2794": "data<|WB|>", "2795": "befo", "2796": "ater", "2797": "type<|WB|>", "2798": "ample", "2799": "\"/", "2800": "st,<|WB|>", "2801": "Insert", "2802": "pow", "2803": "Language", "2804": "orter", "2805": "resul", "2806": "del", "2807": "*f", "2808": "ted", "2809": "l.", "2810": "ME_", "2811": "cntl", "2812": "_CLO", "2813": "stats_", "2814": "count_", "2815": "okup", "2816": "COMM", "2817": "releasePage", "2818": "for(i", "2819": "PENDING_B", "2820": "pPage->nCell", "2821": "Res", "2822": "Child", "2823": "ROLL", "2824": "(po", "2825": "[k", "2826": "Append", "2827": "nr_", "2828": "apply", "2829": "FALSE", "2830": "*)\"", "2831": "_put", "2832": "ASSERT(", "2833": ",7", "2834": "sysc", "2835": "syscall_", "2836": "syscall_ptr", "2837": "pOut", "2838": "==PAGER_JOURNALMODE_", "2839": "quicklist->", "2840": "r->io.conn.", "2841": "AB_", "2842": "Branch", "2843": "read<|WB|>", "2844": "me<|WB|>", "2845": "-<|WB|>", "2846": "ble", "2847": "ke<|WB|>", "2848": "limi", "2849": "sty", "2850": "urn", "2851": "by", "2852": "Fa", "2853": "ong", "2854": "writ", "2855": "pop", "2856": "Add", "2857": "uff", "2858": "off<|WB|>", "2859": "DIR", "2860": "encode", "2861": "KEY", "2862": "[i]);<|WB|>", "2863": "200", "2864": "`<|WB|>", "2865": "CACHE", "2866": "0xffff", "2867": "N_", "2868": "+1);<|WB|>", "2869": "_option", "2870": "_PATH", "2871": "DATE_", "2872": "Trace", "2873": "Msg", "2874": "(pBt,<|WB|>", "2875": "pCur->i", "2876": "nPage", "2877": "OVER", "2878": "defrag", "2879": "And", "2880": "->nRef", "2881": "FIX", "2882": "_page", "2883": "PGHDR_", "2884": "mem_", "2885": "old_branch_info", "2886": "ummy", "2887": "(dict", "2888": "1,", "2889": "replace_", "2890": "WIN", "2891": "VIM_CLEAR", "2892": "_map", "2893": "_malloc", "2894": ":\\n\");<|WB|>", "2895": "_t*)", "2896": "queued_f", "2897": "UV_HAND", "2898": "UV_HANDLE_", "2899": "luaH", "2900": "(sqlite3_syscall_ptr", "2901": "(sqlite3_syscall_ptr)", "2902": "(pPager->pWal", "2903": "quicklistDe", "2904": "lp", "2905": "input_", "2906": "opac", "2907": "SEARCH_", "2908": "p->ae", "2909": "pCx", "2910": "command", "2911": "use<|WB|>", "2912": "white", "2913": "whe", "2914": "used<|WB|>", "2915": "robu", "2916": "PATH", "2917": "r)<|WB|>", "2918": "vari", "2919": "bar", "2920": "rel", "2921": "adv", "2922": "76", "2923": "0.", "2924": "ale", "2925": "fil", "2926": "space<|WB|>", "2927": "trol", "2928": "rc<|WB|>", "2929": "br", "2930": "stor", "2931": "cord", "2932": "skippe", "2933": "normal", "2934": "ven", "2935": "ux", "2936": "sco", "2937": "depth", "2938": "istic", "2939": "Exp", "2940": "(line", "2941": "pointer", "2942": "integer", "2943": "s[]<|WB|>", "2944": "stage", "2945": "aliz", "2946": "Next(", "2947": "leep", "2948": "TCP_", "2949": "l;<|WB|>", "2950": "_)<|WB|>", "2951": "m);<|WB|>", "2952": "(path", "2953": "pthread_mutex_", "2954": "ENABLE_", "2955": "count;<|WB|>", "2956": "-1);<|WB|>", "2957": "t);<|WB|>", "2958": "git_", "2959": "++]<|WB|>", "2960": "SQLITE_OMIT_", "2961": "Lock<|WB|>", "2962": "CORRUPT_", "2963": "CR", "2964": "Csr", "2965": "(pBt->pPager", "2966": "[8", "2967": "->nOverflow", "2968": "pPage->aData", "2969": "ptr<|WB|>", "2970": "Handle", "2971": "clusive", "2972": "MEMOR", "2973": "u8", "2974": "zSuper", "2975": "pCur->pPage", "2976": "(k", "2977": "(ptr,<|WB|>", "2978": "apNew", "2979": "worktree", "2980": "OPT_", "2981": "'/", "2982": "_se", "2983": "assert(!", "2984": "TRUE", "2985": "ml_get_", "2986": "_active", "2987": "ual_", "2988": "'\\", "2989": "_notify", "2990": "_intset", "2991": "Encoding", "2992": "6,6,", "2993": ",7,7", "2994": "unixFile", "2995": "].pCurrent", "2996": "].pCurrent)<|WB|>", "2997": "PCache", "2998": "pPager->n", "2999": "Attr", "3000": "opacity", "3001": "p->ae_u", "3002": "lcs_chars.", "3003": "CURLUE_", "3004": "VdbeBranch", "3005": "pTab", "3006": "xdl_", "3007": "zmalloc_", "3008": "w<|WB|>", "3009": "other", "3010": "text<|WB|>", "3011": "mis", "3012": "all<|WB|>", "3013": "fail", "3014": "mid", "3015": "With", "3016": "ates<|WB|>", "3017": "Local<|WB|>", "3018": "allow", "3019": "Li", "3020": "maint", "3021": "tic", "3022": "result", "3023": "no-", "3024": "m,<|WB|>", "3025": "Var", "3026": "77", "3027": "Callback", "3028": "shif", "3029": "re-", "3030": "large", "3031": "MAT", "3032": "va", "3033": "fr", "3034": "counter", "3035": "head<|WB|>", "3036": "dent", "3037": "hello", "3038": "strlen(", "3039": "double", "3040": "TEX", "3041": "-1;<|WB|>", "3042": "compute", "3043": "while(", "3044": "->next<|WB|>", "3045": ")*", "3046": "->m", "3047": "D,<|WB|>", "3048": "L)<|WB|>", "3049": "->ai", "3050": "\"-", "3051": "LEF", "3052": "byte<|WB|>", "3053": "Shared<|WB|>", "3054": "SharedCache", "3055": "->flags&", "3056": "Transaction", "3057": "invalid", "3058": "SET", "3059": "End<|WB|>", "3060": "0x7", "3061": "ovfl", "3062": "memcpy(", "3063": ")?", "3064": "*new", "3065": "pDb", "3066": "0,", "3067": "Fetch", "3068": "szCell", "3069": "(pOut", "3070": "_from", "3071": "_msg", "3072": "dummy", "3073": "ctrl_", "3074": "did_", "3075": "emsg", "3076": "Redo", "3077": "2cell", "3078": "pos->", "3079": "EV_CLO", "3080": "curlx", "3081": "bump_", "3082": "req->", "3083": "iptr", "3084": "->h,<|WB|>", "3085": "Compres", "3086": "search_", "3087": "AFF_", "3088": "serial", "3089": "zm", "3090": "acty", "3091": "ator<|WB|>", "3092": "comple", "3093": "hit", "3094": "remove", "3095": "los", "3096": "32<|WB|>", "3097": "34", "3098": "rever", "3099": "lement", "3100": "35", "3101": "36", "3102": "qual", "3103": "Fo", "3104": "select", "3105": "draw", "3106": "need", "3107": "specifi", "3108": "ID<|WB|>", "3109": "state<|WB|>", "3110": "node<|WB|>", "3111": "b,<|WB|>", "3112": "year", "3113": "quote", "3114": "flo", "3115": "resh", "3116": "tegr", "3117": "safe", "3118": "COUN", "3119": "zfree(", "3120": "sock", "3121": "(fd,<|WB|>", "3122": "LOCK)<|WB|>", "3123": "DING", "3124": "N<|WB|>", "3125": "asso", "3126": "(size_t<|WB|>", "3127": "-5", "3128": "FIR", "3129": "read_", "3130": "_war", "3131": "AUT", "3132": "CACH", "3133": "First", "3134": "t->", "3135": "SQLITE_ENABLE_", "3136": "->usableSize", "3137": "+1;<|WB|>", "3138": "(pBt)<|WB|>", "3139": "PTRMAP_", "3140": "Parse", "3141": "(u16)", "3142": "AMETER", "3143": "Leaf", "3144": "LOW", "3145": "Roll", "3146": "Rollback", "3147": "BYTE", "3148": "SAVEP", "3149": "Out<|WB|>", "3150": "UB", "3151": "_dict", "3152": "tidx", "3153": "Redobuff", "3154": "col)<|WB|>", "3155": "_pattern", "3156": "US_", "3157": "evutil_", "3158": "async", "3159": "FMT_", "3160": "8,8,8,8,", "3161": "(db,<|WB|>", "3162": "PAGER_JOURNALMODE_", "3163": "langStack", "3164": "sed_", "3165": "Conn", "3166": "sdsnew", "3167": "_ScreenLine", "3168": "fill_chars.", "3169": "jq_u", "3170": "jq_util_", "3171": "MEM_Str", "3172": "(pC->uc.pCursor", "3173": "ZIP_INT_", "3174": "and<|WB|>", "3175": "step", "3176": "29", "3177": "wa", "3178": "server", "3179": "(g", "3180": "spe", "3181": "inst", "3182": "89", "3183": "XD", "3184": "stri", "3185": "mil", "3186": "a,<|WB|>", "3187": "quire", "3188": "Type<|WB|>", "3189": "any", "3190": "K<|WB|>", "3191": "Auto", "3192": "op<|WB|>", "3193": "sur", "3194": "sible", "3195": "append", "3196": "block", "3197": "under", "3198": "ON<|WB|>", "3199": "tion.<|WB|>", "3200": "cast", "3201": "(arg", "3202": "[4]<|WB|>", "3203": "cp", "3204": "bytes<|WB|>", "3205": "int_", "3206": "*b", "3207": "Iterator", "3208": "TCP_KEEP", "3209": "id);<|WB|>", "3210": "(hash", "3211": "and_", "3212": "cket_", "3213": "strbuf_", "3214": "BISECT_", "3215": "str,<|WB|>", "3216": "setup", "3217": "_push", "3218": "BASE_", "3219": ")\",<|WB|>", "3220": "TRAN", "3221": "2^", "3222": "AUTO", "3223": "Begin", "3224": "TAB", "3225": "ED<|WB|>", "3226": "pBt->", "3227": "pCur->iPage", "3228": "Key,<|WB|>", "3229": "iPage", "3230": "hdr", "3231": "header", "3232": "db->a", "3233": "Mmap", "3234": "SIZE_", "3235": "1->aData", "3236": "Meta", "3237": "[3]<|WB|>", "3238": "(pPager)<|WB|>", "3239": "ROLLBACK", "3240": "Savepoint<|WB|>", "3241": "IsValid", "3242": "[i]", "3243": "_index", "3244": "CAT", "3245": "maintain", "3246": "cfg", "3247": "000", "3248": "timestamp", "3249": "match_", "3250": "DIC", "3251": "DICTH", "3252": "DICTHT_", "3253": ",NULL);<|WB|>", "3254": "len]<|WB|>", "3255": "TEST(\"", "3256": "Ins", "3257": "need_", "3258": "ToRedobuff", "3259": "(*mb", "3260": "(H", "3261": "event_debug", "3262": "md5", "3263": "fs", "3264": "SQLITE_IOCA", "3265": "osF", "3266": "_mode=", "3267": "IoFind", "3268": "IST", "3269": "lockPro", "3270": "ql,<|WB|>", "3271": "ql->", "3272": "LineOffset", "3273": ".cterm", "3274": "regmatch.", "3275": "VdbeBranchTa", "3276": "VdbeBranchTaken", "3277": "Affinity", "3278": "with", "3279": "gue", "3280": "k,<|WB|>", "3281": "rap", "3282": "eno", "3283": "disc", "3284": "gener", "3285": "ary<|WB|>", "3286": "pick", "3287": "exec", "3288": "blan", "3289": "G<|WB|>", "3290": "src", "3291": "W_", "3292": "prior", "3293": "One", "3294": "own", "3295": "gest", "3296": "zone", "3297": "column", "3298": "10000", "3299": "basi", "3300": "statu", "3301": "--)<|WB|>", "3302": "Link", "3303": "->prev<|WB|>", "3304": "r;<|WB|>", "3305": "hostname", "3306": "FO", "3307": "_lock", "3308": "c);<|WB|>", "3309": "D;<|WB|>", "3310": "count);<|WB|>", "3311": "LAT", "3312": "Incr", "3313": "PT", "3314": "(pMem", "3315": "LOCK_", "3316": "CURSOR_", "3317": "(i64)", "3318": "RAN", "3319": "put4", "3320": "-4", "3321": "AIN", "3322": "LOB", "3323": "_SYN", "3324": "PER", "3325": "Name,<|WB|>", "3326": "pCur->info.n", "3327": "iNew", "3328": "p->ap", "3329": "->index", "3330": "d5", "3331": "d->ht_table", "3332": "(_", "3333": "TAILQ_", "3334": "LOCKING", "3335": "EVLIST_ACTI", "3336": "evicted_", "3337": "Sector", "3338": "UNIX_SH", "3339": "UNIX_SHM_", "3340": "jf", "3341": "sds<|WB|>", "3342": "CHARST", "3343": "CHARSTAB_", "3344": "CHARSTAB_ENTRY", "3345": "slabclas", "3346": "pRec", "3347": "->u.", "3348": "(MEM_", "3349": "rawlen", "3350": "char*)\"", "3351": "ast<|WB|>", "3352": "al,<|WB|>", "3353": "ight<|WB|>", "3354": "direc", "3355": "edit", "3356": "ies<|WB|>", "3357": "rom<|WB|>", "3358": "u<|WB|>", "3359": "nt<|WB|>", "3360": "try<|WB|>", "3361": "ning", "3362": "system", "3363": "mouse", "3364": "39", "3365": "click", "3366": "only", "3367": "F<|WB|>", "3368": ",p", "3369": "ces<|WB|>", "3370": "ed.<|WB|>", "3371": "ped<|WB|>", "3372": "no_", "3373": "gex", "3374": "2018", "3375": "ft", "3376": "8,<|WB|>", "3377": "6,<|WB|>", "3378": "level", "3379": "SO", "3380": "hum", "3381": "\"))<|WB|>", "3382": "(ite", "3383": "bisect_", "3384": "die(_(\"", "3385": "*a", "3386": "_bisect_", "3387": "Integer", "3388": "_format", "3389": "FAI", "3390": "REG", "3391": "unlink", "3392": "Magic", "3393": "Alloc", "3394": "TableLock", "3395": "==0)<|WB|>", "3396": "allo", "3397": "MEN", "3398": "YS", "3399": "(u8)", "3400": "eType", "3401": "+sz", "3402": "GET_", "3403": ">1<|WB|>", "3404": "BUS", "3405": ">>", "3406": "Truncate", "3407": "Jrn", "3408": "finalize", "3409": "(pNew", "3410": "pDest", "3411": "->nMem", "3412": "%ll", "3413": "VERSI", "3414": "CE_", "3415": "pos,<|WB|>", "3416": "_par", "3417": "(date", "3418": "_func", "3419": "buf,", "3420": "(d->ht_size_exp", "3421": "kv", "3422": "_SIZE<|WB|>", "3423": "defined(FEAT_", "3424": "_insert_", "3425": "out_str(", "3426": "vim_free(", "3427": "width<|WB|>", "3428": "LF_", "3429": "*/,<|WB|>", "3430": "_timeout_", "3431": "(ev->ev", "3432": "->evcb", "3433": "URE_", "3434": "common_timeout", "3435": "_tail", "3436": "stream_t*<|WB|>", "3437": "size_t", "3438": "Character", "3439": "UNIXFILE_", "3440": "xwork", "3441": "SQLITE_SHM_", "3442": "PROXY_", "3443": "ost", "3444": "(pPager->pPCache", "3445": "pPager->journalOff", "3446": "\\x", "3447": "InputFile", "3448": "vString", "3449": "r->io.file", "3450": "ScreenLinesUC", "3451": "_fill", "3452": "p->ae_u.cterm", "3453": "SHA1D", "3454": "SHA1COMPRESS_", "3455": "SHA1COMPRESS_FULL", "3456": "SHA1COMPRESS_FULL_", "3457": "SHA1COMPRESS_FULL_ROUND", "3458": "jq_util_input_", "3459": "pC->seek", "3460": "idacty", "3461": "ant<|WB|>", "3462": "ni", "3463": "s\"<|WB|>", "3464": "'t<|WB|>", "3465": "revi", "3466": "ding<|WB|>", "3467": "z<|WB|>", "3468": "element", "3469": "highligh", "3470": "fl", "3471": "1+", "3472": "ory<|WB|>", "3473": "ber<|WB|>", "3474": "<C", "3475": "forwar", "3476": "uni", "3477": "word", "3478": "insert_", "3479": "edi", "3480": "Cop", "3481": "prefix", "3482": "load", "3483": "cla", "3484": "example", "3485": "tion,<|WB|>", "3486": "alle", "3487": "ted,<|WB|>", "3488": "wal", "3489": "s://", "3490": "*)<|WB|>", "3491": "modifi", "3492": "tive<|WB|>", "3493": "hash<|WB|>", "3494": "solute", "3495": "ed,<|WB|>", "3496": "confli", "3497": "reference", "3498": "drop", "3499": "pend", "3500": "onic", "3501": "grap", "3502": "part", "3503": "s))<|WB|>", "3504": "database", "3505": "INTE", "3506": "(p<|WB|>", "3507": "_list", "3508": "recla", "3509": "Program", "3510": "Gener", "3511": "(list", "3512": "node)<|WB|>", "3513": "(iter->", "3514": "DON", "3515": "likely", "3516": "s();<|WB|>", "3517": "end(", "3518": "AF_", "3519": "Addr", "3520": "pos;<|WB|>", "3521": "PA", "3522": "GIT", "3523": "NAME", "3524": "(the_repository,<|WB|>", "3525": "s)", "3526": "BtShared<|WB|>", "3527": "SharedCacheTableLock", "3528": "pBt->n", "3529": "SQLITE_CORRUPT_", "3530": "eLock==", "3531": "EXCLUSIVE", "3532": "(p->", "3533": "Make", "3534": "tegrity", "3535": "sqlite3PagerGet", "3536": "Of", "3537": "PARAMETER", "3538": "(pPage,<|WB|>", "3539": "CellSize", "3540": "->hdr", "3541": "data[hdr", "3542": "->pgno<|WB|>", "3543": "Exist", "3544": "WAL", "3545": "TIMEOUT", "3546": "(p,", "3547": "->is", "3548": "Sto", "3549": "apNew[i", "3550": "T:<|WB|>", "3551": "orph", "3552": "N_(\"", "3553": "->type->", "3554": "*h", "3555": "conce", "3556": "lnum;<|WB|>", "3557": "changed", "3558": "(c,<|WB|>", "3559": "ATTR", "3560": "col,<|WB|>", "3561": "(char_u)", "3562": "event_callback", "3563": "_callback", "3564": "ctl->", "3565": "(char*)", "3566": "sizes_", "3567": "lru_maintain", "3568": "LAB", "3569": "(stream", "3570": "queued_fd", "3571": "PFMT_", "3572": "info.", "3573": "uu", "3574": "(*)", "3575": ".l_", "3576": "(unixFile<|WB|>", "3577": "Path);<|WB|>", "3578": "dbFile", "3579": "pPager->eState", "3580": "PLA", "3581": "rioConn", "3582": "ScreenAttr", "3583": "(row,<|WB|>", "3584": "sep", "3585": "CHARSTAB_ENTRY(&", "3586": "ihv", "3587": "url_", "3588": "jv_string", "3589": "(pOp->p", "3590": "pOp->p5", "3591": "(ZIPLIST_", "3592": "Bl", "3593": "ble<|WB|>", "3594": "n,<|WB|>", "3595": "sive<|WB|>", "3596": "bind", "3597": "direct", "3598": "les<|WB|>", "3599": "28", "3600": "g,<|WB|>", "3601": "80", "3602": ".0<|WB|>", "3603": "v,<|WB|>", "3604": "ing)<|WB|>", "3605": "value<|WB|>", "3606": "backwar", "3607": "ine<|WB|>", "3608": "at,<|WB|>", "3609": "neg", "3610": "ero<|WB|>", "3611": "https://", "3612": ".com", "3613": "was", "3614": "ick", "3615": "eff", "3616": "Back", "3617": "home", "3618": "ctr", "3619": "Unix", "3620": "ign", "3621": "ulate", "3622": "(r", "3623": "};<|WB|>", "3624": "done", "3625": "NULL<|WB|>", "3626": "Free<|WB|>", "3627": "Unlink", "3628": "Iter<|WB|>", "3629": "s.h", "3630": "LL<|WB|>", "3631": "Resize", "3632": "max<|WB|>", "3633": "count)<|WB|>", "3634": "usec<|WB|>", "3635": "val,<|WB|>", "3636": "MER", "3637": "entry<|WB|>", "3638": "),", "3639": "INVAL", "3640": "good_", "3641": "SE<|WB|>", "3642": "strdup", "3643": ")&", "3644": "_v", "3645": "dLock", "3646": "Bitvec", "3647": "sqlite3PagerWrite", "3648": "UNUSED_", "3649": "UNUSED_PARAMETER", "3650": "Size);<|WB|>", "3651": "0xff", "3652": "CACHE_", "3653": "3);<|WB|>", "3654": "s).<|WB|>", "3655": "sub-", "3656": "(pCell", "3657": "iLast", "3658": "eMode", "3659": "Ph", "3660": "Phase", "3661": "sz);<|WB|>", "3662": "APPEND", "3663": "aHeap", "3664": "ate_", "3665": "!opts->", "3666": "SET_", "3667": "parse_", "3668": "DA", "3669": "RIGH", "3670": "pum", "3671": "_ml.", "3672": "lnum,<|WB|>", "3673": "HL_ATTR", "3674": "test_", "3675": "DEN", "3676": "VIs", "3677": "_event", "3678": "s_to", "3679": "s[id", "3680": "(ctx", "3681": "unixShm", "3682": "zName", "3683": "lockProxy", "3684": "Journal<|WB|>", "3685": "PLAIN", "3686": "g_col", "3687": "idx].pat", "3688": "spats[0", "3689": "].off", "3690": "CURLU_", "3691": "ue<|WB|>", "3692": "US", "3693": "rough", "3694": "ide", "3695": "ses<|WB|>", "3696": "colo", "3697": "s,", "3698": "ep<|WB|>", "3699": "...<|WB|>", "3700": "i,<|WB|>", "3701": "fol", "3702": "ear", "3703": "ce,<|WB|>", "3704": "atic", "3705": "code<|WB|>", "3706": "side", "3707": "Qu", "3708": "inclu", "3709": "repo", "3710": "44", "3711": "less<|WB|>", "3712": "sing<|WB|>", "3713": "ters<|WB|>", "3714": "mu", "3715": "ify", "3716": "escap", "3717": "(in", "3718": "(par", "3719": "met", "3720": "stru", "3721": "Allow", "3722": "_<|WB|>", "3723": "std", "3724": "language", "3725": "IC<|WB|>", "3726": "self", "3727": "distance", "3728": "unk<|WB|>", "3729": "present", "3730": "recor", "3731": "ts,<|WB|>", "3732": "dest", "3733": "corr", "3734": "blen", "3735": "watch", "3736": "roy", "3737": "[1];<|WB|>", "3738": "IAL", "3739": "UNUSED", "3740": "(x)<|WB|>", "3741": "ANE", "3742": "s'<|WB|>", "3743": "s->s", "3744": "_len<|WB|>", "3745": "TO", "3746": "THREAD", "3747": "(buf,<|WB|>", "3748": "oid,<|WB|>", "3749": "buf)<|WB|>", "3750": "s(void)<|WB|>", "3751": "GE_", "3752": "s(&", "3753": "Trans", "3754": "(MemPage<|WB|>", "3755": "BTCF_Valid", "3756": "blob", "3757": "vector", "3758": "GE<|WB|>", "3759": "Defer", "3760": "ptrmap", "3761": ")/", "3762": "Extra", "3763": "ParseCell", "3764": "PAGE_", "3765": "get2byte(&", "3766": "data[i", "3767": "12<|WB|>", "3768": "->pDbPage);<|WB|>", "3769": "BusyHandle", "3770": "Full", "3771": "(0,<|WB|>", "3772": "Size,<|WB|>", "3773": "VFS", "3774": "Version", "3775": "LEA", "3776": "Cor", "3777": "[ii", "3778": "ixN", "3779": "[i],<|WB|>", "3780": "QUICK", "3781": "ROW", "3782": "LARGE", "3783": "str_", "3784": "orphan", "3785": "ISS", "3786": "expi", "3787": "alloc(", "3788": "arget", "3789": "ACE_", "3790": "(curwin", "3791": "curbuf->b_p_", "3792": "))))<|WB|>", "3793": "common_timeout_", "3794": "tv_", "3795": "_signal", "3796": "base->event_", "3797": "slabs_clsid", "3798": "compress<|WB|>", "3799": "SPI", "3800": "Buffer", "3801": "curlx_dyn_", "3802": "vxwork", "3803": "OSTR", "3804": "OSTRACE", "3805": "OSTRACE((\"", "3806": "PREFIX", "3807": "(u->", "3808": "Module", "3809": "allctl", "3810": "page<|WB|>", "3811": "I<|WB|>", "3812": "is<|WB|>", "3813": "ative<|WB|>", "3814": "27", "3815": "23", "3816": "she", "3817": ",b", "3818": "idactyl", "3819": "fal", "3820": "ort<|WB|>", "3821": "buil", "3822": "igger", "3823": "nap", "3824": "64)<|WB|>", "3825": "compo", "3826": "NB", "3827": "internal", "3828": "liter", "3829": "restore", "3830": "[1]", "3831": "sm", "3832": "dict<|WB|>", "3833": "1]<|WB|>", "3834": "Test", "3835": "et<|WB|>", "3836": "cover", "3837": ".)<|WB|>", "3838": "length<|WB|>", "3839": "hour", "3840": "graph", "3841": "er-", "3842": "atom", "3843": "track", "3844": "stra", "3845": "corrup", "3846": "n)<|WB|>", "3847": "5,<|WB|>", "3848": "Memory", "3849": "Tail", "3850": "(node->", "3851": "zfree", "3852": "memset(", "3853": "Data);<|WB|>", "3854": "BE", "3855": "ANET_", "3856": "ET", "3857": "6553", "3858": "mainten", "3859": "maintenance", "3860": "MOVE", "3861": "_thread", "3862": "m;<|WB|>", "3863": "commit->object.", "3864": "(p)<|WB|>", "3865": "f(&", "3866": "count,<|WB|>", "3867": "[0],<|WB|>", "3868": "TRANS_", "3869": "==2<|WB|>", "3870": "s(<|WB|>", "3871": "sqlite3Bitvec", "3872": "->pPage", "3873": "Insert(", "3874": "Deferred", "3875": "!=SQLITE_", "3876": "Init<|WB|>", "3877": "sqlite3PagerUn", "3878": "SIZE<|WB|>", "3879": "->hdrOffset", "3880": "*2", "3881": "fet", "3882": "zFilename", "3883": "IN_", "3884": "TmpSpace", "3885": "-1]", "3886": "==0", "3887": "ixNx", "3888": "apOld", "3889": "[5", "3890": "_PRE", "3891": "pCheck->", "3892": ".z", "3893": "ing_", "3894": "(state", "3895": "->tv_", "3896": "%02", "3897": "NOR", "3898": "NORM", "3899": "DICT_", "3900": "dictEntry", "3901": "[htidx", "3902": "Add(", "3903": "stats->", "3904": "K_S", "3905": "revins_", "3906": "_ml.ml_", "3907": "_line", "3908": "IF", "3909": "popup_", "3910": "redraw_", "3911": "HL_ATTR(H", "3912": "mch_", "3913": "mch_memmove", "3914": "M)<|WB|>", "3915": "event_queue", "3916": "timeout", "3917": "(base);<|WB|>", "3918": "activequeue", "3919": "0xf", "3920": "is,", "3921": "(is,", "3922": "lru_maintainer_", "3923": "_SLAB", "3924": "O_RD", "3925": "0x1", "3926": "zf", "3927": "val.", "3928": "strncmp", "3929": "Characteristic", "3930": "))aSyscall", "3931": "SYNC_", "3932": "pFd->", "3933": "cksum", "3934": "Dirty", "3935": "ScreenLinesUC[off", "3936": "_ScreenLines", "3937": "].off.", "3938": "g->", "3939": "state->current_", "3940": "OPFLAG_", "3941": "OP_Idx", "3942": "(zl,", "3943": "je_m", "3944": "je_mallctl", "3945": "ise<|WB|>", "3946": "sh<|WB|>", "3947": ".org", "3948": "ures<|WB|>", "3949": "vis", "3950": "overlay", "3951": "70", "3952": "So", "3953": "ned<|WB|>", "3954": "13", "3955": "re,<|WB|>", "3956": "<C-", "3957": "q<|WB|>", "3958": "R<|WB|>", "3959": "32)<|WB|>", "3960": "86", "3961": "67", "3962": "s[n", "3963": "Snap", "3964": "disable", "3965": "it,<|WB|>", "3966": "long<|WB|>", "3967": "ched<|WB|>", "3968": "Code", "3969": "mess", "3970": "string<|WB|>", "3971": "Ep", "3972": "(#1", "3973": "uth", "3974": "ino", "3975": "fm", "3976": "Bookmark", "3977": "coding<|WB|>", "3978": "stuff", "3979": "Open<|WB|>", "3980": "(-", "3981": "Start", "3982": "ing:<|WB|>", "3983": "Log", "3984": "descri", "3985": "'.", "3986": "contin", "3987": "trace", "3988": "three", "3989": "rest", "3990": "Number", "3991": "icro", "3992": "got", "3993": "Can", "3994": "=<|WB|>", "3995": "RI", "3996": "NULL,<|WB|>", "3997": "level<|WB|>", "3998": "value);<|WB|>", "3999": "->next;<|WB|>", "4000": "global", "4001": "_STAR", "4002": "--<|WB|>", "4003": "<sy", "4004": "<sys/", "4005": "EventLoop", "4006": "initialize", "4007": "(un", "4008": "id;<|WB|>", "4009": "miz", "4010": "CAL", "4011": "BLOCK", "4012": "LE<|WB|>", "4013": "ort_", "4014": "uint32", "4015": ")\\n\",<|WB|>", "4016": "oid_to_", "4017": "find_", "4018": "INTER", "4019": "_clear", "4020": "-byte<|WB|>", "4021": "UU", "4022": "rintf(", "4023": "Next;<|WB|>", "4024": "*pPage", "4025": "NotNull", "4026": "Key;<|WB|>", "4027": "SEE", "4028": "Position", "4029": "Moveto", "4030": "ALIG", "4031": "_PTR", "4032": "SQLITE_MAX_", "4033": ")==SQLITE_", "4034": "exclusive", "4035": "auto-", "4036": "nRe", "4037": "pg", "4038": "Step", "4039": "SAVEPO", "4040": "RELEA", "4041": "NEV", "4042": "pRoot", "4043": "iA", "4044": "INC", "4045": "_progres", "4046": ")),<|WB|>", "4047": "(new_", "4048": "ce_", "4049": "buf;<|WB|>", "4050": "NEED", "4051": "_match", "4052": "opts,<|WB|>", "4053": "pos);<|WB|>", "4054": "OFF<|WB|>", "4055": "_auto", "4056": "_dash", "4057": "LIM", "4058": "(num", "4059": "DICTHT_SIZE", "4060": "Find(", "4061": "LEN<|WB|>", "4062": "orig_", "4063": "Long", "4064": "(void);<|WB|>", "4065": "del_", "4066": "used_", "4067": "x_mode", "4068": "(win", "4069": "replace_stack", "4070": "CMP", "4071": "EVENT__", "4072": "ASSERT", "4073": "FIRST", "4074": "_fn", "4075": "is->", "4076": "long)totals.", "4077": "cmsg", "4078": "BUFF", "4079": "'/'<|WB|>", "4080": "ceCharacteristic", "4081": "vxworks", "4082": "RESERVED_", "4083": "pFile->eFileLock", "4084": "aLock", "4085": "journal_mode=", "4086": "(pCtx", "4087": "PAGER_WRITER_", "4088": "pPager->a", "4089": "SuperJournal", "4090": "QUICKLIST_", "4091": "(ql,<|WB|>", "4092": "rg", "4093": "[n].", "4094": "files[", "4095": "1_STEP", "4096": "_BW", "4097": "(u,<|WB|>", "4098": "jv", "4099": "Sorter", "4100": "CURTYPE_", "4101": "P4_", "4102": "pOp[1", "4103": "TK_", "4104": "Agg", "4105": "recur", "4106": "ors<|WB|>", "4107": "as<|WB|>", "4108": "ter,<|WB|>", "4109": "od", "4110": "leave", "4111": "ures", "4112": "ap<|WB|>", "4113": "resi", "4114": "some", "4115": "p[", "4116": "ents<|WB|>", "4117": "net", "4118": "cas", "4119": "ard<|WB|>", "4120": "ol<|WB|>", "4121": "jump", "4122": "noti", "4123": "ined<|WB|>", "4124": "on-", "4125": "ser<|WB|>", "4126": "am<|WB|>", "4127": "Sim", "4128": "ade", "4129": "fd<|WB|>", "4130": "lower", "4131": "s-", "4132": "ten<|WB|>", "4133": "ced<|WB|>", "4134": "goto", "4135": "remain", "4136": "kk", "4137": "sequ", "4138": "dn", "4139": "appro", "4140": "reset", "4141": "CP", "4142": "quer", "4143": "ough", "4144": "2018-0", "4145": "trie", "4146": "Hel", "4147": "Imp", "4148": "d,", "4149": "g.", "4150": "LAN", "4151": "Table<|WB|>", "4152": "sun", "4153": "region", "4154": "just", "4155": "stre", "4156": "Fiel", "4157": "digest", "4158": "REAT", "4159": "y)<|WB|>", "4160": "name;<|WB|>", "4161": "DELETE<|WB|>", "4162": "transaction", "4163": "strcmp(", "4164": "r);<|WB|>", "4165": "List<|WB|>", "4166": "Other", "4167": "Data;<|WB|>", "4168": "E)<|WB|>", "4169": "flags;<|WB|>", "4170": "CLOEX", "4171": "__)<|WB|>", "4172": "val);<|WB|>", "4173": "ORT_", "4174": "m)<|WB|>", "4175": "*);<|WB|>", "4176": "env", "4177": "stop_", "4178": "'%", "4179": "show_", "4180": "oid_to_hex", "4181": "strbuf", "4182": "strbuf_add", "4183": "_release", "4184": "(current_", "4185": "lookup", "4186": "ENO", "4187": "cmd_", "4188": "read-", "4189": "Flags", "4190": "s(p", "4191": "pIter", "4192": "Row<|WB|>", "4193": "State<|WB|>", "4194": "apPage", "4195": "IdxKey", "4196": "ALWA", "4197": "iPtr", "4198": "put4byte(&", "4199": "sqlite3PagerUnref", "4200": "Varint", "4201": "(pPg);<|WB|>", "4202": "PTF_", "4203": "PageRef", "4204": "Name<|WB|>", "4205": "TEMP", "4206": "!is", "4207": "get4byte", "4208": "WAL<|WB|>", "4209": "Integrity", "4210": "Entry<|WB|>", "4211": "(u64)", "4212": "NEVER", "4213": "Righ", "4214": "]++;<|WB|>", "4215": "apCell", "4216": "WIT", "4217": "Done", "4218": "pOld", "4219": "ITI", "4220": "))!=0<|WB|>", "4221": "WOR", "4222": "opts->p", "4223": "SZ", "4224": "c/", "4225": "date_", "4226": "'))<|WB|>", "4227": "Rehashing", "4228": "entry);<|WB|>", "4229": "colnr_", "4230": "vim_is", "4231": "out_str(T_", "4232": "GH", "4233": "Syn", "4234": "_nolock_", "4235": "timeout_", "4236": "min_", "4237": ".ev", "4238": "dispatch", "4239": "s[i];<|WB|>", "4240": "assign", "4241": "COMMON_", "4242": "_q", "4243": "(item<|WB|>", "4244": "itemstats[i].", "4245": "lru_bump_", "4246": "UNK", "4247": "(uv_stream_t*<|WB|>", "4248": "_cb<|WB|>", "4249": "_watch", "4250": "OS_", "4251": "ngx_hash", "4252": "ATOMIC_", "4253": "LCK<|WB|>", "4254": "eFileLock", "4255": "mmapSize", "4256": "sector", "4257": "EXCLUSIVE_", "4258": "Sem", "4259": "ReservedLock", "4260": "(pShmNode", "4261": "iHdr", "4262": "SPILL", "4263": "STATUS_", "4264": "_SZ", "4265": "quicklistCompres", "4266": "r->io.connset", "4267": "pressed_", "4268": "_hl", "4269": "tab[n].", "4270": "SDS_TYPE_", "4271": "token", "4272": "d(\"", "4273": "p->apCsr", "4274": "|MEM_Int", "4275": "sqlite3VdbeMemSet", "4276": "].opcode==OP_", "4277": "memIsValid", "4278": "r[P3]=", "4279": "r[P1]<|WB|>", "4280": "VCur", "4281": ".prev", "4282": "view", "4283": "rop", "4284": "open<|WB|>", "4285": "um<|WB|>", "4286": "web", "4287": "ual<|WB|>", "4288": "tain", "4289": "indi"}, "inverse_vocab": {"\u0000": 0, "\u0001": 1, "\u0002": 2, "\u0003": 3, "\u0004": 4, "\u0005": 5, "\u0006": 6, "\u0007": 7, "\b": 8, "\t": 9, "\n": 10, "\u000b": 11, "\f": 12, "\r": 13, "\u000e": 14, "\u000f": 15, "\u0010": 16, "\u0011": 17, "\u0012": 18, "\u0013": 19, "\u0014": 20, "\u0015": 21, "\u0016": 22, "\u0017": 23, "\u0018": 24, "\u0019": 25, "\u001a": 26, "\u001b": 27, "\u001c": 28, "\u001d": 29, "\u001e": 30, "\u001f": 31, " ": 32, "!": 33, "\"": 34, "#": 35, "$": 36, "%": 37, "&": 38, "'": 39, "(": 40, ")": 41, "*": 42, "+": 43, ",": 44, "-": 45, ".": 46, "/": 47, "0": 48, "1": 49, "2": 50, "3": 51, "4": 52, "5": 53, "6": 54, "7": 55, "8": 56, "9": 57, ":": 58, ";": 59, "<": 60, "=": 61, ">": 62, "?": 63, "@": 64, "A": 65, "B": 66, "C": 67, "D": 68, "E": 69, "F": 70, "G": 71, "H": 72, "I": 73, "J": 74, "K": 75, "L": 76, "M": 77, "N": 78, "O": 79, "P": 80, "Q": 81, "R": 82, "S": 83, "T": 84, "U": 85, "V": 86, "W": 87, "X": 88, "Y": 89, "Z": 90, "[": 91, "\\": 92, "]": 93, "^": 94, "_": 95, "`": 96, "a": 97, "b": 98, "c": 99, "d": 100, "e": 101, "f": 102, "g": 103, "h": 104, "i": 105, "j": 106, "k": 107, "l": 108, "m": 109, "n": 110, "o": 111, "p": 112, "q": 113, "r": 114, "s": 115, "t": 116, "u": 117, "v": 118, "w": 119, "x": 120, "y": 121, "z": 122, "{": 123, "|": 124, "}": 125, "~": 126, "\u007f": 127, "\u0080": 128, "\u0081": 129, "\u0082": 130, "\u0083": 131, "\u0084": 132, "\u0085": 133, "\u0086": 134, "\u0087": 135, "\u0088": 136, "\u0089": 137, "\u008a": 138, "\u008b": 139, "\u008c": 140, "\u008d": 141, "\u008e": 142, "\u008f": 143, "\u0090": 144, "\u0091": 145, "\u0092": 146, "\u0093": 147, "\u0094": 148, "\u0095": 149, "\u0096": 150, "\u0097": 151, "\u0098": 152, "\u0099": 153, "\u009a": 154, "\u009b": 155, "\u009c": 156, "\u009d": 157, "\u009e": 158, "\u009f": 159, "\u00a0": 160, "\u00a1": 161, "\u00a2": 162, "\u00a3": 163, "\u00a4": 164, "\u00a5": 165, "\u00a6": 166, "\u00a7": 167, "\u00a8": 168, "\u00a9": 169, "\u00aa": 170, "\u00ab": 171, "\u00ac": 172, "\u00ad": 173, "\u00ae": 174, "\u00af": 175, "\u00b0": 176, "\u00b1": 177, "\u00b2": 178, "\u00b3": 179, "\u00b4": 180, "\u00b5": 181, "\u00b6": 182, "\u00b7": 183, "\u00b8": 184, "\u00b9": 185, "\u00ba": 186, "\u00bb": 187, "\u00bc": 188, "\u00bd": 189, "\u00be": 190, "\u00bf": 191, "\u00c0": 192, "\u00c1": 193, "\u00c2": 194, "\u00c3": 195, "\u00c4": 196, "\u00c5": 197, "\u00c6": 198, "\u00c7": 199, "\u00c8": 200, "\u00c9": 201, "\u00ca": 202, "\u00cb": 203, "\u00cc": 204, "\u00cd": 205, "\u00ce": 206, "\u00cf": 207, "\u00d0": 208, "\u00d1": 209, "\u00d2": 210, "\u00d3": 211, "\u00d4": 212, "\u00d5": 213, "\u00d6": 214, "\u00d7": 215, "\u00d8": 216, "\u00d9": 217, "\u00da": 218, "\u00db": 219, "\u00dc": 220, "\u00dd": 221, "\u00de": 222, "\u00df": 223, "\u00e0": 224, "\u00e1": 225, "\u00e2": 226, "\u00e3": 227, "\u00e4": 228, "\u00e5": 229, "\u00e6": 230, "\u00e7": 231, "\u00e8": 232, "\u00e9": 233, "\u00ea": 234, "\u00eb": 235, "\u00ec": 236, "\u00ed": 237, "\u00ee": 238, "\u00ef": 239, "\u00f0": 240, "\u00f1": 241, "\u00f2": 242, "\u00f3": 243, "\u00f4": 244, "\u00f5": 245, "\u00f6": 246, "\u00f7": 247, "\u00f8": 248, "\u00f9": 249, "\u00fa": 250, "\u00fb": 251, "\u00fc": 252, "\u00fd": 253, "\u00fe": 254, "\u00ff": 255, "<|EOS|>": 256, "<|WB|>": 257, "\ud83d": 258, "\udc40": 259, "\u0161": 262, "\u0107": 263, "\u0144": 268, "\u2014": 284, "\u2013": 286, "\u2019": 288, "\u203a": 289, ";<|WB|>": 290, ",<|WB|>": 291, "in": 292, "re": 293, "->": 294, ")<|WB|>": 295, "te": 296, "st": 297, ");<|WB|>": 298, "le": 299, "er": 300, "se": 301, "al": 302, "ag": 303, "en": 304, "co": 305, "at": 306, "ar": 307, ".<|WB|>": 308, "ch": 309, "de": 310, "li": 311, "s<|WB|>": 312, "ck": 313, "or": 314, "ur": 315, "lo": 316, "me": 317, "si": 318, "on": 319, "t<|WB|>": 320, "an": 321, "Pag": 322, "(p": 323, "==": 324, "d<|WB|>": 325, "t_": 326, "E_": 327, "tr": 328, "un": 329, "ze": 330, "ti": 331, "ing": 332, "ce": 333, "->p": 334, "ff": 335, ":<|WB|>": 336, "as": 337, "op": 338, "ab": 339, "mp": 340, "lite": 341, "sq": 342, "len": 343, "ne": 344, "sqlite": 345, "**": 346, "ll": 347, "ve": 348, "sqlite3": 349, "it": 350, "ree": 351, "ad": 352, "ate": 353, "int": 354, "IT": 355, "di": 356, "ro": 357, "bu": 358, "no": 359, "ile": 360, "ev": 361, "size": 362, "--": 363, "ST": 364, "str": 365, "ap": 366, "ine": 367, "ter": 368, "et": 369, "id": 370, "RE": 371, "Pager": 372, "]<|WB|>": 373, "ut": 374, "ct": 375, "ER": 376, "0<|WB|>": 377, "Page": 378, "cur": 379, "th": 380, "_f": 381, "))<|WB|>": 382, "IN": 383, "ri": 384, "con": 385, "y<|WB|>": 386, "Bt": 387, "Re": 388, "f(": 389, "In": 390, "po": 391, "T_": 392, "s_": 393, "d_": 394, "ing<|WB|>": 395, "qu": 396, "ame": 397, "\",<|WB|>": 398, "che": 399, "ba": 400, "um": 401, "he": 402, "s,<|WB|>": 403, "ser": 404, "QL": 405, "list": 406, "Cur": 407, "ITE_": 408, "SQL": 409, "ge": 410, "pe": 411, "\"<|WB|>": 412, "EN": 413, "SQLITE_": 414, "set": 415, "(&": 416, "l_": 417, "File": 418, "up": 419, "_S": 420, "mo": 421, "ex": 422, "db": 423, "char": 424, "ize": 425, "Lo": 426, "OP": 427, "sh": 428, "Op": 429, "buf": 430, "ol": 431, "ey": 432, "((": 433, "AL": 434, "->n": 435, "ent": 436, "mem": 437, "LO": 438, "ac": 439, "loc": 440, "HA": 441, "able": 442, "_t": 443, "[i": 444, "lock": 445, "0x": 446, "*p": 447, "fo": 448, "ata": 449, "_p": 450, "****": 451, "rev": 452, "AT": 453, "));<|WB|>": 454, "is": 455, "tion": 456, "ra": 457, "Size": 458, "do": 459, "new": 460, "sc": 461, "ue": 462, "fi": 463, "),<|WB|>": 464, "ath": 465, "00": 466, "lag": 467, "()<|WB|>": 468, "la": 469, "em": 470, "base": 471, "mm": 472, "col": 473, "res": 474, "MA": 475, "ma": 476, "val": 477, "];<|WB|>": 478, "d(": 479, "sor": 480, "il": 481, "CK": 482, "alloc": 483, "ell": 484, "ip": 485, "age": 486, "are": 487, "++": 488, "line": 489, "to": 490, "d,<|WB|>": 491, "comp": 492, "t(": 493, "AG": 494, "Cell": 495, "*)": 496, "x_": 497, "CO": 498, "qui": 499, "Lock": 500, "!=": 501, "ash": 502, "m_": 503, "time": 504, "all": 505, "ME": 506, "our": 507, "s.<|WB|>": 508, "(#": 509, "ul": 510, "nt": 511, "s[": 512, "sp": 513, "S_": 514, "].": 515, "ati": 516, "ran": 517, "off": 518, "Mem": 519, "ent_": 520, "SE": 521, "st<|WB|>": 522, "ig": 523, "yte": 524, "OR": 525, "_in": 526, "==0<|WB|>": 527, "coun": 528, "ype": 529, "1<|WB|>": 530, ").<|WB|>": 531, "'<|WB|>": 532, "ver": 533, "ave": 534, "c<|WB|>": 535, "of(": 536, "v_": 537, "vo": 538, "name": 539, "UR": 540, "UN": 541, "event_": 542, "AR": 543, "s(": 544, "node": 545, "----": 546, "nal": 547, "(!": 548, "s.": 549, "sizeof(": 550, "ix": 551, "quick": 552, "try": 553, "key": 554, "read": 555, "uc": 556, "p->": 557, "LE": 558, "ew": 559, "def": 560, "M_": 561, "32": 562, "No": 563, "rite": 564, "TR": 565, "ou": 566, "pPager": 567, "quicklist": 568, "num": 569, "vi": 570, "(u": 571, "hash": 572, "EV": 573, "_m": 574, "Btree": 575, "ng": 576, "pOp": 577, "st_": 578, "pr": 579, "dr": 580, "rea": 581, "s->": 582, "-1": 583, "Sh": 584, "ca": 585, "Data": 586, "star": 587, "get": 588, "_re": 589, "St": 590, "byte": 591, "New": 592, "(\"": 593, "comm": 594, "(i": 595, "use": 596, "Pg": 597, "LL": 598, "oo": 599, "64": 600, "pCur": 601, "reen": 602, "dict": 603, "OP_": 604, "pC": 605, "win": 606, "s;<|WB|>": 607, "CH": 608, "->a": 609, "for": 610, "flag": 611, "ation": 612, "pro": 613, "[0": 614, "ute": 615, "AD": 616, "ic": 617, "De": 618, "LOCK": 619, "ournal": 620, "Db": 621, "Co": 622, "ER_": 623, "nex": 624, "stat": 625, "sl": 626, "sz": 627, "ON": 628, "void": 629, "be": 630, "lu": 631, "ay": 632, "out": 633, "mat": 634, "PAG": 635, "date": 636, "2<|WB|>": 637, "end": 638, "Line": 639, "unix": 640, "(pPager": 641, "opt": 642, "MAX": 643, "ub": 644, "DE": 645, "SI": 646, "er<|WB|>": 647, "check": 648, "pOp->p": 649, "TE": 650, "ho": 651, "sd": 652, "mode": 653, "yn": 654, "En": 655, "->i": 656, "sg": 657, "********": 658, "al<|WB|>": 659, "_b": 660, "SHA": 661, "free": 662, "err": 663, "back": 664, "\\n": 665, "Key": 666, "file": 667, "d.<|WB|>": 668, "\");<|WB|>": 669, "asser": 670, "====": 671, "w_": 672, "_ST": 673, "(*": 674, "_c": 675, "RO": 676, "ke": 677, "],<|WB|>": 678, "[1": 679, "sig": 680, "pPager->": 681, "print": 682, "t,<|WB|>": 683, "data": 684, "map": 685, "ail": 686, "++;<|WB|>": 687, "m<|WB|>": 688, "and": 689, "MP": 690, "define": 691, "len<|WB|>": 692, "F_": 693, "ref": 694, "Un": 695, "code": 696, "Path": 697, "ranch": 698, "put": 699, "dbe": 700, ".h": 701, "T<|WB|>": 702, "E<|WB|>": 703, "L_": 704, "tab": 705, "ace": 706, "entry": 707, "(int": 708, "pPage": 709, "write": 710, "struc": 711, ">=": 712, "ite": 713, "arg": 714, "NO": 715, "us": 716, "(z": 717, "x<|WB|>": 718, "tree": 719, "AC": 720, "ull": 721, "D_": 722, "sqlite3Pager": 723, "Cursor": 724, "ind": 725, "py": 726, "Vdbe": 727, "rc": 728, "sqlite3Btree": 729, "ow": 730, "AB": 731, "low": 732, "Node": 733, "arch": 734, "Mo": 735, "rr": 736, "s);<|WB|>": 737, "k<|WB|>": 738, "s)<|WB|>": 739, "struct<|WB|>": 740, "ST_": 741, "Con": 742, "(void": 743, "]);<|WB|>": 744, "if(": 745, "ase": 746, "af": 747, "ly": 748, "(c": 749, "SHA1": 750, ",0x": 751, "im": 752, "state": 753, "slab": 754, "Off": 755, "SH": 756, "SS": 757, "IP": 758, "get_": 759, "LU": 760, "d;<|WB|>": 761, "const<|WB|>": 762, "TI": 763, "CUR": 764, "STAT": 765, "assert(": 766, "zip": 767, "count": 768, "buff": 769, "defined(": 770, "{<|WB|>": 771, "que": 772, "if": 773, "pre": 774, "..": 775, "NU": 776, "!=0<|WB|>": 777, "type": 778, "printf(": 779, "tive": 780, "event": 781, "gno": 782, "LI": 783, "strea": 784, "){<|WB|>": 785, "uv_": 786, "ange": 787, "value": 788, "pBt": 789, "curre": 790, "16": 791, "_free": 792, "ly<|WB|>": 793, "int<|WB|>": 794, "search": 795, "Get": 796, "WR": 797, "Id": 798, "save": 799, "row": 800, "ist": 801, "move": 802, "d)<|WB|>": 803, "MO": 804, "->h": 805, "ir": 806, "ins_": 807, "cursor": 808, "BT": 809, "so": 810, "out_": 811, "el": 812, "uto": 813, "AN": 814, "raw": 815, "Free": 816, "__": 817, "cb": 818, "base->": 819, "_w": 820, "ptr": 821, "msg": 822, "mi": 823, "lete": 824, "info": 825, "ngx_": 826, "par": 827, "ory": 828, "();<|WB|>": 829, "memc": 830, "Shm": 831, "IO": 832, "D<|WB|>": 833, "ack": 834, "ek": 835, "FL": 836, "compres": 837, "Val": 838, "+1": 839, "ING": 840, "><|WB|>": 841, "max": 842, "n<|WB|>": 843, "Ch": 844, "Type": 845, "<=": 846, "page": 847, "lear": 848, "t;<|WB|>": 849, "READ": 850, "ment": 851, "(struct<|WB|>": 852, "EP": 853, "p<|WB|>": 854, "_P": 855, "sqlite3_": 856, "PAGER_": 857, "(int)": 858, "FI": 859, "reg": 860, "ance": 861, "Err": 862, "LEN": 863, "wor": 864, "DI": 865, "igh": 866, "old": 867, "unc": 868, "ager": 869, "STATE": 870, "l<|WB|>": 871, "sion": 872, "one": 873, "(<|WB|>": 874, "queue": 875, "dex": 876, "min": 877, "ste": 878, "(const<|WB|>": 879, "COMP": 880, "journal": 881, "--------": 882, "creen": 883, "ure": 884, "Set": 885, "C_": 886, "ctx": 887, "sk": 888, "20": 889, "stream": 890, "ZIP": 891, "(f": 892, "red": 893, "point": 894, "heck": 895, "s[i": 896, "Flag": 897, "Ex": 898, "DO": 899, "mar": 900, "(n": 901, "vf": 902, "ate<|WB|>": 903, "match": 904, "FLAG": 905, "LIST_": 906, ".n": 907, "id<|WB|>": 908, "Nex": 909, "_B": 910, "ty": 911, "cache": 912, "os": 913, "attr": 914, "hv": 915, "pager": 916, "opts->": 917, "exp": 918, "TH": 919, "Save": 920, "of": 921, "gh": 922, "WRIT": 923, "ces": 924, "screen": 925, "S<|WB|>": 926, "ru": 927, "curwin": 928, "sds": 929, "path": 930, "ERR": 931, "ZE": 932, "(t": 933, "COMPRE": 934, "start": 935, "ent<|WB|>": 936, "lin": 937, "ct_": 938, ".h\"<|WB|>": 939, "sqlite3Vdbe": 940, "Idx": 941, "auto": 942, "active": 943, "sub": 944, "',<|WB|>": 945, "Size<|WB|>": 946, "lan": 947, "ed": 948, "lose": 949, "))": 950, "MEM_": 951, "init": 952, "[P": 953, "le<|WB|>": 954, "tex": 955, "INT": 956, "->t": 957, "->ev": 958, "ise": 959, "ain": 960, "signe": 961, "_u": 962, "12": 963, "g_": 964, "EX": 965, "(pBt": 966, "0)<|WB|>": 967, "size<|WB|>": 968, "btree": 969, "Hdr": 970, "open": 971, "long": 972, "*<|WB|>": 973, "cl": 974, "1,<|WB|>": 975, "VE_": 976, "mer": 977, "ld": 978, "LE_": 979, "aylo": 980, "the": 981, "o<|WB|>": 982, "wh": 983, "TY": 984, "_t<|WB|>": 985, "Journal": 986, "change": 987, "Open": 988, ".p": 989, "tion<|WB|>": 990, "_char": 991, "gi": 992, "flags<|WB|>": 993, "(s": 994, "posi": 995, "malloc": 996, "Write": 997, "je": 998, "ith": 999, "head": 1000, "ync": 1001, "Is": 1002, "K_": 1003, "Info": 1004, "lua": 1005, "O_": 1006, "new_": 1007, "ob": 1008, "r<|WB|>": 1009, "inser": 1010, "able<|WB|>": 1011, "(a": 1012, "Roo": 1013, "NULL": 1014, "d);<|WB|>": 1015, "Name": 1016, "ten": 1017, "thread": 1018, "->b": 1019, "DE_": 1020, "GE": 1021, "curl": 1022, "Bu": 1023, "rec": 1024, "cell": 1025, "(e": 1026, "skip": 1027, "atch": 1028, "Out": 1029, "MEM": 1030, "FF": 1031, "Se": 1032, "string": 1033, "(h": 1034, "ray": 1035, "pla": 1036, "md": 1037, "unsigne": 1038, "Paylo": 1039, "lnum": 1040, "lease": 1041, "or<|WB|>": 1042, "ache": 1043, "unk": 1044, "(char": 1045, "Inode": 1046, "ce<|WB|>": 1047, "per": 1048, "ort": 1049, "mb": 1050, "inter": 1051, "gth": 1052, "[2": 1053, "ed<|WB|>": 1054, "ted<|WB|>": 1055, "4<|WB|>": 1056, "Pro": 1057, "BU": 1058, "(pC": 1059, "_branch": 1060, "Screen": 1061, "File.": 1062, "10": 1063, "pec": 1064, "3<|WB|>": 1065, "Map": 1066, "NAL": 1067, "xd": 1068, "set<|WB|>": 1069, "Comp": 1070, "iter": 1071, "Ptr": 1072, "1)<|WB|>": 1073, "ID": 1074, "s:<|WB|>": 1075, "])<|WB|>": 1076, "memcpy": 1077, "rom": 1078, "Wal": 1079, "Len": 1080, "Ad": 1081, "Sp": 1082, "andle": 1083, "printf(\"": 1084, "idth": 1085, "do_": 1086, "r[P": 1087, "it<|WB|>": 1088, "Ar": 1089, "pos": 1090, "sy": 1091, "CHE": 1092, "idx": 1093, "_time": 1094, "curren": 1095, "allback": 1096, "last": 1097, "UP": 1098, "len);<|WB|>": 1099, "Offset": 1100, "\",": 1101, "UT": 1102, "pFile": 1103, "->io": 1104, "update": 1105, "?<|WB|>": 1106, "Sup": 1107, "old_": 1108, "OUR": 1109, "curwin->": 1110, "========": 1111, "we": 1112, "gu": 1113, "g<|WB|>": 1114, "ie": 1115, "unsigned<|WB|>": 1116, "l,<|WB|>": 1117, ")))<|WB|>": 1118, "VE": 1119, "_info": 1120, ">0<|WB|>": 1121, "Fi": 1122, "memset": 1123, "ffff": 1124, "Savepoint": 1125, "AI": 1126, "space": 1127, "ask": 1128, "%s": 1129, "****************": 1130, "Row": 1131, "ot": 1132, "ct<|WB|>": 1133, "ber": 1134, "_SI": 1135, "END": 1136, "_RE": 1137, "col<|WB|>": 1138, "2)<|WB|>": 1139, "reate": 1140, "app": 1141, "usable": 1142, "->aData": 1143, "_file": 1144, "->z": 1145, "a1": 1146, "uv__": 1147, "ast": 1148, "lob": 1149, "utex": 1150, "over": 1151, "25": 1152, "next": 1153, "xy": 1154, "(b": 1155, "ero": 1156, "offset": 1157, "it_": 1158, "Share": 1159, "ation<|WB|>": 1160, "Col": 1161, "mark": 1162, "pat": 1163, "(void)<|WB|>": 1164, "len;<|WB|>": 1165, "buf,<|WB|>": 1166, "ORE": 1167, "ziplist": 1168, "lru": 1169, "war": 1170, "tot": 1171, "fill": 1172, "host": 1173, "Check": 1174, "KE": 1175, "_to": 1176, "sha1": 1177, "fa": 1178, "prev": 1179, "non": 1180, "ity": 1181, "temp": 1182, "STR": 1183, "':<|WB|>": 1184, "Cache": 1185, "==SQLITE_": 1186, "lim": 1187, "add": 1188, "Read": 1189, "2,<|WB|>": 1190, "CA": 1191, "Ref": 1192, "LA": 1193, "BA": 1194, ")==0<|WB|>": 1195, "pCur->": 1196, "spat": 1197, "p,<|WB|>": 1198, "und": 1199, "0,<|WB|>": 1200, "(size": 1201, "_de": 1202, "vfl": 1203, "(ptr": 1204, "compress": 1205, "24": 1206, "ter<|WB|>": 1207, "He": 1208, "table": 1209, "[0]<|WB|>": 1210, "EVEN": 1211, "oid": 1212, "IG": 1213, "Tr": 1214, "ve<|WB|>": 1215, "in,<|WB|>": 1216, "rag": 1217, "(int<|WB|>": 1218, "->pBt": 1219, "DbPage": 1220, "Pager<|WB|>": 1221, "ad<|WB|>": 1222, "rame": 1223, "ctor": 1224, "option": 1225, "cod": 1226, "Mode": 1227, "Super": 1228, "0000": 1229, "P_": 1230, "ACE": 1231, "*z": 1232, "OPEN": 1233, "curlx_": 1234, "Str": 1235, "lename": 1236, "C<|WB|>": 1237, "cmp": 1238, "inc": 1239, "().<|WB|>": 1240, "link": 1241, "current_": 1242, "\".<|WB|>": 1243, "cket": 1244, "Met": 1245, "UND": 1246, "->pgno": 1247, "JOUR": 1248, "JOURNAL": 1249, "end_": 1250, "place": 1251, "count<|WB|>": 1252, "tx": 1253, "MODE_": 1254, "ShmNode": 1255, "sto": 1256, "arent": 1257, "[]<|WB|>": 1258, "&p": 1259, "T(": 1260, "SE_": 1261, "trl_": 1262, "vim_": 1263, "OK": 1264, "node->": 1265, "cnt": 1266, "is_": 1267, "3)<|WB|>": 1268, "ing.<|WB|>": 1269, "fd": 1270, "(d": 1271, "_fa": 1272, "Payload": 1273, "'s<|WB|>": 1274, "sw": 1275, "ae": 1276, "flow": 1277, "--;<|WB|>": 1278, "[0]": 1279, "STORE": 1280, "spec": 1281, "5<|WB|>": 1282, "lay": 1283, "tm": 1284, "clear": 1285, "pp": 1286, "To": 1287, "\\n\",<|WB|>": 1288, "valid": 1289, "(unsigned<|WB|>": 1290, "_no": 1291, "r->io": 1292, "r->io.": 1293, "CURLU": 1294, "1.": 1295, "i<|WB|>": 1296, "\")<|WB|>": 1297, "(x": 1298, "MAX_": 1299, "work": 1300, "sche": 1301, "emp": 1302, "url": 1303, "State": 1304, "_t)": 1305, "start_": 1306, "TYP": 1307, "(pPage": 1308, "A_": 1309, "a<|WB|>": 1310, "tran": 1311, "(#3": 1312, "ger": 1313, "CHA": 1314, "al_": 1315, "new_branch": 1316, "Space": 1317, "IS": 1318, "commit": 1319, "MD": 1320, "NG": 1321, "OP_S": 1322, "11": 1323, "log": 1324, "io": 1325, "len,<|WB|>": 1326, "Value": 1327, "UL": 1328, "_(\"": 1329, "Int": 1330, "Entry": 1331, "pIn": 1332, "Old": 1333, "(ev": 1334, "Y<|WB|>": 1335, "len(": 1336, "%d": 1337, "c_": 1338, "flags": 1339, "REE_": 1340, "byte(&": 1341, "set_": 1342, "curwin->w_": 1343, "ScreenLine": 1344, "(quicklist": 1345, "DOSTORE": 1346, "DOSTORESTATE": 1347, "main": 1348, "cor": 1349, "text": 1350, "error": 1351, "ult": 1352, "8<|WB|>": 1353, "index": 1354, "Loop": 1355, "_SE": 1356, "r_": 1357, "ED": 1358, "V_": 1359, "rio": 1360, "fin": 1361, "re<|WB|>": 1362, "se<|WB|>": 1363, "av": 1364, "SER": 1365, "ORE_": 1366, "\"),<|WB|>": 1367, "DB": 1368, "opup": 1369, "Over": 1370, "umn": 1371, "width": 1372, "Y_": 1373, "SS_": 1374, "(is": 1375, "aMem": 1376, "YN": 1377, "(base": 1378, "(pPager->": 1379, "5)<|WB|>": 1380, "9)<|WB|>": 1381, "On": 1382, "array": 1383, "LOCK<|WB|>": 1384, "Fd": 1385, "Table": 1386, "Byte": 1387, "TYPE_": 1388, "wr": 1389, "ulti": 1390, "[n": 1391, "item_": 1392, "Root": 1393, "(pCur": 1394, "pPg": 1395, "wp->": 1396, "slabs_": 1397, "de<|WB|>": 1398, "dow": 1399, "Tab": 1400, "y,<|WB|>": 1401, "orm": 1402, "OM": 1403, "HAVE_": 1404, "AF": 1405, "INT_": 1406, "SQLITE_IO": 1407, "R_": 1408, "curbuf": 1409, "intset": 1410, "ql": 1411, "(ihv": 1412, "8)<|WB|>": 1413, "6)<|WB|>": 1414, "du": 1415, "posit": 1416, "Le": 1417, "Page<|WB|>": 1418, "HE": 1419, "branch": 1420, "EVENT_": 1421, "pgno": 1422, "\\\"": 1423, "AT_": 1424, "(Pager<|WB|>": 1425, "amp": 1426, "(di": 1427, "->u": 1428, "->ht_": 1429, "_col": 1430, "Frame": 1431, "recompress": 1432, "COMPRESS": 1433, "pu": 1434, "ing,<|WB|>": 1435, "cep": 1436, "CON": 1437, "ild": 1438, "input": 1439, "pository": 1440, "zmalloc": 1441, "utex_": 1442, "pBt->p": 1443, "SHA1_ST": 1444, "SHA1_STORE_": 1445, "SHA1_STORE_STATE": 1446, "SHA1_RE": 1447, "SHA1_RECOMPRESS": 1448, "sha1recompress": 1449, "sha1recompress_fa": 1450, "sha1recompress_fast_": 1451, "bo": 1452, "ill": 1453, "(#4": 1454, "ated<|WB|>": 1455, "ator": 1456, "debu": 1457, "has": 1458, "length": 1459, "alize": 1460, "the_re": 1461, "the_repository": 1462, "(p,<|WB|>": 1463, "sr": 1464, "SIZE": 1465, "ARCH": 1466, "SHA1_STORE_STATE(": 1467, "SHA1_RECOMPRESS(": 1468, "(ihvin,<|WB|>": 1469, "4)<|WB|>": 1470, "ta": 1471, "c,<|WB|>": 1472, "ource": 1473, "ok": 1474, "coding": 1475, "len)<|WB|>": 1476, "Os": 1477, "ROUND": 1478, "now": 1479, "ally<|WB|>": 1480, "red<|WB|>": 1481, "\\n\");<|WB|>": 1482, "->prev": 1483, "_mutex_": 1484, "_free(": 1485, "->e": 1486, "Stat": 1487, "->nCell": 1488, "event_base": 1489, "-0": 1490, "7)<|WB|>": 1491, "99": 1492, "orig": 1493, "Sy": 1494, "0;<|WB|>": 1495, "\";<|WB|>": 1496, "s[i].": 1497, "free(": 1498, "item": 1499, "handle": 1500, "USE": 1501, "_C": 1502, "UNI": 1503, "_for": 1504, "Ovfl": 1505, "opcode": 1506, "VER": 1507, "ZIPLIST_": 1508, "line<|WB|>": 1509, "non-": 1510, "diff": 1511, "PO": 1512, "Buf": 1513, "tra": 1514, "PRO": 1515, "PEND": 1516, "til_": 1517, "(pPager->p": 1518, "Ma": 1519, "(#2": 1520, "ep": 1521, "ject": 1522, "_mode": 1523, "List": 1524, "QU": 1525, "Pgno": 1526, "Mutex": 1527, "i<": 1528, "BTREE_": 1529, "[pOp->p": 1530, "Prev": 1531, "buffer": 1532, "merge": 1533, "term": 1534, "ook": 1535, "File<|WB|>": 1536, "common": 1537, "TAI": 1538, "ITE": 1539, "[h": 1540, "Parent": 1541, "FE": 1542, "screen_": 1543, "(zl": 1544, "confi": 1545, "am": 1546, "iti": 1547, "Next": 1548, "Ori": 1549, "Shared": 1550, "total": 1551, "ifbe": 1552, "req": 1553, "e<|WB|>": 1554, "ch<|WB|>": 1555, "Last": 1556, "void<|WB|>": 1557, "pi": 1558, "ren": 1559, "sn": 1560, "gra": 1561, "Delete": 1562, "Al": 1563, "UNIX": 1564, ")!=0<|WB|>": 1565, "Overflow": 1566, "_STEP": 1567, "spats[": 1568, "scheme": 1569, "number": 1570, "close": 1571, "serve": 1572, "cal": 1573, "->flags<|WB|>": 1574, "_flag": 1575, "HASH": 1576, "')<|WB|>": 1577, "ALLO": 1578, "BtCursor": 1579, "_size": 1580, ")(": 1581, "last_": 1582, "FileLock": 1583, "COMPRESS_": 1584, "on<|WB|>": 1585, "es<|WB|>": 1586, "sen": 1587, "fir": 1588, "gr": 1589, "store": 1590, ".t": 1591, "my": 1592, "'.<|WB|>": 1593, "At": 1594, "ime": 1595, "Di": 1596, "DAT": 1597, "realloc": 1598, "(key": 1599, "ret": 1600, "sele": 1601, "proxy": 1602, "sync": 1603, "copy": 1604, "replace": 1605, "s\",<|WB|>": 1606, "(new": 1607, "_F": 1608, "((\"": 1609, "sqlite3Os": 1610, "conch": 1611, "an<|WB|>": 1612, "current": 1613, "en<|WB|>": 1614, "Comm": 1615, "ar<|WB|>": 1616, "loop": 1617, "mx": 1618, "Up": 1619, "[4": 1620, "0);<|WB|>": 1621, "PRE": 1622, "uint": 1623, "bucket": 1624, "ASS": 1625, "Null": 1626, "MIN": 1627, "6<|WB|>": 1628, "go": 1629, "If": 1630, "pri": 1631, "roll": 1632, "ds<|WB|>": 1633, "tail": 1634, "L,<|WB|>": 1635, "source": 1636, "Inser": 1637, "*/": 1638, "Error": 1639, "cr": 1640, "2);<|WB|>": 1641, "[i]<|WB|>": 1642, "Iter": 1643, "eventLoop": 1644, "Tran": 1645, "WRITE": 1646, "Move": 1647, ".i": 1648, "OU": 1649, "checkout_": 1650, "VI": 1651, "MD5": 1652, "SEARCH": 1653, "state->": 1654, "L<|WB|>": 1655, "14": 1656, "while": 1657, "run": 1658, "ec": 1659, "s/": 1660, "<<": 1661, ".h><|WB|>": 1662, "(sizeof(": 1663, "HEAD": 1664, "p_": 1665, "DEF": 1666, "Btree<|WB|>": 1667, "==1<|WB|>": 1668, "Valid": 1669, "->x": 1670, "sqlite3_file": 1671, "(pFile": 1672, "_ptr": 1673, "hel": 1674, "igno": 1675, "ali": 1676, "HO": 1677, "ty<|WB|>": 1678, "%u": 1679, "object": 1680, "p)<|WB|>": 1681, "Metho": 1682, "NT": 1683, "';<|WB|>": 1684, "_SIZE": 1685, "TRACE": 1686, "Not": 1687, ">=0<|WB|>": 1688, "_stat": 1689, "----------------": 1690, "_cb": 1691, "evcb": 1692, "su": 1693, "-2": 1694, "cmd": 1695, "18": 1696, "ts<|WB|>": 1697, "next_": 1698, "var": 1699, "next<|WB|>": 1700, "SP": 1701, "parse": 1702, "VAL": 1703, "sac": 1704, "Orig": 1705, "TIME": 1706, "Rec": 1707, "ONL": 1708, "Filename": 1709, "Dest": 1710, "char*)": 1711, "[3": 1712, "(db": 1713, "ULL": 1714, "lru_": 1715, "8,": 1716, "pCtx": 1717, "conn": 1718, "sqlite3VdbeMem": 1719, "7<|WB|>": 1720, "show": 1721, "swit": 1722, "ju": 1723, "ph": 1724, "secon": 1725, "er,<|WB|>": 1726, "lic": 1727, "Po": 1728, "vent": 1729, "Init": 1730, "CT_": 1731, "eLock": 1732, "info.n": 1733, "seek": 1734, "->tm_": 1735, "long)": 1736, "ev->ev": 1737, "ctl": 1738, "Curl_": 1739, "if(!": 1740, "pC->": 1741, "xdf": 1742, "19": 1743, "ers<|WB|>": 1744, "stop": 1745, "tent": 1746, "can": 1747, "1;<|WB|>": 1748, "zero": 1749, "())<|WB|>": 1750, "[1]<|WB|>": 1751, "(the_repository": 1752, "Flags<|WB|>": 1753, "saved_": 1754, "Ctrl_": 1755, "pos.": 1756, "ASSER": 1757, "UV_": 1758, "JOURNALMODE_": 1759, "pOp->p4": 1760, "fe": 1761, "ss<|WB|>": 1762, "in<|WB|>": 1763, "53": 1764, "imp": 1765, "f<|WB|>": 1766, "ATH": 1767, "sib": 1768, "cli": 1769, "name<|WB|>": 1770, "ss": 1771, "pc": 1772, "(),<|WB|>": 1773, "callback": 1774, "INIT": 1775, "hash_": 1776, "hex": 1777, "commit_": 1778, "->name": 1779, "_base": 1780, "Find": 1781, "==PAGER_": 1782, "Compare": 1783, "CHAR": 1784, "curbuf->b": 1785, "sett": 1786, "tt": 1787, "th<|WB|>": 1788, "ery": 1789, "100": 1790, "insert": 1791, "lock_": 1792, "line_": 1793, "add_": 1794, "1);<|WB|>": 1795, "memcmp": 1796, "USE_": 1797, "CT": 1798, "(pPg": 1799, "Close": 1800, "Lim": 1801, "rev32": 1802, "event_debu": 1803, "EVLIST_": 1804, "8,8,": 1805, "sdsc": 1806, "aOp": 1807, "ded<|WB|>": 1808, "ment<|WB|>": 1809, "(P": 1810, "\"\\": 1811, "LETE": 1812, "AME": 1813, "NE": 1814, "AL<|WB|>": 1815, "SOR": 1816, "EXC": 1817, "pCur->p": 1818, "64)": 1819, "(u8": 1820, "OFF": 1821, "From": 1822, "FULL": 1823, "chunk": 1824, "eek": 1825, "sed<|WB|>": 1826, "ish": 1827, "Ke": 1828, "//": 1829, "day": 1830, "name,<|WB|>": 1831, "heap": 1832, "anet": 1833, "mt": 1834, "isect_": 1835, "d_f": 1836, "Vf": 1837, "FC": 1838, "YTE": 1839, "SYN": 1840, "New[i": 1841, "OPFLAG": 1842, "ENTR": 1843, "FEAT_": 1844, "cursor_": 1845, "_timeout": 1846, "pInode": 1847, "!<|WB|>": 1848, "ele": 1849, "multi": 1850, "Head": 1851, "full": 1852, "...": 1853, "For": 1854, "rent": 1855, "tern": 1856, "acu": 1857, "strn": 1858, "TAIL": 1859, "_inser": 1860, "CE": 1861, "get4": 1862, "aData": 1863, "SK": 1864, "BACK": 1865, "pNew": 1866, "_h": 1867, "new_branch_info": 1868, "ml_": 1869, "_p_": 1870, "zipmap": 1871, "LUA_": 1872, "ScreenLines": 1873, "Release": 1874, "sel": 1875, "delete": 1876, "r,<|WB|>": 1877, "sa": 1878, "Input": 1879, "Ver": 1880, "teger": 1881, "tv": 1882, "buf_": 1883, "BUG": 1884, "\"%": 1885, "[i].": 1886, "pMem": 1887, "eState": 1888, "SQLITE_IOERR": 1889, "FLAGS_": 1890, "Unlock": 1891, "HD": 1892, "char_": 1893, "rev32ifbe": 1894, "OP_Seek": 1895, "limit": 1896, "dep": 1897, "clu": 1898, "bit": 1899, "used": 1900, "Key<|WB|>": 1901, "ye": 1902, "arge": 1903, "acuum": 1904, "zl": 1905, "T;<|WB|>": 1906, ",&": 1907, "lc": 1908, "LIN": 1909, "CURSOR": 1910, "(*p": 1911, "xx": 1912, "==OP_": 1913, "find": 1914, "cont": 1915, "fix": 1916, "rep": 1917, "ligh": 1918, "force": 1919, "dom": 1920, "man": 1921, ".c": 1922, "Coun": 1923, "Update": 1924, "Be": 1925, "guage": 1926, "Io": 1927, "fy": 1928, "DELETE": 1929, "Index": 1930, "(p);<|WB|>": 1931, "chema": 1932, "BtCursor<|WB|>": 1933, "MAP_": 1934, "PAR": 1935, "+n": 1936, "ageSize": 1937, "p->n": 1938, "stream->": 1939, "Fpos": 1940, "FposMap": 1941, "ther": 1942, "setting": 1943, "mon": 1944, "ure<|WB|>": 1945, "ignore": 1946, "gro": 1947, "rect": 1948, "switch": 1949, "ener": 1950, "MB": 1951, "ifi": 1952, "list<|WB|>": 1953, "aw": 1954, "Star": 1955, "frag": 1956, "2;<|WB|>": 1957, "Create": 1958, "defined(__": 1959, "ITEM_": 1960, "term_": 1961, "_SHA": 1962, "PAGE": 1963, "SHARE": 1964, "->db": 1965, "PENDING": 1966, "SQLITE_OPEN": 1967, "_s": 1968, "wp->w_": 1969, "Regi": 1970, "pPager->p": 1971, "pPager->db": 1972, "act": 1973, "release": 1974, "end<|WB|>": 1975, "dex<|WB|>": 1976, "c)<|WB|>": 1977, "norm": 1978, "format": 1979, "b.": 1980, "Par": 1981, "*s": 1982, "[j": 1983, "TER": 1984, ")==": 1985, "->pDbPage": 1986, "MASK": 1987, "(sqlite3_": 1988, "_tree": 1989, "str(": 1990, "size_": 1991, "compl_": 1992, "lnum<|WB|>": 1993, "RU": 1994, "_attr": 1995, "gg": 1996, "ction": 1997, "ating<|WB|>": 1998, "+1<|WB|>": 1999, "vir": 2000, "ink": 2001, "Lan": 2002, "memory": 2003, "AV": 2004, "dyn": 2005, "Length": 2006, "_init": 2007, "('": 2008, "d\",<|WB|>": 2009, "ted_": 2010, "db->n": 2011, "(pIn": 2012, "ken": 2013, "LRU": 2014, "ctx->": 2015, "r->io.conn": 2016, "ZIP_": 2017, "3,<|WB|>": 2018, "All": 2019, "scroll": 2020, "fg": 2021, "saf": 2022, "entr": 2023, "Num": 2024, "enter": 2025, "leve": 2026, "size;<|WB|>": 2027, "fd,<|WB|>": 2028, "FILE_": 2029, "(void)": 2030, "RR": 2031, "EXCLU": 2032, "EXCLUSI": 2033, "(u32": 2034, "ZE_": 2035, "FOR": 2036, "sqlite3P": 2037, "curwin->w_cursor": 2038, "Char": 2039, "(&base->": 2040, "max_": 2041, "cast_": 2042, "SD": 2043, "pShmNode": 2044, "pager_": 2045, "LASH": 2046, "tri": 2047, "hi": 2048, "AP": 2049, "oc": 2050, "t.<|WB|>": 2051, "dis": 2052, "top": 2053, "dup": 2054, "aren": 2055, "meth": 2056,
[...]
