{"merges": [[",", "<|WB|>", ",<|WB|>"], ["i", "n", "in"], ["e", "r", "er"], [".", "<|WB|>", ".<|WB|>"], ["e", "d", "ed"], ["e", "s", "es"], ["o", "n", "on"], ["e", "n", "en"], ["in", "g", "ing"], ["s", "<|WB|>", "s<|WB|>"], ["a", "n", "an"], ["a", "r", "ar"], ["a", "t", "at"], ["e", "<|WB|>", "e<|WB|>"], [";", "<|WB|>", ";<|WB|>"], ["o", "r", "or"], ["s", "t", "st"], ["ed", "<|WB|>", "ed<|WB|>"], ["o", "u", "ou"], ["r", "e", "re"], ["a", "l", "al"], ["i", "t", "it"], ["y", "<|WB|>", "y<|WB|>"], ["ing", "<|WB|>", "ing<|WB|>"], ["\u201d", "<|WB|>", "\u201d<|WB|>"], ["t", "h", "th"], ["e", "l", "el"], ["i", "s", "is"], ["c", "h", "ch"], ["i", "l", "il"], ["s", ",<|WB|>", "s,<|WB|>"], ["i", "on", "ion"], ["r", "o", "ro"], ["i", "c", "ic"], ["u", "n", "un"], ["l", "e", "le"], ["t", "<|WB|>", "t<|WB|>"], ["r", "a", "ra"], ["o", "m", "om"], ["\u2019", "<|WB|>", "\u2019<|WB|>"], ["u", "r", "ur"], ["a", "s", "as"], ["a", "d", "ad"], ["en", "t", "ent"], ["es", "<|WB|>", "es<|WB|>"], ["o", "l", "ol"], ["r", "i", "ri"], ["e", ",<|WB|>", "e,<|WB|>"], ["l", "o", "lo"], ["!", "<|WB|>", "!<|WB|>"], ["a", "c", "ac"], ["s", "h", "sh"], ["s", ".<|WB|>", "s.<|WB|>"], ["u", "l", "ul"], ["i", "g", "ig"], ["e", "t", "et"], ["ed", ",<|WB|>", "ed,<|WB|>"], ["y", ",<|WB|>", "y,<|WB|>"], ["i", "m", "im"], ["a", "b", "ab"], ["a", "m", "am"], ["an", "d", "and"], ["i", "d", "id"], ["er", "<|WB|>", "er<|WB|>"], [".", "\u201d<|WB|>", ".\u201d<|WB|>"], ["i", "r", "ir"], ["e", "c", "ec"], ["l", "y<|WB|>", "ly<|WB|>"], ["\u2019", "s<|WB|>", "\u2019s<|WB|>"], ["e", "m", "em"], ["a", "p", "ap"], ["-", "-", "--"], ["o", "w", "ow"], ["a", "g", "ag"], ["?", "<|WB|>", "?<|WB|>"], ["e", ".<|WB|>", "e.<|WB|>"], ["t", "er", "ter"], ["v", "er", "ver"], ["c", "on", "con"], ["at", "ion", "ation"], ["s", "p", "sp"], ["o", "o", "oo"], ["s", "e", "se"], ["i", "v", "iv"], ["w", "h", "wh"], ["es", ",<|WB|>", "es,<|WB|>"], ["u", "m", "um"], ["q", "u", "qu"], ["p", "l", "pl"], [":", "<|WB|>", ":<|WB|>"], ["r", "es", "res"], ["f", "or", "for"], ["ed", ".<|WB|>", "ed.<|WB|>"], ["ar", "d", "ard"], ["u", "t", "ut"], ["y", ".<|WB|>", "y.<|WB|>"], ["e", "x", "ex"], ["p", "er", "per"], ["a", "in", "ain"], ["p", "o", "po"], [",", "\u201d<|WB|>", ",\u201d<|WB|>"], ["h", "e", "he"], ["b", "l", "bl"], ["s", "u", "su"], ["i", "st", "ist"], ["s", ";<|WB|>", "s;<|WB|>"], ["f", "f", "ff"], ["c", "om", "com"], ["c", "k", "ck"], ["ing", ",<|WB|>", "ing,<|WB|>"], ["d", "e", "de"], ["ou", "n", "oun"], ["h", "t", "ht"], ["ou", "r", "our"], ["es", "t", "est"], ["an", "t", "ant"], ["a", "y", "ay"], ["a", "k", "ak"], ["a", "st", "ast"], ["l", "i", "li"], ["p", "ro", "pro"], ["is", "h", "ish"], ["r", "u", "ru"], ["e", "-", "e-"], ["al", "l", "all"], ["en", "c", "enc"], [".", "\u2019<|WB|>", ".\u2019<|WB|>"], ["il", "l", "ill"], ["an", "c", "anc"], ["es", "s<|WB|>", "ess<|WB|>"], ["el", "l", "ell"], ["b", "e", "be"], ["d", "er", "der"], ["u", "s", "us"], ["a", "v", "av"], ["d", "is", "dis"], ["o", "p", "op"], ["b", "o", "bo"], ["e", ";<|WB|>", "e;<|WB|>"], ["al", "<|WB|>", "al<|WB|>"], ["d", "<|WB|>", "d<|WB|>"], ["s", "c", "sc"], ["h", "er", "her"], ["_", "<|WB|>", "_<|WB|>"], ["o", "t", "ot"], ["es", ".<|WB|>", "es.<|WB|>"], ["es", "s", "ess"], ["f", "ul", "ful"], ["!", "\u201d<|WB|>", "!\u201d<|WB|>"], ["ar", "t", "art"], ["en", "<|WB|>", "en<|WB|>"], ["c", "t", "ct"], ["ec", "t", "ect"], ["c", "o", "co"], ["e", "p", "ep"], ["in", "d", "ind"], ["\u2014", "th", "\u2014th"], ["ou", "s", "ous"], ["ig", "ht", "ight"], ["i", "p", "ip"], ["e", "ar", "ear"], ["i", "f", "if"], ["m", "an", "man"], ["lo", "w", "low"], ["c", "l", "cl"], ["a", "w", "aw"], ["m", "o", "mo"], ["en", "d", "end"], ["and", "<|WB|>", "and<|WB|>"], ["l", "e<|WB|>", "le<|WB|>"], ["u", "d", "ud"], ["ed", ";<|WB|>", "ed;<|WB|>"], ["g", "h", "gh"], ["ic", "k", "ick"], ["e", "v", "ev"], ["er", ",<|WB|>", "er,<|WB|>"], ["ing", ".<|WB|>", "ing.<|WB|>"], ["a", "<|WB|>", "a<|WB|>"], ["en", "t<|WB|>", "ent<|WB|>"], ["ro", "w", "row"], ["an", "g", "ang"], ["as", "s", "ass"], ["n", "e", "ne"], ["ac", "k", "ack"], ["in", "t", "int"], ["n", "o", "no"], [",", "\u2019<|WB|>", ",\u2019<|WB|>"], ["f", "l", "fl"], ["w", "or", "wor"], ["d", "o", "do"], ["at", "h", "ath"], ["ion", "<|WB|>", "ion<|WB|>"], ["es", "t<|WB|>", "est<|WB|>"], ["th", "er", "ther"], ["y", "-", "y-"], ["p", "re", "pre"], ["t", "o", "to"], ["e", "\u2014", "e\u2014"], ["t", "ra", "tra"], ["at", "<|WB|>", "at<|WB|>"], ["a", "il", "ail"], ["s", "o", "so"], ["t", "r", "tr"], ["s", "el", "sel"], ["?", "\u201d<|WB|>", "?\u201d<|WB|>"], ["ing", "-", "ing-"], ["y", ";<|WB|>", "y;<|WB|>"], ["d", "i", "di"], ["or", "t", "ort"], ["b", "u", "bu"], ["a", "ch", "ach"], ["ation", "<|WB|>", "ation<|WB|>"], ["ou", "s<|WB|>", "ous<|WB|>"], ["er", "s<|WB|>", "ers<|WB|>"], ["u", "p", "up"], ["l", "y,<|WB|>", "ly,<|WB|>"], ["g", "l", "gl"], ["n", "<|WB|>", "n<|WB|>"], ["m", "e", "me"], ["a", "-", "a-"], ["p", "h", "ph"], ["a", "u", "au"], ["le", ",<|WB|>", "le,<|WB|>"], ["b", "er", "ber"], ["oo", "d", "ood"], ["k", "<|WB|>", "k<|WB|>"], ["ou", "t", "out"], ["an", "<|WB|>", "an<|WB|>"], ["oun", "d", "ound"], ["w", "e", "we"], ["r", "at", "rat"], ["-", "b", "-b"], ["ap", "p", "app"], ["es", ";<|WB|>", "es;<|WB|>"], ["a", "ir", "air"], ["on", "<|WB|>", "on<|WB|>"], ["on", "g", "ong"], ["i", "es<|WB|>", "ies<|WB|>"], ["u", "st", "ust"], ["n", "ess<|WB|>", "ness<|WB|>"], ["en", "s", "ens"], ["n", "ow", "now"], ["ab", "le<|WB|>", "able<|WB|>"], ["p", "res", "pres"], ["po", "s", "pos"], ["in", "c", "inc"], ["ar", "m", "arm"], ["e", "w", "ew"], ["o", "d", "od"], ["m", "is", "mis"], ["-", "h", "-h"], ["es", "s,<|WB|>", "ess,<|WB|>"], ["m", "ar", "mar"], ["d", "es", "des"], ["m", "ent", "ment"], ["he", "ad", "head"], ["it", "y<|WB|>", "ity<|WB|>"], ["at", "ed<|WB|>", "ated<|WB|>"], ["o", "b", "ob"], ["o", "g", "og"], ["o", "k", "ok"], ["u", "re", "ure"], ["ou", "gh", "ough"], ["i", "b", "ib"], ["i", "z", "iz"], ["p", "r", "pr"], ["o", "ver", "over"], ["!", "\u2019<|WB|>", "!\u2019<|WB|>"], ["ing", "s<|WB|>", "ings<|WB|>"], ["ch", "<|WB|>", "ch<|WB|>"], ["?", "\u2019<|WB|>", "?\u2019<|WB|>"], [")", "<|WB|>", ")<|WB|>"], ["as", "h", "ash"], ["ig", "h", "igh"], ["re", "t", "ret"], ["g", "ht", "ght"], ["p", "ar", "par"], ["h", "al", "hal"], ["m", "on", "mon"], ["T", "h", "Th"], ["f", "-", "f-"], ["s", "l", "sl"], ["c", "or", "cor"], ["at", "e<|WB|>", "ate<|WB|>"], ["or", "<|WB|>", "or<|WB|>"], ["t", "ed<|WB|>", "ted<|WB|>"], ["f", "e", "fe"], ["g", "ra", "gra"], ["s", "\u2014", "s\u2014"], ["li", "k", "lik"], ["iv", "e<|WB|>", "ive<|WB|>"], ["it", "<|WB|>", "it<|WB|>"], ["t", "ain", "tain"], ["b", "ar", "bar"], ["er", "v", "erv"], ["t", ",<|WB|>", "t,<|WB|>"], ["c", "ar", "car"], ["it", "h", "ith"], ["S", "t", "St"], ["ig", "n", "ign"], ["ion", ",<|WB|>", "ion,<|WB|>"], ["c", "ol", "col"], ["c", "e", "ce"], ["le", ".<|WB|>", "le.<|WB|>"], ["en", ",<|WB|>", "en,<|WB|>"], ["s", "m", "sm"], ["s", "w", "sw"], ["e", "!<|WB|>", "e!<|WB|>"], ["an", "k", "ank"], ["e", "g", "eg"], ["m", "in", "min"], ["f", "i", "fi"], ["in", "k", "ink"], ["er", ".<|WB|>", "er.<|WB|>"], ["t", "re", "tre"], ["b", "re", "bre"], ["im", "p", "imp"], ["I", "<|WB|>", "I<|WB|>"], ["t", "w", "tw"], ["\u2014", "and<|WB|>", "\u2014and<|WB|>"], ["in", "<|WB|>", "in<|WB|>"], ["d", "ec", "dec"], ["at", "t", "att"], ["in", "ter", "inter"], ["s", "id", "sid"], ["ou", "l", "oul"], ["it", "t", "itt"], ["e", "y", "ey"], ["s", "om", "som"], ["al", "ly<|WB|>", "ally<|WB|>"], ["ic", "<|WB|>", "ic<|WB|>"], ["g", "r", "gr"], ["w", "a", "wa"], ["ol", "d", "old"], ["wh", "al", "whal"], ["g", "e", "ge"], ["el", "y<|WB|>", "ely<|WB|>"], ["b", "r", "br"], ["or", "n", "orn"], ["o", "<|WB|>", "o<|WB|>"], ["c", "ur", "cur"], ["a", "f", "af"], ["p", "t", "pt"], ["g", "u", "gu"], ["ing", ";<|WB|>", "ing;<|WB|>"], ["m", "er", "mer"], ["s", "k", "sk"], ["o", "s", "os"], ["u", "ck", "uck"], ["\u2014th", "e<|WB|>", "\u2014the<|WB|>"], ["st", "r", "str"], ["l", "y.<|WB|>", "ly.<|WB|>"], ["com", "p", "comp"], ["l", "<|WB|>", "l<|WB|>"], ["o", "c", "oc"], ["at", "ch", "atch"], ["sh", "ip", "ship"], ["p", "e", "pe"], ["c", "lo", "clo"], ["ur", "n", "urn"], ["con", "t", "cont"], ["w", "ard", "ward"], ["g", "g", "gg"], ["C", "h", "Ch"], ["s", "ur", "sur"], ["e", "f", "ef"], ["ul", "t", "ult"], ["l", "in", "lin"], ["c", "oun", "coun"], ["ow", "n", "own"], ["\"", "<|WB|>", "\"<|WB|>"], ["e", ".\u201d<|WB|>", "e.\u201d<|WB|>"], ["e", "ver", "ever"], ["ion", ".<|WB|>", "ion.<|WB|>"], ["th", "<|WB|>", "th<|WB|>"], ["es", "s.<|WB|>", "ess.<|WB|>"], ["on", ",<|WB|>", "on,<|WB|>"], ["y", "ou", "you"], ["l", "ed<|WB|>", "led<|WB|>"], ["g", "re", "gre"], ["e", "e", "ee"], ["er", "s,<|WB|>", "ers,<|WB|>"], ["ful", "<|WB|>", "ful<|WB|>"], ["i", "s<|WB|>", "is<|WB|>"], ["ac", "t", "act"], ["ic", "t", "ict"], ["st", "<|WB|>", "st<|WB|>"], ["o", "ff", "off"], ["c", "re", "cre"], ["ing", "ly<|WB|>", "ingly<|WB|>"], ["an", "n", "ann"], ["it", "y,<|WB|>", "ity,<|WB|>"], ["for", "t", "fort"], ["st", "e", "ste"], ["a", "s<|WB|>", "as<|WB|>"], ["c", "r", "cr"], ["ation", ",<|WB|>", "ation,<|WB|>"], ["s", "!<|WB|>", "s!<|WB|>"], ["un", "der", "under"], ["enc", "e<|WB|>", "ence<|WB|>"], ["et", "t", "ett"], ["ation", ".<|WB|>", "ation.<|WB|>"], ["un", "d", "und"], ["re", "l", "rel"], ["al", ",<|WB|>", "al,<|WB|>"], ["bl", "e<|WB|>", "ble<|WB|>"], ["c", "ap", "cap"], [")", ",<|WB|>", "),<|WB|>"], ["f", "t", "ft"], ["u", "b", "ub"], ["v", "el", "vel"], ["on", "d", "ond"], ["i", "an", "ian"], ["ion", "s<|WB|>", "ions<|WB|>"], ["a", ",<|WB|>", "a,<|WB|>"], ["su", "b", "sub"], ["at", "ing<|WB|>", "ating<|WB|>"], ["oo", "k", "ook"], ["ish", "<|WB|>", "ish<|WB|>"], ["a", "z", "az"], ["c", "as", "cas"], ["t", "im", "tim"], ["s", "ol", "sol"], ["m", "at", "mat"], ["lo", "ok", "look"], ["e", "?<|WB|>", "e?<|WB|>"], ["_", ",<|WB|>", "_,<|WB|>"], ["am", "p", "amp"], ["re", "ad", "read"], ["l", "y", "ly"], ["l", "and", "land"], ["a", "ff", "aff"], ["m", "or", "mor"], ["le", "t", "let"], ["ar", "<|WB|>", "ar<|WB|>"], ["o", "ol", "ool"], ["v", "i", "vi"], ["ent", ",<|WB|>", "ent,<|WB|>"], ["h", "or", "hor"], ["un", "t", "unt"], ["in", "n", "inn"], ["h", "o", "ho"], ["j", "o", "jo"], ["e", "--", "e--"], ["anc", "e<|WB|>", "ance<|WB|>"], ["sel", "f", "self"], ["ri", "d", "rid"], ["ar", "k", "ark"], ["m", "<|WB|>", "m<|WB|>"], ["ri", "b", "rib"], ["a", "id", "aid"], ["il", "d", "ild"], ["i", "es,<|WB|>", "ies,<|WB|>"], ["th", "ing", "thing"], ["ro", "om", "room"], ["el", "i", "eli"], ["an", "t<|WB|>", "ant<|WB|>"], ["s", "on", "son"], ["d", "u", "du"], ["c", "er", "cer"], ["c", "i", "ci"], ["w", "ay", "way"], ["f", "er", "fer"], ["or", ",<|WB|>", "or,<|WB|>"], ["at", "her", "ather"], ["b", "ro", "bro"], ["p", "p", "pp"], ["\u2014", "h", "\u2014h"], ["n", "ight", "night"], ["p", "art", "part"], ["lik", "e<|WB|>", "like<|WB|>"], ["l", "ing<|WB|>", "ling<|WB|>"], ["ri", "v", "riv"], ["h", "and", "hand"], ["s", ".\u201d<|WB|>", "s.\u201d<|WB|>"], ["d", "ra", "dra"], ["\u2014", "wh", "\u2014wh"], ["on", "e<|WB|>", "one<|WB|>"], ["a", "y<|WB|>", "ay<|WB|>"], ["b", "ra", "bra"], ["-", "f", "-f"], ["w", "ar", "war"], ["e", "t<|WB|>", "et<|WB|>"], ["ation", "s<|WB|>", "ations<|WB|>"], ["e", "\u2019s<|WB|>", "e\u2019s<|WB|>"], ["ri", "ght", "right"], ["en", ".<|WB|>", "en.<|WB|>"], ["-", "p", "-p"], ["d", "ist", "dist"], ["s", "i", "si"], ["he", "art", "heart"], ["en", "g", "eng"], ["l", "ess<|WB|>", "less<|WB|>"], ["s", "ec", "sec"], ["i", "ous", "ious"], ["at", "er", "ater"], ["a", "h", "ah"], ["f", "in", "fin"], ["pl", "ac", "plac"], ["n", "ot", "not"], ["A", "l", "Al"], ["in", "v", "inv"], ["oo", "t", "oot"], ["ro", "s", "ros"], ["s", "n", "sn"], ["e", ":<|WB|>", "e:<|WB|>"], ["n", "ess,<|WB|>", "ness,<|WB|>"], ["w", "ell", "well"], ["ur", "e<|WB|>", "ure<|WB|>"], ["ic", "al<|WB|>", "ical<|WB|>"], ["pres", "s", "press"], ["h", "im", "him"], ["com", "m", "comm"], ["r", "en", "ren"], ["--", "th", "--th"], ["el", "<|WB|>", "el<|WB|>"], ["ex", "p", "exp"], ["ing", "s,<|WB|>", "ings,<|WB|>"], ["re", "g", "reg"], ["le", ";<|WB|>", "le;<|WB|>"], ["s", "?<|WB|>", "s?<|WB|>"], ["bu", "t<|WB|>", "but<|WB|>"], ["ou", "s,<|WB|>", "ous,<|WB|>"], ["for", "m", "form"], ["c", "ra", "cra"], ["!", "\u2014", "!\u2014"], ["ard", "<|WB|>", "ard<|WB|>"], ["h", "ar", "har"], ["un", "g", "ung"], ["ad", "<|WB|>", "ad<|WB|>"], ["y", "ing<|WB|>", "ying<|WB|>"], ["-", "t", "-t"], ["um", "p", "ump"], ["A", "n", "An"], ["m", "ast", "mast"], ["e", "as", "eas"], ["ent", ".<|WB|>", "ent.<|WB|>"], ["ro", "p", "rop"], ["k", "e", "ke"], ["s", "erv", "serv"], ["re", "p", "rep"], ["w", "ith", "with"], ["i", "ous<|WB|>", "ious<|WB|>"], ["it", "y.<|WB|>", "ity.<|WB|>"], ["r", "ed", "red"], ["g", "o", "go"], ["j", "ect", "ject"], ["all", "<|WB|>", "all<|WB|>"], ["re", "m", "rem"], ["p", "le", "ple"], ["W", "h", "Wh"], ["o", "f", "of"], ["bo", "d", "bod"], ["l", "ight", "light"], ["s", "\u2019<|WB|>", "s\u2019<|WB|>"], ["w", "ind", "wind"], ["in", "e<|WB|>", "ine<|WB|>"], ["t", "e", "te"], ["et", ",<|WB|>", "et,<|WB|>"], ["c", "le", "cle"], ["p", "ur", "pur"], ["en", "er", "ener"], ["ver", "s", "vers"], ["d", "ay", "day"], ["hal", "f-", "half-"], ["I", "n", "In"], ["l", "ong", "long"], ["i", "ed<|WB|>", "ied<|WB|>"], ["u", "ff", "uff"], ["ut", "t", "utt"], ["ad", "d", "add"], ["\u201c", "S", "\u201cS"], ["ri", "m", "rim"], ["w", "r", "wr"], ["al", ".<|WB|>", "al.<|WB|>"], ["r", "y", "ry"], ["b", "lo", "blo"], ["est", ",<|WB|>", "est,<|WB|>"], ["o", "v", "ov"], ["k", "now", "know"], ["Q", "u", "Qu"], ["\u2014", "a<|WB|>", "\u2014a<|WB|>"], ["ar", "y<|WB|>", "ary<|WB|>"], ["c", "our", "cour"], ["il", "y<|WB|>", "ily<|WB|>"], ["con", "f", "conf"], ["in", "s", "ins"], ["s", "y", "sy"], ["ion", ";<|WB|>", "ion;<|WB|>"], ["l", "es<|WB|>", "les<|WB|>"], ["ent", "s<|WB|>", "ents<|WB|>"], ["b", "le", "ble"], ["\u2019", "t<|WB|>", "\u2019t<|WB|>"], ["\u2014", "I<|WB|>", "\u2014I<|WB|>"], ["e", ",\u201d<|WB|>", "e,\u201d<|WB|>"], ["ain", "t", "aint"], ["t", "ru", "tru"], ["au", "gh", "augh"], ["er", ";<|WB|>", "er;<|WB|>"], ["v", "ent", "vent"], ["f", "el", "fel"], ["pro", "v", "prov"], ["ow", "<|WB|>", "ow<|WB|>"], ["id", "<|WB|>", "id<|WB|>"], ["p", "i", "pi"], ["an", "y", "any"], ["t", "t", "tt"], ["g", "ood", "good"], ["er", "\u2019s<|WB|>", "er\u2019s<|WB|>"], ["b", "ur", "bur"], ["d", ",<|WB|>", "d,<|WB|>"], ["c", "an", "can"], ["p", "ass", "pass"], ["p", "it", "pit"], ["r", "on", "ron"], ["u", "g", "ug"], ["ul", "l", "ull"], ["\u2014", "\u201c", "\u2014\u201c"], ["ac", "c", "acc"], ["ab", "le,<|WB|>", "able,<|WB|>"], ["s", "le", "sle"], ["for", "<|WB|>", "for<|WB|>"], ["d", "en", "den"], ["at", "ur", "atur"], ["sel", "f-", "self-"], ["if", "ic", "ific"], ["ut", "ter", "utter"], ["ch", "e", "che"], ["s", ":<|WB|>", "s:<|WB|>"], ["\u201c", "\u2018", "\u201c\u2018"], ["or", "s<|WB|>", "ors<|WB|>"], ["ff", "er", "ffer"], ["igh", "t<|WB|>", "ight<|WB|>"], ["t", "al", "tal"], ["i", "re", "ire"], ["ou", "se", "ouse"], ["\u2014th", "at<|WB|>", "\u2014that<|WB|>"], ["tr", "an", "tran"], ["er", "s.<|WB|>", "ers.<|WB|>"], ["\u2019", "s,<|WB|>", "\u2019s,<|WB|>"], ["re", "am", "ream"], ["-", "st", "-st"], ["at", "\u2019s<|WB|>", "at\u2019s<|WB|>"], ["wh", "er", "wher"], ["our", "<|WB|>", "our<|WB|>"], ["on", "e", "one"], ["at", "ter", "atter"], ["_", ".<|WB|>", "_.<|WB|>"], ["co", "ver", "cover"], ["as", "k", "ask"], ["al", "s<|WB|>", "als<|WB|>"], ["st", "er", "ster"], ["s", "un", "sun"], ["r", "ic", "ric"], ["wor", "k", "work"], ["r", "is", "ris"], ["ep", "t", "ept"], ["ag", "g", "agg"], ["er", "ed<|WB|>", "ered<|WB|>"], ["c", "ir", "cir"], ["ion", "s,<|WB|>", "ions,<|WB|>"], ["st", "ra", "stra"], ["s", "qu", "squ"], ["th", "e", "the"], ["th", "em", "them"], ["s", "ch", "sch"], ["i", "al<|WB|>", "ial<|WB|>"], ["en", "ess<|WB|>", "eness<|WB|>"], ["r", "y<|WB|>", "ry<|WB|>"], ["t", "ri", "tri"], ["h", "ab", "hab"], ["enc", "e,<|WB|>", "ence,<|WB|>"], ["en", "ed<|WB|>", "ened<|WB|>"], ["f", "ish", "fish"], ["g", "e<|WB|>", "ge<|WB|>"], ["it", "e<|WB|>", "ite<|WB|>"], ["ch", "ar", "char"], ["at", ",<|WB|>", "at,<|WB|>"], ["ex", "c", "exc"], ["m", "en", "men"], ["ar", "ch", "arch"], ["h", "el", "hel"], ["m", "ent<|WB|>", "ment<|WB|>"], ["ag", "e<|WB|>", "age<|WB|>"], ["y", "!<|WB|>", "y!<|WB|>"], ["de", "v", "dev"], ["em", "p", "emp"], ["y", "\u2019s<|WB|>", "y\u2019s<|WB|>"], ["l", "ess", "less"], ["ck", "<|WB|>", "ck<|WB|>"], ["re", "f", "ref"], ["\u2019", "l", "\u2019l"], ["e", ".\u2019<|WB|>", "e.\u2019<|WB|>"], ["man", "<|WB|>", "man<|WB|>"], ["to", "<|WB|>", "to<|WB|>"], ["re", "v", "rev"], ["in", "st", "inst"], ["p", "ra", "pra"], ["r", "un", "run"], ["mar", "k", "mark"], ["b", "ack", "back"], ["a", "y,<|WB|>", "ay,<|WB|>"], ["c", "ri", "cri"], ["on", ".<|WB|>", "on.<|WB|>"], ["ab", "le.<|WB|>", "able.<|WB|>"], ["ol", "og", "olog"], ["l", "iv", "liv"], ["y", ".\u201d<|WB|>", "y.\u201d<|WB|>"], ["sp", "ect", "spect"], ["anc", "e,<|WB|>", "ance,<|WB|>"], ["pr", "is", "pris"], ["k", "n", "kn"], ["h", "app", "happ"], ["oul", "d", "ould"], ["b", "ow", "bow"], ["h", "um", "hum"], ["sh", "o", "sho"], ["at", "e,<|WB|>", "ate,<|WB|>"], ["p", "ort", "port"], ["f", "ac", "fac"], ["c", "ru", "cru"], ["m", "ed", "med"], ["w", "ood", "wood"], ["le", "ct", "lect"], ["or", "d", "ord"], ["-", "d", "-d"], ["n", "ess.<|WB|>", "ness.<|WB|>"], ["e", "b", "eb"], ["w", "ater", "water"], ["s", "ail", "sail"], ["-", "head", "-head"], ["a", "us", "aus"], ["l", "ar", "lar"], ["ough", "<|WB|>", "ough<|WB|>"], ["s", "e<|WB|>", "se<|WB|>"], ["ple", "as", "pleas"], ["res", "s", "ress"], ["\u201c", "H", "\u201cH"], ["it", "ud", "itud"], ["f", "lo", "flo"], ["0", "0", "00"], ["som", "e", "some"], ["p", "<|WB|>", "p<|WB|>"], ["ou", "th", "outh"], ["c", "ent", "cent"], ["an", ",<|WB|>", "an,<|WB|>"], ["com", "pl", "compl"], ["a", "ut", "aut"], ["row", "n", "rown"], ["s", "ay", "say"], ["es", "s;<|WB|>", "ess;<|WB|>"], ["-", "l", "-l"], ["b", "ed", "bed"], ["o", "ther", "other"], ["in", ",<|WB|>", "in,<|WB|>"], ["ast", "<|WB|>", "ast<|WB|>"], ["s", "um", "sum"], ["s", "ist", "sist"], ["f", "ri", "fri"], ["S", "h", "Sh"], ["res", "p", "resp"], ["sp", "ir", "spir"], ["s", "er", "ser"], [",", "--", ",--"], ["s", "or", "sor"], ["m", "ur", "mur"], ["\u2019", "t", "\u2019t"], ["?", "\u2014", "?\u2014"], ["i", "ch<|WB|>", "ich<|WB|>"], ["ill", "<|WB|>", "ill<|WB|>"], ["v", "is", "vis"], ["con", "v", "conv"], ["ne", "w", "new"], ["i", "an<|WB|>", "ian<|WB|>"], ["ou", "ght", "ought"], ["c", "al", "cal"], ["el", ",<|WB|>", "el,<|WB|>"], ["p", "ol", "pol"], ["-", "g", "-g"], ["st", "ar", "star"], ["es", "\u2014", "es\u2014"], ["t", "oo", "too"], ["su", "p", "sup"], ["e", "k", "ek"], ["um", "b", "umb"], ["re", "as", "reas"], ["th", "at", "that"], ["A", "r", "Ar"], ["pro", "f", "prof"], ["ri", "st", "rist"], ["am", "b", "amb"], ["se", "a-", "sea-"], ["in", "\u2019<|WB|>", "in\u2019<|WB|>"], [".", ".", ".."], ["'", "s<|WB|>", "'s<|WB|>"], ["s", "al", "sal"], ["f", "ro", "fro"], ["st", "or", "stor"], ["d", "et", "det"], ["t", "en", "ten"], ["w", "it", "wit"], ["ab", "le", "able"], ["ar", "n", "arn"], ["po", "int", "point"], ["enc", "e.<|WB|>", "ence.<|WB|>"], ["ir", "t", "irt"], ["h", "ol", "hol"], ["H", "ar", "Har"], ["b", "b", "bb"], ["d", "el", "del"], ["ou", "t<|WB|>", "out<|WB|>"], ["th", ",<|WB|>", "th,<|WB|>"], ["is", "e<|WB|>", "ise<|WB|>"], ["e", "qu", "equ"], ["o", ",<|WB|>", "o,<|WB|>"], ["u", "c", "uc"], ["i", "es.<|WB|>", "ies.<|WB|>"], ["wh", "it", "whit"], [",", "\u2014", ",\u2014"], ["ent", "ly<|WB|>", "ently<|WB|>"], ["n", "ess", "ness"], ["ous", "ly<|WB|>", "ously<|WB|>"], ["u", "s<|WB|>", "us<|WB|>"], ["b", "or", "bor"], ["h", "ous", "hous"], ["on", "der", "onder"], ["f", "re", "fre"], ["cir", "c", "circ"], ["ard", ",<|WB|>", "ard,<|WB|>"], ["es", ".\u201d<|WB|>", "es.\u201d<|WB|>"], ["p", "ed<|WB|>", "ped<|WB|>"], ["ec", "k", "eck"], ["es", "!<|WB|>", "es!<|WB|>"], ["!", "\"<|WB|>", "!\"<|WB|>"], ["ab", "ly<|WB|>", "ably<|WB|>"], ["ic", "e<|WB|>", "ice<|WB|>"], ["pos", "s", "poss"], ["h", "am", "ham"], ["st", "and", "stand"], ["pl", "ay", "play"], ["ev", "er<|WB|>", "ever<|WB|>"], ["d", "em", "dem"], ["l", "ad", "lad"], ["-", "m", "-m"], ["mis", "s", "miss"], ["p", "al", "pal"], ["ed", ":<|WB|>", "ed:<|WB|>"], ["ou", "d", "oud"], ["he", "av", "heav"], ["sh", "e", "she"], ["su", "per", "super"], ["u", "sh", "ush"], ["x", "<|WB|>", "x<|WB|>"], ["el", "y,<|WB|>", "ely,<|WB|>"], ["E", "n", "En"], ["en", "n", "enn"], ["res", "t", "rest"], ["ou", "s.<|WB|>", "ous.<|WB|>"], ["wor", "d", "word"], ["f", "ol", "fol"], ["d", "own", "down"], ["-", "w", "-w"], ["\u201c", "W", "\u201cW"], ["m", "us", "mus"], ["p", "an", "pan"], ["ra", "m", "ram"], ["et", ".<|WB|>", "et.<|WB|>"], ["ation", "s,<|WB|>", "ations,<|WB|>"], ["o", "y", "oy"], ["j", "ust", "just"], ["f", "ir", "fir"], ["p", "ul", "pul"], ["ch", "ed<|WB|>", "ched<|WB|>"], ["s", "at", "sat"], ["at", "or", "ator"], ["ak", "e<|WB|>", "ake<|WB|>"], ["il", "e<|WB|>", "ile<|WB|>"], ["m", "ag", "mag"], ["im", "m", "imm"], ["le", "g", "leg"], ["er", "ing<|WB|>", "ering<|WB|>"], ["en", "ing<|WB|>", "ening<|WB|>"], ["be", "g", "beg"], ["at", "ed,<|WB|>", "ated,<|WB|>"], ["s", "il", "sil"], ["v", "al", "val"], ["er", "s", "ers"], ["re", "ct", "rect"], ["\u2019l", "l<|WB|>", "\u2019ll<|WB|>"], ["h", "av", "hav"], ["d", "ou", "dou"], ["k", "ind", "kind"], ["it", ",<|WB|>", "it,<|WB|>"], ["m", "y", "my"], ["th", "re", "thre"], ["ex", "t", "ext"], ["ant", ",<|WB|>", "ant,<|WB|>"], ["dra", "w", "draw"], ["f", "ast", "fast"], ["om", "in", "omin"], ["pre", "c", "prec"], ["for", "g", "forg"], ["do", "or", "door"], ["-", "bo", "-bo"], ["el", "d", "eld"], ["app", "ear", "appear"], ["et", "s<|WB|>", "ets<|WB|>"], ["g", "rat", "grat"], ["r", "ed<|WB|>", "red<|WB|>"], ["ful", "ly<|WB|>", "fully<|WB|>"], ["qu", "i", "qui"], ["il", "<|WB|>", "il<|WB|>"], ["re", "c", "rec"], ["ed", ".\u201d<|WB|>", "ed.\u201d<|WB|>"], ["lo", "ck", "lock"], ["v", "e<|WB|>", "ve<|WB|>"], ["wor", "l", "worl"], ["ra", "g", "rag"], ["ch", ",<|WB|>", "ch,<|WB|>"], ["o", "st", "ost"], ["oo", "d<|WB|>", "ood<|WB|>"], ["M", "ar", "Mar"], ["b", "el", "bel"], ["--", "and<|WB|>", "--and<|WB|>"], ["anc", "e.<|WB|>", "ance.<|WB|>"], ["C", "om", "Com"], ["fel", "low", "fellow"], ["U", "n", "Un"], ["-", "like<|WB|>", "-like<|WB|>"], ["h", "ow", "how"], ["a", ".<|WB|>", "a.<|WB|>"], ["it", "ies<|WB|>", "ities<|WB|>"], ["m", "ad", "mad"], ["p", "or", "por"], ["ar", ",<|WB|>", "ar,<|WB|>"], ["g", "ri", "gri"], ["\u201c", "B", "\u201cB"], ["qu", "est", "quest"], ["ch", "ild", "child"], ["s", "ign", "sign"], ["d", "on", "don"], ["po", "st", "post"], ["ro", "l", "rol"], ["-", "sh", "-sh"], ["whal", "e-", "whale-"], ["oun", "d<|WB|>", "ound<|WB|>"], ["it", "s<|WB|>", "its<|WB|>"], ["ic", ",<|WB|>", "ic,<|WB|>"], ["li", "f", "lif"], ["g", "ent", "gent"], ["ic", "ally<|WB|>", "ically<|WB|>"], ["ak", "ing<|WB|>", "aking<|WB|>"], ["ure", ",<|WB|>", "ure,<|WB|>"], ["ed", "g", "edg"], ["ion", "s.<|WB|>", "ions.<|WB|>"], ["t", "ur", "tur"], ["col", "our", "colour"], ["on", "s<|WB|>", "ons<|WB|>"], ["H", "e", "He"], ["\u2014", "but<|WB|>", "\u2014but<|WB|>"], ["b", "et", "bet"], ["a", "im", "aim"], ["he", "ar", "hear"], ["p", "at", "pat"], ["ter", ",<|WB|>", "ter,<|WB|>"], ["p", "ri", "pri"], ["u", "t<|WB|>", "ut<|WB|>"], ["er", "e<|WB|>", "ere<|WB|>"], ["e", "ff", "eff"], ["in", "ed<|WB|>", "ined<|WB|>"], ["b", "en", "ben"], ["p", "il", "pil"], ["c", "up", "cup"], ["f", "am", "fam"], ["b", "ul", "bul"], ["i", "ble<|WB|>", "ible<|WB|>"], ["w", "atch", "watch"], ["ra", "c", "rac"], ["lo", "v", "lov"], ["al", "low", "allow"], ["d", "iv", "div"], ["ever", "y", "every"], ["ros", "s", "ross"], ["f", "ur", "fur"], ["iv", "e,<|WB|>", "ive,<|WB|>"], ["ag", "ain", "again"], ["N", "o", "No"], ["ch", "ang", "chang"], ["fi", "re", "fire"], ["in", "s<|WB|>", "ins<|WB|>"], ["h", "ouse", "house"], ["look", "ing<|WB|>", "looking<|WB|>"], ["e", "!\u201d<|WB|>", "e!\u201d<|WB|>"], ["h", "om", "hom"], ["s", "we", "swe"], ["C", "on", "Con"], ["ed", "?<|WB|>", "ed?<|WB|>"], [".", "\u2014", ".\u2014"], ["en", ";<|WB|>", "en;<|WB|>"], ["id", "d", "idd"], ["th", "ink", "think"], ["o", "h", "oh"], ["so", "<|WB|>", "so<|WB|>"], ["you", "<|WB|>", "you<|WB|>"], ["f", "ar", "far"], ["fri", "end", "friend"], ["sp", "l", "spl"], ["li", "p", "lip"], ["ation", ";<|WB|>", "ation;<|WB|>"], ["em", "ent", "ement"], ["her", "e", "here"], ["f", "low", "flow"], ["ing", "s.<|WB|>", "ings.<|WB|>"], ["um", "<|WB|>", "um<|WB|>"], ["ad", "v", "adv"], ["it", "u", "itu"], ["gra", "v", "grav"], ["bl", "ack", "black"], ["l", "ab", "lab"], ["h", "il", "hil"], ["ic", "i", "ici"], ["n", "am", "nam"], ["s", ",\u201d<|WB|>", "s,\u201d<|WB|>"], ["mo", "v", "mov"], ["at", "es<|WB|>", "ates<|WB|>"], ["e", "y<|WB|>", "ey<|WB|>"], ["p", "ing<|WB|>", "ping<|WB|>"], ["b", "al", "bal"], ["\u2014", "_", "\u2014_"], ["no", "t<|WB|>", "not<|WB|>"], ["th", "er<|WB|>", "ther<|WB|>"], ["j", "ud", "jud"], ["b", "us", "bus"], ["y", "our", "your"], ["s", "ens", "sens"], ["m", ",<|WB|>", "m,<|WB|>"], ["it", "ed<|WB|>", "ited<|WB|>"], ["m", "ist", "mist"], ["ir", "d", "ird"], ["su", "c", "suc"], ["b", "<|WB|>", "b<|WB|>"], ["t", "y", "ty"], ["ab", "l", "abl"], ["er", "t", "ert"], ["n", ",<|WB|>", "n,<|WB|>"], ["ed", "!<|WB|>", "ed!<|WB|>"], ["m", "il", "mil"], ["bre", "ak", "break"], ["er", "-", "er-"], ["re", "ck", "reck"], ["s", "s", "ss"], ["po", "t", "pot"], ["bo", "at", "boat"], ["m", "u", "mu"], ["ish", "ed<|WB|>", "ished<|WB|>"], ["l", "at", "lat"], ["en", "d<|WB|>", "end<|WB|>"], ["er", "y<|WB|>", "ery<|WB|>"], ["e", "al", "eal"], ["or", ".<|WB|>", "or.<|WB|>"], ["d", "ark", "dark"], ["qu", "ar", "quar"], ["sp", "r", "spr"], ["k", ",<|WB|>", "k,<|WB|>"], ["y", "\u2014", "y\u2014"], ["ed", "ly<|WB|>", "edly<|WB|>"], ["f", "oot", "foot"], ["en", "i", "eni"], ["c", "e<|WB|>", "ce<|WB|>"], ["sch", "ool", "school"], ["h", "igh", "high"], ["tre", "m", "trem"], ["all", "y,<|WB|>", "ally,<|WB|>"], ["h", "y", "hy"], ["re", "w", "rew"], ["be", "ar", "bear"], ["er", "r", "err"], ["s", "ent", "sent"], ["b", "and", "band"], ["ex", "pl", "expl"], ["ain", "<|WB|>", "ain<|WB|>"], ["at", "e.<|WB|>", "ate.<|WB|>"], ["coun", "t", "count"], ["in", "ess<|WB|>", "iness<|WB|>"], ["h", "on", "hon"], ["ac", "qu", "acqu"], ["ther", "e", "there"], ["y", "?<|WB|>", "y?<|WB|>"], ["st", "ep", "step"], ["l", "ist", "list"], ["f", "o", "fo"], ["mo", "d", "mod"], ["t", "op", "top"], ["t", "or", "tor"], ["or", "g", "org"], ["g", "n", "gn"], ["do", "g", "dog"], ["in", "ct", "inct"], ["th", "ing<|WB|>", "thing<|WB|>"], ["c", "at", "cat"], ["pos", "it", "posit"], ["ru", "ct", "ruct"], ["f", "<|WB|>", "f<|WB|>"], ["ful", ",<|WB|>", "ful,<|WB|>"], ["sp", "e", "spe"], ["w", "ill", "will"], ["w", "al", "wal"], ["i", "ff", "iff"], ["d", "r", "dr"], ["a", "y.<|WB|>", "ay.<|WB|>"], ["d", "g", "dg"], ["p", "et", "pet"], ["w", "id", "wid"], ["k", "s<|WB|>", "ks<|WB|>"], ["b", "on", "bon"], ["a", "x", "ax"], ["s", "mo", "smo"], ["\u2014", "\u201d<|WB|>", "\u2014\u201d<|WB|>"], [",", "\"<|WB|>", ",\"<|WB|>"], ["me", "an", "mean"], ["\u201c", "M", "\u201cM"], ["S", "p", "Sp"], ["s", "av", "sav"], ["fort", "un", "fortun"], ["g", "ro", "gro"], ["ir", "l", "irl"], ["ment", ",<|WB|>", "ment,<|WB|>"], ["ious", "ly<|WB|>", "iously<|WB|>"], ["un", "n", "unn"], ["v", "ell", "vell"], ["gr", "ound", "ground"], ["ell", "<|WB|>", "ell<|WB|>"], ["ul", "ar", "ular"], ["ra", "p", "rap"], ["\u201c", "A", "\u201cA"], ["al", "ter", "alter"], ["ot", "t", "ott"], ["z", "z", "zz"], ["ru", "st", "rust"], ["e", ",\u2019<|WB|>", "e,\u2019<|WB|>"], ["-h", "ous", "-hous"], ["c", "ab", "cab"], ["W", "hal", "Whal"], ["b", "ec", "bec"], ["pre", "h", "preh"], ["\u2019", "s", "\u2019s"], ["de", "p", "dep"], ["sh", "ar", "shar"], ["b", "ri", "bri"], ["ick", "<|WB|>", "ick<|WB|>"], ["\u201c", "D", "\u201cD"], ["b", "it", "bit"], ["c", "and", "cand"], ["cor", "d", "cord"], ["m", "ain", "main"], ["l", "aw", "law"], ["ch", "ing<|WB|>", "ching<|WB|>"], ["E", "x", "Ex"], ["\u2014h", "e<|WB|>", "\u2014he<|WB|>"], ["ed", "\u2014", "ed\u2014"], ["res", "h", "resh"], ["P", "ar", "Par"], ["n", "ar", "nar"], ["y", "ear", "year"], ["em", "ent<|WB|>", "ement<|WB|>"], ["des", "c", "desc"], ["ag", "e,<|WB|>", "age,<|WB|>"], ["am", "<|WB|>", "am<|WB|>"], ["ure", ".<|WB|>", "ure.<|WB|>"], ["ad", ",<|WB|>", "ad,<|WB|>"], ["d", "it", "dit"], ["j", "ur", "jur"], ["worl", "d", "world"], ["t", "ow", "tow"], ["t", "urn", "turn"], ["p", "ow", "pow"], ["\u201c", "P", "\u201cP"], ["w", "as", "was"], ["sy", "m", "sym"], ["com", "fort", "comfort"], ["wh", "is", "whis"], ["in", "f", "inf"], ["\u201c", "F", "\u201cF"], ["in", "ess", "iness"], ["ed", "d", "edd"], ["\u201c", "_", "\u201c_"], ["(", "_", "(_"], ["iv", "ely<|WB|>", "ively<|WB|>"], ["t", "on", "ton"], ["and", "-", "and-"], ["em", "pt", "empt"], ["g", "ener", "gener"], ["is", "ed<|WB|>", "ised<|WB|>"], ["de", "ath", "death"], ["con", "st", "const"], ["p", "ath", "path"], ["e", "en", "een"], ["c", "y", "cy"], ["ch", "es<|WB|>", "ches<|WB|>"], ["de", "f", "def"], ["m", "oun", "moun"], ["ol", "l", "oll"], ["st", "on", "ston"], ["man", ",<|WB|>", "man,<|WB|>"], ["fl", "u", "flu"], ["th", "ought", "thought"], ["in", "e,<|WB|>", "ine,<|WB|>"], ["th", "is", "this"], ["tra", "ct", "tract"], ["r", "ound", "round"], ["a", "s,<|WB|>", "as,<|WB|>"], ["and", ",<|WB|>", "and,<|WB|>"], ["a", "ul", "aul"], ["C", "ap", "Cap"], ["a", "ud", "aud"], ["iv", "il", "ivil"], ["our", "n", "ourn"], ["t", ".<|WB|>", "t.<|WB|>"], ["r", "e<|WB|>", "re<|WB|>"], ["C", "l", "Cl"], ["P", "ro", "Pro"], ["bo", "ard", "board"], ["n", "\u2019t<|WB|>", "n\u2019t<|WB|>"], ["\u2014th", "at\u2019s<|WB|>", "\u2014that\u2019s<|WB|>"], ["w", "om", "wom"], ["f", "act", "fact"], ["r", "an", "ran"], ["th", "r", "thr"], ["M", "an", "Man"], ["1", "8", "18"], ["h", "ard", "hard"], ["pres", "ent", "present"], ["ist", "<|WB|>", "ist<|WB|>"], ["f", "ool", "fool"], ["reas", "on", "reason"], ["o", "il", "oil"], ["ill", "-", "ill-"], ["il", "li", "illi"], ["c", "row", "crow"], ["im", "ag", "imag"], ["p", "un", "pun"], ["l", "y;<|WB|>", "ly;<|WB|>"], ["ru", "d", "rud"], ["y", ",\u201d<|WB|>", "y,\u201d<|WB|>"], ["b", "ell", "bell"], ["h", "at", "hat"], ["m", "el", "mel"], ["ub", "b", "ubb"], ["v", "e", "ve"], ["ru", "sh", "rush"], ["mur", "der", "murder"], ["e", "el", "eel"], ["\u2019", "d<|WB|>", "\u2019d<|WB|>"], ["a", "ver", "aver"], ["en", "-", "en-"], ["it", "\u2014", "it\u2014"], ["ing", "\u2014", "ing\u2014"], ["if", "<|WB|>", "if<|WB|>"], ["con", "sid", "consid"], ["m", "ir", "mir"], ["g", "ar", "gar"], ["comp", "an", "compan"], ["sp", "ec", "spec"], ["is", ",<|WB|>", "is,<|WB|>"], ["--th", "at<|WB|>", "--that<|WB|>"], ["m", "ot", "mot"], ["s", "aid", "said"], ["c", "ess", "cess"], ["i", "al", "ial"], ["l", "augh", "laugh"], ["w", "onder", "wonder"], ["em", "per", "emper"], ["ep", "<|WB|>", "ep<|WB|>"], ["s", "aw", "saw"], ["wind", "ow", "window"], ["sc", "ar", "scar"], ["ation", "s.<|WB|>", "ations.<|WB|>"], ["in", "u", "inu"], ["y", ":<|WB|>", "y:<|WB|>"], ["ne", "ed", "need"], ["p", ",<|WB|>", "p,<|WB|>"], ["d", "ig", "dig"], ["ed", "it", "edit"], ["es", "c", "esc"], ["ed", "-", "ed-"], ["b", "ol", "bol"], ["bu", "ck", "buck"], ["c", "ro", "cro"], ["b", "eli", "beli"], ["il", "ity<|WB|>", "ility<|WB|>"], ["tw", "ent", "twent"], ["sat", "is", "satis"], ["if", "t", "ift"], ["or", "y<|WB|>", "ory<|WB|>"], ["h", "op", "hop"], ["L", "e", "Le"], ["o", "ck", "ock"], ["pl", "e<|WB|>", "ple<|WB|>"], ["em", "ber", "ember"], ["i", "est<|WB|>", "iest<|WB|>"], ["s", "ed<|WB|>", "sed<|WB|>"], ["ex", "cl", "excl"], ["O", "h", "Oh"], ["v", "ill", "vill"], ["th", ".<|WB|>", "th.<|WB|>"], ["st", "air", "stair"], ["w", "is", "wis"], ["an", ".<|WB|>", "an.<|WB|>"], ["st", "re", "stre"], ["i", "k", "ik"], ["c", "ow", "cow"], ["e", "z", "ez"], ["d", "est", "dest"], ["h", "ap", "hap"], ["er", "s;<|WB|>", "ers;<|WB|>"], ["ec", "ess", "ecess"], ["u", "bl", "ubl"], ["--th", "e<|WB|>", "--the<|WB|>"], ["cer", "tain", "certain"], ["c", "ul", "cul"], ["est", ".<|WB|>", "est.<|WB|>"], ["id", "ent", "ident"], ["ob", "serv", "observ"], ["m", "et", "met"], ["wr", "it", "writ"], ["g", "<|WB|>", "g<|WB|>"], ["ra", "b", "rab"], ["f", "ather", "father"], ["con", "cer", "concer"], ["dis", "cover", "discover"], ["k", "ing", "king"], ["end", "ing<|WB|>", "ending<|WB|>"], ["C", "ar", "Car"], ["h", "ur", "hur"], ["enc", "e;<|WB|>", "ence;<|WB|>"], ["ro", "b", "rob"], ["bo", "y", "boy"], ["f", "le", "fle"], ["H", "ol", "Hol"], ["blo", "od", "blood"], ["s", ".\u2019<|WB|>", "s.\u2019<|WB|>"], ["of", "<|WB|>", "of<|WB|>"], ["b", "y", "by"], ["ir", "e<|WB|>", "ire<|WB|>"], ["n", "atur", "natur"], ["fe", "el", "feel"], ["om", "<|WB|>", "om<|WB|>"], ["gr", "and", "grand"], ["p", "ain", "pain"], ["n", "on", "non"], ["im", "per", "imper"], ["r", "ank", "rank"], ["der", ",<|WB|>", "der,<|WB|>"], ["B", "e", "Be"], ["r", "y,<|WB|>", "ry,<|WB|>"], ["i", "ch", "ich"], ["s", "es<|WB|>", "ses<|WB|>"], ["our", ",<|WB|>", "our,<|WB|>"], ["ic", "e,<|WB|>", "ice,<|WB|>"], ["des", "p", "desp"], ["str", "ang", "strang"], ["al", "t", "alt"], ["w", "ant", "want"], ["op", "<|WB|>", "op<|WB|>"], ["s", "--", "s--"], ["on", ";<|WB|>", "on;<|WB|>"], ["um", "bl", "umbl"], ["th", "en", "then"], ["at", ".<|WB|>", "at.<|WB|>"], ["x", ",<|WB|>", "x,<|WB|>"], ["in", "e", "ine"], ["f", "ra", "fra"], ["g", "old", "gold"], ["d", "ream", "dream"], ["se", "-", "se-"], ["har", "po", "harpo"], ["P", "er", "Per"], ["t", "ak", "tak"], ["f", "a", "fa"], ["m", "i", "mi"], ["g", "iv", "giv"], ["ow", "n<|WB|>", "own<|WB|>"], ["b", "t", "bt"], ["ell", "ed<|WB|>", "elled<|WB|>"], ["i", "er<|WB|>", "ier<|WB|>"], ["r", "it", "rit"], ["ter", ".<|WB|>", "ter.<|WB|>"], ["c", "all", "call"], ["coun", "tr", "countr"], ["de", "ad", "dead"], ["anc", "es<|WB|>", "ances<|WB|>"], ["im", "ent", "iment"], ["su", "sp", "susp"], ["i", "es;<|WB|>", "ies;<|WB|>"], ["r", "ant", "rant"], ["c", "ast", "cast"], ["in", ".<|WB|>", "in.<|WB|>"], ["m", "al", "mal"], ["an", "im", "anim"], ["c", "ross", "cross"], ["w", "ear", "wear"], ["jo", "y", "joy"], ["l", "ay", "lay"], ["r", "ang", "rang"], ["ag", "es<|WB|>", "ages<|WB|>"], ["ver", "t", "vert"], ["c", "ivil", "civil"], ["\u201c", "L", "\u201cL"], ["b", "est", "best"], ["ag", "u", "agu"], ["e", "?\u201d<|WB|>", "e?\u201d<|WB|>"], ["ro", "ad", "road"], ["at", "ed.<|WB|>", "ated.<|WB|>"], ["y", "ard", "yard"], ["G", "re", "Gre"], ["s", "ound", "sound"], ["\u2018", "H", "\u2018H"], ["b", "urn", "burn"], ["d", "ri", "dri"], ["smo", "k", "smok"], ["is", "s", "iss"], ["0", "<|WB|>", "0<|WB|>"], ["le", "-", "le-"], ["ish", ",<|WB|>", "ish,<|WB|>"], ["id", ",<|WB|>", "id,<|WB|>"], ["h", "e<|WB|>", "he<|WB|>"], ["oo", "k<|WB|>", "ook<|WB|>"], ["c", "ou", "cou"], ["am", "e<|WB|>", "ame<|WB|>"], ["d", "ar", "dar"], ["l", "y-", "ly-"], ["pr", "inc", "princ"], ["o", "bl", "obl"], ["is", "m<|WB|>", "ism<|WB|>"], ["sh", "or", "shor"], ["l", "im", "lim"], ["l", "uck", "luck"], ["tw", "o", "two"], ["con", "c", "conc"], ["sh", "ad", "shad"], ["ag", "re", "agre"], ["sel", "v", "selv"], ["pro", "ach", "proach"], ["at", "ely<|WB|>", "ately<|WB|>"], ["ur", "ed<|WB|>", "ured<|WB|>"], ["mag", "n", "magn"], ["ex", "per", "exper"], ["m", "ind", "mind"], ["i", "ec", "iec"], ["exp", "ect", "expect"], ["l", "ast", "last"], ["to", "ge", "toge"], ["man", ".<|WB|>", "man.<|WB|>"], ["id", "e<|WB|>", "ide<|WB|>"], ["il", "y,<|WB|>", "ily,<|WB|>"], ["b", "ab", "bab"], ["un", "i", "uni"], ["to", "-", "to-"], ["ce", "ed", "ceed"], ["m", "ill", "mill"], ["low", "<|WB|>", "low<|WB|>"], ["v", "o", "vo"], ["mis", "er", "miser"], ["at", "ive<|WB|>", "ative<|WB|>"], ["su", "ffer", "suffer"], ["g", "ain", "gain"], ["\u2019", "n", "\u2019n"], ["ward", "<|WB|>", "ward<|WB|>"], ["l", "ess,<|WB|>", "less,<|WB|>"], ["cour", "t", "court"], ["w", "il", "wil"], ["f", "at", "fat"], ["m", "aid", "maid"], ["or", "s,<|WB|>", "ors,<|WB|>"], ["p", "en", "pen"], ["po", "ck", "pock"], ["A", "hab", "Ahab"], ["b", "ook", "book"], ["T", "her", "Ther"], ["f", "air", "fair"], ["an", "s<|WB|>", "ans<|WB|>"], ["su", "ff", "suff"], ["com", "b", "comb"], ["ol", "d<|WB|>", "old<|WB|>"], ["end", "ed<|WB|>", "ended<|WB|>"], ["man", "n", "mann"], ["mo", "ther", "mother"], ["ch", ".<|WB|>", "ch.<|WB|>"], ["f", "ear", "fear"], ["st", "ud", "stud"], ["ment", ".<|WB|>", "ment.<|WB|>"], ["re", "al", "real"], ["iv", "e.<|WB|>", "ive.<|WB|>"], ["se", ";<|WB|>", "se;<|WB|>"], ["--", "wh", "--wh"], ["al", "s,<|WB|>", "als,<|WB|>"], ["g", "lo", "glo"], ["m", "om", "mom"], ["b", "ut", "but"], ["room", "<|WB|>", "room<|WB|>"], ["er", "n", "ern"], ["e", "_<|WB|>", "e_<|WB|>"], ["su", "re", "sure"], ["anc", "e;<|WB|>", "ance;<|WB|>"], ["av", "e<|WB|>", "ave<|WB|>"], ["iz", "ed<|WB|>", "ized<|WB|>"], ["il", "i", "ili"], ["gu", "ard", "guard"], ["clo", "th", "cloth"], ["tr", "ou", "trou"], ["ru", "pt", "rupt"], ["sle", "ep", "sleep"], ["gg", "ed<|WB|>", "gged<|WB|>"], ["d", "eli", "deli"], ["m", "ed<|WB|>", "med<|WB|>"], ["v", "en", "ven"], ["l", "ed,<|WB|>", "led,<|WB|>"], ["d", "im", "dim"], ["um", "ber", "umber"], ["b", "ank", "bank"], ["M", "on", "Mon"], ["kn", "if", "knif"], ["s", "now", "snow"], ["per", "son", "person"], ["f", "ig", "fig"], ["ur", "es<|WB|>", "ures<|WB|>"], ["m", "y<|WB|>", "my<|WB|>"], ["th", "or", "thor"], ["in", "-", "in-"], ["con", "sc", "consc"], ["s", "e,<|WB|>", "se,<|WB|>"], ["in", "e.<|WB|>", "ine.<|WB|>"], ["min", "ut", "minut"], ["f", "our", "four"], ["ang", "u", "angu"], ["ic", ".<|WB|>", "ic.<|WB|>"], ["s", "ett", "sett"], ["s", "ing", "sing"], ["co", "ff", "coff"], ["g", "ed<|WB|>", "ged<|WB|>"], ["al", ";<|WB|>", "al;<|WB|>"], ["spe", "ak", "speak"], ["ag", "e.<|WB|>", "age.<|WB|>"], ["circ", "um", "circum"], ["f", "av", "fav"], ["it", "y;<|WB|>", "ity;<|WB|>"], ["if", "ied<|WB|>", "ified<|WB|>"], ["si", "x", "six"], ["con", "ce", "conce"], ["ful", ".<|WB|>", "ful.<|WB|>"], ["--", "a<|WB|>", "--a<|WB|>"], ["for", "e", "fore"], ["ud", "d", "udd"], ["di", "rect", "direct"], ["ol", "ut", "olut"], ["cor", "n", "corn"], ["ing", "!<|WB|>", "ing!<|WB|>"], ["d", "ro", "dro"], ["s", "ir", "sir"], ["as", "p", "asp"], ["ment", "s<|WB|>", "ments<|WB|>"], ["ish", ".<|WB|>", "ish.<|WB|>"], ["t", "ail", "tail"], ["..", ".", "..."], ["\u2014", "for<|WB|>", "\u2014for<|WB|>"], ["p", "er<|WB|>", "per<|WB|>"], ["Th", "e<|WB|>", "The<|WB|>"], ["m", "a", "ma"], ["h", "id", "hid"], ["tran", "s", "trans"], ["sh", "e<|WB|>", "she<|WB|>"], ["g", "irl", "girl"], ["r", "ing<|WB|>", "ring<|WB|>"], ["ear", "<|WB|>", "ear<|WB|>"], ["s", "im", "sim"], ["mar", "ri", "marri"], ["M", "or", "Mor"], ["H", "er", "Her"], ["m", "orn", "morn"], ["bro", "ther", "brother"], ["oun", "c", "ounc"], ["le", "t<|WB|>", "let<|WB|>"], ["qu", "ick", "quick"], ["ch", "as", "chas"], ["d", "id", "did"], ["che", "er", "cheer"], ["bre", "ath", "breath"], ["pl", "ic", "plic"], ["F", "or", "For"], ["i", "et", "iet"], ["ret", "ch", "retch"], ["ed", "--", "ed--"], ["pp", "ed<|WB|>", "pped<|WB|>"], ["on", "ed<|WB|>", "oned<|WB|>"], ["lo", "t", "lot"], ["g", "od", "god"], ["el", "ess<|WB|>", "eless<|WB|>"], ["c", "ann", "cann"], ["\u2019", "s.<|WB|>", "\u2019s.<|WB|>"], ["a", "!<|WB|>", "a!<|WB|>"], ["ing", ".\u201d<|WB|>", "ing.\u201d<|WB|>"], ["re", "ver", "rever"], ["es", "?<|WB|>", "es?<|WB|>"], ["o", "per", "oper"], ["o", "t<|WB|>", "ot<|WB|>"], ["pl", "an", "plan"], ["j", "ew", "jew"], ["b", "low", "blow"], ["S", "e", "Se"], ["p", "ig", "pig"], ["j", "ack", "jack"], ["g", "al", "gal"], ["...", ".<|WB|>", "....<|WB|>"], ["aff", "ect", "affect"], ["se", "qu", "sequ"], ["it", ".<|WB|>", "it.<|WB|>"], ["ch", "o", "cho"], ["in", "d<|WB|>", "ind<|WB|>"], ["char", "ac", "charac"], ["ter", "s<|WB|>", "ters<|WB|>"], ["i", "ed,<|WB|>", "ied,<|WB|>"], ["row", "<|WB|>", "row<|WB|>"], ["wa", "y<|WB|>", "way<|WB|>"], ["w", "if", "wif"], ["En", "gl", "Engl"], ["em", "b", "emb"], ["m", "ak", "mak"], ["u", "s,<|WB|>", "us,<|WB|>"], ["f", "all", "fall"], ["p", "ap", "pap"], ["ab", "le;<|WB|>", "able;<|WB|>"], ["ent", ";<|WB|>", "ent;<|WB|>"], ["ch", "arm", "charm"], ["ch", "i", "chi"], ["es", "\u2019<|WB|>", "es\u2019<|WB|>"], ["h", "ood", "hood"], ["lo", "y", "loy"], ["it", "her", "ither"], ["gent", "le", "gentle"], ["em", "bl", "embl"], ["st", ",<|WB|>", "st,<|WB|>"], ["G", "od", "God"], ["\u201c", "C", "\u201cC"], ["resp", "ect", "respect"], ["el", "y.<|WB|>", "ely.<|WB|>"], ["col", "lect", "collect"], ["a", "is", "ais"], ["a", "un", "aun"], ["pro", "mis", "promis"], ["sp", "ar", "spar"], ["so", "ft", "soft"], ["st", "at", "stat"], ["D", "o", "Do"], ["s", "ick", "sick"], ["st", "ri", "stri"], ["n", ".<|WB|>", "n.<|WB|>"], ["r", "y.<|WB|>", "ry.<|WB|>"], ["comm", "and", "command"], ["bro", "k", "brok"], ["aw", "ay", "away"], ["f", "ing", "fing"], ["rid", "g", "ridg"], ["el", "s<|WB|>", "els<|WB|>"], ["r", "ing", "ring"], ["fl", "am", "flam"], ["G", "ood", "Good"], ["h", "unt", "hunt"], ["der", "s<|WB|>", "ders<|WB|>"], ["en", "s<|WB|>", "ens<|WB|>"], ["po", "is", "pois"], ["l", "ing,<|WB|>", "ling,<|WB|>"], ["ch", "ant", "chant"], ["t", "om", "tom"], ["F", "l", "Fl"], [";", "\u2014", ";\u2014"], ["\u201d", "\u2014", "\u201d\u2014"], ["E", "<|WB|>", "E<|WB|>"], ["e\u2014", "and<|WB|>", "e\u2014and<|WB|>"], ["St", "ar", "Star"], ["\u2019", ";<|WB|>", "\u2019;<|WB|>"], [".", "_<|WB|>", "._<|WB|>"], ["itt", "ing<|WB|>", "itting<|WB|>"], ["consid", "er", "consider"], ["per", "f", "perf"], ["in", "k<|WB|>", "ink<|WB|>"], ["enc", "es<|WB|>", "ences<|WB|>"], ["him", "self", "himself"], ["A", "d", "Ad"], ["up", "<|WB|>", "up<|WB|>"], ["w", "ish", "wish"], ["ec", "t<|WB|>", "ect<|WB|>"], ["c", "ard", "card"], ["in", "cl", "incl"], ["c", "op", "cop"], ["as", "s<|WB|>", "ass<|WB|>"], ["Ch", "ar", "Char"], ["il", "t", "ilt"], ["as", "c", "asc"], ["B", "ar", "Bar"], ["fol", "low", "follow"], ["ad", "e<|WB|>", "ade<|WB|>"], ["oun", "g", "oung"], ["k", "ed<|WB|>", "ked<|WB|>"], ["d", "om", "dom"], ["se", "ver", "sever"], ["ion", "ed<|WB|>", "ioned<|WB|>"], ["ap", "point", "appoint"], ["m", "ay", "may"], ["imag", "in", "imagin"], ["a", "unt", "aunt"], ["lo", "dg", "lodg"], ["pur", "su", "pursu"], ["ol", "v", "olv"], ["preh", "ens", "prehens"], ["poss", "ib", "possib"], ["am", ",<|WB|>", "am,<|WB|>"], ["g", "ard", "gard"], ["et", "s,<|WB|>", "ets,<|WB|>"], ["dis", "p", "disp"], ["ver", ",<|WB|>", "ver,<|WB|>"], ["un", "ct", "unct"], ["an", "ch", "anch"], ["l", "am", "lam"], ["t", "ell", "tell"], ["ear", "th", "earth"], ["on", "s,<|WB|>", "ons,<|WB|>"], ["ic", "e-", "ice-"], ["h", "air", "hair"], ["m", "id", "mid"], ["h", "un", "hun"], ["an", "s,<|WB|>", "ans,<|WB|>"], ["p", "ent", "pent"], ["dev", "il", "devil"], ["\u2019", "n<|WB|>", "\u2019n<|WB|>"], ["oul", "d<|WB|>", "ould<|WB|>"], ["en", "ess,<|WB|>", "eness,<|WB|>"], ["in", "de", "inde"], ["in", "t<|WB|>", "int<|WB|>"], ["poss", "ess", "possess"], ["con", "n", "conn"], ["C", "ol", "Col"], ["rib", "ut", "ribut"], ["for", "d", "ford"], ["m", "outh", "mouth"], ["pro", "t", "prot"], ["ight", ",<|WB|>", "ight,<|WB|>"], ["res", "s<|WB|>", "ress<|WB|>"], ["k", "ing<|WB|>", "king<|WB|>"], ["v", "iv", "viv"], ["u", "e<|WB|>", "ue<|WB|>"], ["ap", "<|WB|>", "ap<|WB|>"], ["augh", "ter", "aughter"], ["n", "or", "nor"], ["ant", "s<|WB|>", "ants<|WB|>"], ["\u201c", "Y", "\u201cY"], ["n", "ess;<|WB|>", "ness;<|WB|>"], ["ent", "er", "enter"], ["-", "looking<|WB|>", "-looking<|WB|>"], ["rem", "ain", "remain"], ["cont", "inu", "continu"], ["de", "ep", "deep"], ["ste", "ad", "stead"], ["ar", "y,<|WB|>", "ary,<|WB|>"], ["imp", "ort", "import"], ["ch", "er", "cher"], ["off", "ic", "offic"], ["so", "ci", "soci"], ["et", ";<|WB|>", "et;<|WB|>"], ["l", "es,<|WB|>", "les,<|WB|>"], ["g", "am", "gam"], ["c", "ould", "could"], ["ship", "<|WB|>", "ship<|WB|>"], ["h", "old", "hold"], ["ak", "<|WB|>", "ak<|WB|>"], ["ri", "f", "rif"], ["ion", "s;<|WB|>", "ions;<|WB|>"], ["T", "w", "Tw"], ["hal", "f", "half"], ["Ch", "rist", "Christ"], ["l", "an", "lan"], ["es", "om", "esom"], ["ful", "ly,<|WB|>", "fully,<|WB|>"], ["o", ".<|WB|>", "o.<|WB|>"], ["b", "an", "ban"], ["t", "ro", "tro"], ["ant", ".<|WB|>", "ant.<|WB|>"], ["colour", "ed<|WB|>", "coloured<|WB|>"], ["ful", "l", "full"], ["h", "ill", "hill"], ["s", "ad", "sad"], ["R", "o", "Ro"], ["pris", "on", "prison"], ["th", "under", "thunder"], ["in", "e-", "ine-"], ["g", "un", "gun"], ["k", "no", "kno"], ["n", "\u2019t", "n\u2019t"], ["th", "ick", "thick"], ["m", "e\u2014", "me\u2014"], [":", "\u2014", ":\u2014"], ["Qu", "ee", "Quee"], ["Quee", "qu", "Queequ"], ["Queequ", "eg", "Queequeg"], ["\u2014th", "ey<|WB|>", "\u2014they<|WB|>"], ["ob", "ject", "object"], ["di", "ffer", "differ"], ["os", "e<|WB|>", "ose<|WB|>"], ["mo", "st<|WB|>", "most<|WB|>"], ["ex", "press", "express"], ["charac", "ter", "character"], ["e", "th", "eth"], ["ur", "ch", "urch"], ["way", "s<|WB|>", "ways<|WB|>"], ["ail", "<|WB|>", "ail<|WB|>"], ["es", "--", "es--"], ["al", "ity<|WB|>", "ality<|WB|>"], ["t", "ou", "tou"], ["w", "e<|WB|>", "we<|WB|>"], ["ex", "ec", "exec"], ["jud", "g", "judg"], ["at", "ure", "ature"], ["on", "e,<|WB|>", "one,<|WB|>"], ["be", "aut", "beaut"], [".", ")<|WB|>", ".)<|WB|>"], ["it", "ies,<|WB|>", "ities,<|WB|>"], ["ne", "igh", "neigh"], [",--", "<|WB|>", ",--<|WB|>"], ["s", "en", "sen"], ["d", "inn", "dinn"], ["room", ",<|WB|>", "room,<|WB|>"], ["toge", "ther", "together"], ["de", "ar", "dear"], ["d", "ress", "dress"], ["oc", "cup", "occup"], ["enc", "y<|WB|>", "ency<|WB|>"], ["ing", "s;<|WB|>", "ings;<|WB|>"], ["m", "ort", "mort"], ["es", "ter", "ester"], ["sh", "ow", "show"], ["le", "av", "leav"], ["k", ".<|WB|>", "k.<|WB|>"], ["m", "s<|WB|>", "ms<|WB|>"], ["v", "ol", "vol"], ["comm", "un", "commun"], ["in", ";<|WB|>", "in;<|WB|>"], ["in", "s,<|WB|>", "ins,<|WB|>"], ["c", "ook", "cook"], ["coun", "ter", "counter"], ["sp", "er", "sper"], ["m", "ut", "mut"], ["ch", "im", "chim"], ["st", "op", "stop"], ["ant", "ic", "antic"], ["w", "edd", "wedd"], ["f", "ound", "found"], ["cle", "ar", "clear"], ["g", "row", "grow"], ["sub", "st", "subst"], ["n", "ut", "nut"], ["l", "u", "lu"], ["ra", "d", "rad"], ["ra", "ph", "raph"], ["\u2014wh", "at<|WB|>", "\u2014what<|WB|>"], ["\u2014th", "ere<|WB|>", "\u2014there<|WB|>"], ["A", "N", "AN"], ["\u2014wh", "ich<|WB|>", "\u2014which<|WB|>"], ["J", "o", "Jo"], ["ig", "g", "igg"], ["b", "y<|WB|>", "by<|WB|>"], ["ir", "<|WB|>", "ir<|WB|>"], ["comp", "let", "complet"], ["ke", "ep", "keep"], ["l", "itt", "litt"], ["i", "ous,<|WB|>", "ious,<|WB|>"], ["E", "li", "Eli"], ["ic", "ul", "icul"], ["eff", "ect", "effect"], ["pr", "ed", "pred"], ["well", "-", "well-"], ["es", "p", "esp"], ["ex", "h", "exh"], ["my", "self", "myself"], ["re", "qu", "requ"], ["p", "ict", "pict"], ["il", "ed<|WB|>", "iled<|WB|>"], ["t", "i", "ti"], ["inv", "est", "invest"], ["le", "x", "lex"], ["es", ",\u201d<|WB|>", "es,\u201d<|WB|>"], ["er", "c", "erc"], ["ong", "<|WB|>", "ong<|WB|>"], ["af", "ter", "after"], ["vi", "ol", "viol"], ["re", "li", "reli"], ["l", "edg", "ledg"], ["bo", "tt", "bott"], ["ful", "ness<|WB|>", "fulness<|WB|>"], ["s", "af", "saf"], ["\u2019", ",<|WB|>", "\u2019,<|WB|>"], ["d", "ang", "dang"], ["ay", "s<|WB|>", "ays<|WB|>"], ["ish", "ing<|WB|>", "ishing<|WB|>"], ["t", "ing<|WB|>", "ting<|WB|>"], ["mom", "ent", "moment"], ["ap", "ed<|WB|>", "aped<|WB|>"], ["ag", "on", "agon"], ["ag", "e-", "age-"], ["me", "as", "meas"], ["per", ",<|WB|>", "per,<|WB|>"], ["bus", "iness", "business"], ["ad", "ed<|WB|>", "aded<|WB|>"], ["g", "a", "ga"], ["cle", "an", "clean"], ["hel", "p", "help"], ["ion", ".\u201d<|WB|>", "ion.\u201d<|WB|>"], ["b", "ed<|WB|>", "bed<|WB|>"], ["y", "l", "yl"], ["k", "ne", "kne"], ["be", "at", "beat"], ["c", "ell", "cell"], ["ak", "ed<|WB|>", "aked<|WB|>"], ["\u201d", ";<|WB|>", "\u201d;<|WB|>"], ["ash", "<|WB|>", "ash<|WB|>"], ["sp", "out", "spout"], ["\u2018", "S", "\u2018S"], ["I", "N", "IN"], ["T", "om", "Tom"], [",", "00", ",00"], ["\u2018", "F", "\u2018F"], ["es", ".\u2019<|WB|>", "es.\u2019<|WB|>"], [".", "\"<|WB|>", ".\"<|WB|>"], ["just", "<|WB|>", "just<|WB|>"], ["m", "en<|WB|>", "men<|WB|>"], ["N", "or", "Nor"], ["di", "ff", "diff"], ["id", "ed<|WB|>", "ided<|WB|>"], ["i", "eld", "ield"], ["D", "ar", "Dar"], ["is", "ing<|WB|>", "ising<|WB|>"], ["g", "all", "gall"], ["pi", "ec", "piec"], ["c", "ust", "cust"], [";", "\u201d<|WB|>", ";\u201d<|WB|>"], ["b", "all", "ball"], ["mist", "ak", "mistak"], ["ex", "ist", "exist"], ["P", "hil", "Phil"], ["ir", "on", "iron"], ["we", "ak", "weak"], ["rat", "e<|WB|>", "rate<|WB|>"], ["ag", "es,<|WB|>", "ages,<|WB|>"], ["le", "y", "ley"], ["L", "u", "Lu"], ["al", "th", "alth"], ["ill", ",<|WB|>", "ill,<|WB|>"], ["T", "he", "The"], ["s", "e.<|WB|>", "se.<|WB|>"], ["an", "sw", "answ"], ["ant", "ly<|WB|>", "antly<|WB|>"], ["ac", "compl", "accompl"], ["i", "a<|WB|>", "ia<|WB|>"], ["el", "eg", "eleg"], ["l", "ac", "lac"], ["op", "en", "open"], ["ack", "<|WB|>", "ack<|WB|>"], ["o", "ft", "oft"], ["or", "e<|WB|>", "ore<|WB|>"], ["v", "an", "van"], ["d", "in", "din"], ["th", "ro", "thro"], ["or", "ed<|WB|>", "ored<|WB|>"], ["e", "ful<|WB|>", "eful<|WB|>"], ["s", "low", "slow"], ["c", "el", "cel"], ["wa", "it", "wait"], ["c", "us", "cus"], ["n", "ing<|WB|>", "ning<|WB|>"], ["er", "g", "erg"], ["pe", "ac", "peac"], ["sh", "op", "shop"], ["co", "ach", "coach"], ["k", "ee", "kee"], ["e", "ur", "eur"], ["s", "oul", "soul"], ["co", "at", "coat"], ["cur", "r", "curr"], ["ar", ".<|WB|>", "ar.<|WB|>"], ["el", ".<|WB|>", "el.<|WB|>"], ["b", "ound", "bound"], ["y-", "f", "y-f"], ["ro", "ck", "rock"], ["s", "lo", "slo"], ["ch", "air", "chair"], ["h", "arm", "harm"], ["c", "amp", "camp"], ["am", "ber", "amber"], ["s", "ne", "sne"], ["E", "R", "ER"], ["I", "I", "II"], ["j", "aw", "jaw"], ["wh", "ip", "whip"], ["wh", "eel", "wheel"], ["ict", "or", "ictor"], ["p", "ick", "pick"], ["v", "oy", "voy"], ["b", "il", "bil"], ["c", "it", "cit"], ["ah", "<|WB|>", "ah<|WB|>"], ["sh", "out", "shout"], ["b", "utt", "butt"], ["e", "!\u2019<|WB|>", "e!\u2019<|WB|>"], ["\u2014", "it<|WB|>", "\u2014it<|WB|>"], ["J", "im", "Jim"], ["H", "uck", "Huck"], ["ap", "pl", "appl"], ["ian", "s<|WB|>", "ians<|WB|>"], ["sc", "al", "scal"], ["t", "er<|WB|>", "ter<|WB|>"], ["ath", "er<|WB|>", "ather<|WB|>"], ["se", "em", "seem"], ["n", "ecess", "necess"], ["wa", "s<|WB|>", "was<|WB|>"], ["no", "<|WB|>", "no<|WB|>"], ["du", "c", "duc"], ["st", "art", "start"], ["et", "im", "etim"], ["ic", "s<|WB|>", "ics<|WB|>"], ["it", "er", "iter"], ["m", "as", "mas"], ["ous", "ness<|WB|>", "ousness<|WB|>"], ["med", "i", "medi"], ["e", "ight", "eight"], ["h", "us", "hus"], ["bl", "ind", "blind"], ["iv", "es<|WB|>", "ives<|WB|>"], ["n", "ear", "near"], ["ust", "<|WB|>", "ust<|WB|>"], ["th", "er,<|WB|>", "ther,<|WB|>"], ["bod", "y<|WB|>", "body<|WB|>"], ["bre", "ad", "bread"], ["sp", "ok", "spok"], ["suc", "cess", "success"], ["-", "o", "-o"], ["in", "qu", "inqu"], ["it", "ut", "itut"], ["ch", "ap", "chap"], ["we", "ek", "week"], ["emp", "loy", "employ"], ["ell", ",<|WB|>", "ell,<|WB|>"], ["wor", "th", "worth"], ["ic", "e.<|WB|>", "ice.<|WB|>"], ["ol", "e<|WB|>", "ole<|WB|>"], ["hab", "it", "habit"], ["li", "fe", "life"], ["h", "our", "hour"], ["s", "inc", "sinc"], [":", "--", ":--"], ["ing", "?<|WB|>", "ing?<|WB|>"], ["or", "der", "order"], ["ire", ",<|WB|>", "ire,<|WB|>"], ["prof", "ess", "profess"], ["er", "!<|WB|>", "er!<|WB|>"], ["u", "se", "use"], ["h", "ad", "had"], ["sh", "ort", "short"], ["f", "il", "fil"], ["ard", ".<|WB|>", "ard.<|WB|>"], ["ain", "ed<|WB|>", "ained<|WB|>"], ["d", "rop", "drop"], ["um", ",<|WB|>", "um,<|WB|>"], ["ain", ",<|WB|>", "ain,<|WB|>"], ["en", "ed,<|WB|>", "ened,<|WB|>"], ["al", "s.<|WB|>", "als.<|WB|>"], ["rol", "l", "roll"], ["op", "h", "oph"], ["es", ":<|WB|>", "es:<|WB|>"], ["l", "and<|WB|>", "land<|WB|>"], ["k", "ill", "kill"], ["w", "ould", "would"], ["sh", "r", "shr"], ["ian", ",<|WB|>", "ian,<|WB|>"], ["pp", "ing<|WB|>", "pping<|WB|>"], ["D", "e", "De"], ["co", "ck", "cock"], ["st", "em", "stem"], ["it", "\u2019s<|WB|>", "it\u2019s<|WB|>"], ["y", "et", "yet"], ["c", "av", "cav"], ["bu", "sh", "bush"], ["e", "?\u2019<|WB|>", "e?\u2019<|WB|>"], ["S", "<|WB|>", "S<|WB|>"], ["N", "ant", "Nant"], ["Nant", "uck", "Nantuck"], ["og", "raph", "ograph"], ["al", "ist", "alist"], ["P", "et", "Pet"], ["\u2018", "W", "\u2018W"], ["del", "ight", "delight"], ["f", "resh", "fresh"], ["ra", "w", "raw"], ["-", "and-", "-and-"], ["t", "on<|WB|>", "ton<|WB|>"], ["lo", "s", "los"], ["b", "ad", "bad"], ["g", "en", "gen"], ["en", "ough", "enough"], ["m", "ight", "might"], ["l", "angu", "langu"], ["or", "ig", "orig"], ["fi", "eld", "field"], ["moun", "tain", "mountain"], ["ing", "u", "ingu"], ["inter", "est", "interest"], ["th", "es", "thes"], ["du", "ct", "duct"], ["vi", "ew", "view"], ["em", "ent,<|WB|>", "ement,<|WB|>"], ["ic", "es<|WB|>", "ices<|WB|>"], ["oo", "th", "ooth"], ["chi", "ef", "chief"], ["in", "es<|WB|>", "ines<|WB|>"], ["au", "ght", "aught"], ["ac", "count", "account"], ["vis", "it", "visit"], ["end", "s<|WB|>", "ends<|WB|>"], ["ev", "en", "even"], ["part", "ic", "partic"], ["th", "ir", "thir"], ["m", "em", "mem"], ["\u2019", "\u201d<|WB|>", "\u2019\u201d<|WB|>"], ["car", "ri", "carri"], ["s", "on<|WB|>", "son<|WB|>"], ["J", "on", "Jon"], ["we", "ather", "weather"], ["b", "es", "bes"], ["it", "s,<|WB|>", "its,<|WB|>"], ["ed", ",\u201d<|WB|>", "ed,\u201d<|WB|>"], ["ar", "g", "arg"], ["S", "und", "Sund"], ["aw", "n", "awn"], ["in", "ing<|WB|>", "ining<|WB|>"], ["ri", "p", "rip"], ["se", "par", "separ"], ["iz", "e<|WB|>", "ize<|WB|>"], ["sp", "it", "spit"], ["it", "ch", "itch"], ["i", "enc", "ienc"], ["ent", "ed<|WB|>", "ented<|WB|>"], ["se", "as", "seas"], ["tal", "k", "talk"], ["f", "right", "fright"], ["id", "ing<|WB|>", "iding<|WB|>"], ["d", "ict", "dict"], ["d", "ed<|WB|>", "ded<|WB|>"], ["d", "read", "dread"], ["ri", "ver", "river"], ["gl", "or", "glor"], ["tre", "as", "treas"], ["quest", "ion", "question"], ["j", "est", "jest"], ["t", "ear", "tear"], ["lik", "e,<|WB|>", "like,<|WB|>"], ["B", "l", "Bl"], ["co", "gn", "cogn"], ["to", "il", "toil"], ["b", "ird", "bird"], ["G", "u", "Gu"], ["T", "ur", "Tur"], ["whit", "e-", "white-"], ["sc", "rew", "screw"], ["m", "ourn", "mourn"], ["s", "lip", "slip"], ["p", "ip", "pip"], ["mo", "on", "moon"], ["T", "<|WB|>", "T<|WB|>"], ["sh", "ud", "shud"], ["\u2019", ".<|WB|>", "\u2019.<|WB|>"], ["lo", "g", "log"], ["!", "_", "!_"], ["sh", "ark", "shark"], ["\u2014th", "ough<|WB|>", "\u2014though<|WB|>"], ["b", "utter", "butter"], ["h", "og", "hog"], ["gh", "t<|WB|>", "ght<|WB|>"], ["som", "e<|WB|>", "some<|WB|>"], ["ro", "y", "roy"], ["ou", "s;<|WB|>", "ous;<|WB|>"], ["sc", "en", "scen"], ["beli", "ev", "believ"], ["per", "hap", "perhap"], ["E", "m", "Em"], ["at", "es,<|WB|>", "ates,<|WB|>"], ["h", "es", "hes"], ["pos", "e<|WB|>", "pose<|WB|>"], ["p", "ubl", "publ"], ["all", "-", "all-"], ["w", "er", "wer"], ["conv", "eni", "conveni"], ["th", "ough", "though"], ["dou", "bt", "doubt"], ["gre", "at", "great"], ["pra", "ct", "pract"], ["d", "am", "dam"], ["n", "ic", "nic"], ["is", "e,<|WB|>", "ise,<|WB|>"], ["p", "ast", "past"], ["e", "th<|WB|>", "eth<|WB|>"], ["u", "ct", "uct"], ["s", "em", "sem"], ["b", "ir", "bir"], ["vel", "op", "velop"], ["att", "ent", "attent"], ["a", ";<|WB|>", "a;<|WB|>"], ["p", "riv", "priv"], ["er", "k", "erk"], ["me", "et", "meet"], ["sec", "ond", "second"], ["ur", "ing<|WB|>", "uring<|WB|>"], ["le", "y<|WB|>", "ley<|WB|>"], ["b", "our", "bour"], ["fi", "x", "fix"], ["iz", "z", "izz"], ["d", "anc", "danc"], ["mu", "ch", "much"], ["com", "mon", "common"], ["man", "\u2019s<|WB|>", "man\u2019s<|WB|>"], ["t", "own", "town"], ["itud", "e<|WB|>", "itude<|WB|>"], ["ab", "out", "about"], ["\u201c", "Th", "\u201cTh"], ["wh", "at", "what"], ["y", "s", "ys"], ["sh", "am", "sham"], ["\u2018", "B", "\u2018B"], ["iz", "ing<|WB|>", "izing<|WB|>"], ["pre", "par", "prepar"], ["b", "right", "bright"], ["l", "ess.<|WB|>", "less.<|WB|>"], ["em", "ents<|WB|>", "ements<|WB|>"], ["k", "e<|WB|>", "ke<|WB|>"], ["ment", ";<|WB|>", "ment;<|WB|>"], ["em", "bar", "embar"], ["ward", ",<|WB|>", "ward,<|WB|>"], ["ad", "vent", "advent"], ["hor", "r", "horr"], ["\u201c", "O", "\u201cO"], ["tra", "vell", "travell"], ["f", "ron", "fron"], ["happ", "en", "happen"], ["ent", "s,<|WB|>", "ents,<|WB|>"], ["ath", "<|WB|>", "ath<|WB|>"], ["cl", "oud", "cloud"], ["ch", "ee", "chee"], ["l", "ing", "ling"], ["ster", "n", "stern"], ["ful", ";<|WB|>", "ful;<|WB|>"], ["or", ";<|WB|>", "or;<|WB|>"], ["sym", "path", "sympath"], ["f", "arm", "farm"], ["i", "e<|WB|>", "ie<|WB|>"], ["c", "art", "cart"], ["k", "ey", "key"], ["-h", "o", "-ho"], ["w", "on", "won"], ["ung", "<|WB|>", "ung<|WB|>"], ["d", "omin", "domin"], ["ap", ",<|WB|>", "ap,<|WB|>"], ["g", "rim", "grim"], ["et", "-", "et-"], ["ra", "v", "rav"], ["wor", "ship", "worship"], ["ra", "il", "rail"], ["sor", "row", "sorrow"], ["lif", "e-", "life-"], ["In", "di", "Indi"], ["tra", "g", "trag"], ["\u2014", "you<|WB|>", "\u2014you<|WB|>"], ["A", "R", "AR"], ["dist", "inct", "distinct"], ["ar", "e<|WB|>", "are<|WB|>"], ["aus", "e<|WB|>", "ause<|WB|>"], ["pro", "b", "prob"], ["all", ",<|WB|>", "all,<|WB|>"], ["w", "ick", "wick"], ["ro", "m", "rom"], ["id", "u", "idu"], ["m", "atch", "match"], ["M", "r", "Mr"], ["v", "ar", "var"], ["be", "for", "befor"], ["in", "ess,<|WB|>", "iness,<|WB|>"], ["Eli", "z", "Eliz"], ["th", ";<|WB|>", "th;<|WB|>"], ["int", "ell", "intell"], ["intell", "ig", "intellig"], ["a", "\u2019s<|WB|>", "a\u2019s<|WB|>"], ["il", "e,<|WB|>", "ile,<|WB|>"], ["is", "m,<|WB|>", "ism,<|WB|>"], ["exec", "ut", "execut"], ["hous", "e<|WB|>", "house<|WB|>"], ["ep", "t<|WB|>", "ept<|WB|>"], ["Y", "ou", "You"], ["ph", "il", "phil"], ["er", "y,<|WB|>", "ery,<|WB|>"], ["es", "e<|WB|>", "ese<|WB|>"], ["sid", "e<|WB|>", "side<|WB|>"], ["ail", "ed<|WB|>", "ailed<|WB|>"], ["is", "it", "isit"], ["st", "ock", "stock"], ["i", "ev", "iev"], ["or", "s.<|WB|>", "ors.<|WB|>"], ["wa", "y,<|WB|>", "way,<|WB|>"], ["ak", "es<|WB|>", "akes<|WB|>"], ["ret", "urn", "return"], ["ro", "d", "rod"], ["le", "arn", "learn"], ["ru", "p", "rup"], ["st", "up", "stup"], ["des", "ign", "design"], ["d", "er<|WB|>", "der<|WB|>"], ["ure", ";<|WB|>", "ure;<|WB|>"], ["t", "in", "tin"], ["!", "--", "!--"], ["f", "urn", "furn"], ["sec", "ret", "secret"], ["hor", "se", "horse"], ["w", "arm", "warm"], ["if", "ying<|WB|>", "ifying<|WB|>"], ["ex", "am", "exam"], ["mat", "ter", "matter"], ["w", "retch", "wretch"], ["app", "ar", "appar"], ["el", "ess", "eless"], ["bl", "ed<|WB|>", "bled<|WB|>"], ["ib", "ly<|WB|>", "ibly<|WB|>"], ["commun", "ic", "communic"], ["o", "qu", "oqu"], ["le", "ad", "lead"], ["f", "it", "fit"], ["an", ";<|WB|>", "an;<|WB|>"], ["ib", "le.<|WB|>", "ible.<|WB|>"], ["well", ",<|WB|>", "well,<|WB|>"], ["s", "ac", "sac"], ["as", "e<|WB|>", "ase<|WB|>"], ["G", "e", "Ge"], ["ell", "ing<|WB|>", "elling<|WB|>"], ["est", ";<|WB|>", "est;<|WB|>"], ["s", "ight", "sight"], ["bod", "y", "body"], ["g", "over", "gover"], ["\u2018", "L", "\u2018L"], ["id", ".<|WB|>", "id.<|WB|>"], ["sp", "ort", "sport"], ["i", "ver", "iver"], ["e", "\u2019", "e\u2019"], ["-", "heart", "-heart"], ["w", "ild", "wild"], ["ing", ":<|WB|>", "ing:<|WB|>"], ["h", "ang", "hang"], ["mo", "st", "most"], ["\u201c", "G", "\u201cG"], ["x", ".<|WB|>", "x.<|WB|>"], ["at", "er<|WB|>", "ater<|WB|>"], ["cr", "y", "cry"], ["pro", "ph", "proph"], ["A", "mer", "Amer"], ["Amer", "ic", "Americ"], ["n", "eck", "neck"], ["ash", "ed<|WB|>", "ashed<|WB|>"], ["c", "ut", "cut"], ["s", "add", "sadd"], ["w", "ig", "wig"], ["gl", "ass", "glass"], ["or", "\u2019s<|WB|>", "or\u2019s<|WB|>"], ["n", "ur", "nur"], ["be", "ard", "beard"], ["bl", "u", "blu"], ["C", "an", "Can"], ["o", "ce", "oce"], ["ho", "st", "host"], ["bl", "ank", "blank"], ["tr", "y", "try"], ["ow", "l", "owl"], ["ay", "-", "ay-"], ["mo", "ck", "mock"], ["*", "<|WB|>", "*<|WB|>"], ["shud", "der", "shudder"], ["g", "oo", "goo"], ["i", "ri", "iri"], ["mast", "-head", "mast-head"], ["cap", "tain", "captain"], ["\u2014th", "is<|WB|>", "\u2014this<|WB|>"], ["es", "h", "esh"], ["E", "L", "EL"], ["-", "lin", "-lin"], ["_", ")", "_)"], ["cr", "it", "crit"], ["it", "y", "ity"], ["lar", "g", "larg"], ["hes", "it", "hesit"], ["1", "7", "17"], ["conn", "ect", "connect"], ["mast", "er", "master"], ["f", "ash", "fash"], ["at", "i", "ati"], ["us", "ed<|WB|>", "used<|WB|>"], ["orig", "in", "origin"], ["i", "qu", "iqu"], ["B", "enn", "Benn"], ["re", "mark", "remark"], ["se", "vent", "sevent"], ["E", "v", "Ev"], ["for", "c", "forc"], ["st", "ir", "stir"], ["--wh", "ich<|WB|>", "--which<|WB|>"], ["con", "cl", "concl"], ["c", "t<|WB|>", "ct<|WB|>"], ["un", "k", "unk"], ["i", "<|WB|>", "i<|WB|>"], ["str", "ong", "strong"], ["S", "om", "Som"], ["\u201c", "N", "\u201cN"], ["ed", "uc", "educ"], ["om", ",<|WB|>", "om,<|WB|>"], ["con", "s", "cons"], ["t", "emper", "temper"], ["f", "anc", "fanc"], ["n", "erv", "nerv"], ["es", "cap", "escap"], ["ac", "ed<|WB|>", "aced<|WB|>"], ["ar", "y.<|WB|>", "ary.<|WB|>"], ["qui", "et", "quiet"], ["el", "v", "elv"], ["th", "ous", "thous"], ["sm", "il", "smil"], ["st", "ru", "stru"], ["ent", "ly,<|WB|>", "ently,<|WB|>"], ["h", "is", "his"], ["sur", "pris", "surpris"], ["M", "er", "Mer"], ["un", "<|WB|>", "un<|WB|>"], ["row", ",<|WB|>", "row,<|WB|>"], ["no", "is", "nois"], ["v", "ac", "vac"], ["quar", "ter", "quarter"], ["Cap", "tain", "Captain"], ["par", "l", "parl"], ["ow", ",<|WB|>", "ow,<|WB|>"], ["des", "erv", "deserv"], ["in", "fer", "infer"], ["qu", "e", "que"], ["ful", "ly.<|WB|>", "fully.<|WB|>"], ["at", "s<|WB|>", "ats<|WB|>"], ["an", "k<|WB|>", "ank<|WB|>"], ["sist", "er", "sister"], ["u", "zz", "uzz"], ["f", ",<|WB|>", "f,<|WB|>"], ["b", "rid", "brid"], ["ra", "ct", "ract"], ["ing-", "plac", "ing-plac"], ["c", "ott", "cott"], ["W", "il", "Wil"], ["v", "ic", "vic"], ["ag", "o", "ago"], ["op", "press", "oppress"], ["it", "i", "iti"], ["ul", "s", "uls"], ["ul", "l<|WB|>", "ull<|WB|>"], ["r", "al", "ral"], ["land", ",<|WB|>", "land,<|WB|>"], ["d", "ol", "dol"], ["T", "im", "Tim"], ["b", "as", "bas"], ["ain", "s<|WB|>", "ains<|WB|>"], ["ed", ".\u2019<|WB|>", "ed.\u2019<|WB|>"], ["el", "s,<|WB|>", "els,<|WB|>"], ["oo", "p", "oop"], ["J", "er", "Jer"], ["s", "in", "sin"], ["wa", "ist", "waist"], ["cre", "w", "crew"], ["b", "s<|WB|>", "bs<|WB|>"], ["pra", "y", "pray"], ["ex", "ter", "exter"], ["p", "ill", "pill"], ["R", "om", "Rom"], ["O", "r", "Or"], ["S", "y", "Sy"], ["n", "av", "nav"], ["l", "es.<|WB|>", "les.<|WB|>"], ["s", "!\u201d<|WB|>", "s!\u201d<|WB|>"], ["cra", "ck", "crack"], ["g", ",<|WB|>", "g,<|WB|>"], ["es", "!\u201d<|WB|>", "es!\u201d<|WB|>"], ["-h", "and", "-hand"], ["kno", "ck", "knock"], ["ick", ",<|WB|>", "ick,<|WB|>"], ["m", "ouse", "mouse"], ["uck", "<|WB|>", "uck<|WB|>"], ["d", "rown", "drown"], ["ab", "b", "abb"], ["\u2014", "so<|WB|>", "\u2014so<|WB|>"], ["h", "atch", "hatch"], ["\u2014", "all<|WB|>", "\u2014all<|WB|>"], ["\u2014", "as<|WB|>", "\u2014as<|WB|>"], ["P", "ol", "Pol"], [")", ";<|WB|>", ");<|WB|>"], ["whis", "k", "whisk"], ["con", "sequ", "consequ"], ["wor", "k<|WB|>", "work<|WB|>"], ["ad", "mir", "admir"], ["ac", "e<|WB|>", "ace<|WB|>"], ["le", "y,<|WB|>", "ley,<|WB|>"], ["f", "al", "fal"], ["aid", "<|WB|>", "aid<|WB|>"], ["u", "s.<|WB|>", "us.<|WB|>"], ["sub", "ject", "subject"], ["con", "sist", "consist"], ["in", "no", "inno"], ["dec", "e", "dece"], ["ire", ".<|WB|>", "ire.<|WB|>"], ["en", "ess.<|WB|>", "eness.<|WB|>"], ["f", "t<|WB|>", "ft<|WB|>"], ["f", "ail", "fail"], ["pre", "tt", "prett"], ["head", "<|WB|>", "head<|WB|>"], ["im", "press", "impress"], ["al", "ity,<|WB|>", "ality,<|WB|>"], ["now", "<|WB|>", "now<|WB|>"], ["r", "ed,<|WB|>", "red,<|WB|>"], ["gri", "ev", "griev"], ["cri", "min", "crimin"], ["ith", "er<|WB|>", "ither<|WB|>"], ["hus", "band", "husband"], ["cl", "im", "clim"], ["b", "att", "batt"], ["it", "ion<|WB|>", "ition<|WB|>"], ["no", "thing", "nothing"], ["ast", ",<|WB|>", "ast,<|WB|>"], ["er", "min", "ermin"], ["pro", "per", "proper"], ["t", "y<|WB|>", "ty<|WB|>"], ["d", "aughter", "daughter"], ["ord", "in", "ordin"], ["res", "erv", "reserv"], ["t", "um", "tum"], ["y", "oung", "young"], ["obl", "ig", "oblig"], ["for", "b", "forb"], ["su", "pp", "supp"], ["eng", "ag", "engag"], ["col", "d", "cold"], ["ol", "er", "oler"], ["il", "y.<|WB|>", "ily.<|WB|>"], ["bit", "ter", "bitter"], ["su", "it", "suit"], ["room", ".<|WB|>", "room.<|WB|>"], ["fir", "m", "firm"], ["ce", "iv", "ceiv"], ["val", "u", "valu"], ["re", "pl", "repl"], ["m", "ust", "must"], ["ast", ".<|WB|>", "ast.<|WB|>"], ["per", "form", "perform"], ["accompl", "ish", "accomplish"], ["ment", "s,<|WB|>", "ments,<|WB|>"], ["d", "y", "dy"], ["break", "fast", "breakfast"], ["c", "am", "cam"], ["en", "de", "ende"], ["dr", "ink", "drink"], ["s", "am", "sam"], ["aw", "<|WB|>", "aw<|WB|>"], ["bl", "ing<|WB|>", "bling<|WB|>"], ["it", "--", "it--"], ["if", "i", "ifi"], ["res", "olut", "resolut"], ["g", "at", "gat"], ["w", "el", "wel"], ["gl", "ad", "glad"], ["conf", "id", "confid"], ["su", "gg", "sugg"], ["th", "read", "thread"], ["ben", "ef", "benef"], ["f", "old", "fold"], ["iv", "e-", "ive-"], ["le", "m", "lem"], ["pre", "ach", "preach"], ["clo", "s", "clos"], ["--", "h", "--h"], ["w", "and", "wand"], ["kee", "per", "keeper"], ["ed", "ly,<|WB|>", "edly,<|WB|>"], ["wom", "an", "woman"], ["he", "w", "hew"], ["or", "y,<|WB|>", "ory,<|WB|>"], ["anc", "es,<|WB|>", "ances,<|WB|>"], ["um", "ph", "umph"], ["er", "?<|WB|>", "er?<|WB|>"], ["ev", "il", "evil"], ["t", "s<|WB|>", "ts<|WB|>"], ["rat", "ed<|WB|>", "rated<|WB|>"], ["ing", ",\u201d<|WB|>", "ing,\u201d<|WB|>"], ["t", "id", "tid"], ["w", "ound", "wound"], ["ot", ",<|WB|>", "ot,<|WB|>"], ["car", "e", "care"], ["bo", "ard<|WB|>", "board<|WB|>"], ["ly", ":<|WB|>", "ly:<|WB|>"], ["in", "e;<|WB|>", "ine;<|WB|>"], ["cap", "t", "capt"], ["ag", "e;<|WB|>", "age;<|WB|>"], ["all", "ed<|WB|>", "alled<|WB|>"], ["He", "av", "Heav"], ["j", "ug", "jug"], ["st", "ream", "stream"], ["water", "-", "water-"], ["f", "ru", "fru"], ["ack", ",<|WB|>", "ack,<|WB|>"], ["ic", "e", "ice"], ["an", "e", "ane"], ["f", "ill", "fill"], ["oul", "der", "oulder"], ["d", "ing<|WB|>", "ding<|WB|>"], ["b", "oot", "boot"], ["sm", "ith", "smith"], ["sp", "ik", "spik"], ["m", "ult", "mult"], ["y", "el", "yel"], ["v", "ap", "vap"], ["r", "ough", "rough"], ["dis", "appear", "disappear"], ["sec", "ut", "secut"], ["r", "um", "rum"], ["w", "ash", "wash"], ["o", "ar", "oar"], ["pock", "et", "pocket"], ["o", "es<|WB|>", "oes<|WB|>"], ["Nantuck", "et", "Nantucket"], ["e", "h", "eh"], ["o", "on", "oon"], ["\u2014", "not<|WB|>", "\u2014not<|WB|>"], ["-", "sk", "-sk"], ["-", "coloured<|WB|>", "-coloured<|WB|>"], ["\u2018", "P", "\u2018P"], ["cru", "is", "cruis"], ["\u2014", "I", "\u2014I"], ["Star", "buck", "Starbuck"], ["p", "ear", "pear"], ["z", "<|WB|>", "z<|WB|>"], ["B", "el", "Bel"], ["p", "ew", "pew"], ["D", "or", "Dor"], ["g", "as", "gas"], ["n", "igg", "nigg"], ["cl", "aim", "claim"], ["re", "ach", "reach"], ["ul", "g", "ulg"], ["po", "pul", "popul"], ["perf", "ect", "perfect"], ["em", "in", "emin"], ["au", "thor", "author"], ["her", "e<|WB|>", "here<|WB|>"], ["au", "se", "ause"], ["do", "<|WB|>", "do<|WB|>"], ["v", "ig", "vig"], ["pro", "pri", "propri"], ["ra", "ble<|WB|>", "rable<|WB|>"], ["com", "par", "compar"], ["ic", "ed<|WB|>", "iced<|WB|>"], ["satis", "fi", "satisfi"], ["oc", "cas", "occas"], ["Eliz", "ab", "Elizab"], ["ag", "e", "age"], ["adv", "ant", "advant"], ["pre", "ci", "preci"], ["con", "sum", "consum"], ["ex", "trem", "extrem"], ["con", "tra", "contra"], ["j", "ok", "jok"], ["\u201c", "th", "\u201cth"], ["dis", "s", "diss"], ["on", "d<|WB|>", "ond<|WB|>"], ["h", "ist", "hist"], ["p", "aint", "paint"], ["dep", "end", "depend"], ["ip", "<|WB|>", "ip<|WB|>"], ["j", "our", "jour"], ["d", "ay<|WB|>", "day<|WB|>"], ["n", "ail", "nail"], ["phil", "os", "philos"], ["sid", "e,<|WB|>", "side,<|WB|>"], ["agre", "e", "agree"], ["re", "proach", "reproach"], ["con", "sol", "consol"], ["ard", "s<|WB|>", "ards<|WB|>"], ["v", "er<|WB|>", "ver<|WB|>"], ["shar", "p", "sharp"], ["id", "e", "ide"], ["mo", "der", "moder"], ["con", "vers", "convers"], ["W", "illi", "Willi"], ["our", "ed<|WB|>", "oured<|WB|>"], ["ast", "on", "aston"], ["dis", "appoint", "disappoint"], ["comp", "ass", "compass"], ["li", "ber", "liber"], [".", "\u2019\u201d<|WB|>", ".\u2019\u201d<|WB|>"], ["ev", "id", "evid"], ["com", "pos", "compos"], ["em", "ent.<|WB|>", "ement.<|WB|>"], ["ap", "proach", "approach"], ["al", "arm", "alarm"], ["ing", "ing<|WB|>", "inging<|WB|>"], ["inc", "red", "incred"], ["\u201c", "T", "\u201cT"], ["do", "z", "doz"], ["our", ".<|WB|>", "our.<|WB|>"], ["pl", "ain", "plain"], ["whis", "per", "whisper"], ["prec", "ip", "precip"], ["ib", "le,<|WB|>", "ible,<|WB|>"], ["t", "ir", "tir"], ["aff", "air", "affair"], ["pre", "t", "pret"], ["concer", "n", "concern"], ["bra", "c", "brac"], ["clo", "ck", "clock"], ["R", "os", "Ros"], ["excl", "aim", "exclaim"], ["k", ";<|WB|>", "k;<|WB|>"], ["res", "ist", "resist"], ["list", "en", "listen"], ["ant", "s,<|WB|>", "ants,<|WB|>"], ["bl", "am", "blam"], ["ign", "or", "ignor"], ["ation", "s;<|WB|>", "ations;<|WB|>"], ["ator", "y<|WB|>", "atory<|WB|>"], ["ig", "u", "igu"], ["exc", "it", "excit"], [".", ",<|WB|>", ".,<|WB|>"], ["h", "ast", "hast"], ["em", "<|WB|>", "em<|WB|>"], ["enc", "es,<|WB|>", "ences,<|WB|>"], ["ne", "y", "ney"], ["G", "ra", "Gra"], ["g", "gl", "ggl"], ["rat", "t", "ratt"], ["m", ".<|WB|>", "m.<|WB|>"], ["li", "ed<|WB|>", "lied<|WB|>"], ["L", "or", "Lor"], ["te", "ach", "teach"], ["am", ".<|WB|>", "am.<|WB|>"], ["ink", "ing<|WB|>", "inking<|WB|>"], ["k", "s,<|WB|>", "ks,<|WB|>"], ["ish", "ed,<|WB|>", "ished,<|WB|>"], ["o", "be", "obe"], ["h", "az", "haz"], ["f", "aint", "faint"], ["ind", "ic", "indic"], ["c", "rown", "crown"], ["itu", "de", "itude"], ["ch", "est", "chest"], ["S", "he", "She"], ["-b", "y", "-by"], ["se", "arch", "search"], ["s", "outh", "south"], ["st", "ill", "still"], ["oo", "t<|WB|>", "oot<|WB|>"], ["ah", ",<|WB|>", "ah,<|WB|>"], ["ad", "ing<|WB|>", "ading<|WB|>"], ["w", "av", "wav"], ["l", "amp", "lamp"], ["is", "c", "isc"], ["b", "ull", "bull"], ["D", "ef", "Def"], ["r", "anc", "ranc"], ["S", "ol", "Sol"], ["o", "x", "ox"], ["der", ".<|WB|>", "der.<|WB|>"], ["d", "run", "drun"], ["-", "tre", "-tre"], ["h", "aw", "haw"], ["s", "ul", "sul"], ["oun", "tain", "ountain"], ["she", "ep", "sheep"], ["an", "\u2019s<|WB|>", "an\u2019s<|WB|>"], ["pil", "ot", "pilot"], ["mon", "st", "monst"], ["gard", "en", "garden"], ["P", "l", "Pl"], ["light", "n", "lightn"], ["wood", "-", "wood-"], ["-head", "ed<|WB|>", "-headed<|WB|>"], ["st", "al", "stal"], ["ag", "n", "agn"], ["L", "ev", "Lev"], ["harpo", "one", "harpoone"], ["h", "ook", "hook"], ["er", "\u2014", "er\u2014"], ["p", "enn", "penn"], ["e\u2014", "a<|WB|>", "e\u2014a<|WB|>"], ["!", "_<|WB|>", "!_<|WB|>"], ["pl", "um", "plum"], ["gre", "en", "green"], ["\u201d", "\u2014and<|WB|>", "\u201d\u2014and<|WB|>"], ["i", ",<|WB|>", "i,<|WB|>"], ["d", "ru", "dru"], ["D", "u", "Du"], ["H", "an", "Han"], ["c", "ig", "cig"], ["'", "t<|WB|>", "'t<|WB|>"], ["'", "<|WB|>", "'<|WB|>"], ["with", "<|WB|>", "with<|WB|>"], ["J", "an", "Jan"], ["ac", "y<|WB|>", "acy<|WB|>"], ["l", "es", "les"], ["dev", "ot", "devot"], ["it", "self", "itself"], ["im", "prov", "improv"], ["dec", "lar", "declar"], ["m", "it", "mit"], ["or", "ous<|WB|>", "orous<|WB|>"], ["under", "stand", "understand"], ["en", "ess", "eness"], ["il", "t<|WB|>", "ilt<|WB|>"], ["bl", "es<|WB|>", "bles<|WB|>"], ["tim", "e,<|WB|>", "time,<|WB|>"], ["t", "ast", "tast"], ["n", "in", "nin"], ["an", "other", "another"], ["i", "ally<|WB|>", "ially<|WB|>"], ["nar", "row", "narrow"], ["ough", "t<|WB|>", "ought<|WB|>"], ["su", "d", "sud"], ["sol", "ut", "solut"], ["M", "a", "Ma"], ["min", "ist", "minist"], ["satis", "fact", "satisfact"], ["ar", "ily<|WB|>", "arily<|WB|>"], ["ex", "act", "exact"], ["ail", ",<|WB|>", "ail,<|WB|>"], ["ion", "al<|WB|>", "ional<|WB|>"], ["iv", "eness<|WB|>", "iveness<|WB|>"], ["sy", "ch", "sych"], ["con", "dit", "condit"], ["ref", "us", "refus"], ["in", "jur", "injur"], ["V", "en", "Ven"], ["des", "cri", "descri"], ["ch", "an", "chan"], ["det", "ermin", "determin"], ["em", "on", "emon"], ["fam", "il", "famil"], ["bet", "ter", "better"], ["ex", "tra", "extra"], ["in", "form", "inform"], ["m", "ing<|WB|>", "ming<|WB|>"], ["acqu", "aint", "acquaint"], ["per", "su", "persu"], ["ass", "ist", "assist"], ["ack", "ed<|WB|>", "acked<|WB|>"], ["ar", "riv", "arriv"], ["all", ".<|WB|>", "all.<|WB|>"], ["s", "on,<|WB|>", "son,<|WB|>"], ["S", "u", "Su"], ["Oh", ",<|WB|>", "Oh,<|WB|>"], ["w", "ast", "wast"], ["spl", "end", "splend"], ["\u201c", "I", "\u201cI"], ["se", "e", "see"], ["th", "ank", "thank"], ["ap", "prov", "approv"], ["circum", "st", "circumst"], ["ed", "_<|WB|>", "ed_<|WB|>"], ["co", "ol", "cool"], ["p", "ed", "ped"], ["pe", "op", "peop"], ["er", "s\u2019<|WB|>", "ers\u2019<|WB|>"], ["our", "s<|WB|>", "ours<|WB|>"], ["ende", "av", "endeav"], ["inc", "reas", "increas"], ["swe", "et", "sweet"], ["ion", "!<|WB|>", "ion!<|WB|>"], ["ro", "t", "rot"], ["pos", "ing<|WB|>", "posing<|WB|>"], ["ass", "ur", "assur"], ["de", "part", "depart"], ["pro", "ceed", "proceed"], ["your", "self", "yourself"], ["mon", "th", "month"], ["ear", "n", "earn"], ["mus", "ic", "music"], ["med", "it", "medit"], ["am", "az", "amaz"], ["r", "y;<|WB|>", "ry;<|WB|>"], ["re", "jo", "rejo"], ["less", "ly<|WB|>", "lessly<|WB|>"], ["sugg", "est", "suggest"], ["int", "ed<|WB|>", "inted<|WB|>"], ["se", "t<|WB|>", "set<|WB|>"], ["ar", "rang", "arrang"], ["inst", "ruct", "instruct"], ["t", "ick", "tick"], ["bro", "ad", "broad"], ["ist", ",<|WB|>", "ist,<|WB|>"], ["old", ",<|WB|>", "old,<|WB|>"], ["--", "I<|WB|>", "--I<|WB|>"], ["ch", "urch", "church"], ["er", ".\u201d<|WB|>", "er.\u201d<|WB|>"], ["ation", ".\u201d<|WB|>", "ation.\u201d<|WB|>"], ["s", "imp", "simp"], ["pres", "um", "presum"], ["R", "e", "Re"], ["h", "ot", "hot"], ["resp", "ond", "respond"], ["en", "u", "enu"], ["G", "o", "Go"], ["ed", "ness<|WB|>", "edness<|WB|>"], ["ang", "el", "angel"], ["ind", "iv", "indiv"], ["no", ",<|WB|>", "no,<|WB|>"], ["ob", "st", "obst"], ["e", "u", "eu"], ["bu", "st", "bust"], ["sh", "el", "shel"], ["ing", "ly,<|WB|>", "ingly,<|WB|>"], ["sol", "di", "soldi"], ["f", "un", "fun"], ["J", "ul", "Jul"], ["st", "one<|WB|>", "stone<|WB|>"], ["P", "res", "Pres"], ["gra", "p", "grap"], ["prot", "ect", "protect"], ["t", "able", "table"], ["G", "ener", "Gener"], ["tr", "ick", "trick"], ["low", ",<|WB|>", "low,<|WB|>"], ["\u2018", "A", "\u2018A"], ["l", "ord", "lord"], ["b", ",<|WB|>", "b,<|WB|>"], ["ste", "am", "steam"], ["ash", "ing<|WB|>", "ashing<|WB|>"], ["p", "ant", "pant"], ["d", "ust", "dust"], ["m", "ach", "mach"], ["Do", "ct", "Doct"], ["do", "ct", "doct"], ["ev", "ent", "event"], ["Engl", "ish", "English"], ["ag", "<|WB|>", "ag<|WB|>"], ["s", "-", "s-"], ["h", "ung", "hung"], ["eng", "th", "ength"], ["l", "on", "lon"], ["\u2019", "t,<|WB|>", "\u2019t,<|WB|>"], ["ar", "s<|WB|>", "ars<|WB|>"], ["il", ".<|WB|>", "il.<|WB|>"], ["g", "i", "gi"], ["ist", "s<|WB|>", "ists<|WB|>"], ["g", "s<|WB|>", "gs<|WB|>"], ["dou", "ble", "double"], ["long", "-", "long-"], ["ter", "ing<|WB|>", "tering<|WB|>"], ["st", "om", "stom"], ["org", "an", "organ"], ["s", "and", "sand"], ["w", "ak", "wak"], ["sh", "ri", "shri"], ["-", "sail", "-sail"], ["se", "am", "seam"], ["p", "ir", "pir"], ["voy", "ag", "voyag"], ["s", "\u2019", "s\u2019"], ["\u2014h", "ow<|WB|>", "\u2014how<|WB|>"], ["D", "<|WB|>", "D<|WB|>"], ["\u2014h", "is<|WB|>", "\u2014his<|WB|>"], ["sid", "e-", "side-"], ["t", "ub", "tub"], ["s", "\u201d<|WB|>", "s\u201d<|WB|>"], ["ra", "ft", "raft"], ["_", "\u2014", "_\u2014"], ["some", "wher", "somewher"], ["b", "e<|WB|>", "be<|WB|>"], ["A", "ust", "Aust"], ["on", "ly<|WB|>", "only<|WB|>"], ["ens", "e<|WB|>", "ense<|WB|>"], ["E", "l", "El"], ["cont", "ent", "content"], ["B", "ing", "Bing"], ["u", "al<|WB|>", "ual<|WB|>"], ["ic", "e;<|WB|>", "ice;<|WB|>"], ["ic", "s,<|WB|>", "ics,<|WB|>"], ["gra", "c", "grac"], ["qu", "al", "qual"], ["av", "o", "avo"], ["ev", "en<|WB|>", "even<|WB|>"], ["res", "tra", "restra"], ["er", "ed,<|WB|>", "ered,<|WB|>"], ["c", "utt", "cutt"]], "vocab": {"0": "\u0000", "1": "\u0001", "2": "\u0002", "3": "\u0003", "4": "\u0004", "5": "\u0005", "6": "\u0006", "7": "\u0007", "8": "\b", "9": "\t", "10": "\n", "11": "\u000b", "12": "\f", "13": "\r", "14": "\u000e", "15": "\u000f", "16": "\u0010", "17": "\u0011", "18": "\u0012", "19": "\u0013", "20": "\u0014", "21": "\u0015", "22": "\u0016", "23": "\u0017", "24": "\u0018", "25": "\u0019", "26": "\u001a", "27": "\u001b", "28": "\u001c", "29": "\u001d", "30": "\u001e", "31": "\u001f", "32": " ", "33": "!", "34": "\"", "35": "#", "36": "$", "37": "%", "38": "&", "39": "'", "40": "(", "41": ")", "42": "*", "43": "+", "44": ",", "45": "-", "46": ".", "47": "/", "48": "0", "49": "1", "50": "2", "51": "3", "52": "4", "53": "5", "54": "6", "55": "7", "56": "8", "57": "9", "58": ":", "59": ";", "60": "<", "61": "=", "62": ">", "63": "?", "64": "@", "65": "A", "66": "B", "67": "C", "68": "D", "69": "E", "70": "F", "71": "G", "72": "H", "73": "I", "74": "J", "75": "K", "76": "L", "77": "M", "78": "N", "79": "O", "80": "P", "81": "Q", "82": "R", "83": "S", "84": "T", "85": "U", "86": "V", "87": "W", "88": "X", "89": "Y", "90": "Z", "91": "[", "92": "\\", "93": "]", "94": "^", "95": "_", "96": "`", "97": "a", "98": "b", "99": "c", "100": "d", "101": "e", "102": "f", "103": "g", "104": "h", "105": "i", "106": "j", "107": "k", "108": "l", "109": "m", "110": "n", "111": "o", "112": "p", "113": "q", "114": "r", "115": "s", "116": "t", "117": "u", "118": "v", "119": "w", "120": "x", "121": "y", "122": "z", "123": "{", "124": "|", "125": "}", "126": "~", "127": "\u007f", "128": "\u0080", "129": "\u0081", "130": "\u0082", "131": "\u0083", "132": "\u0084", "133": "\u0085", "134": "\u0086", "135": "\u0087", "136": "\u0088", "137": "\u0089", "138": "\u008a", "139": "\u008b", "140": "\u008c", "141": "\u008d", "142": "\u008e", "143": "\u008f", "144": "\u0090", "145": "\u0091", "146": "\u0092", "147": "\u0093", "148": "\u0094", "149": "\u0095", "150": "\u0096", "151": "\u0097", "152": "\u0098", "153": "\u0099", "154": "\u009a", "155": "\u009b", "156": "\u009c", "157": "\u009d", "158": "\u009e", "159": "\u009f", "160": "\u00a0", "161": "\u00a1", "162": "\u00a2", "163": "\u00a3", "164": "\u00a4", "165": "\u00a5", "166": "\u00a6", "167": "\u00a7", "168": "\u00a8", "169": "\u00a9", "170": "\u00aa", "171": "\u00ab", "172": "\u00ac", "173": "\u00ad", "174": "\u00ae", "175": "\u00af", "176": "\u00b0", "177": "\u00b1", "178": "\u00b2", "179": "\u00b3", "180": "\u00b4", "181": "\u00b5", "182": "\u00b6", "183": "\u00b7", "184": "\u00b8", "185": "\u00b9", "186": "\u00ba", "187": "\u00bb", "188": "\u00bc", "189": "\u00bd", "190": "\u00be", "191": "\u00bf", "192": "\u00c0", "193": "\u00c1", "194": "\u00c2", "195": "\u00c3", "196": "\u00c4", "197": "\u00c5", "198": "\u00c6", "199": "\u00c7", "200": "\u00c8", "201": "\u00c9", "202": "\u00ca", "203": "\u00cb", "204": "\u00cc", "205": "\u00cd", "206": "\u00ce", "207": "\u00cf", "208": "\u00d0", "209": "\u00d1", "210": "\u00d2", "211": "\u00d3", "212": "\u00d4", "213": "\u00d5", "214": "\u00d6", "215": "\u00d7", "216": "\u00d8", "217": "\u00d9", "218": "\u00da", "219": "\u00db", "220": "\u00dc", "221": "\u00dd", "222": "\u00de", "223": "\u00df", "224": "\u00e0", "225": "\u00e1", "226": "\u00e2", "227": "\u00e3", "228": "\u00e4", "229": "\u00e5", "230": "\u00e6", "231": "\u00e7", "232": "\u00e8", "233": "\u00e9", "234": "\u00ea", "235": "\u00eb", "236": "\u00ec", "237": "\u00ed", "238": "\u00ee", "239": "\u00ef", "240": "\u00f0", "241": "\u00f1", "242": "\u00f2", "243": "\u00f3", "244": "\u00f4", "245": "\u00f5", "246": "\u00f6", "247": "\u00f7", "248": "\u00f8", "249": "\u00f9", "250": "\u00fa", "251": "\u00fb", "252": "\u00fc", "253": "\u00fd", "254": "\u00fe", "255": "\u00ff", "256": "<|EOS|>", "257": "<|WB|>", "258": "\u201c", "259": "\u201d", "260": "\u201c", "261": "\u201d", "262": "\u201c", "263": "\u201d", "264": "\u2019", "265": "\u2018", "266": "\u0153", "267": "\u2014", "268": "\u2026", "269": "\u2026", "270": ",<|WB|>", "271": "in", "272": "er", "273": ".<|WB|>", "274": "ed", "275": "es", "276": "on", "277": "en", "278": "ing", "279": "s<|WB|>", "280": "an", "281": "ar", "282": "at", "283": "e<|WB|>", "284": ";<|WB|>", "285": "or", "286": "st", "287": "ed<|WB|>", "288": "ou", "289": "re", "290": "al", "291": "it", "292": "y<|WB|>", "293": "ing<|WB|>", "294": "\u201d<|WB|>", "295": "th", "296": "el", "297": "is", "298": "ch", "299": "il", "300": "s,<|WB|>", "301": "ion", "302": "ro", "303": "ic", "304": "un", "305": "le", "306": "t<|WB|>", "307": "ra", "308": "om", "309": "\u2019<|WB|>", "310": "ur", "311": "as", "312": "ad", "313": "ent", "314": "es<|WB|>", "315": "ol", "316": "ri", "317": "e,<|WB|>", "318": "lo", "319": "!<|WB|>", "320": "ac", "321": "sh", "322": "s.<|WB|>", "323": "ul", "324": "ig", "325": "et", "326": "ed,<|WB|>", "327": "y,<|WB|>", "328": "im", "329": "ab", "330": "am", "331": "and", "332": "id", "333": "er<|WB|>", "334": ".\u201d<|WB|>", "335": "ir", "336": "ec", "337": "ly<|WB|>", "338": "\u2019s<|WB|>", "339": "em", "340": "ap", "341": "--", "342": "ow", "343": "ag", "344": "?<|WB|>", "345": "e.<|WB|>", "346": "ter", "347": "ver", "348": "con", "349": "ation", "350": "sp", "351": "oo", "352": "se", "353": "iv", "354": "wh", "355": "es,<|WB|>", "356": "um", "357": "qu", "358": "pl", "359": ":<|WB|>", "360": "res", "361": "for", "362": "ed.<|WB|>", "363": "ard", "364": "ut", "365": "y.<|WB|>", "366": "ex", "367": "per", "368": "ain", "369": "po", "370": ",\u201d<|WB|>", "371": "he", "372": "bl", "373": "su", "374": "ist", "375": "s;<|WB|>", "376": "ff", "377": "com", "378": "ck", "379": "ing,<|WB|>", "380": "de", "381": "oun", "382": "ht", "383": "our", "384": "est", "385": "ant", "386": "ay", "387": "ak", "388": "ast", "389": "li", "390": "pro", "391": "ish", "392": "ru", "393": "e-", "394": "all", "395": "enc", "396": ".\u2019<|WB|>", "397": "ill", "398": "anc", "399": "ess<|WB|>", "400": "ell", "401": "be", "402": "der", "403": "us", "404": "av", "405": "dis", "406": "op", "407": "bo", "408": "e;<|WB|>", "409": "al<|WB|>", "410": "d<|WB|>", "411": "sc", "412": "her", "413": "_<|WB|>", "414": "ot", "415": "es.<|WB|>", "416": "ess", "417": "ful", "418": "!\u201d<|WB|>", "419": "art", "420": "en<|WB|>", "421": "ct", "422": "ect", "423": "co", "424": "ep", "425": "ind", "426": "\u2014th", "427": "ous", "428": "ight", "429": "ip", "430": "ear", "431": "if", "432": "man", "433": "low", "434": "cl", "435": "aw", "436": "mo", "437": "end", "438": "and<|WB|>", "439": "le<|WB|>", "440": "ud", "441": "ed;<|WB|>", "442": "gh", "443": "ick", "444": "ev", "445": "er,<|WB|>", "446": "ing.<|WB|>", "447": "a<|WB|>", "448": "ent<|WB|>", "449": "row", "450": "ang", "451": "ass", "452": "ne", "453": "ack", "454": "int", "455": "no", "456": ",\u2019<|WB|>", "457": "fl", "458": "wor", "459": "do", "460": "ath", "461": "ion<|WB|>", "462": "est<|WB|>", "463": "ther", "464": "y-", "465": "pre", "466": "to", "467": "e\u2014", "468": "tra", "469": "at<|WB|>", "470": "ail", "471": "so", "472": "tr", "473": "sel", "474": "?\u201d<|WB|>", "475": "ing-", "476": "y;<|WB|>", "477": "di", "478": "ort", "479": "bu", "480": "ach", "481": "ation<|WB|>", "482": "ous<|WB|>", "483": "ers<|WB|>", "484": "up", "485": "ly,<|WB|>", "486": "gl", "487": "n<|WB|>", "488": "me", "489": "a-", "490": "ph", "491": "au", "492": "le,<|WB|>", "493": "ber", "494": "ood", "495": "k<|WB|>", "496": "out", "497": "an<|WB|>", "498": "ound", "499": "we", "500": "rat", "501": "-b", "502": "app", "503": "es;<|WB|>", "504": "air", "505": "on<|WB|>", "506": "ong", "507": "ies<|WB|>", "508": "ust", "509": "ness<|WB|>", "510": "ens", "511": "now", "512": "able<|WB|>", "513": "pres", "514": "pos", "515": "inc", "516": "arm", "517": "ew", "518": "od", "519": "mis", "520": "-h", "521": "ess,<|WB|>", "522": "mar", "523": "des", "524": "ment", "525": "head", "526": "ity<|WB|>", "527": "ated<|WB|>", "528": "ob", "529": "og", "530": "ok", "531": "ure", "532": "ough", "533": "ib", "534": "iz", "535": "pr", "536": "over", "537": "!\u2019<|WB|>", "538": "ings<|WB|>", "539": "ch<|WB|>", "540": "?\u2019<|WB|>", "541": ")<|WB|>", "542": "ash", "543": "igh", "544": "ret", "545": "ght", "546": "par", "547": "hal", "548": "mon", "549": "Th", "550": "f-", "551": "sl", "552": "cor", "553": "ate<|WB|>", "554": "or<|WB|>", "555": "ted<|WB|>", "556": "fe", "557": "gra", "558": "s\u2014", "559": "lik", "560": "ive<|WB|>", "561": "it<|WB|>", "562": "tain", "563": "bar", "564": "erv", "565": "t,<|WB|>", "566": "car", "567": "ith", "568": "St", "569": "ign", "570": "ion,<|WB|>", "571": "col", "572": "ce", "573": "le.<|WB|>", "574": "en,<|WB|>", "575": "sm", "576": "sw", "577": "e!<|WB|>", "578": "ank", "579": "eg", "580": "min", "581": "fi", "582": "ink", "583": "er.<|WB|>", "584": "tre", "585": "bre", "586": "imp", "587": "I<|WB|>", "588": "tw", "589": "\u2014and<|WB|>", "590": "in<|WB|>", "591": "dec", "592": "att", "593": "inter", "594": "sid", "595": "oul", "596": "itt", "597": "ey", "598": "som", "599": "ally<|WB|>", "600": "ic<|WB|>", "601": "gr", "602": "wa", "603": "old", "604": "whal", "605": "ge", "606": "ely<|WB|>", "607": "br", "608": "orn", "609": "o<|WB|>", "610": "cur", "611": "af", "612": "pt", "613": "gu", "614": "ing;<|WB|>", "615": "mer", "616": "sk", "617": "os", "618": "uck", "619": "\u2014the<|WB|>", "620": "str", "621": "ly.<|WB|>", "622": "comp", "623": "l<|WB|>", "624": "oc", "625": "atch", "626": "ship", "627": "pe", "628": "clo", "629": "urn", "630": "cont", "631": "ward", "632": "gg", "633": "Ch", "634": "sur", "635": "ef", "636": "ult", "637": "lin", "638": "coun", "639": "own", "640": "\"<|WB|>", "641": "e.\u201d<|WB|>", "642": "ever", "643": "ion.<|WB|>", "644": "th<|WB|>", "645": "ess.<|WB|>", "646": "on,<|WB|>", "647": "you", "648": "led<|WB|>", "649": "gre", "650": "ee", "651": "ers,<|WB|>", "652": "ful<|WB|>", "653": "is<|WB|>", "654": "act", "655": "ict", "656": "st<|WB|>", "657": "off", "658": "cre", "659": "ingly<|WB|>", "660": "ann", "661": "ity,<|WB|>", "662": "fort", "663": "ste", "664": "as<|WB|>", "665": "cr", "666": "ation,<|WB|>", "667": "s!<|WB|>", "668": "under", "669": "ence<|WB|>", "670": "ett", "671": "ation.<|WB|>", "672": "und", "673": "rel", "674": "al,<|WB|>", "675": "ble<|WB|>", "676": "cap", "677": "),<|WB|>", "678": "ft", "679": "ub", "680": "vel", "681": "ond", "682": "ian", "683": "ions<|WB|>", "684": "a,<|WB|>", "685": "sub", "686": "ating<|WB|>", "687": "ook", "688": "ish<|WB|>", "689": "az", "690": "cas", "691": "tim", "692": "sol", "693": "mat", "694": "look", "695": "e?<|WB|>", "696": "_,<|WB|>", "697": "amp", "698": "read", "699": "ly", "700": "land", "701": "aff", "702": "mor", "703": "let", "704": "ar<|WB|>", "705": "ool", "706": "vi", "707": "ent,<|WB|>", "708": "hor", "709": "unt", "710": "inn", "711": "ho", "712": "jo", "713": "e--", "714": "ance<|WB|>", "715": "self", "716": "rid", "717": "ark", "718": "m<|WB|>", "719": "rib", "720": "aid", "721": "ild", "722": "ies,<|WB|>", "723": "thing", "724": "room", "725": "eli", "726": "ant<|WB|>", "727": "son", "728": "du", "729": "cer", "730": "ci", "731": "way", "732": "fer", "733": "or,<|WB|>", "734": "ather", "735": "bro", "736": "pp", "737": "\u2014h", "738": "night", "739": "part", "740": "like<|WB|>", "741": "ling<|WB|>", "742": "riv", "743": "hand", "744": "s.\u201d<|WB|>", "745": "dra", "746": "\u2014wh", "747": "one<|WB|>", "748": "ay<|WB|>", "749": "bra", "750": "-f", "751": "war", "752": "et<|WB|>", "753": "ations<|WB|>", "754": "e\u2019s<|WB|>", "755": "right", "756": "en.<|WB|>", "757": "-p", "758": "dist", "759": "si", "760": "heart", "761": "eng", "762": "less<|WB|>", "763": "sec", "764": "ious", "765": "ater", "766": "ah", "767": "fin", "768": "plac", "769": "not", "770": "Al", "771": "inv", "772": "oot", "773": "ros", "774": "sn", "775": "e:<|WB|>", "776": "ness,<|WB|>", "777": "well", "778": "ure<|WB|>", "779": "ical<|WB|>", "780": "press", "781": "him", "782": "comm", "783": "ren", "784": "--th", "785": "el<|WB|>", "786": "exp", "787": "ings,<|WB|>", "788": "reg", "789": "le;<|WB|>", "790": "s?<|WB|>", "791": "but<|WB|>", "792": "ous,<|WB|>", "793": "form", "794": "cra", "795": "!\u2014", "796": "ard<|WB|>", "797": "har", "798": "ung", "799": "ad<|WB|>", "800": "ying<|WB|>", "801": "-t", "802": "ump", "803": "An", "804": "mast", "805": "eas", "806": "ent.<|WB|>", "807": "rop", "808": "ke", "809": "serv", "810": "rep", "811": "with", "812": "ious<|WB|>", "813": "ity.<|WB|>", "814": "red", "815": "go", "816": "ject", "817": "all<|WB|>", "818": "rem", "819": "ple", "820": "Wh", "821": "of", "822": "bod", "823": "light", "824": "s\u2019<|WB|>", "825": "wind", "826": "ine<|WB|>", "827": "te", "828": "et,<|WB|>", "829": "cle", "830": "pur", "831": "ener", "832": "vers", "833": "day", "834": "half-", "835": "In", "836": "long", "837": "ied<|WB|>", "838": "uff", "839": "utt", "840": "add", "841": "\u201cS", "842": "rim", "843": "wr", "844": "al.<|WB|>", "845": "ry", "846": "blo", "847": "est,<|WB|>", "848": "ov", "849": "know", "850": "Qu", "851": "\u2014a<|WB|>", "852": "ary<|WB|>", "853": "cour", "854": "ily<|WB|>", "855": "conf", "856": "ins", "857": "sy", "858": "ion;<|WB|>", "859": "les<|WB|>", "860": "ents<|WB|>", "861": "ble", "862": "\u2019t<|WB|>", "863": "\u2014I<|WB|>", "864": "e,\u201d<|WB|>", "865": "aint", "866": "tru", "867": "augh", "868": "er;<|WB|>", "869": "vent", "870": "fel", "871": "prov", "872": "ow<|WB|>", "873": "id<|WB|>", "874": "pi", "875": "any", "876": "tt", "877": "good", "878": "er\u2019s<|WB|>", "879": "bur", "880": "d,<|WB|>", "881": "can", "882": "pass", "883": "pit", "884": "ron", "885": "ug", "886": "ull", "887": "\u2014\u201c", "888": "acc", "889": "able,<|WB|>", "890": "sle", "891": "for<|WB|>", "892": "den", "893": "atur", "894": "self-", "895": "ific", "896": "utter", "897": "che", "898": "s:<|WB|>", "899": "\u201c\u2018", "900": "ors<|WB|>", "901": "ffer", "902": "ight<|WB|>", "903": "tal", "904": "ire", "905": "ouse", "906": "\u2014that<|WB|>", "907": "tran", "908": "ers.<|WB|>", "909": "\u2019s,<|WB|>", "910": "ream", "911": "-st", "912": "at\u2019s<|WB|>", "913": "wher", "914": "our<|WB|>", "915": "one", "916": "atter", "917": "_.<|WB|>", "918": "cover", "919": "ask", "920": "als<|WB|>", "921": "ster", "922": "sun", "923": "ric", "924": "work", "925": "ris", "926": "ept", "927": "agg", "928": "ered<|WB|>", "929": "cir", "930": "ions,<|WB|>", "931": "stra", "932": "squ", "933": "the", "934": "them", "935": "sch", "936": "ial<|WB|>", "937": "eness<|WB|>", "938": "ry<|WB|>", "939": "tri", "940": "hab", "941": "ence,<|WB|>", "942": "ened<|WB|>", "943": "fish", "944": "ge<|WB|>", "945": "ite<|WB|>", "946": "char", "947": "at,<|WB|>", "948": "exc", "949": "men", "950": "arch", "951": "hel", "952": "ment<|WB|>", "953": "age<|WB|>", "954": "y!<|WB|>", "955": "dev", "956": "emp", "957": "y\u2019s<|WB|>", "958": "less", "959": "ck<|WB|>", "960": "ref", "961": "\u2019l", "962": "e.\u2019<|WB|>", "963": "man<|WB|>", "964": "to<|WB|>", "965": "rev", "966": "inst", "967": "pra", "968": "run", "969": "mark", "970": "back", "971": "ay,<|WB|>", "972": "cri", "973": "on.<|WB|>", "974": "able.<|WB|>", "975": "olog", "976": "liv", "977": "y.\u201d<|WB|>", "978": "spect", "979": "ance,<|WB|>", "980": "pris", "981": "kn", "982": "happ", "983": "ould", "984": "bow", "985": "hum", "986": "sho", "987": "ate,<|WB|>", "988": "port", "989": "fac", "990": "cru", "991": "med", "992": "wood", "993": "lect", "994": "ord", "995": "-d", "996": "ness.<|WB|>", "997": "eb", "998": "water", "999": "sail", "1000": "-head", "1001": "aus", "1002": "lar", "1003": "ough<|WB|>", "1004": "se<|WB|>", "1005": "pleas", "1006": "ress", "1007": "\u201cH", "1008": "itud", "1009": "flo", "1010": "00", "1011": "some", "1012": "p<|WB|>", "1013": "outh", "1014": "cent", "1015": "an,<|WB|>", "1016": "compl", "1017": "aut", "1018": "rown", "1019": "say", "1020": "ess;<|WB|>", "1021": "-l", "1022": "bed", "1023": "other", "1024": "in,<|WB|>", "1025": "ast<|WB|>", "1026": "sum", "1027": "sist", "1028": "fri", "1029": "Sh", "1030": "resp", "1031": "spir", "1032": "ser", "1033": ",--", "1034": "sor", "1035": "mur", "1036": "\u2019t", "1037": "?\u2014", "1038": "ich<|WB|>", "1039": "ill<|WB|>", "1040": "vis", "1041": "conv", "1042": "new", "1043": "ian<|WB|>", "1044": "ought", "1045": "cal", "1046": "el,<|WB|>", "1047": "pol", "1048": "-g", "1049": "star", "1050": "es\u2014", "1051": "too", "1052": "sup", "1053": "ek", "1054": "umb", "1055": "reas", "1056": "that", "1057": "Ar", "1058": "prof", "1059": "rist", "1060": "amb", "1061": "sea-", "1062": "in\u2019<|WB|>", "1063": "..", "1064": "'s<|WB|>", "1065": "sal", "1066": "fro", "1067": "stor", "1068": "det", "1069": "ten", "1070": "wit", "1071": "able", "1072": "arn", "1073": "point", "1074": "ence.<|WB|>", "1075": "irt", "1076": "hol", "1077": "Har", "1078": "bb", "1079": "del", "1080": "out<|WB|>", "1081": "th,<|WB|>", "1082": "ise<|WB|>", "1083": "equ", "1084": "o,<|WB|>", "1085": "uc", "1086": "ies.<|WB|>", "1087": "whit", "1088": ",\u2014", "1089": "ently<|WB|>", "1090": "ness", "1091": "ously<|WB|>", "1092": "us<|WB|>", "1093": "bor", "1094": "hous", "1095": "onder", "1096": "fre", "1097": "circ", "1098": "ard,<|WB|>", "1099": "es.\u201d<|WB|>", "1100": "ped<|WB|>", "1101": "eck", "1102": "es!<|WB|>", "1103": "!\"<|WB|>", "1104": "ably<|WB|>", "1105": "ice<|WB|>", "1106": "poss", "1107": "ham", "1108": "stand", "1109": "play", "1110": "ever<|WB|>", "1111": "dem", "1112": "lad", "1113": "-m", "1114": "miss", "1115": "pal", "1116": "ed:<|WB|>", "1117": "oud", "1118": "heav", "1119": "she", "1120": "super", "1121": "ush", "1122": "x<|WB|>", "1123": "ely,<|WB|>", "1124": "En", "1125": "enn", "1126": "rest", "1127": "ous.<|WB|>", "1128": "word", "1129": "fol", "1130": "down", "1131": "-w", "1132": "\u201cW", "1133": "mus", "1134": "pan", "1135": "ram", "1136": "et.<|WB|>", "1137": "ations,<|WB|>", "1138": "oy", "1139": "just", "1140": "fir", "1141": "pul", "1142": "ched<|WB|>", "1143": "sat", "1144": "ator", "1145": "ake<|WB|>", "1146": "ile<|WB|>", "1147": "mag", "1148": "imm", "1149": "leg", "1150": "ering<|WB|>", "1151": "ening<|WB|>", "1152": "beg", "1153": "ated,<|WB|>", "1154": "sil", "1155": "val", "1156": "ers", "1157": "rect", "1158": "\u2019ll<|WB|>", "1159": "hav", "1160": "dou", "1161": "kind", "1162": "it,<|WB|>", "1163": "my", "1164": "thre", "1165": "ext", "1166": "ant,<|WB|>", "1167": "draw", "1168": "fast", "1169": "omin", "1170": "prec", "1171": "forg", "1172": "door", "1173": "-bo", "1174": "eld", "1175": "appear", "1176": "ets<|WB|>", "1177": "grat", "1178": "red<|WB|>", "1179": "fully<|WB|>", "1180": "qui", "1181": "il<|WB|>", "1182": "rec", "1183": "ed.\u201d<|WB|>", "1184": "lock", "1185": "ve<|WB|>", "1186": "worl", "1187": "rag", "1188": "ch,<|WB|>", "1189": "ost", "1190": "ood<|WB|>", "1191": "Mar", "1192": "bel", "1193": "--and<|WB|>", "1194": "ance.<|WB|>", "1195": "Com", "1196": "fellow", "1197": "Un", "1198": "-like<|WB|>", "1199": "how", "1200": "a.<|WB|>", "1201": "ities<|WB|>", "1202": "mad", "1203": "por", "1204": "ar,<|WB|>", "1205": "gri", "1206": "\u201cB", "1207": "quest", "1208": "child", "1209": "sign", "1210": "don", "1211": "post", "1212": "rol", "1213": "-sh", "1214": "whale-", "1215": "ound<|WB|>", "1216": "its<|WB|>", "1217": "ic,<|WB|>", "1218": "lif", "1219": "gent", "1220": "ically<|WB|>", "1221": "aking<|WB|>", "1222": "ure,<|WB|>", "1223": "edg", "1224": "ions.<|WB|>", "1225": "tur", "1226": "colour", "1227": "ons<|WB|>", "1228": "He", "1229": "\u2014but<|WB|>", "1230": "bet", "1231": "aim", "1232": "hear", "1233": "pat", "1234": "ter,<|WB|>", "1235": "pri", "1236": "ut<|WB|>", "1237": "ere<|WB|>", "1238": "eff", "1239": "ined<|WB|>", "1240": "ben", "1241": "pil", "1242": "cup", "1243": "fam", "1244": "bul", "1245": "ible<|WB|>", "1246": "watch", "1247": "rac", "1248": "lov", "1249": "allow", "1250": "div", "1251": "every", "1252": "ross", "1253": "fur", "1254": "ive,<|WB|>", "1255": "again", "1256": "No", "1257": "chang", "1258": "fire", "1259": "ins<|WB|>", "1260": "house", "1261": "looking<|WB|>", "1262": "e!\u201d<|WB|>", "1263": "hom", "1264": "swe", "1265": "Con", "1266": "ed?<|WB|>", "1267": ".\u2014", "1268": "en;<|WB|>", "1269": "idd", "1270": "think", "1271": "oh", "1272": "so<|WB|>", "1273": "you<|WB|>", "1274": "far", "1275": "friend", "1276": "spl", "1277": "lip", "1278": "ation;<|WB|>", "1279": "ement", "1280": "here", "1281": "flow", "1282": "ings.<|WB|>", "1283": "um<|WB|>", "1284": "adv", "1285": "itu", "1286": "grav", "1287": "black", "1288": "lab", "1289": "hil", "1290": "ici", "1291": "nam", "1292": "s,\u201d<|WB|>", "1293": "mov", "1294": "ates<|WB|>", "1295": "ey<|WB|>", "1296": "ping<|WB|>", "1297": "bal", "1298": "\u2014_", "1299": "not<|WB|>", "1300": "ther<|WB|>", "1301": "jud", "1302": "bus", "1303": "your", "1304": "sens", "1305": "m,<|WB|>", "1306": "ited<|WB|>", "1307": "mist", "1308": "ird", "1309": "suc", "1310": "b<|WB|>", "1311": "ty", "1312": "abl", "1313": "ert", "1314": "n,<|WB|>", "1315": "ed!<|WB|>", "1316": "mil", "1317": "break", "1318": "er-", "1319": "reck", "1320": "ss", "1321": "pot", "1322": "boat", "1323": "mu", "1324": "ished<|WB|>", "1325": "lat", "1326": "end<|WB|>", "1327": "ery<|WB|>", "1328": "eal", "1329": "or.<|WB|>", "1330": "dark", "1331": "quar", "1332": "spr", "1333": "k,<|WB|>", "1334": "y\u2014", "1335": "edly<|WB|>", "1336": "foot", "1337": "eni", "1338": "ce<|WB|>", "1339": "school", "1340": "high", "1341": "trem", "1342": "ally,<|WB|>", "1343": "hy", "1344": "rew", "1345": "bear", "1346": "err", "1347": "sent", "1348": "band", "1349": "expl", "1350": "ain<|WB|>", "1351": "ate.<|WB|>", "1352": "count", "1353": "iness<|WB|>", "1354": "hon", "1355": "acqu", "1356": "there", "1357": "y?<|WB|>", "1358": "step", "1359": "list", "1360": "fo", "1361": "mod", "1362": "top", "1363": "tor", "1364": "org", "1365": "gn", "1366": "dog", "1367": "inct", "1368": "thing<|WB|>", "1369": "cat", "1370": "posit", "1371": "ruct", "1372": "f<|WB|>", "1373": "ful,<|WB|>", "1374": "spe", "1375": "will", "1376": "wal", "1377": "iff", "1378": "dr", "1379": "ay.<|WB|>", "1380": "dg", "1381": "pet", "1382": "wid", "1383": "ks<|WB|>", "1384": "bon", "1385": "ax", "1386": "smo", "1387": "\u2014\u201d<|WB|>", "1388": ",\"<|WB|>", "1389": "mean", "1390": "\u201cM", "1391": "Sp", "1392": "sav", "1393": "fortun", "1394": "gro", "1395": "irl", "1396": "ment,<|WB|>", "1397": "iously<|WB|>", "1398": "unn", "1399": "vell", "1400": "ground", "1401": "ell<|WB|>", "1402": "ular", "1403": "rap", "1404": "\u201cA", "1405": "alter", "1406": "ott", "1407": "zz", "1408": "rust", "1409": "e,\u2019<|WB|>", "1410": "-hous", "1411": "cab", "1412": "Whal", "1413": "bec", "1414": "preh", "1415": "\u2019s", "1416": "dep", "1417": "shar", "1418": "bri", "1419": "ick<|WB|>", "1420": "\u201cD", "1421": "bit", "1422": "cand", "1423": "cord", "1424": "main", "1425": "law", "1426": "ching<|WB|>", "1427": "Ex", "1428": "\u2014he<|WB|>", "1429": "ed\u2014", "1430": "resh", "1431": "Par", "1432": "nar", "1433": "year", "1434": "ement<|WB|>", "1435": "desc", "1436": "age,<|WB|>", "1437": "am<|WB|>", "1438": "ure.<|WB|>", "1439": "ad,<|WB|>", "1440": "dit", "1441": "jur", "1442": "world", "1443": "tow", "1444": "turn", "1445": "pow", "1446": "\u201cP", "1447": "was", "1448": "sym", "1449": "comfort", "1450": "whis", "1451": "inf", "1452": "\u201cF", "1453": "iness", "1454": "edd", "1455": "\u201c_", "1456": "(_", "1457": "ively<|WB|>", "1458": "ton", "1459": "and-", "1460": "empt", "1461": "gener", "1462": "ised<|WB|>", "1463": "death", "1464": "const", "1465": "path", "1466": "een", "1467": "cy", "1468": "ches<|WB|>", "1469": "def", "1470": "moun", "1471": "oll", "1472": "ston", "1473": "man,<|WB|>", "1474": "flu", "1475": "thought", "1476": "ine,<|WB|>", "1477": "this", "1478": "tract", "1479": "round", "1480": "as,<|WB|>", "1481": "and,<|WB|>", "1482": "aul", "1483": "Cap", "1484": "aud", "1485": "ivil", "1486": "ourn", "1487": "t.<|WB|>", "1488": "re<|WB|>", "1489": "Cl", "1490": "Pro", "1491": "board", "1492": "n\u2019t<|WB|>", "1493": "\u2014that\u2019s<|WB|>", "1494": "wom", "1495": "fact", "1496": "ran", "1497": "thr", "1498": "Man", "1499": "18", "1500": "hard", "1501": "present", "1502": "ist<|WB|>", "1503": "fool", "1504": "reason", "1505": "oil", "1506": "ill-", "1507": "illi", "1508": "crow", "1509": "imag", "1510": "pun", "1511": "ly;<|WB|>", "1512": "rud", "1513": "y,\u201d<|WB|>", "1514": "bell", "1515": "hat", "1516": "mel", "1517": "ubb", "1518": "ve", "1519": "rush", "1520": "murder", "1521": "eel", "1522": "\u2019d<|WB|>", "1523": "aver", "1524": "en-", "1525": "it\u2014", "1526": "ing\u2014", "1527": "if<|WB|>", "1528": "consid", "1529": "mir", "1530": "gar", "1531": "compan", "1532": "spec", "1533": "is,<|WB|>", "1534": "--that<|WB|>", "1535": "mot", "1536": "said", "1537": "cess", "1538": "ial", "1539": "laugh", "1540": "wonder", "1541": "emper", "1542": "ep<|WB|>", "1543": "saw", "1544": "window", "1545": "scar", "1546": "ations.<|WB|>", "1547": "inu", "1548": "y:<|WB|>", "1549": "need", "1550": "p,<|WB|>", "1551": "dig", "1552": "edit", "1553": "esc", "1554": "ed-", "1555": "bol", "1556": "buck", "1557": "cro", "1558": "beli", "1559": "ility<|WB|>", "1560": "twent", "1561": "satis", "1562": "ift", "1563": "ory<|WB|>", "1564": "hop", "1565": "Le", "1566": "ock", "1567": "ple<|WB|>", "1568": "ember", "1569": "iest<|WB|>", "1570": "sed<|WB|>", "1571": "excl", "1572": "Oh", "1573": "vill", "1574": "th.<|WB|>", "1575": "stair", "1576": "wis", "1577": "an.<|WB|>", "1578": "stre", "1579": "ik", "1580": "cow", "1581": "ez", "1582": "dest", "1583": "hap", "1584": "ers;<|WB|>", "1585": "ecess", "1586": "ubl", "1587": "--the<|WB|>", "1588": "certain", "1589": "cul", "1590": "est.<|WB|>", "1591": "ident", "1592": "observ", "1593": "met", "1594": "writ", "1595": "g<|WB|>", "1596": "rab", "1597": "father", "1598": "concer", "1599": "discover", "1600": "king", "1601": "ending<|WB|>", "1602": "Car", "1603": "hur", "1604": "ence;<|WB|>", "1605": "rob", "1606": "boy", "1607": "fle", "1608": "Hol", "1609": "blood", "1610": "s.\u2019<|WB|>", "1611": "of<|WB|>", "1612": "by", "1613": "ire<|WB|>", "1614": "natur", "1615": "feel", "1616": "om<|WB|>", "1617": "grand", "1618": "pain", "1619": "non", "1620": "imper", "1621": "rank", "1622": "der,<|WB|>", "1623": "Be", "1624": "ry,<|WB|>", "1625": "ich", "1626": "ses<|WB|>", "1627": "our,<|WB|>", "1628": "ice,<|WB|>", "1629": "desp", "1630": "strang", "1631": "alt", "1632": "want", "1633": "op<|WB|>", "1634": "s--", "1635": "on;<|WB|>", "1636": "umbl", "1637": "then", "1638": "at.<|WB|>", "1639": "x,<|WB|>", "1640": "ine", "1641": "fra", "1642": "gold", "1643": "dream", "1644": "se-", "1645": "harpo", "1646": "Per", "1647": "tak", "1648": "fa", "1649": "mi", "1650": "giv", "1651": "own<|WB|>", "1652": "bt", "1653": "elled<|WB|>", "1654": "ier<|WB|>", "1655": "rit", "1656": "ter.<|WB|>", "1657": "call", "1658": "countr", "1659": "dead", "1660": "ances<|WB|>", "1661": "iment", "1662": "susp", "1663": "ies;<|WB|>", "1664": "rant", "1665": "cast", "1666": "in.<|WB|>", "1667": "mal", "1668": "anim", "1669": "cross", "1670": "wear", "1671": "joy", "1672": "lay", "1673": "rang", "1674": "ages<|WB|>", "1675": "vert", "1676": "civil", "1677": "\u201cL", "1678": "best", "1679": "agu", "1680": "e?\u201d<|WB|>", "1681": "road", "1682": "ated.<|WB|>", "1683": "yard", "1684": "Gre", "1685": "sound", "1686": "\u2018H", "1687": "burn", "1688": "dri", "1689": "smok", "1690": "iss", "1691": "0<|WB|>", "1692": "le-", "1693": "ish,<|WB|>", "1694": "id,<|WB|>", "1695": "he<|WB|>", "1696": "ook<|WB|>", "1697": "cou", "1698": "ame<|WB|>", "1699": "dar", "1700": "ly-", "1701": "princ", "1702": "obl", "1703": "ism<|WB|>", "1704": "shor", "1705": "lim", "1706": "luck", "1707": "two", "1708": "conc", "1709": "shad", "1710": "agre", "1711": "selv", "1712": "proach", "1713": "ately<|WB|>", "1714": "ured<|WB|>", "1715": "magn", "1716": "exper", "1717": "mind", "1718": "iec", "1719": "expect", "1720": "last", "1721": "toge", "1722": "man.<|WB|>", "1723": "ide<|WB|>", "1724": "ily,<|WB|>", "1725": "bab", "1726": "uni", "1727": "to-", "1728": "ceed", "1729": "mill", "1730": "low<|WB|>", "1731": "vo", "1732": "miser", "1733": "ative<|WB|>", "1734": "suffer", "1735": "gain", "1736": "\u2019n", "1737": "ward<|WB|>", "1738": "less,<|WB|>", "1739": "court", "1740": "wil", "1741": "fat", "1742": "maid", "1743": "ors,<|WB|>", "1744": "pen", "1745": "pock", "1746": "Ahab", "1747": "book", "1748": "Ther", "1749": "fair", "1750": "ans<|WB|>", "1751": "suff", "1752": "comb", "1753": "old<|WB|>", "1754": "ended<|WB|>", "1755": "mann", "1756": "mother", "1757": "ch.<|WB|>", "1758": "fear", "1759": "stud", "1760": "ment.<|WB|>", "1761": "real", "1762": "ive.<|WB|>", "1763": "se;<|WB|>", "1764": "--wh", "1765": "als,<|WB|>", "1766": "glo", "1767": "mom", "1768": "but", "1769": "room<|WB|>", "1770": "ern", "1771": "e_<|WB|>", "1772": "sure", "1773": "ance;<|WB|>", "1774": "ave<|WB|>", "1775": "ized<|WB|>", "1776": "ili", "1777": "guard", "1778": "cloth", "1779": "trou", "1780": "rupt", "1781": "sleep", "1782": "gged<|WB|>", "1783": "deli", "1784": "med<|WB|>", "1785": "ven", "1786": "led,<|WB|>", "1787": "dim", "1788": "umber", "1789": "bank", "1790": "Mon", "1791": "knif", "1792": "snow", "1793": "person", "1794": "fig", "1795": "ures<|WB|>", "1796": "my<|WB|>", "1797": "thor", "1798": "in-", "1799": "consc", "1800": "se,<|WB|>", "1801": "ine.<|WB|>", "1802": "minut", "1803": "four", "1804": "angu", "1805": "ic.<|WB|>", "1806": "sett", "1807": "sing", "1808": "coff", "1809": "ged<|WB|>", "1810": "al;<|WB|>", "1811": "speak", "1812": "age.<|WB|>", "1813": "circum", "1814": "fav", "1815": "ity;<|WB|>", "1816": "ified<|WB|>", "1817": "six", "1818": "conce", "1819": "ful.<|WB|>", "1820": "--a<|WB|>", "1821": "fore", "1822": "udd", "1823": "direct", "1824": "olut", "1825": "corn", "1826": "ing!<|WB|>", "1827": "dro", "1828": "sir", "1829": "asp", "1830": "ments<|WB|>", "1831": "ish.<|WB|>", "1832": "tail", "1833": "...", "1834": "\u2014for<|WB|>", "1835": "per<|WB|>", "1836": "The<|WB|>", "1837": "ma", "1838": "hid", "1839": "trans", "1840": "she<|WB|>", "1841": "girl", "1842": "ring<|WB|>", "1843": "ear<|WB|>", "1844": "sim", "1845": "marri", "1846": "Mor", "1847": "Her", "1848": "morn", "1849": "brother", "1850": "ounc", "1851": "let<|WB|>", "1852": "quick", "1853": "chas", "1854": "did", "1855": "cheer", "1856": "breath", "1857": "plic", "1858": "For", "1859": "iet", "1860": "retch", "1861": "ed--", "1862": "pped<|WB|>", "1863": "oned<|WB|>", "1864": "lot", "1865": "god", "1866": "eless<|WB|>", "1867": "cann", "1868": "\u2019s.<|WB|>", "1869": "a!<|WB|>", "1870": "ing.\u201d<|WB|>", "1871": "rever", "1872": "es?<|WB|>", "1873": "oper", "1874": "ot<|WB|>", "1875": "plan", "1876": "jew", "1877": "blow", "1878": "Se", "1879": "pig", "1880": "jack", "1881": "gal", "1882": "....<|WB|>", "1883": "affect", "1884": "sequ", "1885": "it.<|WB|>", "1886": "cho", "1887": "ind<|WB|>", "1888": "charac", "1889": "ters<|WB|>", "1890": "ied,<|WB|>", "1891": "row<|WB|>", "1892": "way<|WB|>", "1893": "wif", "1894": "Engl", "1895": "emb", "1896": "mak", "1897": "us,<|WB|>", "1898": "fall", "1899": "pap", "1900": "able;<|WB|>", "1901": "ent;<|WB|>", "1902": "charm", "1903": "chi", "1904": "es\u2019<|WB|>", "1905": "hood", "1906": "loy", "1907": "ither", "1908": "gentle", "1909": "embl", "1910": "st,<|WB|>", "1911": "God", "1912": "\u201cC", "1913": "respect", "1914": "ely.<|WB|>", "1915": "collect", "1916": "ais", "1917": "aun", "1918": "promis", "1919": "spar", "1920": "soft", "1921": "stat", "1922": "Do", "1923": "sick", "1924": "stri", "1925": "n.<|WB|>", "1926": "ry.<|WB|>", "1927": "command", "1928": "brok", "1929": "away", "1930": "fing", "1931": "ridg", "1932": "els<|WB|>", "1933": "ring", "1934": "flam", "1935": "Good", "1936": "hunt", "1937": "ders<|WB|>", "1938": "ens<|WB|>", "1939": "pois", "1940": "ling,<|WB|>", "1941": "chant", "1942": "tom", "1943": "Fl", "1944": ";\u2014", "1945": "\u201d\u2014", "1946": "E<|WB|>", "1947": "e\u2014and<|WB|>", "1948": "Star", "1949": "\u2019;<|WB|>", "1950": "._<|WB|>", "1951": "itting<|WB|>", "1952": "consider", "1953": "perf", "1954": "ink<|WB|>", "1955": "ences<|WB|>", "1956": "himself", "1957": "Ad", "1958": "up<|WB|>", "1959": "wish", "1960": "ect<|WB|>", "1961": "card", "1962": "incl", "1963": "cop", "1964": "ass<|WB|>", "1965": "Char", "1966": "ilt", "1967": "asc", "1968": "Bar", "1969": "follow", "1970": "ade<|WB|>", "1971": "oung", "1972": "ked<|WB|>", "1973": "dom", "1974": "sever", "1975": "ioned<|WB|>", "1976": "appoint", "1977": "may", "1978": "imagin", "1979": "aunt", "1980": "lodg", "1981": "pursu", "1982": "olv", "1983": "prehens", "1984": "possib", "1985": "am,<|WB|>", "1986": "gard", "1987": "ets,<|WB|>", "1988": "disp", "1989": "ver,<|WB|>", "1990": "unct", "1991": "anch", "1992": "lam", "1993": "tell", "1994": "earth", "1995": "ons,<|WB|>", "1996": "ice-", "1997": "hair", "1998": "mid", "1999": "hun", "2000": "ans,<|WB|>", "2001": "pent", "2002": "devil", "2003": "\u2019n<|WB|>", "2004": "ould<|WB|>", "2005": "eness,<|WB|>", "2006": "inde", "2007": "int<|WB|>", "2008": "possess", "2009": "conn", "2010": "Col", "2011": "ribut", "2012": "ford", "2013": "mouth", "2014": "prot", "2015": "ight,<|WB|>", "2016": "ress<|WB|>", "2017": "king<|WB|>", "2018": "viv", "2019": "ue<|WB|>", "2020": "ap<|WB|>", "2021": "aughter", "2022": "nor", "2023": "ants<|WB|>", "2024": "\u201cY", "2025": "ness;<|WB|>", "2026": "enter", "2027": "-looking<|WB|>", "2028": "remain", "2029": "continu", "2030": "deep", "2031": "stead", "2032": "ary,<|WB|>", "2033": "import", "2034": "cher", "2035": "offic", "2036": "soci", "2037": "et;<|WB|>", "2038": "les,<|WB|>", "2039": "gam", "2040": "could", "2041": "ship<|WB|>", "2042": "hold", "2043": "ak<|WB|>", "2044": "rif", "2045": "ions;<|WB|>", "2046": "Tw", "2047": "half", "2048": "Christ", "2049": "lan", "2050": "esom", "2051": "fully,<|WB|>", "2052": "o.<|WB|>", "2053": "ban", "2054": "tro", "2055": "ant.<|WB|>", "2056": "coloured<|WB|>", "2057": "full", "2058": "hill", "2059": "sad", "2060": "Ro", "2061": "prison", "2062": "thunder", "2063": "ine-", "2064": "gun", "2065": "kno", "2066": "n\u2019t", "2067": "thick", "2068": "me\u2014", "2069": ":\u2014", "2070": "Quee", "2071": "Queequ", "2072": "Queequeg", "2073": "\u2014they<|WB|>", "2074": "object", "2075": "differ", "2076": "ose<|WB|>", "2077": "most<|WB|>", "2078": "express", "2079": "character", "2080": "eth", "2081": "urch", "2082": "ways<|WB|>", "2083": "ail<|WB|>", "2084": "es--", "2085": "ality<|WB|>", "2086": "tou", "2087": "we<|WB|>", "2088": "exec", "2089": "judg", "2090": "ature", "2091": "one,<|WB|>", "2092": "beaut", "2093": ".)<|WB|>", "2094": "ities,<|WB|>", "2095": "neigh", "2096": ",--<|WB|>", "2097": "sen", "2098": "dinn", "2099": "room,<|WB|>", "2100": "together", "2101": "dear", "2102": "dress", "2103": "occup", "2104": "ency<|WB|>", "2105": "ings;<|WB|>", "2106": "mort", "2107": "ester", "2108": "show", "2109": "leav", "2110": "k.<|WB|>", "2111": "ms<|WB|>", "2112": "vol", "2113": "commun", "2114": "in;<|WB|>", "2115": "ins,<|WB|>", "2116": "cook", "2117": "counter", "2118": "sper", "2119": "mut", "2120": "chim", "2121": "stop", "2122": "antic", "2123": "wedd", "2124": "found", "2125": "clear", "2126": "grow", "2127": "subst", "2128": "nut", "2129": "lu", "2130": "rad", "2131": "raph", "2132": "\u2014what<|WB|>", "2133": "\u2014there<|WB|>", "2134": "AN", "2135": "\u2014which<|WB|>", "2136": "Jo", "2137": "igg", "2138": "by<|WB|>", "2139": "ir<|WB|>", "2140": "complet", "2141": "keep", "2142": "litt", "2143": "ious,<|WB|>", "2144": "Eli", "2145": "icul", "2146": "effect", "2147": "pred", "2148": "well-", "2149": "esp", "2150": "exh", "2151": "myself", "2152": "requ", "2153": "pict", "2154": "iled<|WB|>", "2155": "ti", "2156": "invest", "2157": "lex", "2158": "es,\u201d<|WB|>", "2159": "erc", "2160": "ong<|WB|>", "2161": "after", "2162": "viol", "2163": "reli", "2164": "ledg", "2165": "bott", "2166": "fulness<|WB|>", "2167": "saf", "2168": "\u2019,<|WB|>", "2169": "dang", "2170": "ays<|WB|>", "2171": "ishing<|WB|>", "2172": "ting<|WB|>", "2173": "moment", "2174": "aped<|WB|>", "2175": "agon", "2176": "age-", "2177": "meas", "2178": "per,<|WB|>", "2179": "business", "2180": "aded<|WB|>", "2181": "ga", "2182": "clean", "2183": "help", "2184": "ion.\u201d<|WB|>", "2185": "bed<|WB|>", "2186": "yl", "2187": "kne", "2188": "beat", "2189": "cell", "2190": "aked<|WB|>", "2191": "\u201d;<|WB|>", "2192": "ash<|WB|>", "2193": "spout", "2194": "\u2018S", "2195": "IN", "2196": "Tom", "2197": ",00", "2198": "\u2018F", "2199": "es.\u2019<|WB|>", "2200": ".\"<|WB|>", "2201": "just<|WB|>", "2202": "men<|WB|>", "2203": "Nor", "2204": "diff", "2205": "ided<|WB|>", "2206": "ield", "2207": "Dar", "2208": "ising<|WB|>", "2209": "gall", "2210": "piec", "2211": "cust", "2212": ";\u201d<|WB|>", "2213": "ball", "2214": "mistak", "2215": "exist", "2216": "Phil", "2217": "iron", "2218": "weak", "2219": "rate<|WB|>", "2220": "ages,<|WB|>", "2221": "ley", "2222": "Lu", "2223": "alth", "2224": "ill,<|WB|>", "2225": "The", "2226": "se.<|WB|>", "2227": "answ", "2228": "antly<|WB|>", "2229": "accompl", "2230": "ia<|WB|>", "2231": "eleg", "2232": "lac", "2233": "open", "2234": "ack<|WB|>", "2235": "oft", "2236": "ore<|WB|>", "2237": "van", "2238": "din", "2239": "thro", "2240": "ored<|WB|>", "2241": "eful<|WB|>", "2242": "slow", "2243": "cel", "2244": "wait", "2245": "cus", "2246": "ning<|WB|>", "2247": "erg", "2248": "peac", "2249": "shop", "2250": "coach", "2251": "kee", "2252": "eur", "2253": "soul", "2254": "coat", "2255": "curr", "2256": "ar.<|WB|>", "2257": "el.<|WB|>", "2258": "bound", "2259": "y-f", "2260": "rock", "2261": "slo", "2262": "chair", "2263": "harm", "2264": "camp", "2265": "amber", "2266": "sne", "2267": "ER", "2268": "II", "2269": "jaw", "2270": "whip", "2271": "wheel", "2272": "ictor", "2273": "pick", "2274": "voy", "2275": "bil", "2276": "cit", "2277": "ah<|WB|>", "2278": "shout", "2279": "butt", "2280": "e!\u2019<|WB|>", "2281": "\u2014it<|WB|>", "2282": "Jim", "2283": "Huck", "2284": "appl", "2285": "ians<|WB|>", "2286": "scal", "2287": "ter<|WB|>", "2288": "ather<|WB|>", "2289": "seem", "2290": "necess", "2291": "was<|WB|>", "2292": "no<|WB|>", "2293": "duc", "2294": "start", "2295": "etim", "2296": "ics<|WB|>", "2297": "iter", "2298": "mas", "2299": "ousness<|WB|>", "2300": "medi", "2301": "eight", "2302": "hus", "2303": "blind", "2304": "ives<|WB|>", "2305": "near", "2306": "ust<|WB|>", "2307": "ther,<|WB|>", "2308": "body<|WB|>", "2309": "bread", "2310": "spok", "2311": "success", "2312": "-o", "2313": "inqu", "2314": "itut", "2315": "chap", "2316": "week", "2317": "employ", "2318": "ell,<|WB|>", "2319": "worth", "2320": "ice.<|WB|>", "2321": "ole<|WB|>", "2322": "habit", "2323": "life", "2324": "hour", "2325": "sinc", "2326": ":--", "2327": "ing?<|WB|>", "2328": "order", "2329": "ire,<|WB|>", "2330": "profess", "2331": "er!<|WB|>", "2332": "use", "2333": "had", "2334": "short", "2335": "fil", "2336": "ard.<|WB|>", "2337": "ained<|WB|>", "2338": "drop", "2339": "um,<|WB|>", "2340": "ain,<|WB|>", "2341": "ened,<|WB|>", "2342": "als.<|WB|>", "2343": "roll", "2344": "oph", "2345": "es:<|WB|>", "2346": "land<|WB|>", "2347": "kill", "2348": "would", "2349": "shr", "2350": "ian,<|WB|>", "2351": "pping<|WB|>", "2352": "De", "2353": "cock", "2354": "stem", "2355": "it\u2019s<|WB|>", "2356": "yet", "2357": "cav", "2358": "bush", "2359": "e?\u2019<|WB|>", "2360": "S<|WB|>", "2361": "Nant", "2362": "Nantuck", "2363": "ograph", "2364": "alist", "2365": "Pet", "2366": "\u2018W", "2367": "delight", "2368": "fresh", "2369": "raw", "2370": "-and-", "2371": "ton<|WB|>", "2372": "los", "2373": "bad", "2374": "gen", "2375": "enough", "2376": "might", "2377": "langu", "2378": "orig", "2379": "field", "2380": "mountain", "2381": "ingu", "2382": "interest", "2383": "thes", "2384": "duct", "2385": "view", "2386": "ement,<|WB|>", "2387": "ices<|WB|>", "2388": "ooth", "2389": "chief", "2390": "ines<|WB|>", "2391": "aught", "2392": "account", "2393": "visit", "2394": "ends<|WB|>", "2395": "even", "2396": "partic", "2397": "thir", "2398": "mem", "2399": "\u2019\u201d<|WB|>", "2400": "carri", "2401": "son<|WB|>", "2402": "Jon", "2403": "weather", "2404": "bes", "2405": "its,<|WB|>", "2406": "ed,\u201d<|WB|>", "2407": "arg", "2408": "Sund", "2409": "awn", "2410": "ining<|WB|>", "2411": "rip", "2412": "separ", "2413": "ize<|WB|>", "2414": "spit", "2415": "itch", "2416": "ienc", "2417": "ented<|WB|>", "2418": "seas", "2419": "talk", "2420": "fright", "2421": "iding<|WB|>", "2422": "dict", "2423": "ded<|WB|>", "2424": "dread", "2425": "river", "2426": "glor", "2427": "treas", "2428": "question", "2429": "jest", "2430": "tear", "2431": "like,<|WB|>", "2432": "Bl", "2433": "cogn", "2434": "toil", "2435": "bird", "2436": "Gu", "2437": "Tur", "2438": "white-", "2439": "screw", "2440": "mourn", "2441": "slip", "2442": "pip", "2443": "moon", "2444": "T<|WB|>", "2445": "shud", "2446": "\u2019.<|WB|>", "2447": "log", "2448": "!_", "2449": "shark", "2450": "\u2014though<|WB|>", "2451": "butter", "2452": "hog", "2453": "ght<|WB|>", "2454": "some<|WB|>", "2455": "roy", "2456": "ous;<|WB|>", "2457": "scen", "2458": "believ", "2459": "perhap", "2460": "Em", "2461": "ates,<|WB|>", "2462": "hes", "2463": "pose<|WB|>", "2464": "publ", "2465": "all-", "2466": "wer", "2467": "conveni", "2468": "though", "2469": "doubt", "2470": "great", "2471": "pract", "2472": "dam", "2473": "nic", "2474": "ise,<|WB|>", "2475": "past", "2476": "eth<|WB|>", "2477": "uct", "2478": "sem", "2479": "bir", "2480": "velop", "2481": "attent", "2482": "a;<|WB|>", "2483": "priv", "2484": "erk", "2485": "meet", "2486": "second", "2487": "uring<|WB|>", "2488": "ley<|WB|>", "2489": "bour", "2490": "fix", "2491": "izz", "2492": "danc", "2493": "much", "2494": "common", "2495": "man\u2019s<|WB|>", "2496": "town", "2497": "itude<|WB|>", "2498": "about", "2499": "\u201cTh", "2500": "what", "2501": "ys", "2502": "sham", "2503": "\u2018B", "2504": "izing<|WB|>", "2505": "prepar", "2506": "bright", "2507": "less.<|WB|>", "2508": "ements<|WB|>", "2509": "ke<|WB|>", "2510": "ment;<|WB|>", "2511": "embar", "2512": "ward,<|WB|>", "2513": "advent", "2514": "horr", "2515": "\u201cO", "2516": "travell", "2517": "fron", "2518": "happen", "2519": "ents,<|WB|>", "2520": "ath<|WB|>", "2521": "cloud", "2522": "chee", "2523": "ling", "2524": "stern", "2525": "ful;<|WB|>", "2526": "or;<|WB|>", "2527": "sympath", "2528": "farm", "2529": "ie<|WB|>", "2530": "cart", "2531": "key", "2532": "-ho", "2533": "won", "2534": "ung<|WB|>", "2535": "domin", "2536": "ap,<|WB|>", "2537": "grim", "2538": "et-", "2539": "rav", "2540": "worship", "2541": "rail", "2542": "sorrow", "2543": "life-", "2544": "Indi", "2545": "trag", "2546": "\u2014you<|WB|>", "2547": "AR", "2548": "distinct", "2549": "are<|WB|>", "2550": "ause<|WB|>", "2551": "prob", "2552": "all,<|WB|>", "2553": "wick", "2554": "rom", "2555": "idu", "2556": "match", "2557": "Mr", "2558": "var", "2559": "befor", "2560": "iness,<|WB|>", "2561": "Eliz", "2562": "th;<|WB|>", "2563": "intell", "2564": "intellig", "2565": "a\u2019s<|WB|>", "2566": "ile,<|WB|>", "2567": "ism,<|WB|>", "2568": "execut", "2569": "house<|WB|>", "2570": "ept<|WB|>", "2571": "You", "2572": "phil", "2573": "ery,<|WB|>", "2574": "ese<|WB|>", "2575": "side<|WB|>", "2576": "ailed<|WB|>", "2577": "isit", "2578": "stock", "2579": "iev", "2580": "ors.<|WB|>", "2581": "way,<|WB|>", "2582": "akes<|WB|>", "2583": "return", "2584": "rod", "2585": "learn", "2586": "rup", "2587": "stup", "2588": "design", "2589": "der<|WB|>", "2590": "ure;<|WB|>", "2591": "tin", "2592": "!--", "2593": "furn", "2594": "secret", "2595": "horse", "2596": "warm", "2597": "ifying<|WB|>", "2598": "exam", "2599": "matter", "2600": "wretch", "2601": "appar", "2602": "eless", "2603": "bled<|WB|>", "2604": "ibly<|WB|>", "2605": "communic", "2606": "oqu", "2607": "lead", "2608": "fit", "2609": "an;<|WB|>", "2610": "ible.<|WB|>", "2611": "well,<|WB|>", "2612": "sac", "2613": "ase<|WB|>", "2614": "Ge", "2615": "elling<|WB|>", "2616": "est;<|WB|>", "2617": "sight", "2618": "body", "2619": "gover", "2620": "\u2018L", "2621": "id.<|WB|>", "2622": "sport", "2623": "iver", "2624": "e\u2019", "2625": "-heart", "2626": "wild", "2627": "ing:<|WB|>", "2628": "hang", "2629": "most", "2630": "\u201cG", "2631": "x.<|WB|>", "2632": "ater<|WB|>", "2633": "cry", "2634": "proph", "2635": "Amer", "2636": "Americ", "2637": "neck", "2638": "ashed<|WB|>", "2639": "cut", "2640": "sadd", "2641": "wig", "2642": "glass", "2643": "or\u2019s<|WB|>", "2644": "nur", "2645": "beard", "2646": "blu", "2647": "Can", "2648": "oce", "2649": "host", "2650": "blank", "2651": "try", "2652": "owl", "2653": "ay-", "2654": "mock", "2655": "*<|WB|>", "2656": "shudder", "2657": "goo", "2658": "iri", "2659": "mast-head", "2660": "captain", "2661": "\u2014this<|WB|>", "2662": "esh", "2663": "EL", "2664": "-lin", "2665": "_)", "2666": "crit", "2667": "ity", "2668": "larg", "2669": "hesit", "2670": "17", "2671": "connect", "2672": "master", "2673": "fash", "2674": "ati", "2675": "used<|WB|>", "2676": "origin", "2677": "iqu", "2678": "Benn", "2679": "remark", "2680": "sevent", "2681": "Ev", "2682": "forc", "2683": "stir", "2684": "--which<|WB|>", "2685": "concl", "2686": "ct<|WB|>", "2687": "unk", "2688": "i<|WB|>", "2689": "strong", "2690": "Som", "2691": "\u201cN", "2692": "educ", "2693": "om,<|WB|>", "2694": "cons", "2695": "temper", "2696": "fanc", "2697": "nerv", "2698": "escap", "2699": "aced<|WB|>", "2700": "ary.<|WB|>", "2701": "quiet", "2702": "elv", "2703": "thous", "2704": "smil", "2705": "stru", "2706": "ently,<|WB|>", "2707": "his", "2708": "surpris", "2709": "Mer", "2710": "un<|WB|>", "2711": "row,<|WB|>", "2712": "nois", "2713": "vac", "2714": "quarter", "2715": "Captain", "2716": "parl", "2717": "ow,<|WB|>", "2718": "deserv", "2719": "infer", "2720": "que", "2721": "fully.<|WB|>", "2722": "ats<|WB|>", "2723": "ank<|WB|>", "2724": "sister", "2725": "uzz", "2726": "f,<|WB|>", "2727": "brid", "2728": "ract", "2729": "ing-plac", "2730": "cott", "2731": "Wil", "2732": "vic", "2733": "ago", "2734": "oppress", "2735": "iti", "2736": "uls", "2737": "ull<|WB|>", "2738": "ral", "2739": "land,<|WB|>", "2740": "dol", "2741": "Tim", "2742": "bas", "2743": "ains<|WB|>", "2744": "ed.\u2019<|WB|>", "2745": "els,<|WB|>", "2746": "oop", "2747": "Jer", "2748": "sin", "2749": "waist", "2750": "crew", "2751": "bs<|WB|>", "2752": "pray", "2753": "exter", "2754": "pill", "2755": "Rom", "2756": "Or", "2757": "Sy", "2758": "nav", "2759": "les.<|WB|>", "2760": "s!\u201d<|WB|>", "2761": "crack", "2762": "g,<|WB|>", "2763": "es!\u201d<|WB|>", "2764": "-hand", "2765": "knock", "2766": "ick,<|WB|>", "2767": "mouse", "2768": "uck<|WB|>", "2769": "drown", "2770": "abb", "2771": "\u2014so<|WB|>", "2772": "hatch", "2773": "\u2014all<|WB|>", "2774": "\u2014as<|WB|>", "2775": "Pol", "2776": ");<|WB|>", "2777": "whisk", "2778": "consequ", "2779": "work<|WB|>", "2780": "admir", "2781": "ace<|WB|>", "2782": "ley,<|WB|>", "2783": "fal", "2784": "aid<|WB|>", "2785": "us.<|WB|>", "2786": "subject", "2787": "consist", "2788": "inno", "2789": "dece", "2790": "ire.<|WB|>", "2791": "eness.<|WB|>", "2792": "ft<|WB|>", "2793": "fail", "2794": "prett", "2795": "head<|WB|>", "2796": "impress", "2797": "ality,<|WB|>", "2798": "now<|WB|>", "2799": "red,<|WB|>", "2800": "griev", "2801": "crimin", "2802": "ither<|WB|>", "2803": "husband", "2804": "clim", "2805": "batt", "2806": "ition<|WB|>", "2807": "nothing", "2808": "ast,<|WB|>", "2809": "ermin", "2810": "proper", "2811": "ty<|WB|>", "2812": "daughter", "2813": "ordin", "2814": "reserv", "2815": "tum", "2816": "young", "2817": "oblig", "2818": "forb", "2819": "supp", "2820": "engag", "2821": "cold", "2822": "oler", "2823": "ily.<|WB|>", "2824": "bitter", "2825": "suit", "2826": "room.<|WB|>", "2827": "firm", "2828": "ceiv", "2829": "valu", "2830": "repl", "2831": "must", "2832": "ast.<|WB|>", "2833": "perform", "2834": "accomplish", "2835": "ments,<|WB|>", "2836": "dy", "2837": "breakfast", "2838": "cam", "2839": "ende", "2840": "drink", "2841": "sam", "2842": "aw<|WB|>", "2843": "bling<|WB|>", "2844": "it--", "2845": "ifi", "2846": "resolut", "2847": "gat", "2848": "wel", "2849": "glad", "2850": "confid", "2851": "sugg", "2852": "thread", "2853": "benef", "2854": "fold", "2855": "ive-", "2856": "lem", "2857": "preach", "2858": "clos", "2859": "--h", "2860": "wand", "2861": "keeper", "2862": "edly,<|WB|>", "2863": "woman", "2864": "hew", "2865": "ory,<|WB|>", "2866": "ances,<|WB|>", "2867": "umph", "2868": "er?<|WB|>", "2869": "evil", "2870": "ts<|WB|>", "2871": "rated<|WB|>", "2872": "ing,\u201d<|WB|>", "2873": "tid", "2874": "wound", "2875": "ot,<|WB|>", "2876": "care", "2877": "board<|WB|>", "2878": "ly:<|WB|>", "2879": "ine;<|WB|>", "2880": "capt", "2881": "age;<|WB|>", "2882": "alled<|WB|>", "2883": "Heav", "2884": "jug", "2885": "stream", "2886": "water-", "2887": "fru", "2888": "ack,<|WB|>", "2889": "ice", "2890": "ane", "2891": "fill", "2892": "oulder", "2893": "ding<|WB|>", "2894": "boot", "2895": "smith", "2896": "spik", "2897": "mult", "2898": "yel", "2899": "vap", "2900": "rough", "2901": "disappear", "2902": "secut", "2903": "rum", "2904": "wash", "2905": "oar", "2906": "pocket", "2907": "oes<|WB|>", "2908": "Nantucket", "2909": "eh", "2910": "oon", "2911": "\u2014not<|WB|>", "2912": "-sk", "2913": "-coloured<|WB|>", "2914": "\u2018P", "2915": "cruis", "2916": "\u2014I", "2917": "Starbuck", "2918": "pear", "2919": "z<|WB|>", "2920": "Bel", "2921": "pew", "2922": "Dor", "2923": "gas", "2924": "nigg", "2925": "claim", "2926": "reach", "2927": "ulg", "2928": "popul", "2929": "perfect", "2930": "emin", "2931": "author", "2932": "here<|WB|>", "2933": "ause", "2934": "do<|WB|>", "2935": "vig", "2936": "propri", "2937": "rable<|WB|>", "2938": "compar", "2939": "iced<|WB|>", "2940": "satisfi", "2941": "occas", "2942": "Elizab", "2943": "age", "2944": "advant", "2945": "preci", "2946": "consum", "2947": "extrem", "2948": "contra", "2949": "jok", "2950": "\u201cth", "2951": "diss", "2952": "ond<|WB|>", "2953": "hist", "2954": "paint", "2955": "depend", "2956": "ip<|WB|>", "2957": "jour", "2958": "day<|WB|>", "2959": "nail", "2960": "philos", "2961": "side,<|WB|>", "2962": "agree", "2963": "reproach", "2964": "consol", "2965": "ards<|WB|>", "2966": "ver<|WB|>", "2967": "sharp", "2968": "ide", "2969": "moder", "2970": "convers", "2971": "Willi", "2972": "oured<|WB|>", "2973": "aston", "2974": "disappoint", "2975": "compass", "2976": "liber", "2977": ".\u2019\u201d<|WB|>", "2978": "evid", "2979": "compos", "2980": "ement.<|WB|>", "2981": "approach", "2982": "alarm", "2983": "inging<|WB|>", "2984": "incred", "2985": "\u201cT", "2986": "doz", "2987": "our.<|WB|>", "2988": "plain", "2989": "whisper", "2990": "precip", "2991": "ible,<|WB|>", "2992": "tir", "2993": "affair", "2994": "pret", "2995": "concern", "2996": "brac", "2997": "clock", "2998": "Ros", "2999": "exclaim", "3000": "k;<|WB|>", "3001": "resist", "3002": "listen", "3003": "ants,<|WB|>", "3004": "blam", "3005": "ignor", "3006": "ations;<|WB|>", "3007": "atory<|WB|>", "3008": "igu", "3009": "excit", "3010": ".,<|WB|>", "3011": "hast", "3012": "em<|WB|>", "3013": "ences,<|WB|>", "3014": "ney", "3015": "Gra", "3016": "ggl", "3017": "ratt", "3018": "m.<|WB|>", "3019": "lied<|WB|>", "3020": "Lor", "3021": "teach", "3022": "am.<|WB|>", "3023": "inking<|WB|>", "3024": "ks,<|WB|>", "3025": "ished,<|WB|>", "3026": "obe", "3027": "haz", "3028": "faint", "3029": "indic", "3030": "crown", "3031": "itude", "3032": "chest", "3033": "She", "3034": "-by", "3035": "search", "3036": "south", "3037": "still", "3038": "oot<|WB|>", "3039": "ah,<|WB|>", "3040": "ading<|WB|>", "3041": "wav", "3042": "lamp", "3043": "isc", "3044": "bull", "3045": "Def", "3046": "ranc", "3047": "Sol", "3048": "ox", "3049": "der.<|WB|>", "3050": "drun", "3051": "-tre", "3052": "haw", "3053": "sul", "3054": "ountain", "3055": "sheep", "3056": "an\u2019s<|WB|>", "3057": "pilot", "3058": "monst", "3059": "garden", "3060": "Pl", "3061": "lightn", "3062": "wood-", "3063": "-headed<|WB|>", "3064": "stal", "3065": "agn", "3066": "Lev", "3067": "harpoone", "3068": "hook", "3069": "er\u2014", "3070": "penn", "3071": "e\u2014a<|WB|>", "3072": "!_<|WB|>", "3073": "plum", "3074": "green", "3075": "\u201d\u2014and<|WB|>", "3076": "i,<|WB|>", "3077": "dru", "3078": "Du", "3079": "Han", "3080": "cig", "3081": "'t<|WB|>", "3082": "'<|WB|>", "3083": "with<|WB|>", "3084": "Jan", "3085": "acy<|WB|>", "3086": "les", "3087": "devot", "3088": "itself", "3089": "improv", "3090": "declar", "3091": "mit", "3092": "orous<|WB|>", "3093": "understand", "3094": "eness", "3095": "ilt<|WB|>", "3096": "bles<|WB|>", "3097": "time,<|WB|>", "3098": "tast", "3099": "nin", "3100": "another", "3101": "ially<|WB|>", "3102": "narrow", "3103": "ought<|WB|>", "3104": "sud", "3105": "solut", "3106": "Ma", "3107": "minist", "3108": "satisfact", "3109": "arily<|WB|>", "3110": "exact", "3111": "ail,<|WB|>", "3112": "ional<|WB|>", "3113": "iveness<|WB|>", "3114": "sych", "3115": "condit", "3116": "refus", "3117": "injur", "3118": "Ven", "3119": "descri", "3120": "chan", "3121": "determin", "3122": "emon", "3123": "famil", "3124": "better", "3125": "extra", "3126": "inform", "3127": "ming<|WB|>", "3128": "acquaint", "3129": "persu", "3130": "assist", "3131": "acked<|WB|>", "3132": "arriv", "3133": "all.<|WB|>", "3134": "son,<|WB|>", "3135": "Su", "3136": "Oh,<|WB|>", "3137": "wast", "3138": "splend", "3139": "\u201cI", "3140": "see", "3141": "thank", "3142": "approv", "3143": "circumst", "3144": "ed_<|WB|>", "3145": "cool", "3146": "ped", "3147": "peop", "3148": "ers\u2019<|WB|>", "3149": "ours<|WB|>", "3150": "endeav", "3151": "increas", "3152": "sweet", "3153": "ion!<|WB|>", "3154": "rot", "3155": "posing<|WB|>", "3156": "assur", "3157": "depart", "3158": "proceed", "3159": "yourself", "3160": "month", "3161": "earn", "3162": "music", "3163": "medit", "3164": "amaz", "3165": "ry;<|WB|>", "3166": "rejo", "3167": "lessly<|WB|>", "3168": "suggest", "3169": "inted<|WB|>", "3170": "set<|WB|>", "3171": "arrang", "3172": "instruct", "3173": "tick", "3174": "broad", "3175": "ist,<|WB|>", "3176": "old,<|WB|>", "3177": "--I<|WB|>", "3178": "church", "3179": "er.\u201d<|WB|>", "3180": "ation.\u201d<|WB|>", "3181": "simp", "3182": "presum", "3183": "Re", "3184": "hot", "3185": "respond", "3186": "enu", "3187": "Go", "3188": "edness<|WB|>", "3189": "angel", "3190": "indiv", "3191": "no,<|WB|>", "3192": "obst", "3193": "eu", "3194": "bust", "3195": "shel", "3196": "ingly,<|WB|>", "3197": "soldi", "3198": "fun", "3199": "Jul", "3200": "stone<|WB|>", "3201": "Pres", "3202": "grap", "3203": "protect", "3204": "table", "3205": "Gener", "3206": "trick", "3207": "low,<|WB|>", "3208": "\u2018A", "3209": "lord", "3210": "b,<|WB|>", "3211": "steam", "3212": "ashing<|WB|>", "3213": "pant", "3214": "dust", "3215": "mach", "3216": "Doct", "3217": "doct", "3218": "event", "3219": "English", "3220": "ag<|WB|>", "3221": "s-", "3222": "hung", "3223": "ength", "3224": "lon", "3225": "\u2019t,<|WB|>", "3226": "ars<|WB|>", "3227": "il.<|WB|>", "3228": "gi", "3229": "ists<|WB|>", "3230": "gs<|WB|>", "3231": "double", "3232": "long-", "3233": "tering<|WB|>", "3234": "stom", "3235": "organ", "3236": "sand", "3237": "wak", "3238": "shri", "3239": "-sail", "3240": "seam", "3241": "pir", "3242": "voyag", "3243": "s\u2019", "3244": "\u2014how<|WB|>", "3245": "D<|WB|>", "3246": "\u2014his<|WB|>", "3247": "side-", "3248": "tub", "3249": "s\u201d<|WB|>", "3250": "raft", "3251": "_\u2014", "3252": "somewher", "3253": "be<|WB|>", "3254": "Aust", "3255": "only<|WB|>", "3256": "ense<|WB|>", "3257": "El", "3258": "content", "3259": "Bing", "3260": "ual<|WB|>", "3261": "ice;<|WB|>", "3262": "ics,<|WB|>", "3263": "grac", "3264": "qual", "3265": "avo", "3266": "even<|WB|>", "3267": "restra", "3268": "ered,<|WB|>", "3269": "cutt"}, "inverse_vocab": {"\u0000": 0, "\u0001": 1, "\u0002": 2, "\u0003": 3, "\u0004": 4, "\u0005": 5, "\u0006": 6, "\u0007": 7, "\b": 8, "\t": 9, "\n": 10, "\u000b": 11, "\f": 12, "\r": 13, "\u000e": 14, "\u000f": 15, "\u0010": 16, "\u0011": 17, "\u0012": 18, "\u0013": 19, "\u0014": 20, "\u0015": 21, "\u0016": 22, "\u0017": 23, "\u0018": 24, "\u0019": 25, "\u001a": 26, "\u001b": 27, "\u001c": 28, "\u001d": 29, "\u001e": 30, "\u001f": 31, " ": 32, "!": 33, "\"": 34, "#": 35, "$": 36, "%": 37, "&": 38, "'": 39, "(": 40, ")": 41, "*": 42, "+": 43, ",": 44, "-": 45, ".": 46, "/": 47, "0": 48, "1": 49, "2": 50, "3": 51, "4": 52, "5": 53, "6": 54, "7": 55, "8": 56, "9": 57, ":": 58, ";": 59, "<": 60, "=": 61, ">": 62, "?": 63, "@": 64, "A": 65, "B": 66, "C": 67, "D": 68, "E": 69, "F": 70, "G": 71, "H": 72, "I": 73, "J": 74, "K": 75, "L": 76, "M": 77, "N": 78, "O": 79, "P": 80, "Q": 81, "R": 82, "S": 83, "T": 84, "U": 85, "V": 86, "W": 87, "X": 88, "Y": 89, "Z": 90, "[": 91, "\\": 92, "]": 93, "^": 94, "_": 95, "`": 96, "a": 97, "b": 98, "c": 99, "d": 100, "e": 101, "f": 102, "g": 103, "h": 104, "i": 105, "j": 106, "k": 107, "l": 108, "m": 109, "n": 110, "o": 111, "p": 112, "q": 113, "r": 114, "s": 115, "t": 116, "u": 117, "v": 118, "w": 119, "x": 120, "y": 121, "z": 122, "{": 123, "|": 124, "}": 125, "~": 126, "\u007f": 127, "\u0080": 128, "\u0081": 129, "\u0082": 130, "\u0083": 131, "\u0084": 132, "\u0085": 133, "\u0086": 134, "\u0087": 135, "\u0088": 136, "\u0089": 137, "\u008a": 138, "\u008b": 139, "\u008c": 140, "\u008d": 141, "\u008e": 142, "\u008f": 143, "\u0090": 144, "\u0091": 145, "\u0092": 146, "\u0093": 147, "\u0094": 148, "\u0095": 149, "\u0096": 150, "\u0097": 151, "\u0098": 152, "\u0099": 153, "\u009a": 154, "\u009b": 155, "\u009c": 156, "\u009d": 157, "\u009e": 158, "\u009f": 159, "\u00a0": 160, "\u00a1": 161, "\u00a2": 162, "\u00a3": 163, "\u00a4": 164, "\u00a5": 165, "\u00a6": 166, "\u00a7": 167, "\u00a8": 168, "\u00a9": 169, "\u00aa": 170, "\u00ab": 171, "\u00ac": 172, "\u00ad": 173, "\u00ae": 174, "\u00af": 175, "\u00b0": 176, "\u00b1": 177, "\u00b2": 178, "\u00b3": 179, "\u00b4": 180, "\u00b5": 181, "\u00b6": 182, "\u00b7": 183, "\u00b8": 184, "\u00b9": 185, "\u00ba": 186, "\u00bb": 187, "\u00bc": 188, "\u00bd": 189, "\u00be": 190, "\u00bf": 191, "\u00c0": 192, "\u00c1": 193, "\u00c2": 194, "\u00c3": 195, "\u00c4": 196, "\u00c5": 197, "\u00c6": 198, "\u00c7": 199, "\u00c8": 200, "\u00c9": 201, "\u00ca": 202, "\u00cb": 203, "\u00cc": 204, "\u00cd": 205, "\u00ce": 206, "\u00cf": 207, "\u00d0": 208, "\u00d1": 209, "\u00d2": 210, "\u00d3": 211, "\u00d4": 212, "\u00d5": 213, "\u00d6": 214, "\u00d7": 215, "\u00d8": 216, "\u00d9": 217, "\u00da": 218, "\u00db": 219, "\u00dc": 220, "\u00dd": 221, "\u00de": 222, "\u00df": 223, "\u00e0": 224, "\u00e1": 225, "\u00e2": 226, "\u00e3": 227, "\u00e4": 228, "\u00e5": 229, "\u00e6": 230, "\u00e7": 231, "\u00e8": 232, "\u00e9": 233, "\u00ea": 234, "\u00eb": 235, "\u00ec": 236, "\u00ed": 237, "\u00ee": 238, "\u00ef": 239, "\u00f0": 240, "\u00f1": 241, "\u00f2": 242, "\u00f3": 243, "\u00f4": 244, "\u00f5": 245, "\u00f6": 246, "\u00f7": 247, "\u00f8": 248, "\u00f9": 249, "\u00fa": 250, "\u00fb": 251, "\u00fc": 252, "\u00fd": 253, "\u00fe": 254, "\u00ff": 255, "<|EOS|>": 256, "<|WB|>": 257, "\u201c": 262, "\u201d": 263, "\u2019": 264, "\u2018": 265, "\u0153": 266, "\u2014": 267, "\u2026": 269, ",<|WB|>": 270, "in": 271, "er": 272, ".<|WB|>": 273, "ed": 274, "es": 275, "on": 276, "en": 277, "ing": 278, "s<|WB|>": 279, "an": 280, "ar": 281, "at": 282, "e<|WB|>": 283, ";<|WB|>": 284, "or": 285, "st": 286, "ed<|WB|>": 287, "ou": 288, "re": 289, "al": 290, "it": 291, "y<|WB|>": 292, "ing<|WB|>": 293, "\u201d<|WB|>": 294, "th": 295, "el": 296, "is": 297, "ch": 298, "il": 299, "s,<|WB|>": 300, "ion": 301, "ro": 302, "ic": 303, "un": 304, "le": 305, "t<|WB|>": 306, "ra": 307, "om": 308, "\u2019<|WB|>": 309, "ur": 310, "as": 311, "ad": 312, "ent": 313, "es<|WB|>": 314, "ol": 315, "ri": 316, "e,<|WB|>": 317, "lo": 318, "!<|WB|>": 319, "ac": 320, "sh": 321, "s.<|WB|>": 322, "ul": 323, "ig": 324, "et": 325, "ed,<|WB|>": 326, "y,<|WB|>": 327, "im": 328, "ab": 329, "am": 330, "and": 331, "id": 332, "er<|WB|>": 333, ".\u201d<|WB|>": 334, "ir": 335, "ec": 336, "ly<|WB|>": 337, "\u2019s<|WB|>": 338, "em": 339, "ap": 340, "--": 341, "ow": 342, "ag": 343, "?<|WB|>": 344, "e.<|WB|>": 345, "ter": 346, "ver": 347, "con": 348, "ation": 349, "sp": 350, "oo": 351, "se": 352, "iv": 353, "wh": 354, "es,<|WB|>": 355, "um": 356, "qu": 357, "pl": 358, ":<|WB|>": 359, "res": 360, "for": 361, "ed.<|WB|>": 362, "ard": 363, "ut": 364, "y.<|WB|>": 365, "ex": 366, "per": 367, "ain": 368, "po": 369, ",\u201d<|WB|>": 370, "he": 371, "bl": 372, "su": 373, "ist": 374, "s;<|WB|>": 375, "ff": 376, "com": 377, "ck": 378, "ing,<|WB|>": 379, "de": 380, "oun": 381, "ht": 382, "our": 383, "est": 384, "ant": 385, "ay": 386, "ak": 387, "ast": 388, "li": 389, "pro": 390, "ish": 391, "ru": 392, "e-": 393, "all": 394, "enc": 395, ".\u2019<|WB|>": 396, "ill": 397, "anc": 398, "ess<|WB|>": 399, "ell": 400, "be": 401, "der": 402, "us": 403, "av": 404, "dis": 405, "op": 406, "bo": 407, "e;<|WB|>": 408, "al<|WB|>": 409, "d<|WB|>": 410, "sc": 411, "her": 412, "_<|WB|>": 413, "ot": 414, "es.<|WB|>": 415, "ess": 416, "ful": 417, "!\u201d<|WB|>": 418, "art": 419, "en<|WB|>": 420, "ct": 421, "ect": 422, "co": 423, "ep": 424, "ind": 425, "\u2014th": 426, "ous": 427, "ight": 428, "ip": 429, "ear": 430, "if": 431, "man": 432, "low": 433, "cl": 434, "aw": 435, "mo": 436, "end": 437, "and<|WB|>": 438, "le<|WB|>": 439, "ud": 440, "ed;<|WB|>": 441, "gh": 442, "ick": 443, "ev": 444, "er,<|WB|>": 445, "ing.<|WB|>": 446, "a<|WB|>": 447, "ent<|WB|>": 448, "row": 449, "ang": 450, "ass": 451, "ne": 452, "ack": 453, "int": 454, "no": 455, ",\u2019<|WB|>": 456, "fl": 457, "wor": 458, "do": 459, "ath": 460, "ion<|WB|>": 461, "est<|WB|>": 462, "ther": 463, "y-": 464, "pre": 465, "to": 466, "e\u2014": 467, "tra": 468, "at<|WB|>": 469, "ail": 470, "so": 471, "tr": 472, "sel": 473, "?\u201d<|WB|>": 474, "ing-": 475, "y;<|WB|>": 476, "di": 477, "ort": 478, "bu": 479, "ach": 480, "ation<|WB|>": 481, "ous<|WB|>": 482, "ers<|WB|>": 483, "up": 484, "ly,<|WB|>": 485, "gl": 486, "n<|WB|>": 487, "me": 488, "a-": 489, "ph": 490, "au": 491, "le,<|WB|>": 492, "ber": 493, "ood": 494, "k<|WB|>": 495, "out": 496, "an<|WB|>": 497, "ound": 498, "we": 499, "rat": 500, "-b": 501, "app": 502, "es;<|WB|>": 503, "air": 504, "on<|WB|>": 505, "ong": 506, "ies<|WB|>": 507, "ust": 508, "ness<|WB|>": 509, "ens": 510, "now": 511, "able<|WB|>": 512, "pres": 513, "pos": 514, "inc": 515, "arm": 516, "ew": 517, "od": 518, "mis": 519, "-h": 520, "ess,<|WB|>": 521, "mar": 522, "des": 523, "ment": 524, "head": 525, "ity<|WB|>": 526, "ated<|WB|>": 527, "ob": 528, "og": 529, "ok": 530, "ure": 531, "ough": 532, "ib": 533, "iz": 534, "pr": 535, "over": 536, "!\u2019<|WB|>": 537, "ings<|WB|>": 538, "ch<|WB|>": 539, "?\u2019<|WB|>": 540, ")<|WB|>": 541, "ash": 542, "igh": 543, "ret": 544, "ght": 545, "par": 546, "hal": 547, "mon": 548, "Th": 549, "f-": 550, "sl": 551, "cor": 552, "ate<|WB|>": 553, "or<|WB|>": 554, "ted<|WB|>": 555, "fe": 556, "gra": 557, "s\u2014": 558, "lik": 559, "ive<|WB|>": 560, "it<|WB|>": 561, "tain": 562, "bar": 563, "erv": 564, "t,<|WB|>": 565, "car": 566, "ith": 567, "St": 568, "ign": 569, "ion,<|WB|>": 570, "col": 571, "ce": 572, "le.<|WB|>": 573, "en,<|WB|>": 574, "sm": 575, "sw": 576, "e!<|WB|>": 577, "ank": 578, "eg": 579, "min": 580, "fi": 581, "ink": 582, "er.<|WB|>": 583, "tre": 584, "bre": 585, "imp": 586, "I<|WB|>": 587, "tw": 588, "\u2014and<|WB|>": 589, "in<|WB|>": 590, "dec": 591, "att": 592, "inter": 593, "sid": 594, "oul": 595, "itt": 596, "ey": 597, "som": 598, "ally<|WB|>": 599, "ic<|WB|>": 600, "gr": 601, "wa": 602, "old": 603, "whal": 604, "ge": 605, "ely<|WB|>": 606, "br": 607, "orn": 608, "o<|WB|>": 609, "cur": 610, "af": 611, "pt": 612, "gu": 613, "ing;<|WB|>": 614, "mer": 615, "sk": 616, "os": 617, "uck": 618, "\u2014the<|WB|>": 619, "str": 620, "ly.<|WB|>": 621, "comp": 622, "l<|WB|>": 623, "oc": 624, "atch": 625, "ship": 626, "pe": 627, "clo": 628, "urn": 629, "cont": 630, "ward": 631, "gg": 632, "Ch": 633, "sur": 634, "ef": 635, "ult": 636, "lin": 637, "coun": 638, "own": 639, "\"<|WB|>": 640, "e.\u201d<|WB|>": 641, "ever": 642, "ion.<|WB|>": 643, "th<|WB|>": 644, "ess.<|WB|>": 645, "on,<|WB|>": 646, "you": 647, "led<|WB|>": 648, "gre": 649, "ee": 650, "ers,<|WB|>": 651, "ful<|WB|>": 652, "is<|WB|>": 653, "act": 654, "ict": 655, "st<|WB|>": 656, "off": 657, "cre": 658, "ingly<|WB|>": 659, "ann": 660, "ity,<|WB|>": 661, "fort": 662, "ste": 663, "as<|WB|>": 664, "cr": 665, "ation,<|WB|>": 666, "s!<|WB|>": 667, "under": 668, "ence<|WB|>": 669, "ett": 670, "ation.<|WB|>": 671, "und": 672, "rel": 673, "al,<|WB|>": 674, "ble<|WB|>": 675, "cap": 676, "),<|WB|>": 677, "ft": 678, "ub": 679, "vel": 680, "ond": 681, "ian": 682, "ions<|WB|>": 683, "a,<|WB|>": 684, "sub": 685, "ating<|WB|>": 686, "ook": 687, "ish<|WB|>": 688, "az": 689, "cas": 690, "tim": 691, "sol": 692, "mat": 693, "look": 694, "e?<|WB|>": 695, "_,<|WB|>": 696, "amp": 697, "read": 698, "ly": 699, "land": 700, "aff": 701, "mor": 702, "let": 703, "ar<|WB|>": 704, "ool": 705, "vi": 706, "ent,<|WB|>": 707, "hor": 708, "unt": 709, "inn": 710, "ho": 711, "jo": 712, "e--": 713, "ance<|WB|>": 714, "self": 715, "rid": 716, "ark": 717, "m<|WB|>": 718, "rib": 719, "aid": 720, "ild": 721, "ies,<|WB|>": 722, "thing": 723, "room": 724, "eli": 725, "ant<|WB|>": 726, "son": 727, "du": 728, "cer": 729, "ci": 730, "way": 731, "fer": 732, "or,<|WB|>": 733, "ather": 734, "bro": 735, "pp": 736, "\u2014h": 737, "night": 738, "part": 739, "like<|WB|>": 740, "ling<|WB|>": 741, "riv": 742, "hand": 743, "s.\u201d<|WB|>": 744, "dra": 745, "\u2014wh": 746, "one<|WB|>": 747, "ay<|WB|>": 748, "bra": 749, "-f": 750, "war": 751, "et<|WB|>": 752, "ations<|WB|>": 753, "e\u2019s<|WB|>": 754, "right": 755, "en.<|WB|>": 756, "-p": 757, "dist": 758, "si": 759, "heart": 760, "eng": 761, "less<|WB|>": 762, "sec": 763, "ious": 764, "ater": 765, "ah": 766, "fin": 767, "plac": 768, "not": 769, "Al": 770, "inv": 771, "oot": 772, "ros": 773, "sn": 774, "e:<|WB|>": 775, "ness,<|WB|>": 776, "well": 777, "ure<|WB|>": 778, "ical<|WB|>": 779, "press": 780, "him": 781, "comm": 782, "ren": 783, "--th": 784, "el<|WB|>": 785, "exp": 786, "ings,<|WB|>": 787, "reg": 788, "le;<|WB|>": 789, "s?<|WB|>": 790, "but<|WB|>": 791, "ous,<|WB|>": 792, "form": 793, "cra": 794, "!\u2014": 795, "ard<|WB|>": 796, "har": 797, "ung": 798, "ad<|WB|>": 799, "ying<|WB|>": 800, "-t": 801, "ump": 802, "An": 803, "mast": 804, "eas": 805, "ent.<|WB|>": 806, "rop": 807, "ke": 808, "serv": 809, "rep": 810, "with": 811, "ious<|WB|>": 812, "ity.<|WB|>": 813, "red": 814, "go": 815, "ject": 816, "all<|WB|>": 817, "rem": 818, "ple": 819, "Wh": 820, "of": 821, "bod": 822, "light": 823, "s\u2019<|WB|>": 824, "wind": 825, "ine<|WB|>": 826, "te": 827, "et,<|WB|>": 828, "cle": 829, "pur": 830, "ener": 831, "vers": 832, "day": 833, "half-": 834, "In": 835, "long": 836, "ied<|WB|>": 837, "uff": 838, "utt": 839, "add": 840, "\u201cS": 841, "rim": 842, "wr": 843, "al.<|WB|>": 844, "ry": 845, "blo": 846, "est,<|WB|>": 847, "ov": 848, "know": 849, "Qu": 850, "\u2014a<|WB|>": 851, "ary<|WB|>": 852, "cour": 853, "ily<|WB|>": 854, "conf": 855, "ins": 856, "sy": 857, "ion;<|WB|>": 858, "les<|WB|>": 859, "ents<|WB|>": 860, "ble": 861, "\u2019t<|WB|>": 862, "\u2014I<|WB|>": 863, "e,\u201d<|WB|>": 864, "aint": 865, "tru": 866, "augh": 867, "er;<|WB|>": 868, "vent": 869, "fel": 870, "prov": 871, "ow<|WB|>": 872, "id<|WB|>": 873, "pi": 874, "any": 875, "tt": 876, "good": 877, "er\u2019s<|WB|>": 878, "bur": 879, "d,<|WB|>": 880, "can": 881, "pass": 882, "pit": 883, "ron": 884, "ug": 885, "ull": 886, "\u2014\u201c": 887, "acc": 888, "able,<|WB|>": 889, "sle": 890, "for<|WB|>": 891, "den": 892, "atur": 893, "self-": 894, "ific": 895, "utter": 896, "che": 897, "s:<|WB|>": 898, "\u201c\u2018": 899, "ors<|WB|>": 900, "ffer": 901, "ight<|WB|>": 902, "tal": 903, "ire": 904, "ouse": 905, "\u2014that<|WB|>": 906, "tran": 907, "ers.<|WB|>": 908, "\u2019s,<|WB|>": 909, "ream": 910, "-st": 911, "at\u2019s<|WB|>": 912, "wher": 913, "our<|WB|>": 914, "one": 915, "atter": 916, "_.<|WB|>": 917, "cover": 918, "ask": 919, "als<|WB|>": 920, "ster": 921, "sun": 922, "ric": 923, "work": 924, "ris": 925, "ept": 926, "agg": 927, "ered<|WB|>": 928, "cir": 929, "ions,<|WB|>": 930, "stra": 931, "squ": 932, "the": 933, "them": 934, "sch": 935, "ial<|WB|>": 936, "eness<|WB|>": 937, "ry<|WB|>": 938, "tri": 939, "hab": 940, "ence,<|WB|>": 941, "ened<|WB|>": 942, "fish": 943, "ge<|WB|>": 944, "ite<|WB|>": 945, "char": 946, "at,<|WB|>": 947, "exc": 948, "men": 949, "arch": 950, "hel": 951, "ment<|WB|>": 952, "age<|WB|>": 953, "y!<|WB|>": 954, "dev": 955, "emp": 956, "y\u2019s<|WB|>": 957, "less": 958, "ck<|WB|>": 959, "ref": 960, "\u2019l": 961, "e.\u2019<|WB|>": 962, "man<|WB|>": 963, "to<|WB|>": 964, "rev": 965, "inst": 966, "pra": 967, "run": 968, "mark": 969, "back": 970, "ay,<|WB|>": 971, "cri": 972, "on.<|WB|>": 973, "able.<|WB|>": 974, "olog": 975, "liv": 976, "y.\u201d<|WB|>": 977, "spect": 978, "ance,<|WB|>": 979, "pris": 980, "kn": 981, "happ": 982, "ould": 983, "bow": 984, "hum": 985, "sho": 986, "ate,<|WB|>": 987, "port": 988, "fac": 989, "cru": 990, "med": 991, "wood": 992, "lect": 993, "ord": 994, "-d": 995, "ness.<|WB|>": 996, "eb": 997, "water": 998, "sail": 999, "-head": 1000, "aus": 1001, "lar": 1002, "ough<|WB|>": 1003, "se<|WB|>": 1004, "pleas": 1005, "ress": 1006, "\u201cH": 1007, "itud": 1008, "flo": 1009, "00": 1010, "some": 1011, "p<|WB|>": 1012, "outh": 1013, "cent": 1014, "an,<|WB|>": 1015, "compl": 1016, "aut": 1017, "rown": 1018, "say": 1019, "ess;<|WB|>": 1020, "-l": 1021, "bed": 1022, "other": 1023, "in,<|WB|>": 1024, "ast<|WB|>": 1025, "sum": 1026, "sist": 1027, "fri": 1028, "Sh": 1029, "resp": 1030, "spir": 1031, "ser": 1032, ",--": 1033, "sor": 1034, "mur": 1035, "\u2019t": 1036, "?\u2014": 1037, "ich<|WB|>": 1038, "ill<|WB|>": 1039, "vis": 1040, "conv": 1041, "new": 1042, "ian<|WB|>": 1043, "ought": 1044, "cal": 1045, "el,<|WB|>": 1046, "pol": 1047, "-g": 1048, "star": 1049, "es\u2014": 1050, "too": 1051, "sup": 1052, "ek": 1053, "umb": 1054, "reas": 1055, "that": 1056, "Ar": 1057, "prof": 1058, "rist": 1059, "amb": 1060, "sea-": 1061, "in\u2019<|WB|>": 1062, "..": 1063, "'s<|WB|>": 1064, "sal": 1065, "fro": 1066, "stor": 1067, "det": 1068, "ten": 1069, "wit": 1070, "able": 1071, "arn": 1072, "point": 1073, "ence.<|WB|>": 1074, "irt": 1075, "hol": 1076, "Har": 1077, "bb": 1078, "del": 1079, "out<|WB|>": 1080, "th,<|WB|>": 1081, "ise<|WB|>": 1082, "equ": 1083, "o,<|WB|>": 1084, "uc": 1085, "ies.<|WB|>": 1086, "whit": 1087, ",\u2014": 1088, "ently<|WB|>": 1089, "ness": 1090, "ously<|WB|>": 1091, "us<|WB|>": 1092, "bor": 1093, "hous": 1094, "onder": 1095, "fre": 1096, "circ": 1097, "ard,<|WB|>": 1098, "es.\u201d<|WB|>": 1099, "ped<|WB|>": 1100, "eck": 1101, "es!<|WB|>": 1102, "!\"<|WB|>": 1103, "ably<|WB|>": 1104, "ice<|WB|>": 1105, "poss": 1106, "ham": 1107, "stand": 1108, "play": 1109, "ever<|WB|>": 1110, "dem": 1111, "lad": 1112, "-m": 1113, "miss": 1114, "pal": 1115, "ed:<|WB|>": 1116, "oud": 1117, "heav": 1118, "she": 1119, "super": 1120, "ush": 1121, "x<|WB|>": 1122, "ely,<|WB|>": 1123, "En": 1124, "enn": 1125, "rest": 1126, "ous.<|WB|>": 1127, "word": 1128, "fol": 1129, "down": 1130, "-w": 1131, "\u201cW": 1132, "mus": 1133, "pan": 1134, "ram": 1135, "et.<|WB|>": 1136, "ations,<|WB|>": 1137, "oy": 1138, "just": 1139, "fir": 1140, "pul": 1141, "ched<|WB|>": 1142, "sat": 1143, "ator": 1144, "ake<|WB|>": 1145, "ile<|WB|>": 1146, "mag": 1147, "imm": 1148, "leg": 1149, "ering<|WB|>": 1150, "ening<|WB|>": 1151, "beg": 1152, "ated,<|WB|>": 1153, "sil": 1154, "val": 1155, "ers": 1156, "rect": 1157, "\u2019ll<|WB|>": 1158, "hav": 1159, "dou": 1160, "kind": 1161, "it,<|WB|>": 1162, "my": 1163, "thre": 1164, "ext": 1165, "ant,<|WB|>": 1166, "draw": 1167, "fast": 1168, "omin": 1169, "prec": 1170, "forg": 1171, "door": 1172, "-bo": 1173, "eld": 1174, "appear": 1175, "ets<|WB|>": 1176, "grat": 1177, "red<|WB|>": 1178, "fully<|WB|>": 1179, "qui": 1180, "il<|WB|>": 1181, "rec": 1182, "ed.\u201d<|WB|>": 1183, "lock": 1184, "ve<|WB|>": 1185, "worl": 1186, "rag": 1187, "ch,<|WB|>": 1188, "ost": 1189, "ood<|WB|>": 1190, "Mar": 1191, "bel": 1192, "--and<|WB|>": 1193, "ance.<|WB|>": 1194, "Com": 1195, "fellow": 1196, "Un": 1197, "-like<|WB|>": 1198, "how": 1199, "a.<|WB|>": 1200, "ities<|WB|>": 1201, "mad": 1202, "por": 1203, "ar,<|WB|>": 1204, "gri": 1205, "\u201cB": 1206, "quest": 1207, "child": 1208, "sign": 1209, "don": 1210, "post": 1211, "rol": 1212, "-sh": 1213, "whale-": 1214, "ound<|WB|>": 1215, "its<|WB|>": 1216, "ic,<|WB|>": 1217, "lif": 1218, "gent": 1219, "ically<|WB|>": 1220, "aking<|WB|>": 1221, "ure,<|WB|>": 1222, "edg": 1223, "ions.<|WB|>": 1224, "tur": 1225, "colour": 1226, "ons<|WB|>": 1227, "He": 1228, "\u2014but<|WB|>": 1229, "bet": 1230, "aim": 1231, "hear": 1232, "pat": 1233, "ter,<|WB|>": 1234, "pri": 1235, "ut<|WB|>": 1236, "ere<|WB|>": 1237, "eff": 1238, "ined<|WB|>": 1239, "ben": 1240, "pil": 1241, "cup": 1242, "fam": 1243, "bul": 1244, "ible<|WB|>": 1245, "watch": 1246, "rac": 1247, "lov": 1248, "allow": 1249, "div": 1250, "every": 1251, "ross": 1252, "fur": 1253, "ive,<|WB|>": 1254, "again": 1255, "No": 1256, "chang": 1257, "fire": 1258, "ins<|WB|>": 1259, "house": 1260, "looking<|WB|>": 1261, "e!\u201d<|WB|>": 1262, "hom": 1263, "swe": 1264, "Con": 1265, "ed?<|WB|>": 1266, ".\u2014": 1267, "en;<|WB|>": 1268, "idd": 1269, "think": 1270, "oh": 1271, "so<|WB|>": 1272, "you<|WB|>": 1273, "far": 1274, "friend": 1275, "spl": 1276, "lip": 1277, "ation;<|WB|>": 1278, "ement": 1279, "here": 1280, "flow": 1281, "ings.<|WB|>": 1282, "um<|WB|>": 1283, "adv": 1284, "itu": 1285, "grav": 1286, "black": 1287, "lab": 1288, "hil": 1289, "ici": 1290, "nam": 1291, "s,\u201d<|WB|>": 1292, "mov": 1293, "ates<|WB|>": 1294, "ey<|WB|>": 1295, "ping<|WB|>": 1296, "bal": 1297, "\u2014_": 1298, "not<|WB|>": 1299, "ther<|WB|>": 1300, "jud": 1301, "bus": 1302, "your": 1303, "sens": 1304, "m,<|WB|>": 1305, "ited<|WB|>": 1306, "mist": 1307, "ird": 1308, "suc": 1309, "b<|WB|>": 1310, "ty": 1311, "abl": 1312, "ert": 1313, "n,<|WB|>": 1314, "ed!<|WB|>": 1315, "mil": 1316, "break": 1317, "er-": 1318, "reck": 1319, "ss": 1320, "pot": 1321, "boat": 1322, "mu": 1323, "ished<|WB|>": 1324, "lat": 1325, "end<|WB|>": 1326, "ery<|WB|>": 1327, "eal": 1328, "or.<|WB|>": 1329, "dark": 1330, "quar": 1331, "spr": 1332, "k,<|WB|>": 1333, "y\u2014": 1334, "edly<|WB|>": 1335, "foot": 1336, "eni": 1337, "ce<|WB|>": 1338, "school": 1339, "high": 1340, "trem": 1341, "ally,<|WB|>": 1342, "hy": 1343, "rew": 1344, "bear": 1345, "err": 1346, "sent": 1347, "band": 1348, "expl": 1349, "ain<|WB|>": 1350, "ate.<|WB|>": 1351, "count": 1352, "iness<|WB|>": 1353, "hon": 1354, "acqu": 1355, "there": 1356, "y?<|WB|>": 1357, "step": 1358, "list": 1359, "fo": 1360, "mod": 1361, "top": 1362, "tor": 1363, "org": 1364, "gn": 1365, "dog": 1366, "inct": 1367, "thing<|WB|>": 1368, "cat": 1369, "posit": 1370, "ruct": 1371, "f<|WB|>": 1372, "ful,<|WB|>": 1373, "spe": 1374, "will": 1375, "wal": 1376, "iff": 1377, "dr": 1378, "ay.<|WB|>": 1379, "dg": 1380, "pet": 1381, "wid": 1382, "ks<|WB|>": 1383, "bon": 1384, "ax": 1385, "smo": 1386, "\u2014\u201d<|WB|>": 1387, ",\"<|WB|>": 1388, "mean": 1389, "\u201cM": 1390, "Sp": 1391, "sav": 1392, "fortun": 1393, "gro": 1394, "irl": 1395, "ment,<|WB|>": 1396, "iously<|WB|>": 1397, "unn": 1398, "vell": 1399, "ground": 1400, "ell<|WB|>": 1401, "ular": 1402, "rap": 1403, "\u201cA": 1404, "alter": 1405, "ott": 1406, "zz": 1407, "rust": 1408, "e,\u2019<|WB|>": 1409, "-hous": 1410, "cab": 1411, "Whal": 1412, "bec": 1413, "preh": 1414, "\u2019s": 1415, "dep": 1416, "shar": 1417, "bri": 1418, "ick<|WB|>": 1419, "\u201cD": 1420, "bit": 1421, "cand": 1422, "cord": 1423, "main": 1424, "law": 1425, "ching<|WB|>": 1426, "Ex": 1427, "\u2014he<|WB|>": 1428, "ed\u2014": 1429, "resh": 1430, "Par": 1431, "nar": 1432, "year": 1433, "ement<|WB|>": 1434, "desc": 1435, "age,<|WB|>": 1436, "am<|WB|>": 1437, "ure.<|WB|>": 1438, "ad,<|WB|>": 1439, "dit": 1440, "jur": 1441, "world": 1442, "tow": 1443, "turn": 1444, "pow": 1445, "\u201cP": 1446, "was": 1447, "sym": 1448, "comfort": 1449, "whis": 1450, "inf": 1451, "\u201cF": 1452, "iness": 1453, "edd": 1454, "\u201c_": 1455, "(_": 1456, "ively<|WB|>": 1457, "ton": 1458, "and-": 1459, "empt": 1460, "gener": 1461, "ised<|WB|>": 1462, "death": 1463, "const": 1464, "path": 1465, "een": 1466, "cy": 1467, "ches<|WB|>": 1468, "def": 1469, "moun": 1470, "oll": 1471, "ston": 1472, "man,<|WB|>": 1473, "flu": 1474, "thought": 1475, "ine,<|WB|>": 1476, "this": 1477, "tract": 1478, "round": 1479, "as,<|WB|>": 1480, "and,<|WB|>": 1481, "aul": 1482, "Cap": 1483, "aud": 1484, "ivil": 1485, "ourn": 1486, "t.<|WB|>": 1487, "re<|WB|>": 1488, "Cl": 1489, "Pro": 1490, "board": 1491, "n\u2019t<|WB|>": 1492, "\u2014that\u2019s<|WB|>": 1493, "wom": 1494, "fact": 1495, "ran": 1496, "thr": 1497, "Man": 1498, "18": 1499, "hard": 1500, "present": 1501, "ist<|WB|>": 1502, "fool": 1503, "reason": 1504, "oil": 1505, "ill-": 1506, "illi": 1507, "crow": 1508, "imag": 1509, "pun": 1510, "ly;<|WB|>": 1511, "rud": 1512, "y,\u201d<|WB|>": 1513, "bell": 1514, "hat": 1515, "mel": 1516, "ubb": 1517, "ve": 1518, "rush": 1519, "murder": 1520, "eel": 1521, "\u2019d<|WB|>": 1522, "aver": 1523, "en-": 1524, "it\u2014": 1525, "ing\u2014": 1526, "if<|WB|>": 1527, "consid": 1528, "mir": 1529, "gar": 1530, "compan": 1531, "spec": 1532, "is,<|WB|>": 1533, "--that<|WB|>": 1534, "mot": 1535, "said": 1536, "cess": 1537, "ial": 1538, "laugh": 1539, "wonder": 1540, "emper": 1541, "ep<|WB|>": 1542, "saw": 1543, "window": 1544, "scar": 1545, "ations.<|WB|>": 1546, "inu": 1547, "y:<|WB|>": 1548, "need": 1549, "p,<|WB|>": 1550, "dig": 1551, "edit": 1552, "esc": 1553, "ed-": 1554, "bol": 1555, "buck": 1556, "cro": 1557, "beli": 1558, "ility<|WB|>": 1559, "twent": 1560, "satis": 1561, "ift": 1562, "ory<|WB|>": 1563, "hop": 1564, "Le": 1565, "ock": 1566, "ple<|WB|>": 1567, "ember": 1568, "iest<|WB|>": 1569, "sed<|WB|>": 1570, "excl": 1571, "Oh": 1572, "vill": 1573, "th.<|WB|>": 1574, "stair": 1575, "wis": 1576, "an.<|WB|>": 1577, "stre": 1578, "ik": 1579, "cow": 1580, "ez": 1581, "dest": 1582, "hap": 1583, "ers;<|WB|>": 1584, "ecess": 1585, "ubl": 1586, "--the<|WB|>": 1587, "certain": 1588, "cul": 1589, "est.<|WB|>": 1590, "ident": 1591, "observ": 1592, "met": 1593, "writ": 1594, "g<|WB|>": 1595, "rab": 1596, "father": 1597, "concer": 1598, "discover": 1599, "king": 1600, "ending<|WB|>": 1601, "Car": 1602, "hur": 1603, "ence;<|WB|>": 1604, "rob": 1605, "boy": 1606, "fle": 1607, "Hol": 1608, "blood": 1609, "s.\u2019<|WB|>": 1610, "of<|WB|>": 1611, "by": 1612, "ire<|WB|>": 1613, "natur": 1614, "feel": 1615, "om<|WB|>": 1616, "grand": 1617, "pain": 1618, "non": 1619, "imper": 1620, "rank": 1621, "der,<|WB|>": 1622, "Be": 1623, "ry,<|WB|>": 1624, "ich": 1625, "ses<|WB|>": 1626, "our,<|WB|>": 1627, "ice,<|WB|>": 1628, "desp": 1629, "strang": 1630, "alt": 1631, "want": 1632, "op<|WB|>": 1633, "s--": 1634, "on;<|WB|>": 1635, "umbl": 1636, "then": 1637, "at.<|WB|>": 1638, "x,<|WB|>": 1639, "ine": 1640, "fra": 1641, "gold": 1642, "dream": 1643, "se-": 1644, "harpo": 1645, "Per": 1646, "tak": 1647, "fa": 1648, "mi": 1649, "giv": 1650, "own<|WB|>": 1651, "bt": 1652, "elled<|WB|>": 1653, "ier<|WB|>": 1654, "rit": 1655, "ter.<|WB|>": 1656, "call": 1657, "countr": 1658, "dead": 1659, "ances<|WB|>": 1660, "iment": 1661, "susp": 1662, "ies;<|WB|>": 1663, "rant": 1664, "cast": 1665, "in.<|WB|>": 1666, "mal": 1667, "anim": 1668, "cross": 1669, "wear": 1670, "joy": 1671, "lay": 1672, "rang": 1673, "ages<|WB|>": 1674, "vert": 1675, "civil": 1676, "\u201cL": 1677, "best": 1678, "agu": 1679, "e?\u201d<|WB|>": 1680, "road": 1681, "ated.<|WB|>": 1682, "yard": 1683, "Gre": 1684, "sound": 1685, "\u2018H": 1686, "burn": 1687, "dri": 1688, "smok": 1689, "iss": 1690, "0<|WB|>": 1691, "le-": 1692, "ish,<|WB|>": 1693, "id,<|WB|>": 1694, "he<|WB|>": 1695, "ook<|WB|>": 1696, "cou": 1697, "ame<|WB|>": 1698, "dar": 1699, "ly-": 1700, "princ": 1701, "obl": 1702, "ism<|WB|>": 1703, "shor": 1704, "lim": 1705, "luck": 1706, "two": 1707, "conc": 1708, "shad": 1709, "agre": 1710, "selv": 1711, "proach": 1712, "ately<|WB|>": 1713, "ured<|WB|>": 1714, "magn": 1715, "exper": 1716, "mind": 1717, "iec": 1718, "expect": 1719, "last": 1720, "toge": 1721, "man.<|WB|>": 1722, "ide<|WB|>": 1723, "ily,<|WB|>": 1724, "bab": 1725, "uni": 1726, "to-": 1727, "ceed": 1728, "mill": 1729, "low<|WB|>": 1730, "vo": 1731, "miser": 1732, "ative<|WB|>": 1733, "suffer": 1734, "gain": 1735, "\u2019n": 1736, "ward<|WB|>": 1737, "less,<|WB|>": 1738, "court": 1739, "wil": 1740, "fat": 1741, "maid": 1742, "ors,<|WB|>": 1743, "pen": 1744, "pock": 1745, "Ahab": 1746, "book": 1747, "Ther": 1748, "fair": 1749, "ans<|WB|>": 1750, "suff": 1751, "comb": 1752, "old<|WB|>": 1753, "ended<|WB|>": 1754, "mann": 1755, "mother": 1756, "ch.<|WB|>": 1757, "fear": 1758, "stud": 1759, "ment.<|WB|>": 1760, "real": 1761, "ive.<|WB|>": 1762, "se;<|WB|>": 1763, "--wh": 1764, "als,<|WB|>": 1765, "glo": 1766, "mom": 1767, "but": 1768, "room<|WB|>": 1769, "ern": 1770, "e_<|WB|>": 1771, "sure": 1772, "ance;<|WB|>": 1773, "ave<|WB|>": 1774, "ized<|WB|>": 1775, "ili": 1776, "guard": 1777, "cloth": 1778, "trou": 1779, "rupt": 1780, "sleep": 1781, "gged<|WB|>": 1782, "deli": 1783, "med<|WB|>": 1784, "ven": 1785, "led,<|WB|>": 1786, "dim": 1787, "umber": 1788, "bank": 1789, "Mon": 1790, "knif": 1791, "snow": 1792, "person": 1793, "fig": 1794, "ures<|WB|>": 1795, "my<|WB|>": 1796, "thor": 1797, "in-": 1798, "consc": 1799, "se,<|WB|>": 1800, "ine.<|WB|>": 1801, "minut": 1802, "four": 1803, "angu": 1804, "ic.<|WB|>": 1805, "sett": 1806, "sing": 1807, "coff": 1808, "ged<|WB|>": 1809, "al;<|WB|>": 1810, "speak": 1811, "age.<|WB|>": 1812, "circum": 1813, "fav": 1814, "ity;<|WB|>": 1815, "ified<|WB|>": 1816, "six": 1817, "conce": 1818, "ful.<|WB|>": 1819, "--a<|WB|>": 1820, "fore": 1821, "udd": 1822, "direct": 1823, "olut": 1824, "corn": 1825, "ing!<|WB|>": 1826, "dro": 1827, "sir": 1828, "asp": 1829, "ments<|WB|>": 1830, "ish.<|WB|>": 1831, "tail": 1832, "...": 1833, "\u2014for<|WB|>": 1834, "per<|WB|>": 1835, "The<|WB|>": 1836, "ma": 1837, "hid": 1838, "trans": 1839, "she<|WB|>": 1840, "girl": 1841, "ring<|WB|>": 1842, "ear<|WB|>": 1843, "sim": 1844, "marri": 1845, "Mor": 1846, "Her": 1847, "morn": 1848, "brother": 1849, "ounc": 1850, "let<|WB|>": 1851, "quick": 1852, "chas": 1853, "did": 1854, "cheer": 1855, "breath": 1856, "plic": 1857, "For": 1858, "iet": 1859, "retch": 1860, "ed--": 1861, "pped<|WB|>": 1862, "oned<|WB|>": 1863, "lot": 1864, "god": 1865, "eless<|WB|>": 1866, "cann": 1867, "\u2019s.<|WB|>": 1868, "a!<|WB|>": 1869, "ing.\u201d<|WB|>": 1870, "rever": 1871, "es?<|WB|>": 1872, "oper": 1873, "ot<|WB|>": 1874, "plan": 1875, "jew": 1876, "blow": 1877, "Se": 1878, "pig": 1879, "jack": 1880, "gal": 1881, "....<|WB|>": 1882, "affect": 1883, "sequ": 1884, "it.<|WB|>": 1885, "cho": 1886, "ind<|WB|>": 1887, "charac": 1888, "ters<|WB|>": 1889, "ied,<|WB|>": 1890, "row<|WB|>": 1891, "way<|WB|>": 1892, "wif": 1893, "Engl": 1894, "emb": 1895, "mak": 1896, "us,<|WB|>": 1897, "fall": 1898, "pap": 1899, "able;<|WB|>": 1900, "ent;<|WB|>": 1901, "charm": 1902, "chi": 1903, "es\u2019<|WB|>": 1904, "hood": 1905, "loy": 1906, "ither": 1907, "gentle": 1908, "embl": 1909, "st,<|WB|>": 1910, "God": 1911, "\u201cC": 1912, "respect": 1913, "ely.<|WB|>": 1914, "collect": 1915, "ais": 1916, "aun": 1917, "promis": 1918, "spar": 1919, "soft": 1920, "stat": 1921, "Do": 1922, "sick": 1923, "stri": 1924, "n.<|WB|>": 1925, "ry.<|WB|>": 1926, "command": 1927, "brok": 1928, "away": 1929, "fing": 1930, "ridg": 1931, "els<|WB|>": 1932, "ring": 1933, "flam": 1934, "Good": 1935, "hunt": 1936, "ders<|WB|>": 1937, "ens<|WB|>": 1938, "pois": 1939, "ling,<|WB|>": 1940, "chant": 1941, "tom": 1942, "Fl": 1943, ";\u2014": 1944, "\u201d\u2014": 1945, "E<|WB|>": 1946, "e\u2014and<|WB|>": 1947, "Star": 1948, "\u2019;<|WB|>": 1949, "._<|WB|>": 1950, "itting<|WB|>": 1951, "consider": 1952, "perf": 1953, "ink<|WB|>": 1954, "ences<|WB|>": 1955, "himself": 1956, "Ad": 1957, "up<|WB|>": 1958, "wish": 1959, "ect<|WB|>": 1960, "card": 1961, "incl": 1962, "cop": 1963, "ass<|WB|>": 1964, "Char": 1965, "ilt": 1966, "asc": 1967, "Bar": 1968, "follow": 1969, "ade<|WB|>": 1970, "oung": 1971, "ked<|WB|>": 1972, "dom": 1973, "sever": 1974, "ioned<|WB|>": 1975, "appoint": 1976, "may": 1977, "imagin": 1978, "aunt": 1979, "lodg": 1980, "pursu": 1981, "olv": 1982, "prehens": 1983, "possib": 1984, "am,<|WB|>": 1985, "gard": 1986, "ets,<|WB|>": 1987, "disp": 1988, "ver,<|WB|>": 1989, "unct": 1990, "anch": 1991, "lam": 1992, "tell": 1993, "earth": 1994, "ons,<|WB|>": 1995, "ice-": 1996, "hair": 1997, "mid": 1998, "hun": 1999, "ans,<|WB|>": 2000, "pent": 2001, "devil": 2002, "\u2019n<|WB|>": 2003, "ould<|WB|>": 2004, "eness,<|WB|>": 2005, "inde": 2006, "int<|WB|>": 2007, "possess": 2008, "conn": 2009, "Col": 2010, "ribut": 2011, "ford": 2012, "mouth": 2013, "prot": 2014, "ight,<|WB|>": 2015, "ress<|WB|>": 2016, "king<|WB|>": 2017, "viv": 2018, "ue<|WB|>": 2019, "ap<|WB|>": 2020, "aughter": 2021, "nor": 2022, "ants<|WB|>": 2023, "\u201cY": 2024, "ness;<|WB|>": 2025, "enter": 2026, "-looking<|WB|>": 2027, "remain": 2028, "continu": 2029, "deep": 2030, "stead": 2031, "ary,<|WB|>": 2032, "import": 2033, "cher": 2034, "offic": 2035, "soci": 2036, "et;<|WB|>": 2037, "les,<|WB|>": 2038, "gam": 2039, "could": 2040, "ship<|WB|>": 2041, "hold": 2042, "ak<|WB|>": 2043, "rif": 2044, "ions;<|WB|>": 2045, "Tw": 2046, "half": 2047, "Christ": 2048, "lan": 2049, "esom": 2050, "fully,<|WB|>": 2051, "o.<|WB|>": 2052, "ban": 2053, "tro": 2054, "ant.<|WB|>": 2055, "coloured<|WB|>": 2056, "full": 2057, "hill": 2058, "sad": 2059, "Ro": 2060, "prison": 2061, "thunder": 2062, "ine-": 2063, "gun": 2064, "kno": 2065, "n\u2019t": 2066, "thick": 2067, "me\u2014": 2068, ":\u2014": 2069, "Quee": 2070, "Queequ": 2071, "Queequeg": 2072, "\u2014they<|WB|>": 2073, "object": 2074, "differ": 2075, "ose<|WB|>": 2076, "most<|WB|>": 2077, "express": 2078, "character": 2079, "eth": 2080, "urch": 2081, "ways<|WB|>": 2082, "ail<|WB|>": 2083, "es--": 2084, "ality<|WB|>": 2085, "tou": 2086, "we<|WB|>": 2087, "exec": 2088, "judg": 2089, "ature": 2090, "one,<|WB|>": 2091, "beaut": 2092, ".)<|WB|>": 2093, "ities,<|WB|>": 2094, "neigh": 2095, ",--<|WB|>": 2096, "sen": 2097, "dinn": 2098, "room,<|WB|>": 2099, "together": 2100, "dear": 2101, "dress": 2102, "occup": 2103, "ency<|WB|>": 2104, "ings;<|WB|>": 2105, "mort": 2106, "ester": 2107, "show": 2108, "leav": 2109, "k.<|WB|>": 2110, "ms<|WB|>": 2111, "vol": 2112, "commun": 2113, "in;<|WB|>": 2114, "ins,<|WB|>": 2115, "cook": 2116, "counter": 2117, "sper": 2118, "mut": 2119, "chim": 2120, "stop": 2121, "antic": 2122, "wedd": 2123, "found": 2124, "clear": 2125, "grow": 2126, "subst": 2127, "nut": 2128, "lu": 2129, "rad": 2130, "raph": 2131, "\u2014what<|WB|>": 2132, "\u2014there<|WB|>": 2133, "AN": 2134, "\u2014which<|WB|>": 2135, "Jo": 2136, "igg": 2137, "by<|WB|>": 2138, "ir<|WB|>": 2139, "complet": 2140, "keep": 2141, "litt": 2142, "ious,<|WB|>": 2143, "Eli": 2144, "icul": 2145, "effect": 2146, "pred": 2147, "well-": 2148, "esp": 2149, "exh": 2150, "myself": 2151, "requ": 2152, "pict": 2153, "iled<|WB|>": 2154, "ti": 2155, "invest": 2156, "lex": 2157, "es,\u201d<|WB|>": 2158, "erc": 2159, "ong<|WB|>": 2160, "after": 2161, "viol": 2162, "reli": 2163, "ledg": 2164, "bott": 2165, "fulness<|WB|>": 2166, "saf": 2167, "\u2019,<|WB|>": 2168, "dang": 2169, "ays<|WB|>": 2170, "ishing<|WB|>": 2171, "ting<|WB|>": 2172, "moment": 2173, "aped<|WB|>": 2174, "agon": 2175, "age-": 2176, "meas": 2177, "per,<|WB|>": 2178, "business": 2179, "aded<|WB|>": 2180, "ga": 2181, "clean": 2182, "help": 2183, "ion.\u201d<|WB|>": 2184, "bed<|WB|>": 2185, "yl": 2186, "kne": 2187, "beat": 2188, "cell": 2189, "aked<|WB|>": 2190, "\u201d;<|WB|>": 2191, "ash<|WB|>": 2192, "spout": 2193, "\u2018S": 2194, "IN": 2195, "Tom": 2196, ",00": 2197, "\u2018F": 2198, "es.\u2019<|WB|>": 2199, ".\"<|WB|>": 2200, "just<|WB|>": 2201, "men<|WB|>": 2202, "Nor": 2203, "diff": 2204, "ided<|WB|>": 2205, "ield": 2206, "Dar": 2207, "ising<|WB|>": 2208, "gall": 2209, "piec": 2210, "cust": 2211, ";\u201d<|WB|>": 2212, "ball": 2213, "mistak": 2214, "exist": 2215, "Phil": 2216, "iron": 2217, "weak": 2218, "rate<|WB|>": 2219, "ages,<|WB|>": 2220, "ley": 2221, "Lu": 2222, "alth": 2223, "ill,<|WB|>": 2224, "The": 2225, "se.<|WB|>": 2226, "answ": 2227, "antly<|WB|>": 2228, "accompl": 2229, "ia<|WB|>": 2230, "eleg": 2231, "lac": 2232, "open": 2233, "ack<|WB|>": 2234, "oft": 2235, "ore<|WB|>": 2236, "van": 2237, "din": 2238, "thro": 2239, "ored<|WB|>": 2240, "eful<|WB|>": 2241, "slow": 2242, "cel": 2243, "wait": 2244, "cus": 2245, "ning<|WB|>": 2246, "erg": 2247, "peac": 2248, "shop": 2249, "coach": 2250, "kee": 2251, "eur": 2252, "soul": 2253, "coat": 2254, "curr": 2255, "ar.<|WB|>": 2256, "el.<|WB|>": 2257, "bound": 2258, "y-f": 2259, "rock": 2260, "slo": 2261, "chair": 2262, "harm": 2263, "camp": 2264, "amber": 2265, "sne": 2266, "ER": 2267, "II": 2268, "jaw": 2269, "whip": 2270, "wheel": 2271, "ictor": 2272, "pick": 2273, "voy": 2274, "bil": 2275, "cit": 2276, "ah<|WB|>": 2277, "shout": 2278, "butt": 2279, "e!\u2019<|WB|>": 2280, "\u2014it<|WB|>": 2281, "Jim": 2282, "Huck": 2283, "appl": 2284, "ians<|WB|>": 2285, "scal": 2286, "ter<|WB|>": 2287, "ather<|WB|>": 2288, "seem": 2289, "necess": 2290, "was<|WB|>": 2291, "no<|WB|>": 2292, "duc": 2293, "start": 2294, "etim": 2295, "ics<|WB|>": 2296, "iter": 2297, "mas": 2298, "ousness<|WB|>": 2299, "medi": 2300, "eight": 2301, "hus": 2302, "blind": 2303, "ives<|WB|>": 2304, "near": 2305, "ust<|WB|>": 2306, "ther,<|WB|>": 2307, "body<|WB|>": 2308, "bread": 2309, "spok": 2310, "success": 2311, "-o": 2312, "inqu": 2313, "itut": 2314, "chap": 2315, "week": 2316, "employ": 2317, "ell,<|WB|>": 2318, "worth": 2319, "ice.<|WB|>": 2320, "ole<|WB|>": 2321, "habit": 2322, "life": 2323, "hour": 2324, "sinc": 2325, ":--": 2326, "ing?<|WB|>": 2327, "order": 2328, "ire,<|WB|>": 2329, "profess": 2330, "er!<|WB|>": 2331, "use": 2332, "had": 2333, "short": 2334, "fil": 2335, "ard.<|WB|>": 2336, "ained<|WB|>": 2337, "drop": 2338, "um,<|WB|>": 2339, "ain,<|WB|>": 2340, "ened,<|WB|>": 2341, "als.<|WB|>": 2342, "roll": 2343, "oph": 2344, "es:<|WB|>": 2345, "land<|WB|>": 2346, "kill": 2347, "would": 2348, "shr": 2349, "ian,<|WB|>": 2350, "pping<|WB|>": 2351, "De": 2352, "cock": 2353, "stem": 2354, "it\u2019s<|WB|>": 2355, "yet": 2356, "cav": 2357, "bush": 2358, "e?\u2019<|WB|>": 2359, "S<|WB|>": 2360, "Nant": 2361, "Nantuck": 2362, "ograph": 2363, "alist": 2364, "Pet": 2365, "\u2018W": 2366, "delight": 2367, "fresh": 2368, "raw": 2369, "-and-": 2370, "ton<|WB|>": 2371, "los": 2372, "bad": 2373, "gen": 2374, "enough": 2375, "might": 2376, "langu": 2377, "orig": 2378, "field": 2379, "mountain": 2380, "ingu": 2381, "interest": 2382, "thes": 2383, "duct": 2384, "view": 2385, "ement,<|WB|>": 2386, "ices<|WB|>": 2387, "ooth": 2388, "chief": 2389, "ines<|WB|>": 2390, "aught": 2391, "account": 2392, "visit": 2393, "ends<|WB|>": 2394, "even": 2395, "partic": 2396, "thir": 2397, "mem": 2398, "\u2019\u201d<|WB|>": 2399, "carri": 2400, "son<|WB|>": 2401, "Jon": 2402, "weather": 2403, "bes": 2404, "its,<|WB|>": 2405, "ed,\u201d<|WB|>": 2406, "arg": 2407, "Sund": 2408, "awn": 2409, "ining<|WB|>": 2410, "rip": 2411, "separ": 2412, "ize<|WB|>": 2413, "spit": 2414, "itch": 2415, "ienc": 2416, "ented<|WB|>": 2417, "seas": 2418, "talk": 2419, "fright": 2420, "iding<|WB|>": 2421, "dict": 2422, "ded<|WB|>": 2423, "dread": 2424, "river": 2425, "glor": 2426, "treas": 2427, "question": 2428, "jest": 2429, "tear": 2430, "like,<|WB|>": 2431, "Bl": 2432, "cogn": 2433, "toil": 2434, "bird": 2435, "Gu": 2436, "Tur": 2437, "white-": 2438, "screw": 2439, "mourn": 2440, "slip": 2441, "pip": 2442, "moon": 2443, "T<|WB|>": 2444, "shud": 2445, "\u2019.<|WB|>": 2446, "log": 2447, "!_": 2448, "shark": 2449, "\u2014though<|WB|>": 2450, "butter": 2451, "hog": 2452, "ght<|WB|>": 2453, "some<|WB|>": 2454, "roy": 2455, "ous;<|WB|>": 2456, "scen": 2457, "believ": 2458, "perhap": 2459, "Em": 2460, "ates,<|WB|>": 2461, "hes": 2462, "pose<|WB|>": 2463, "publ": 2464, "all-": 2465, "wer": 2466, "conveni": 2467, "though": 2468, "doubt": 2469, "great": 2470, "pract": 2471, "dam": 2472, "nic": 2473, "ise,<|WB|>": 2474, "past": 2475, "eth<|WB|>": 2476, "uct": 2477, "sem": 2478, "bir": 2479, "velop": 2480, "attent": 2481, "a;<|WB|>": 2482, "priv": 2483, "erk": 2484, "meet": 2485, "second": 2486, "uring<|WB|>": 2487, "ley<|WB|>": 2488, "bour": 2489, "fix": 2490, "izz": 2491, "danc": 2492, "much": 2493, "common": 2494, "man\u2019s<|WB|>": 2495, "town": 2496, "itude<|WB|>": 2497, "about": 2498, "\u201cTh": 2499, "what": 2500, "ys": 2501, "sham": 2502, "\u2018B": 2503, "izing<|WB|>": 2504, "prepar": 2505, "bright": 2506, "less.<|WB|>": 2507, "ements<|WB|>": 2508, "ke<|WB|>": 2509, "ment;<|WB|>": 2510, "embar": 2511, "ward,<|WB|>": 2512, "advent": 2513, "horr": 2514, "\u201cO": 2515, "travell": 2516, "fron": 2517, "happen": 2518, "ents,<|WB|>": 2519, "ath<|WB|>": 2520, "cloud": 2521, "chee": 2522, "ling": 2523, "stern": 2524, "ful;<|WB|>": 2525, "or;<|WB|>": 2526, "sympath": 2527, "farm": 2528, "ie<|WB|>": 2529, "cart": 2530, "key": 2531, "-ho": 2532, "won": 2533, "ung<|WB|>": 2534, "domin": 2535, "ap,<|WB|>": 2536, "grim": 2537, "et-": 2538, "rav": 2539, "worship": 2540, "rail": 2541, "sorrow": 2542, "life-": 2543, "Indi": 2544, "trag": 2545, "\u2014you<|WB|>": 2546, "AR": 2547, "distinct": 2548, "are<|WB|>": 2549, "ause<|WB|>": 2550, "prob": 2551, "all,<|WB|>": 2552, "wick": 2553, "rom": 2554, "idu": 2555, "match": 2556, "Mr": 2557, "var": 2558, "befor": 2559, "iness,<|WB|>": 2560, "Eliz": 2561, "th;<|WB|>": 2562, "intell": 2563, "intellig": 2564, "a\u2019s<|WB|>": 2565, "ile,<|WB|>": 2566, "ism,<|WB|>": 2567, "execut": 2568, "house<|WB|>": 2569, "ept<|WB|>": 2570, "You": 2571, "phil": 2572, "ery,<|WB|>": 2573, "ese<|WB|>": 2574, "side<|WB|>": 2575, "ailed<|WB|>": 2576, "isit": 2577, "stock": 2578, "iev": 2579, "ors.<|WB|>": 2580, "way,<|WB|>": 2581, "akes<|WB|>": 2582, "return": 2583, "rod": 2584, "learn": 2585, "rup": 2586, "stup": 2587, "design": 2588, "der<|WB|>": 2589, "ure;<|WB|>": 2590, "tin": 2591, "!--": 2592, "furn": 2593, "secret": 2594, "horse": 2595, "warm": 2596, "ifying<|WB|>": 2597, "exam": 2598, "matter": 2599, "wretch": 2600, "appar": 2601, "eless": 2602, "bled<|WB|>": 2603, "ibly<|WB|>": 2604, "communic": 2605, "oqu": 2606, "lead": 2607, "fit": 2608, "an;<|WB|>": 2609, "ible.<|WB|>": 2610, "well,<|WB|>": 2611, "sac": 2612, "ase<|WB|>": 2613, "Ge": 2614, "elling<|WB|>": 2615, "est;<|WB|>": 2616, "sight": 2617, "body": 2618, "gover": 2619, "\u2018L": 2620, "id.<|WB|>": 2621, "sport": 2622, "iver": 2623, "e\u2019": 2624, "-heart": 2625, "wild": 2626, "ing:<|WB|>": 2627, "hang": 2628, "most": 2629, "\u201cG": 2630, "x.<|WB|>": 2631, "ater<|WB|>": 2632, "cry": 2633, "proph": 2634, "Amer": 2635, "Americ": 2636, "neck": 2637, "ashed<|WB|>": 2638, "cut": 2639, "sadd": 2640, "wig": 2641, "glass": 2642, "or\u2019s<|WB|>": 2643, "nur": 2644, "beard": 2645, "blu": 2646, "Can": 2647, "oce": 2648, "host": 2649, "blank": 2650, "try": 2651, "owl": 2652, "ay-": 2653, "mock": 2654, "*<|WB|>": 2655, "shudder": 2656, "goo": 2657, "iri": 2658, "mast-head": 2659, "captain": 2660, "\u2014this<|WB|>": 2661, "esh": 2662, "EL": 2663, "-lin": 2664, "_)": 2665, "crit": 2666, "ity": 2667, "larg": 2668, "hesit": 2669, "17": 2670, "connect": 2671, "master": 2672, "fash": 2673, "ati": 2674, "used<|WB|>": 2675, "origin": 2676, "iqu": 2677, "Benn": 2678, "remark": 2679, "sevent": 2680, "Ev": 2681, "forc": 2682, "stir": 2683, "--which<|WB|>": 2684, "concl": 2685, "ct<|WB|>": 2686, "unk": 2687, "i<|WB|>": 2688, "strong": 2689, "Som": 2690, "\u201cN": 2691, "educ": 2692, "om,<|WB|>": 2693, "cons": 2694, "temper": 2695, "fanc": 2696, "nerv": 2697, "escap": 2698, "aced<|WB|>": 2699, "ary.<|WB|>": 2700, "quiet": 2701, "elv": 2702, "thous": 2703, "smil": 2704, "stru": 2705, "ently,<|WB|>": 2706, "his": 2707, "surpris": 2708, "Mer": 2709, "un<|WB|>": 2710, "row,<|WB|>": 2711, "nois": 2712, "vac": 2713, "quarter": 2714, "Captain": 2715, "parl": 2716, "ow,<|WB|>": 2717, "deserv": 2718, "infer": 2719, "que": 2720, "fully.<|WB|>": 2721, "ats<|WB|>": 2722, "ank<|WB|>": 2723, "sister": 2724, "uzz": 2725, "f,<|WB|>": 2726, "brid": 2727, "ract": 2728, "ing-plac": 2729, "cott": 2730, "Wil": 2731, "vic": 2732, "ago": 2733, "oppress": 2734, "iti": 2735, "uls": 2736, "ull<|WB|>": 2737, "ral": 2738, "land,<|WB|>": 2739, "dol": 2740, "Tim": 2741, "bas": 2742, "ains<|WB|>": 2743, "ed.\u2019<|WB|>": 2744, "els,<|WB|>": 2745, "oop": 2746, "Jer": 2747, "sin": 2748, "waist": 2749, "crew": 2750, "bs<|WB|>": 2751, "pray": 2752, "exter": 2753, "pill": 2754, "Rom": 2755, "Or": 2756, "Sy": 2757, "nav": 2758, "les.<|WB|>": 2759, "s!\u201d<|WB|>": 2760, "crack": 2761, "g,<|WB|>": 2762, "es!\u201d<|WB|>": 2763, "-hand": 2764, "knock": 2765, "ick,<|WB|>": 2766, "mouse": 2767, "uck<|WB|>": 2768, "drown": 2769, "abb": 2770, "\u2014so<|WB|>": 2771, "hatch": 2772, "\u2014all<|WB|>": 2773, "\u2014as<|WB|>": 2774, "Pol": 2775, ");<|WB|>": 2776, "whisk": 2777, "consequ": 2778, "work<|WB|>": 2779, "admir": 2780, "ace<|WB|>": 2781, "ley,<|WB|>": 2782, "fal": 2783, "aid<|WB|>": 2784, "us.<|WB|>": 2785, "subject": 2786, "consist": 2787, "inno": 2788, "dece": 2789, "ire.<|WB|>": 2790, "eness.<|WB|>": 2791, "ft<|WB|>": 2792, "fail": 2793, "prett": 2794, "head<|WB|>": 2795, "impress": 2796, "ality,<|WB|>": 2797, "now<|WB|>": 2798, "red,<|WB|>": 2799, "griev": 2800, "crimin": 2801, "ither<|WB|>": 2802, "husband": 2803, "clim": 2804, "batt": 2805, "ition<|WB|>": 2806, "nothing": 2807, "ast,<|WB|>": 2808, "ermin": 2809, "proper": 2810, "ty<|WB|>": 2811, "daughter": 2812, "ordin": 2813, "reserv": 2814, "tum": 2815, "young": 2816, "oblig": 2817, "forb": 2818, "supp": 2819, "engag": 2820, "cold": 2821, "oler": 2822, "ily.<|WB|>": 2823, "bitter": 2824, "suit": 2825, "room.<|WB|>": 2826, "firm": 2827, "ceiv": 2828, "valu": 2829, "repl": 2830, "must": 2831, "ast.<|WB|>": 2832, "perform": 2833, "accomplish": 2834, "ments,<|WB|>": 2835, "dy": 2836, "breakfast": 2837, "cam": 2838, "ende": 2839, "drink": 2840, "sam": 2841, "aw<|WB|>": 2842, "bling<|WB|>": 2843, "it--": 2844, "ifi": 2845, "resolut": 2846, "gat": 2847, "wel": 2848, "glad": 2849, "confid": 2850, "sugg": 2851, "thread": 2852, "benef": 2853, "fold": 2854, "ive-": 2855, "lem": 2856, "preach": 2857, "clos": 2858, "--h": 2859, "wand": 2860, "keeper": 2861, "edly,<|WB|>": 2862, "woman": 2863, "hew": 2864, "ory,<|WB|>": 2865, "ances,<|WB|>": 2866, "umph": 2867, "er?<|WB|>": 2868, "evil": 2869, "ts<|WB|>": 2870, "rated<|WB|>": 2871, "ing,\u201d<|WB|>": 2872, "tid": 2873, "wound": 2874, "ot,<|WB|>": 2875, "care": 2876, "board<|WB|>": 2877, "ly:<|WB|>": 2878, "ine;<|WB|>": 2879, "capt": 2880, "age;<|WB|>": 2881, "alled<|WB|>": 2882, "Heav": 2883, "jug": 2884, "stream": 2885, "water-": 2886, "fru": 2887, "ack,<|WB|>": 2888, "ice": 2889, "ane": 2890, "fill": 2891, "oulder": 2892, "ding<|WB|>": 2893, "boot": 2894, "smith": 2895, "spik": 2896, "mult": 2897, "yel": 2898, "vap": 2899, "rough": 2900, "disappear": 2901, "secut": 2902, "rum": 2903, "wash": 2904, "oar": 2905, "pocket": 2906, "oes<|WB|>": 2907, "Nantucket": 2908, "eh": 2909, "oon": 2910, "\u2014not<|WB|>": 2911, "-sk": 2912, "-coloured<|WB|>": 2913, "\u2018P": 2914, "cruis": 2915, "\u2014I": 2916, "Starbuck": 2917, "pear": 2918, "z<|WB|>": 2919, "Bel": 2920, "pew": 2921, "Dor": 2922, "gas": 2923, "nigg": 2924, "claim": 2925, "reach": 2926, "ulg": 2927, "popul": 2928, "perfect": 2929, "emin": 2930, "author": 2931, "here<|WB|>": 2932, "ause": 2933, "do<|WB|>": 2934, "vig": 2935, "propri": 2936, "rable<|WB|>": 2937, "compar": 2938, "iced<|WB|>": 2939, "satisfi": 2940, "occas": 2941, "Elizab": 2942, "age": 2943, "advant": 2944, "preci": 2945, "consum": 2946, "extrem": 2947, "contra": 2948, "jok": 2949, "\u201cth": 2950, "diss": 2951, "ond<|WB|>": 2952, "hist": 2953, "paint": 2954, "depend": 2955, "ip<|WB|>": 2956, "jour": 2957, "day<|WB|>": 2958, "nail": 2959, "philos": 2960, "side,<|WB|>": 2961, "agree": 2962, "reproach": 2963, "consol": 2964, "ards<|WB|>": 2965, "ver<|WB|>": 2966, "sharp": 2967, "ide": 2968, "moder": 2969, "convers": 2970, "Willi": 2971, "oured<|WB|>": 2972, "aston": 2973, "disappoint": 2974, "compass": 2975, "liber": 2976, ".\u2019\u201d<|WB|>": 2977, "evid": 2978, "compos": 2979, "ement.<|WB|>": 2980, "approach": 2981, "alarm": 2982, "inging<|WB|>": 2983, "incred": 2984, "\u201cT": 2985, "doz": 2986, "our.<|WB|>": 2987, "plain": 2988, "whisper": 2989, "precip": 2990, "ible,<|WB|>": 2991, "tir": 2992, "affair": 2993, "pret": 2994, "concern": 2995, "brac": 2996, "clock": 2997, "Ros": 2998, "exclaim": 2999, "k;<|WB|>": 3000, "resist": 3001, "listen": 3002, "ants,<|WB|>": 3003, "blam": 3004, "ignor": 3005, "ations;<|WB|>": 3006, "atory<|WB|>": 3007, "igu": 3008, "excit": 3009, ".,<|WB|>": 3010, "hast": 3011, "em<|WB|>": 3012, "ences,<|WB|>": 3013, "ney": 3014, "Gra": 3015, "ggl": 3016, "ratt": 3017, "m.<|WB|>": 3018, "lied<|WB|>": 3019, "Lor": 3020, "teach": 3021, "am.<|WB|>": 3022, "inking<|WB|>": 3023, "ks,<|WB|>": 3024, "ished,<|WB|>": 3025, "obe": 3026, "haz": 3027, "faint": 3028, "indic": 3029, "crown": 3030, "itude": 3031, "chest": 3032, "She": 3033, "-by": 3034, "search": 3035, "south": 3036, "still": 3037, "oot<|WB|>": 3038, "ah,<|WB|>": 3039, "ading<|WB|>": 3040, "wav": 3041, "lamp": 3042, "isc": 3043, "bull": 3044, "Def": 3045, "ranc": 3046, "Sol": 3047, "ox": 3048, "der.<|WB|>": 3049, "drun": 3050, "-tre": 3051, "haw": 3052, "sul": 3053, "ountain": 3054, "sheep": 3055, "an\u2019s<|WB|>": 3056, "pilot": 3057, "monst": 3058, "garden": 3059, "Pl": 3060, "lightn": 3061, "wood-": 3062, "-headed<|WB|>": 3063, "stal": 3064, "agn": 3065, "Lev": 3066, "harpoone": 3067, "hook": 3068, "er\u2014": 3069, "penn": 3070, "e\u2014a<|WB|>": 3071, "!_<|WB|>": 3072, "plum": 3073, "green": 3074, "\u201d\u2014and<|WB|>": 3075, "i,<|WB|>": 3076, "dru": 3077, "Du": 3078, "Han": 3079, "cig": 3080, "'t<|WB|>": 3081, "'<|WB|>": 3082, "with<|WB|>": 3083, "Jan": 3084, "acy<|WB|>": 3085, "les": 3086, "devot": 3087, "itself": 3088, "improv": 3089, "declar": 3090, "mit": 3091, "orous<|WB|>": 3092, "understand": 3093, "eness": 3094, "ilt<|WB|>": 3095, "bles<|WB|>": 3096, "time,<|WB|>": 3097, "tast": 3098, "nin": 3099, "another": 3100, "ially<|WB|>": 3101, "narrow": 3102, "ought<|WB|>": 3103, "sud": 3104, "solut": 3105, "Ma": 3106, "minist": 3107, "satisfact": 3108, "arily<|WB|>": 3109, "exact": 3110, "ail,<|WB|>": 3111, "ional<|WB|>": 3112, "iveness<|WB|>": 3113, "sych": 3114, "condit": 3115, "refus": 3116, "injur": 3117, "Ven": 3118, "descri": 3119, "chan": 3120, "determin": 3121, "emon": 3122, "famil": 3123, "better": 3124, "extra": 3125, "inform": 3126, "ming<|WB|>": 3127, "acquaint": 3128, "persu": 3129, "assist": 3130, "acked<|WB|>": 3131, "arriv": 3132, "all.<|WB|>": 3133, "son,<|WB|>": 3134, "Su": 3135, "Oh,<|WB|>": 3136, "wast": 3137, "splend": 3138, "\u201cI": 3139, "see": 3140, "thank": 3141, "approv": 3142, "circumst": 3143, "ed_<|WB|>": 3144, "cool": 3145, "ped": 3146, "peop": 3147, "ers\u2019<|WB|>": 3148, "ours<|WB|>": 3149, "endeav": 3150, "increas": 3151, "sweet": 3152, "ion!<|WB|>": 3153, "rot": 3154, "posing<|WB|>": 3155, "assur": 3156, "depart": 3157, "proceed": 3158, "yourself": 3159, "month": 3160, "earn": 3161, "music": 3162, "medit": 3163, "amaz": 3164, "ry;<|WB|>": 3165, "rejo": 3166, "lessly<|WB|>": 3167, "suggest": 3168, "inted<|WB|>": 3169, "set<|WB|>": 3170, "arrang": 3171, "instruct": 3172, "tick": 3173, "broad": 3174, "ist,<|WB|>": 3175, "old,<|WB|>": 3176, "--I<|WB|>": 3177, "church": 3178, "er.\u201d<|WB|>": 3179, "ation.\u201d<|WB|>": 3180, "simp": 3181, "presum": 3182, "Re": 3183, "hot": 3184, "respond": 3185, "enu": 3186, "Go": 3187, "edness<|WB|>": 3188, "angel": 3189, "indiv": 3190, "no,<|WB|>": 3191, "obst": 3192, "eu": 3193, "bust": 3194, "shel": 3195, "ingly,<|WB|>": 3196, "soldi": 3197, "fun": 3198, "Jul": 3199, "stone<|WB|>": 3200, "Pres": 3201, "grap": 3202, "protect": 3203, "table": 3204, "Gener": 3205, "trick": 3206, "low,<|WB|>": 3207, "\u2018A": 3208, "lord": 3209, "b,<|WB|>": 3210, "steam": 3211, "ashing<|WB|>": 3212, "pant": 3213, "dust": 3214, "mach": 3215, "Doct": 3216, "doct": 3217, "event": 3218, "English": 3219, "ag<|WB|>": 3220, "s-": 3221, "hung": 3222, "ength": 3223, "lon": 3224, "\u2019t,<|WB|>": 3225, "ars<|WB|>": 3226, "il.<|WB|>": 3227, "gi": 3228, "ists<|WB|>": 3229, "gs<|WB|>": 3230, "double": 3231, "long-": 3232, "tering<|WB|>": 3233, "stom": 3234, "organ": 3235, "sand": 3236, "wak": 3237, "shri": 3238, "-sail": 3239, "seam": 3240, "pir": 3241, "voyag": 3242, "s\u2019": 3243, "\u2014how<|WB|>": 3244, "D<|WB|>": 3245, "\u2014his<|WB|>": 3246, "side-": 3247, "tub": 3248, "s\u201d<|WB|>": 3249, "raft": 3250, "_\u2014": 3251, "somewher": 3252, "be<|WB|>": 3253, "Aust": 3254, "only<|WB|>": 3255, "ense<|WB|>": 3256, "El": 3257, "content": 3258, "Bing": 3259, "ual<|WB|>": 3260, "ice;<|WB|>": 3261, "ics,<|WB|>": 3262, "grac": 3263, "qual": 3264, "avo": 3265, "even<|WB|>": 3266, "restra": 3267, "ered,<|WB|>": 3268, "cutt": 3269}}