{"merges": [["i", "n", "in"], [";", "<|WB|>", ";<|WB|>"], ["s", "<|WB|>", "s<|WB|>"], ["e", "<|WB|>", "e<|WB|>"], [".", "<|WB|>", ".<|WB|>"], ["p", "r", "pr"], [")", ";<|WB|>", ");<|WB|>"], ["in", "t", "int"], ["a", "r", "ar"], [",", "<|WB|>", ",<|WB|>"], ["pr", "int", "print"], ["r", "e", "re"], ["(", "\"", "(\""], ["t", "<|WB|>", "t<|WB|>"], ["print", "f", "printf"], ["printf", "(\"", "printf(\""], ["h", "e", "he"], ["\\", "n", "\\n"], ["\\n", "\"", "\\n\""], ["ar", "g", "arg"], ["l", "l", "ll"], ["t", "i", "ti"], ["u", "t", "ut"], ["m", "e", "me"], ["d", "<|WB|>", "d<|WB|>"], ["e", "r", "er"], ["ll", "o", "llo"], ["n", "<|WB|>", "n<|WB|>"], ["p", "l", "pl"], ["o", "r", "or"], ["in", "g", "ing"], ["i", "t", "it"], ["e", "s<|WB|>", "es<|WB|>"], [")", "<|WB|>", ")<|WB|>"], ["p", "ut", "put"], ["a", "n", "an"], ["u", "l", "ul"], ["e", "t", "et"], ["s", "a", "sa"], ["o", "n", "on"], ["r", "a", "ra"], ["t", ".<|WB|>", "t.<|WB|>"], ["s", "t", "st"], ["\\n\"", ");<|WB|>", "\\n\");<|WB|>"], ["arg", "v", "argv"], ["t", "he", "the"], ["put", "s", "puts"], ["\\n\"", ",<|WB|>", "\\n\",<|WB|>"], ["y", "<|WB|>", "y<|WB|>"], ["s", "u", "su"], ["m", "a", "ma"], ["o", "m", "om"], ["e", "x", "ex"], ["H", "e", "He"], ["He", "llo", "Hello"], ["w", "or", "wor"], ["wor", "l", "worl"], ["he", "llo", "hello"], ["h", "i", "hi"], ["g", "re", "gre"], ["gre", "et", "greet"], ["er", "<|WB|>", "er<|WB|>"], ["e", ".<|WB|>", "e.<|WB|>"], ["ing", "<|WB|>", "ing<|WB|>"], ["argv", "[", "argv["], ["h", "o", "ho"], ["q", "u", "qu"], ["e", "n", "en"], ["pr", "o", "pro"], ["d", "i", "di"], ["worl", "d", "world"], ["m", "pl", "mpl"], ["arg", "c", "argc"], ["\"", ");<|WB|>", "\");<|WB|>"], ["me", "s", "mes"], ["e", "d<|WB|>", "ed<|WB|>"], ["i", "d", "id"], ["%", "s", "%s"], ["l", "in", "lin"], ["me", "n", "men"], ["e", "d", "ed"], ["ed", ".<|WB|>", "ed.<|WB|>"], ["m", "ul", "mul"], ["mul", "ti", "multi"], ["multi", "pl", "multipl"], ["t", "o", "to"], ["u", "n", "un"], ["m", "<|WB|>", "m<|WB|>"], ["t", "h", "th"], ["l", "u", "lu"], ["int", "<|WB|>", "int<|WB|>"], ["ma", "in", "main"], ["main", "(", "main("], ["Hello", ",<|WB|>", "Hello,<|WB|>"], ["world", "!", "world!"], ["s", "t<|WB|>", "st<|WB|>"], ["o", "ut", "out"], ["c", "h", "ch"], ["hello", "<|WB|>", "hello<|WB|>"], ["u", "s", "us"], ["i", "<|WB|>", "i<|WB|>"], ["puts", "(\"", "puts(\""], ["mes", "sa", "messa"], ["messa", "g", "messag"], ["b", "l", "bl"], ["mpl", "e<|WB|>", "mple<|WB|>"], ["o", "o", "oo"], ["n", "a", "na"], ["c", "om", "com"], ["f", "<|WB|>", "f<|WB|>"], ["argc", "<|WB|>", "argc<|WB|>"], ["argv[", "1", "argv[1"], ["argv[1", "]", "argv[1]"], ["lin", "e<|WB|>", "line<|WB|>"], ["arg", "u", "argu"], ["argu", "men", "argumen"], ["s", "e<|WB|>", "se<|WB|>"], ["f", "a", "fa"], ["v", "id", "vid"], ["v", "a", "va"], ["s", "ho", "sho"], ["sho", "w", "show"], ["multipl", "i", "multipli"], ["n", "u", "nu"], ["nu", "m", "num"], ["num", "b", "numb"], ["t", "s<|WB|>", "ts<|WB|>"], ["r", "<|WB|>", "r<|WB|>"], ["d", "s<|WB|>", "ds<|WB|>"], ["s", "qu", "squ"], ["squ", "ar", "squar"], ["l", "<|WB|>", "l<|WB|>"], ["w", "r", "wr"], ["wr", "it", "writ"], ["t", "ex", "tex"], ["in", "c", "inc"], [">", "<|WB|>", "><|WB|>"], ["s", "i", "si"], ["ch", "ar", "char"], ["hi", "s<|WB|>", "his<|WB|>"], ["printf(\"", "H", "printf(\"H"], ["the", "re", "there"], ["greet", "ing<|WB|>", "greeting<|WB|>"], ["a", "bl", "abl"], ["an", "d<|WB|>", "and<|WB|>"], ["e", "n<|WB|>", "en<|WB|>"], ["=", "<|WB|>", "=<|WB|>"], ["\"", ";<|WB|>", "\";<|WB|>"], ["%s", "\\n\",<|WB|>", "%s\\n\",<|WB|>"], ["greet", "ing", "greeting"], ["c", "on", "con"], ["m", "s", "ms"], ["ms", "g", "msg"], ["puts", "(", "puts("], ["ar", "ra", "arra"], ["y", ".<|WB|>", "y.<|WB|>"], ["messag", "e", "message"], ["i", "v", "iv"], ["o", "n<|WB|>", "on<|WB|>"], ["com", "m", "comm"], ["st", "r", "str"], ["g", "er", "ger"], ["argv[1]", ");<|WB|>", "argv[1]);<|WB|>"], ["na", "me", "name"], ["or", "<|WB|>", "or<|WB|>"], ["d", "e", "de"], ["de", "fa", "defa"], ["defa", "ul", "defaul"], ["on", "e<|WB|>", "one<|WB|>"], ["f", "r", "fr"], ["su", "m<|WB|>", "sum<|WB|>"], ["re", "s", "res"], ["res", "ul", "resul"], ["%", "d", "%d"], ["%d", "\\n\",<|WB|>", "%d\\n\",<|WB|>"], ["t", "w", "tw"], ["o", "<|WB|>", "o<|WB|>"], ["pro", "d", "prod"], ["prod", "u", "produ"], ["produ", "c", "produc"], ["2", "1", "21"], ["su", "b", "sub"], ["sub", "t", "subt"], ["subt", "ra", "subtra"], ["subtra", "c", "subtrac"], ["p", "<|WB|>", "p<|WB|>"], ["0", ",<|WB|>", "0,<|WB|>"], ["di", "vid", "divid"], ["va", "lu", "valu"], ["qu", "o", "quo"], ["quo", "ti", "quoti"], ["quoti", "en", "quotien"], ["a", "to", "ato"], ["ato", "i", "atoi"], ["atoi", "(", "atoi("], ["re", "a", "rea"], ["it", "s<|WB|>", "its<|WB|>"], ["b", "a", "ba"], ["l", "oo", "loo"], ["i", "+", "i+"], ["i+", "+", "i++"], ["e", "a", "ea"], ["a", "ti", "ati"], ["on", ".<|WB|>", "on.<|WB|>"], ["l", "e<|WB|>", "le<|WB|>"], ["t", "er<|WB|>", "ter<|WB|>"], ["r", "un", "run"], ["s", ".<|WB|>", "s.<|WB|>"], ["g", "et", "get"], ["H", "er", "Her"], ["Her", "e<|WB|>", "Here<|WB|>"], ["i", "s<|WB|>", "is<|WB|>"], ["a", "<|WB|>", "a<|WB|>"], ["m", "in", "min"], ["min", "i", "mini"], ["mini", "ma", "minima"], ["minima", "l<|WB|>", "minimal<|WB|>"], ["pro", "g", "prog"], ["prog", "ra", "progra"], ["progra", "m<|WB|>", "program<|WB|>"], ["th", "a", "tha"], ["tha", "t<|WB|>", "that<|WB|>"], ["writ", "es<|WB|>", "writes<|WB|>"], ["s", "om", "som"], ["som", "e<|WB|>", "some<|WB|>"], ["tex", "t.<|WB|>", "text.<|WB|>"], ["#", "inc", "#inc"], ["#inc", "lu", "#inclu"], ["#inclu", "d", "#includ"], ["#includ", "e<|WB|>", "#include<|WB|>"], ["<", "st", "<st"], ["<st", "di", "<stdi"], ["<stdi", "o", "<stdio"], ["<stdio", ".", "<stdio."], ["<stdio.", "h", "<stdio.h"], ["<stdio.h", "><|WB|>", "<stdio.h><|WB|>"], ["main(", ")<|WB|>", "main()<|WB|>"], ["{", "<|WB|>", "{<|WB|>"], ["printf(\"", "Hello,<|WB|>", "printf(\"Hello,<|WB|>"], ["world!", "\\n\");<|WB|>", "world!\\n\");<|WB|>"], ["re", "t", "ret"], ["ret", "u", "retu"], ["retu", "r", "retur"], ["retur", "n<|WB|>", "return<|WB|>"], ["0", ";<|WB|>", "0;<|WB|>"], ["}", "<|WB|>", "}<|WB|>"], ["th", "e<|WB|>", "the<|WB|>"], ["si", "mpl", "simpl"], ["simpl", "e", "simple"], ["simple", "st<|WB|>", "simplest<|WB|>"], ["C", "<|WB|>", "C<|WB|>"], ["out", "put", "output"], ["output", "s<|WB|>", "outputs<|WB|>"], ["main(", "int<|WB|>", "main(int<|WB|>"], ["argc", ",<|WB|>", "argc,<|WB|>"], ["char", "<|WB|>", "char<|WB|>"], ["*", "*", "**"], ["**", "argv", "**argv"], ["**argv", ")<|WB|>", "**argv)<|WB|>"], ["printf(\"", "hello<|WB|>", "printf(\"hello<|WB|>"], ["world", "\\n\");<|WB|>", "world\\n\");<|WB|>"], ["T", "his<|WB|>", "This<|WB|>"], ["greet", "s<|WB|>", "greets<|WB|>"], ["us", "er<|WB|>", "user<|WB|>"], ["w", "it", "wit"], ["wit", "h", "with"], ["with", "<|WB|>", "with<|WB|>"], ["s", "h", "sh"], ["sh", "or", "shor"], ["shor", "t<|WB|>", "short<|WB|>"], ["p", "h", "ph"], ["ph", "ra", "phra"], ["phra", "s", "phras"], ["phras", "e.<|WB|>", "phrase.<|WB|>"], ["printf(\"H", "i<|WB|>", "printf(\"Hi<|WB|>"], ["there", "\\n\");<|WB|>", "there\\n\");<|WB|>"], ["print", "s<|WB|>", "prints<|WB|>"], ["us", "ing<|WB|>", "using<|WB|>"], ["puts", ".<|WB|>", "puts.<|WB|>"], ["*", "argv[", "*argv["], ["*argv[", "]", "*argv[]"], ["*argv[]", ")<|WB|>", "*argv[])<|WB|>"], ["puts(\"", "Hello,<|WB|>", "puts(\"Hello,<|WB|>"], ["world!", "\");<|WB|>", "world!\");<|WB|>"], ["messag", "e<|WB|>", "message<|WB|>"], ["sa", "v", "sav"], ["sav", "ed<|WB|>", "saved<|WB|>"], ["in", "<|WB|>", "in<|WB|>"], ["v", "ar", "var"], ["var", "i", "vari"], ["vari", "abl", "variabl"], ["variabl", "e<|WB|>", "variable<|WB|>"], ["the", "n<|WB|>", "then<|WB|>"], ["writ", "t", "writt"], ["writt", "en<|WB|>", "written<|WB|>"], ["out", ".<|WB|>", "out.<|WB|>"], ["main(", "v", "main(v"], ["main(v", "o", "main(vo"], ["main(vo", "id", "main(void"], ["main(void", ")<|WB|>", "main(void)<|WB|>"], ["*", "greeting<|WB|>", "*greeting<|WB|>"], ["\"", "Hello,<|WB|>", "\"Hello,<|WB|>"], ["world!", "\";<|WB|>", "world!\";<|WB|>"], ["printf(\"", "%s\\n\",<|WB|>", "printf(\"%s\\n\",<|WB|>"], ["greeting", ");<|WB|>", "greeting);<|WB|>"], ["sa", "mple<|WB|>", "sample<|WB|>"], ["k", "e", "ke"], ["ke", "e", "kee"], ["kee", "p", "keep"], ["keep", "s<|WB|>", "keeps<|WB|>"], ["con", "st", "const"], ["const", "an", "constan"], ["constan", "t<|WB|>", "constant<|WB|>"], ["it", ".<|WB|>", "it.<|WB|>"], ["con", "st<|WB|>", "const<|WB|>"], ["*", "msg", "*msg"], ["*msg", "<|WB|>", "*msg<|WB|>"], ["\"", "hello<|WB|>", "\"hello<|WB|>"], ["there", "\";<|WB|>", "there\";<|WB|>"], ["puts(", "msg", "puts(msg"], ["puts(msg", ");<|WB|>", "puts(msg);<|WB|>"], ["st", "o", "sto"], ["sto", "re", "store"], ["store", "s<|WB|>", "stores<|WB|>"], ["tex", "t<|WB|>", "text<|WB|>"], ["a", "n<|WB|>", "an<|WB|>"], ["arra", "y<|WB|>", "array<|WB|>"], ["arra", "y.<|WB|>", "array.<|WB|>"], ["message", "[", "message["], ["message[", "]", "message[]"], ["message[]", "<|WB|>", "message[]<|WB|>"], ["\"", "G", "\"G"], ["\"G", "oo", "\"Goo"], ["\"Goo", "d<|WB|>", "\"Good<|WB|>"], ["m", "or", "mor"], ["mor", "n", "morn"], ["morn", "ing", "morning"], ["morning", "!", "morning!"], ["morning!", "\\n\"", "morning!\\n\""], ["morning!\\n\"", ";<|WB|>", "morning!\\n\";<|WB|>"], ["printf", "(", "printf("], ["printf(", "message", "printf(message"], ["printf(message", ");<|WB|>", "printf(message);<|WB|>"], ["b", "y<|WB|>", "by<|WB|>"], ["na", "m", "nam"], ["nam", "e<|WB|>", "name<|WB|>"], ["g", "iv", "giv"], ["giv", "en<|WB|>", "given<|WB|>"], ["comm", "and<|WB|>", "command<|WB|>"], ["lin", "e.<|WB|>", "line.<|WB|>"], ["i", "f<|WB|>", "if<|WB|>"], ["(", "argc<|WB|>", "(argc<|WB|>"], ["<", "<|WB|>", "<<|WB|>"], ["2", ")<|WB|>", "2)<|WB|>"], ["str", "an", "stran"], ["stran", "ger", "stranger"], ["stranger", "!", "stranger!"], ["stranger!", "\\n\");<|WB|>", "stranger!\\n\");<|WB|>"], ["%s", "!", "%s!"], ["%s!", "\\n\",<|WB|>", "%s!\\n\",<|WB|>"], ["I", "t<|WB|>", "It<|WB|>"], ["f", "i", "fi"], ["fi", "r", "fir"], ["fir", "st<|WB|>", "first<|WB|>"], ["comm", "an", "comman"], ["comman", "d", "command"], ["command", "-", "command-"], ["command-", "line<|WB|>", "command-line<|WB|>"], ["argumen", "t<|WB|>", "argument<|WB|>"], ["name", ".<|WB|>", "name.<|WB|>"], ["1", ")<|WB|>", "1)<|WB|>"], ["printf(\"", "Hello", "printf(\"Hello"], ["printf(\"Hello", "<|WB|>", "printf(\"Hello<|WB|>"], ["e", "l", "el"], ["el", "se<|WB|>", "else<|WB|>"], ["n", "o", "no"], ["no", "b", "nob"], ["nob", "o", "nobo"], ["nobo", "d", "nobod"], ["nobod", "y", "nobody"], ["nobody", "\\n\");<|WB|>", "nobody\\n\");<|WB|>"], ["name", ",<|WB|>", "name,<|WB|>"], ["defaul", "t<|WB|>", "default<|WB|>"], ["n", "one<|WB|>", "none<|WB|>"], ["w", "a", "wa"], ["wa", "s<|WB|>", "was<|WB|>"], ["pro", "vid", "provid"], ["provid", "ed.<|WB|>", "provided.<|WB|>"], ["printf(\"H", "i", "printf(\"Hi"], ["printf(\"Hi", ",<|WB|>", "printf(\"Hi,<|WB|>"], ["%s", ".", "%s."], ["%s.", "\\n\",<|WB|>", "%s.\\n\",<|WB|>"], ["1", "<|WB|>", "1<|WB|>"], ["?", "<|WB|>", "?<|WB|>"], ["argv[1]", "<|WB|>", "argv[1]<|WB|>"], [":", "<|WB|>", ":<|WB|>"], ["\"", "g", "\"g"], ["\"g", "u", "\"gu"], ["\"gu", "e", "\"gue"], ["\"gue", "st", "\"guest"], ["\"guest", "\");<|WB|>", "\"guest\");<|WB|>"], ["fr", "om", "from"], ["from", "<|WB|>", "from<|WB|>"], ["w", "he", "whe"], ["whe", "n<|WB|>", "when<|WB|>"], ["a", "va", "ava"], ["ava", "i", "avai"], ["avai", "l", "avail"], ["avail", "abl", "availabl"], ["availabl", "e.<|WB|>", "available.<|WB|>"], ["puts(", "argc<|WB|>", "puts(argc<|WB|>"], ["w", "e<|WB|>", "we<|WB|>"], ["com", "put", "comput"], ["comput", "e<|WB|>", "compute<|WB|>"], ["s", "ma", "sma"], ["sma", "ll", "small"], ["small", "<|WB|>", "small<|WB|>"], ["show", "<|WB|>", "show<|WB|>"], ["resul", "t.<|WB|>", "result.<|WB|>"], ["4", ",<|WB|>", "4,<|WB|>"], ["b", "<|WB|>", "b<|WB|>"], ["7", ";<|WB|>", "7;<|WB|>"], ["printf(\"", "sum<|WB|>", "printf(\"sum<|WB|>"], ["+", "<|WB|>", "+<|WB|>"], ["b", ");<|WB|>", "b);<|WB|>"], ["multipli", "es<|WB|>", "multiplies<|WB|>"], ["tw", "o<|WB|>", "two<|WB|>"], ["numb", "er", "number"], ["number", "s<|WB|>", "numbers<|WB|>"], ["produc", "t.<|WB|>", "product.<|WB|>"], ["x", "<|WB|>", "x<|WB|>"], ["21", ",<|WB|>", "21,<|WB|>"], ["21", ";<|WB|>", "21;<|WB|>"], ["printf(\"", "%d\\n\",<|WB|>", "printf(\"%d\\n\",<|WB|>"], ["*", "<|WB|>", "*<|WB|>"], ["y", ");<|WB|>", "y);<|WB|>"], ["d", "o", "do"], ["do", "u", "dou"], ["dou", "bl", "doubl"], ["doubl", "es<|WB|>", "doubles<|WB|>"], ["numb", "er<|WB|>", "number<|WB|>"], ["1", "2", "12"], ["12", ";<|WB|>", "12;<|WB|>"], ["printf(\"", "tw", "printf(\"tw"], ["printf(\"tw", "i", "printf(\"twi"], ["printf(\"twi", "c", "printf(\"twic"], ["printf(\"twic", "e<|WB|>", "printf(\"twice<|WB|>"], ["2", ");<|WB|>", "2);<|WB|>"], ["subtrac", "ts<|WB|>", "subtracts<|WB|>"], ["an", "o", "ano"], ["ano", "the", "anothe"], ["anothe", "r<|WB|>", "another<|WB|>"], ["1", "0,<|WB|>", "10,<|WB|>"], ["q", "<|WB|>", "q<|WB|>"], ["3", ";<|WB|>", "3;<|WB|>"], ["-", "<|WB|>", "-<|WB|>"], ["q", ");<|WB|>", "q);<|WB|>"], ["divid", "e<|WB|>", "divide<|WB|>"], ["valu", "es<|WB|>", "values<|WB|>"], ["out", "p", "outp"], ["outp", "u", "outpu"], ["outpu", "t<|WB|>", "output<|WB|>"], ["4", "0,<|WB|>", "40,<|WB|>"], ["5", ";<|WB|>", "5;<|WB|>"], ["printf(\"", "quotien", "printf(\"quotien"], ["printf(\"quotien", "t<|WB|>", "printf(\"quotient<|WB|>"], ["/", "<|WB|>", "/<|WB|>"], ["t", "a", "ta"], ["ta", "k", "tak"], ["tak", "es<|WB|>", "takes<|WB|>"], ["argumen", "t", "argument"], ["argument", "s", "arguments"], ["arguments", ",<|WB|>", "arguments,<|WB|>"], ["a", "d", "ad"], ["ad", "ds<|WB|>", "adds<|WB|>"], ["the", "m", "them"], ["them", ",<|WB|>", "them,<|WB|>"], ["su", "m", "sum"], ["sum", ".<|WB|>", "sum.<|WB|>"], ["3", ")<|WB|>", "3)<|WB|>"], ["1", ";<|WB|>", "1;<|WB|>"], ["atoi(", "argv[1]);<|WB|>", "atoi(argv[1]);<|WB|>"], ["atoi(", "argv[", "atoi(argv["], ["atoi(argv[", "2", "atoi(argv[2"], ["atoi(argv[2", "]", "atoi(argv[2]"], ["atoi(argv[2]", ");<|WB|>", "atoi(argv[2]);<|WB|>"], ["T", "w", "Tw"], ["Tw", "o<|WB|>", "Two<|WB|>"], ["ar", "e<|WB|>", "are<|WB|>"], ["multipli", "ed<|WB|>", "multiplied<|WB|>"], ["di", "s", "dis"], ["dis", "pl", "displ"], ["displ", "a", "displa"], ["displa", "y", "display"], ["display", "ed.<|WB|>", "displayed.<|WB|>"], ["!", "=<|WB|>", "!=<|WB|>"], ["printf(\"", "produc", "printf(\"produc"], ["printf(\"produc", "t<|WB|>", "printf(\"product<|WB|>"], ["rea", "ds<|WB|>", "reads<|WB|>"], ["squar", "e.<|WB|>", "square.<|WB|>"], ["v", "<|WB|>", "v<|WB|>"], ["printf(\"", "squar", "printf(\"squar"], ["printf(\"squar", "e<|WB|>", "printf(\"square<|WB|>"], ["v", ");<|WB|>", "v);<|WB|>"], ["to", "<|WB|>", "to<|WB|>"], ["p", "a", "pa"], ["pa", "s", "pas"], ["pas", "s", "pass"], ["pass", "ed<|WB|>", "passed<|WB|>"], ["ba", "se<|WB|>", "base<|WB|>"], ["1", ");<|WB|>", "1);<|WB|>"], ["th", "re", "thre"], ["thre", "e<|WB|>", "three<|WB|>"], ["ti", "me", "time"], ["time", "s<|WB|>", "times<|WB|>"], ["loo", "p", "loop"], ["loop", ".<|WB|>", "loop.<|WB|>"], ["f", "or<|WB|>", "for<|WB|>"], ["(", "int<|WB|>", "(int<|WB|>"], ["i++", ")<|WB|>", "i++)<|WB|>"], ["printf(\"", "hello", "printf(\"hello"], ["printf(\"hello", "\\n\");<|WB|>", "printf(\"hello\\n\");<|WB|>"], ["us", "es<|WB|>", "uses<|WB|>"], ["loo", "p<|WB|>", "loop<|WB|>"], ["sa", "y<|WB|>", "say<|WB|>"], ["hi", "<|WB|>", "hi<|WB|>"], ["f", "iv", "fiv"], ["fiv", "e<|WB|>", "five<|WB|>"], ["ti", "mes", "times"], ["times", ".<|WB|>", "times.<|WB|>"], ["i", ";<|WB|>", "i;<|WB|>"], ["(", "i<|WB|>", "(i<|WB|>"], ["puts(\"", "hi", "puts(\"hi"], ["puts(\"hi", "\");<|WB|>", "puts(\"hi\");<|WB|>"], ["numb", "e", "numbe"], ["numbe", "re", "numbere"], ["numbere", "d<|WB|>", "numbered<|WB|>"], ["ea", "ch", "each"], ["each", "<|WB|>", "each<|WB|>"], ["it", "er", "iter"], ["iter", "ati", "iterati"], ["iterati", "on.<|WB|>", "iteration.<|WB|>"], ["printf(\"", "line<|WB|>", "printf(\"line<|WB|>"], ["i", ");<|WB|>", "i);<|WB|>"], ["A", "<|WB|>", "A<|WB|>"], ["w", "hi", "whi"], ["whi", "le<|WB|>", "while<|WB|>"], ["re", "p", "rep"], ["rep", "ea", "repea"], ["repea", "ts<|WB|>", "repeats<|WB|>"], ["un", "ti", "unti"], ["unti", "l<|WB|>", "until<|WB|>"], ["c", "o", "co"], ["co", "un", "coun"], ["coun", "ter<|WB|>", "counter<|WB|>"], ["run", "s<|WB|>", "runs<|WB|>"], ["puts(\"", "Hello", "puts(\"Hello"], ["puts(\"Hello", "\");<|WB|>", "puts(\"Hello\");<|WB|>"], ["i++", ";<|WB|>", "i++;<|WB|>"], ["s", "c", "sc"], ["sc", "re", "scre"], ["scre", "en", "screen"], ["screen", ".<|WB|>", "screen.<|WB|>"], ["t", "in", "tin"], ["tin", "y<|WB|>", "tiny<|WB|>"], ["hello", "-", "hello-"], ["hello-", "worl", "hello-worl"], ["hello-worl", "d<|WB|>", "hello-world<|WB|>"], ["ex", "a", "exa"], ["exa", "mple<|WB|>", "example<|WB|>"], ["C", ".<|WB|>", "C.<|WB|>"], ["sa", "y", "say"], ["say", "s<|WB|>", "says<|WB|>"], ["ex", "it", "exit"], ["exit", "s.<|WB|>", "exits.<|WB|>"], ["ex", "its<|WB|>", "exits<|WB|>"], ["c", "l", "cl"], ["cl", "e", "cle"], ["cle", "an", "clean"], ["clean", "l", "cleanl"], ["cleanl", "y.<|WB|>", "cleanly.<|WB|>"], ["fr", "i", "fri"], ["fri", "en", "frien"], ["frien", "d", "friend"], ["friend", "l", "friendl"], ["friendl", "y<|WB|>", "friendly<|WB|>"], ["s", "ing", "sing"], ["sing", "le<|WB|>", "single<|WB|>"], ["o", "f<|WB|>", "of<|WB|>"], ["T", "h", "Th"], ["Th", "e<|WB|>", "The<|WB|>"], ["he", "l", "hel"], ["hel", "d<|WB|>", "held<|WB|>"], ["str", "ing<|WB|>", "string<|WB|>"], ["char", "a", "chara"], ["chara", "c", "charac"], ["charac", "ter<|WB|>", "character<|WB|>"], ["ho", "l", "hol"], ["hol", "ds<|WB|>", "holds<|WB|>"], ["get", "s<|WB|>", "gets<|WB|>"], ["print", "ed.<|WB|>", "printed.<|WB|>"], ["I", "f<|WB|>", "If<|WB|>"], ["in", ",<|WB|>", "in,<|WB|>"], ["t", "his<|WB|>", "this<|WB|>"], ["i", "t<|WB|>", "it<|WB|>"], ["argumen", "ts<|WB|>", "arguments<|WB|>"], ["pr", "e", "pre"], ["pre", "s", "pres"], ["pres", "en", "presen"], ["presen", "t.<|WB|>", "present.<|WB|>"], ["fa", "ll", "fall"], ["fall", "ing<|WB|>", "falling<|WB|>"], ["ba", "c", "bac"], ["bac", "k", "back"], ["back", "<|WB|>", "back<|WB|>"], ["defaul", "t.<|WB|>", "default.<|WB|>"], ["su", "p", "sup"], ["sup", "pl", "suppl"], ["suppl", "i", "suppli"], ["suppli", "ed.<|WB|>", "supplied.<|WB|>"], ["to", "get", "toget"], ["toget", "he", "togethe"], ["togethe", "r<|WB|>", "together<|WB|>"], ["si", "mple<|WB|>", "simple<|WB|>"], ["multipli", "c", "multiplic"], ["multiplic", "ati", "multiplicati"], ["multiplicati", "on<|WB|>", "multiplication<|WB|>"], ["w", "ho", "who"], ["who", "se<|WB|>", "whose<|WB|>"], ["an", "s", "ans"], ["ans", "w", "answ"], ["answ", "er<|WB|>", "answer<|WB|>"], ["valu", "e<|WB|>", "value<|WB|>"], ["show", "n<|WB|>", "shown<|WB|>"], ["resul", "t<|WB|>", "result<|WB|>"], ["subtrac", "ti", "subtracti"], ["subtracti", "on.<|WB|>", "subtraction.<|WB|>"], ["divid", "es<|WB|>", "divides<|WB|>"], ["quotien", "t.<|WB|>", "quotient.<|WB|>"], ["int", "e", "inte"], ["inte", "ger", "integer"], ["integer", "s<|WB|>", "integers<|WB|>"], ["rea", "d<|WB|>", "read<|WB|>"], ["the", "i", "thei"], ["thei", "r<|WB|>", "their<|WB|>"], ["squar", "es<|WB|>", "squares<|WB|>"], ["inc", "re", "incre"], ["incre", "men", "incremen"], ["incremen", "t", "increment"], ["increment", "ed<|WB|>", "incremented<|WB|>"], ["on", "e.<|WB|>", "one.<|WB|>"], ["f", "e", "fe"], ["fe", "w", "few"], ["few", "<|WB|>", "few<|WB|>"], ["multipl", "e<|WB|>", "multiple<|WB|>"], ["show", "s<|WB|>", "shows<|WB|>"], ["run", "s.<|WB|>", "runs.<|WB|>"], ["print", "<|WB|>", "print<|WB|>"], ["greeting", ".<|WB|>", "greeting.<|WB|>"]], "vocab": {"0": "\u0000", "1": "\u0001", "2": "\u0002", "3": "\u0003", "4": "\u0004", "5": "\u0005", "6": "\u0006", "7": "\u0007", "8": "\b", "9": "\t", "10": "\n", "11": "\u000b", "12": "\f", "13": "\r", "14": "\u000e", "15": "\u000f", "16": "\u0010", "17": "\u0011", "18": "\u0012", "19": "\u0013", "20": "\u0014", "21": "\u0015", "22": "\u0016", "23": "\u0017", "24": "\u0018", "25": "\u0019", "26": "\u001a", "27": "\u001b", "28": "\u001c", "29": "\u001d", "30": "\u001e", "31": "\u001f", "32": " ", "33": "!", "34": "\"", "35": "#", "36": "$", "37": "%", "38": "&", "39": "'", "40": "(", "41": ")", "42": "*", "43": "+", "44": ",", "45": "-", "46": ".", "47": "/", "48": "0", "49": "1", "50": "2", "51": "3", "52": "4", "53": "5", "54": "6", "55": "7", "56": "8", "57": "9", "58": ":", "59": ";", "60": "<", "61": "=", "62": ">", "63": "?", "64": "@", "65": "A", "66": "B", "67": "C", "68": "D", "69": "E", "70": "F", "71": "G", "72": "H", "73": "I", "74": "J", "75": "K", "76": "L", "77": "M", "78": "N", "79": "O", "80": "P", "81": "Q", "82": "R", "83": "S", "84": "T", "85": "U", "86": "V", "87": "W", "88": "X", "89": "Y", "90": "Z", "91": "[", "92": "\\", "93": "]", "94": "^", "95": "_", "96": "`", "97": "a", "98": "b", "99": "c", "100": "d", "101": "e", "102": "f", "103": "g", "104": "h", "105": "i", "106": "j", "107": "k", "108": "l", "109": "m", "110": "n", "111": "o", "112": "p", "113": "q", "114": "r", "115": "s", "116": "t", "117": "u", "118": "v", "119": "w", "120": "x", "121": "y", "122": "z", "123": "{", "124": "|", "125": "}", "126": "~", "127": "\u007f", "128": "\u0080", "129": "\u0081", "130": "\u0082", "131": "\u0083", "132": "\u0084", "133": "\u0085", "134": "\u0086", "135": "\u0087", "136": "\u0088", "137": "\u0089", "138": "\u008a", "139": "\u008b", "140": "\u008c", "141": "\u008d", "142": "\u008e", "143": "\u008f", "144": "\u0090", "145": "\u0091", "146": "\u0092", "147": "\u0093", "148": "\u0094", "149": "\u0095", "150": "\u0096", "151": "\u0097", "152": "\u0098", "153": "\u0099", "154": "\u009a", "155": "\u009b", "156": "\u009c", "157": "\u009d", "158": "\u009e", "159": "\u009f", "160": "\u00a0", "161": "\u00a1", "162": "\u00a2", "163": "\u00a3", "164": "\u00a4", "165": "\u00a5", "166": "\u00a6", "167": "\u00a7", "168": "\u00a8", "169": "\u00a9", "170": "\u00aa", "171": "\u00ab", "172": "\u00ac", "173": "\u00ad", "174": "\u00ae", "175": "\u00af", "176": "\u00b0", "177": "\u00b1", "178": "\u00b2", "179": "\u00b3", "180": "\u00b4", "181": "\u00b5", "182": "\u00b6", "183": "\u00b7", "184": "\u00b8", "185": "\u00b9", "186": "\u00ba", "187": "\u00bb", "188": "\u00bc", "189": "\u00bd", "190": "\u00be", "191": "\u00bf", "192": "\u00c0", "193": "\u00c1", "194": "\u00c2", "195": "\u00c3", "196": "\u00c4", "197": "\u00c5", "198": "\u00c6", "199": "\u00c7", "200": "\u00c8", "201": "\u00c9", "202": "\u00ca", "203": "\u00cb", "204": "\u00cc", "205": "\u00cd", "206": "\u00ce", "207": "\u00cf", "208": "\u00d0", "209": "\u00d1", "210": "\u00d2", "211": "\u00d3", "212": "\u00d4", "213": "\u00d5", "214": "\u00d6", "215": "\u00d7", "216": "\u00d8", "217": "\u00d9", "218": "\u00da", "219": "\u00db", "220": "\u00dc", "221": "\u00dd", "222": "\u00de", "223": "\u00df", "224": "\u00e0", "225": "\u00e1", "226": "\u00e2", "227": "\u00e3", "228": "\u00e4", "229": "\u00e5", "230": "\u00e6", "231": "\u00e7", "232": "\u00e8", "233": "\u00e9", "234": "\u00ea", "235": "\u00eb", "236": "\u00ec", "237": "\u00ed", "238": "\u00ee", "239": "\u00ef", "240": "\u00f0", "241": "\u00f1", "242": "\u00f2", "243": "\u00f3", "244": "\u00f4", "245": "\u00f5", "246": "\u00f6", "247": "\u00f7", "248": "\u00f8", "249": "\u00f9", "250": "\u00fa", "251": "\u00fb", "252": "\u00fc", "253": "\u00fd", "254": "\u00fe", "255": "\u00ff", "256": "<|EOS|>", "257": "<|WB|>", "258": "in", "259": ";<|WB|>", "260": "s<|WB|>", "261": "e<|WB|>", "262": ".<|WB|>", "263": "pr", "264": ");<|WB|>", "265": "int", "266": "ar", "267": ",<|WB|>", "268": "print", "269": "re", "270": "(\"", "271": "t<|WB|>", "272": "printf", "273": "printf(\"", "274": "he", "275": "\\n", "276": "\\n\"", "277": "arg", "278": "ll", "279": "ti", "280": "ut", "281": "me", "282": "d<|WB|>", "283": "er", "284": "llo", "285": "n<|WB|>", "286": "pl", "287": "or", "288": "ing", "289": "it", "290": "es<|WB|>", "291": ")<|WB|>", "292": "put", "293": "an", "294": "ul", "295": "et", "296": "sa", "297": "on", "298": "ra", "299": "t.<|WB|>", "300": "st", "301": "\\n\");<|WB|>", "302": "argv", "303": "the", "304": "puts", "305": "\\n\",<|WB|>", "306": "y<|WB|>", "307": "su", "308": "ma", "309": "om", "310": "ex", "311": "He", "312": "Hello", "313": "wor", "314": "worl", "315": "hello", "316": "hi", "317": "gre", "318": "greet", "319": "er<|WB|>", "320": "e.<|WB|>", "321": "ing<|WB|>", "322": "argv[", "323": "ho", "324": "qu", "325": "en", "326": "pro", "327": "di", "328": "world", "329": "mpl", "330": "argc", "331": "\");<|WB|>", "332": "mes", "333": "ed<|WB|>", "334": "id", "335": "%s", "336": "lin", "337": "men", "338": "ed", "339": "ed.<|WB|>", "340": "mul", "341": "multi", "342": "multipl", "343": "to", "344": "un", "345": "m<|WB|>", "346": "th", "347": "lu", "348": "int<|WB|>", "349": "main", "350": "main(", "351": "Hello,<|WB|>", "352": "world!", "353": "st<|WB|>", "354": "out", "355": "ch", "356": "hello<|WB|>", "357": "us", "358": "i<|WB|>", "359": "puts(\"", "360": "messa", "361": "messag", "362": "bl", "363": "mple<|WB|>", "364": "oo", "365": "na", "366": "com", "367": "f<|WB|>", "368": "argc<|WB|>", "369": "argv[1", "370": "argv[1]", "371": "line<|WB|>", "372": "argu", "373": "argumen", "374": "se<|WB|>", "375": "fa", "376": "vid", "377": "va", "378": "sho", "379": "show", "380": "multipli", "381": "nu", "382": "num", "383": "numb", "384": "ts<|WB|>", "385": "r<|WB|>", "386": "ds<|WB|>", "387": "squ", "388": "squar", "389": "l<|WB|>", "390": "wr", "391": "writ", "392": "tex", "393": "inc", "394": "><|WB|>", "395": "si", "396": "char", "397": "his<|WB|>", "398": "printf(\"H", "399": "there", "400": "greeting<|WB|>", "401": "abl", "402": "and<|WB|>", "403": "en<|WB|>", "404": "=<|WB|>", "405": "\";<|WB|>", "406": "%s\\n\",<|WB|>", "407": "greeting", "408": "con", "409": "ms", "410": "msg", "411": "puts(", "412": "arra", "413": "y.<|WB|>", "414": "message", "415": "iv", "416": "on<|WB|>", "417": "comm", "418": "str", "419": "ger", "420": "argv[1]);<|WB|>", "421": "name", "422": "or<|WB|>", "423": "de", "424": "defa", "425": "defaul", "426": "one<|WB|>", "427": "fr", "428": "sum<|WB|>", "429": "res", "430": "resul", "431": "%d", "432": "%d\\n\",<|WB|>", "433": "tw", "434": "o<|WB|>", "435": "prod", "436": "produ", "437": "produc", "438": "21", "439": "sub", "440": "subt", "441": "subtra", "442": "subtrac", "443": "p<|WB|>", "444": "0,<|WB|>", "445": "divid", "446": "valu", "447": "quo", "448": "quoti", "449": "quotien", "450": "ato", "451": "atoi", "452": "atoi(", "453": "rea", "454": "its<|WB|>", "455": "ba", "456": "loo", "457": "i+", "458": "i++", "459": "ea", "460": "ati", "461": "on.<|WB|>", "462": "le<|WB|>", "463": "ter<|WB|>", "464": "run", "465": "s.<|WB|>", "466": "get", "467": "Her", "468": "Here<|WB|>", "469": "is<|WB|>", "470": "a<|WB|>", "471": "min", "472": "mini", "473": "minima", "474": "minimal<|WB|>", "475": "prog", "476": "progra", "477": "program<|WB|>", "478": "tha", "479": "that<|WB|>", "480": "writes<|WB|>", "481": "som", "482": "some<|WB|>", "483": "text.<|WB|>", "484": "#inc", "485": "#inclu", "486": "#includ", "487": "#include<|WB|>", "488": "<st", "489": "<stdi", "490": "<stdio", "491": "<stdio.", "492": "<stdio.h", "493": "<stdio.h><|WB|>", "494": "main()<|WB|>", "495": "{<|WB|>", "496": "printf(\"Hello,<|WB|>", "497": "world!\\n\");<|WB|>", "498": "ret", "499": "retu", "500": "retur", "501": "return<|WB|>", "502": "0;<|WB|>", "503": "}<|WB|>", "504": "the<|WB|>", "505": "simpl", "506": "simple", "507": "simplest<|WB|>", "508": "C<|WB|>", "509": "output", "510": "outputs<|WB|>", "511": "main(int<|WB|>", "512": "argc,<|WB|>", "513": "char<|WB|>", "514": "**", "515": "**argv", "516": "**argv)<|WB|>", "517": "printf(\"hello<|WB|>", "518": "world\\n\");<|WB|>", "519": "This<|WB|>", "520": "greets<|WB|>", "521": "user<|WB|>", "522": "wit", "523": "with", "524": "with<|WB|>", "525": "sh", "526": "shor", "527": "short<|WB|>", "528": "ph", "529": "phra", "530": "phras", "531": "phrase.<|WB|>", "532": "printf(\"Hi<|WB|>", "533": "there\\n\");<|WB|>", "534": "prints<|WB|>", "535": "using<|WB|>", "536": "puts.<|WB|>", "537": "*argv[", "538": "*argv[]", "539": "*argv[])<|WB|>", "540": "puts(\"Hello,<|WB|>", "541": "world!\");<|WB|>", "542": "message<|WB|>", "543": "sav", "544": "saved<|WB|>", "545": "in<|WB|>", "546": "var", "547": "vari", "548": "variabl", "549": "variable<|WB|>", "550": "then<|WB|>", "551": "writt", "552": "written<|WB|>", "553": "out.<|WB|>", "554": "main(v", "555": "main(vo", "556": "main(void", "557": "main(void)<|WB|>", "558": "*greeting<|WB|>", "559": "\"Hello,<|WB|>", "560": "world!\";<|WB|>", "561": "printf(\"%s\\n\",<|WB|>", "562": "greeting);<|WB|>", "563": "sample<|WB|>", "564": "ke", "565": "kee", "566": "keep", "567": "keeps<|WB|>", "568": "const", "569": "constan", "570": "constant<|WB|>", "571": "it.<|WB|>", "572": "const<|WB|>", "573": "*msg", "574": "*msg<|WB|>", "575": "\"hello<|WB|>", "576": "there\";<|WB|>", "577": "puts(msg", "578": "puts(msg);<|WB|>", "579": "sto", "580": "store", "581": "stores<|WB|>", "582": "text<|WB|>", "583": "an<|WB|>", "584": "array<|WB|>", "585": "array.<|WB|>", "586": "message[", "587": "message[]", "588": "message[]<|WB|>", "589": "\"G", "590": "\"Goo", "591": "\"Good<|WB|>", "592": "mor", "593": "morn", "594": "morning", "595": "morning!", "596": "morning!\\n\"", "597": "morning!\\n\";<|WB|>", "598": "printf(", "599": "printf(message", "600": "printf(message);<|WB|>", "601": "by<|WB|>", "602": "nam", "603": "name<|WB|>", "604": "giv", "605": "given<|WB|>", "606": "command<|WB|>", "607": "line.<|WB|>", "608": "if<|WB|>", "609": "(argc<|WB|>", "610": "<<|WB|>", "611": "2)<|WB|>", "612": "stran", "613": "stranger", "614": "stranger!", "615": "stranger!\\n\");<|WB|>", "616": "%s!", "617": "%s!\\n\",<|WB|>", "618": "It<|WB|>", "619": "fi", "620": "fir", "621": "first<|WB|>", "622": "comman", "623": "command", "624": "command-", "625": "command-line<|WB|>", "626": "argument<|WB|>", "627": "name.<|WB|>", "628": "1)<|WB|>", "629": "printf(\"Hello", "630": "printf(\"Hello<|WB|>", "631": "el", "632": "else<|WB|>", "633": "no", "634": "nob", "635": "nobo", "636": "nobod", "637": "nobody", "638": "nobody\\n\");<|WB|>", "639": "name,<|WB|>", "640": "default<|WB|>", "641": "none<|WB|>", "642": "wa", "643": "was<|WB|>", "644": "provid", "645": "provided.<|WB|>", "646": "printf(\"Hi", "647": "printf(\"Hi,<|WB|>", "648": "%s.", "649": "%s.\\n\",<|WB|>", "650": "1<|WB|>", "651": "?<|WB|>", "652": "argv[1]<|WB|>", "653": ":<|WB|>", "654": "\"g", "655": "\"gu", "656": "\"gue", "657": "\"guest", "658": "\"guest\");<|WB|>", "659": "from", "660": "from<|WB|>", "661": "whe", "662": "when<|WB|>", "663": "ava", "664": "avai", "665": "avail", "666": "availabl", "667": "available.<|WB|>", "668": "puts(argc<|WB|>", "669": "we<|WB|>", "670": "comput", "671": "compute<|WB|>", "672": "sma", "673": "small", "674": "small<|WB|>", "675": "show<|WB|>", "676": "result.<|WB|>", "677": "4,<|WB|>", "678": "b<|WB|>", "679": "7;<|WB|>", "680": "printf(\"sum<|WB|>", "681": "+<|WB|>", "682": "b);<|WB|>", "683": "multiplies<|WB|>", "684": "two<|WB|>", "685": "number", "686": "numbers<|WB|>", "687": "product.<|WB|>", "688": "x<|WB|>", "689": "21,<|WB|>", "690": "21;<|WB|>", "691": "printf(\"%d\\n\",<|WB|>", "692": "*<|WB|>", "693": "y);<|WB|>", "694": "do", "695": "dou", "696": "doubl", "697": "doubles<|WB|>", "698": "number<|WB|>", "699": "12", "700": "12;<|WB|>", "701": "printf(\"tw", "702": "printf(\"twi", "703": "printf(\"twic", "704": "printf(\"twice<|WB|>", "705": "2);<|WB|>", "706": "subtracts<|WB|>", "707": "ano", "708": "anothe", "709": "another<|WB|>", "710": "10,<|WB|>", "711": "q<|WB|>", "712": "3;<|WB|>", "713": "-<|WB|>", "714": "q);<|WB|>", "715": "divide<|WB|>", "716": "values<|WB|>", "717": "outp", "718": "outpu", "719": "output<|WB|>", "720": "40,<|WB|>", "721": "5;<|WB|>", "722": "printf(\"quotien", "723": "printf(\"quotient<|WB|>", "724": "/<|WB|>", "725": "ta", "726": "tak", "727": "takes<|WB|>", "728": "argument", "729": "arguments", "730": "arguments,<|WB|>", "731": "ad", "732": "adds<|WB|>", "733": "them", "734": "them,<|WB|>", "735": "sum", "736": "sum.<|WB|>", "737": "3)<|WB|>", "738": "1;<|WB|>", "739": "atoi(argv[1]);<|WB|>", "740": "atoi(argv[", "741": "atoi(argv[2", "742": "atoi(argv[2]", "743": "atoi(argv[2]);<|WB|>", "744": "Tw", "745": "Two<|WB|>", "746": "are<|WB|>", "747": "multiplied<|WB|>", "748": "dis", "749": "displ", "750": "displa", "751": "display", "752": "displayed.<|WB|>", "753": "!=<|WB|>", "754": "printf(\"produc", "755": "printf(\"product<|WB|>", "756": "reads<|WB|>", "757": "square.<|WB|>", "758": "v<|WB|>", "759": "printf(\"squar", "760": "printf(\"square<|WB|>", "761": "v);<|WB|>", "762": "to<|WB|>", "763": "pa", "764": "pas", "765": "pass", "766": "passed<|WB|>", "767": "base<|WB|>", "768": "1);<|WB|>", "769": "thre", "770": "three<|WB|>", "771": "time", "772": "times<|WB|>", "773": "loop", "774": "loop.<|WB|>", "775": "for<|WB|>", "776": "(int<|WB|>", "777": "i++)<|WB|>", "778": "printf(\"hello", "779": "printf(\"hello\\n\");<|WB|>", "780": "uses<|WB|>", "781": "loop<|WB|>", "782": "say<|WB|>", "783": "hi<|WB|>", "784": "fiv", "785": "five<|WB|>", "786": "times", "787": "times.<|WB|>", "788": "i;<|WB|>", "789": "(i<|WB|>", "790": "puts(\"hi", "791": "puts(\"hi\");<|WB|>", "792": "numbe", "793": "numbere", "794": "numbered<|WB|>", "795": "each", "796": "each<|WB|>", "797": "iter", "798": "iterati", "799": "iteration.<|WB|>", "800": "printf(\"line<|WB|>", "801": "i);<|WB|>", "802": "A<|WB|>", "803": "whi", "804": "while<|WB|>", "805": "rep", "806": "repea", "807": "repeats<|WB|>", "808": "unti", "809": "until<|WB|>", "810": "co", "811": "coun", "812": "counter<|WB|>", "813": "runs<|WB|>", "814": "puts(\"Hello", "815": "puts(\"Hello\");<|WB|>", "816": "i++;<|WB|>", "817": "sc", "818": "scre", "819": "screen", "820": "screen.<|WB|>", "821": "tin", "822": "tiny<|WB|>", "823": "hello-", "824": "hello-worl", "825": "hello-world<|WB|>", "826": "exa", "827": "example<|WB|>", "828": "C.<|WB|>", "829": "say", "830": "says<|WB|>", "831": "exit", "832": "exits.<|WB|>", "833": "exits<|WB|>", "834": "cl", "835": "cle", "836": "clean", "837": "cleanl", "838": "cleanly.<|WB|>", "839": "fri", "840": "frien", "841": "friend", "842": "friendl", "843": "friendly<|WB|>", "844": "sing", "845": "single<|WB|>", "846": "of<|WB|>", "847": "Th", "848": "The<|WB|>", "849": "hel", "850": "held<|WB|>", "851": "string<|WB|>", "852": "chara", "853": "charac", "854": "character<|WB|>", "855": "hol", "856": "holds<|WB|>", "857": "gets<|WB|>", "858": "printed.<|WB|>", "859": "If<|WB|>", "860": "in,<|WB|>", "861": "this<|WB|>", "862": "it<|WB|>", "863": "arguments<|WB|>", "864": "pre", "865": "pres", "866": "presen", "867": "present.<|WB|>", "868": "fall", "869": "falling<|WB|>", "870": "bac", "871": "back", "872": "back<|WB|>", "873": "default.<|WB|>", "874": "sup", "875": "suppl", "876": "suppli", "877": "supplied.<|WB|>", "878": "toget", "879": "togethe", "880": "together<|WB|>", "881": "simple<|WB|>", "882": "multiplic", "883": "multiplicati", "884": "multiplication<|WB|>", "885": "who", "886": "whose<|WB|>", "887": "ans", "888": "answ", "889": "answer<|WB|>", "890": "value<|WB|>", "891": "shown<|WB|>", "892": "result<|WB|>", "893": "subtracti", "894": "subtraction.<|WB|>", "895": "divides<|WB|>", "896": "quotient.<|WB|>", "897": "inte", "898": "integer", "899": "integers<|WB|>", "900": "read<|WB|>", "901": "thei", "902": "their<|WB|>", "903": "squares<|WB|>", "904": "incre", "905": "incremen", "906": "increment", "907": "incremented<|WB|>", "908": "one.<|WB|>", "909": "fe", "910": "few", "911": "few<|WB|>", "912": "multiple<|WB|>", "913": "shows<|WB|>", "914": "runs.<|WB|>", "915": "print<|WB|>", "916": "greeting.<|WB|>"}, "inverse_vocab": {"\u0000": 0, "\u0001": 1, "\u0002": 2, "\u0003": 3, "\u0004": 4, "\u0005": 5, "\u0006": 6, "\u0007": 7, "\b": 8, "\t": 9, "\n": 10, "\u000b": 11, "\f": 12, "\r": 13, "\u000e": 14, "\u000f": 15, "\u0010": 16, "\u0011": 17, "\u0012": 18, "\u0013": 19, "\u0014": 20, "\u0015": 21, "\u0016": 22, "\u0017": 23, "\u0018": 24, "\u0019": 25, "\u001a": 26, "\u001b": 27, "\u001c": 28, "\u001d": 29, "\u001e": 30, "\u001f": 31, " ": 32, "!": 33, "\"": 34, "#": 35, "$": 36, "%": 37, "&": 38, "'": 39, "(": 40, ")": 41, "*": 42, "+": 43, ",": 44, "-": 45, ".": 46, "/": 47, "0": 48, "1": 49, "2": 50, "3": 51, "4": 52, "5": 53, "6": 54, "7": 55, "8": 56, "9": 57, ":": 58, ";": 59, "<": 60, "=": 61, ">": 62, "?": 63, "@": 64, "A": 65, "B": 66, "C": 67, "D": 68, "E": 69, "F": 70, "G": 71, "H": 72, "I": 73, "J": 74, "K": 75, "L": 76, "M": 77, "N": 78, "O": 79, "P": 80, "Q": 81, "R": 82, "S": 83, "T": 84, "U": 85, "V": 86, "W": 87, "X": 88, "Y": 89, "Z": 90, "[": 91, "\\": 92, "]": 93, "^": 94, "_": 95, "`": 96, "a": 97, "b": 98, "c": 99, "d": 100, "e": 101, "f": 102, "g": 103, "h": 104, "i": 105, "j": 106, "k": 107, "l": 108, "m": 109, "n": 110, "o": 111, "p": 112, "q": 113, "r": 114, "s": 115, "t": 116, "u": 117, "v": 118, "w": 119, "x": 120, "y": 121, "z": 122, "{": 123, "|": 124, "}": 125, "~": 126, "\u007f": 127, "\u0080": 128, "\u0081": 129, "\u0082": 130, "\u0083": 131, "\u0084": 132, "\u0085": 133, "\u0086": 134, "\u0087": 135, "\u0088": 136, "\u0089": 137, "\u008a": 138, "\u008b": 139, "\u008c": 140, "\u008d": 141, "\u008e": 142, "\u008f": 143, "\u0090": 144, "\u0091": 145, "\u0092": 146, "\u0093": 147, "\u0094": 148, "\u0095": 149, "\u0096": 150, "\u0097": 151, "\u0098": 152, "\u0099": 153, "\u009a": 154, "\u009b": 155, "\u009c": 156, "\u009d": 157, "\u009e": 158, "\u009f": 159, "\u00a0": 160, "\u00a1": 161, "\u00a2": 162, "\u00a3": 163, "\u00a4": 164, "\u00a5": 165, "\u00a6": 166, "\u00a7": 167, "\u00a8": 168, "\u00a9": 169, "\u00aa": 170, "\u00ab": 171, "\u00ac": 172, "\u00ad": 173, "\u00ae": 174, "\u00af": 175, "\u00b0": 176, "\u00b1": 177, "\u00b2": 178, "\u00b3": 179, "\u00b4": 180, "\u00b5": 181, "\u00b6": 182, "\u00b7": 183, "\u00b8": 184, "\u00b9": 185, "\u00ba": 186, "\u00bb": 187, "\u00bc": 188, "\u00bd": 189, "\u00be": 190, "\u00bf": 191, "\u00c0": 192, "\u00c1": 193, "\u00c2": 194, "\u00c3": 195, "\u00c4": 196, "\u00c5": 197, "\u00c6": 198, "\u00c7": 199, "\u00c8": 200, "\u00c9": 201, "\u00ca": 202, "\u00cb": 203, "\u00cc": 204, "\u00cd": 205, "\u00ce": 206, "\u00cf": 207, "\u00d0": 208, "\u00d1": 209, "\u00d2": 210, "\u00d3": 211, "\u00d4": 212, "\u00d5": 213, "\u00d6": 214, "\u00d7": 215, "\u00d8": 216, "\u00d9": 217, "\u00da": 218, "\u00db": 219, "\u00dc": 220, "\u00dd": 221, "\u00de": 222, "\u00df": 223, "\u00e0": 224, "\u00e1": 225, "\u00e2": 226, "\u00e3": 227, "\u00e4": 228, "\u00e5": 229, "\u00e6": 230, "\u00e7": 231, "\u00e8": 232, "\u00e9": 233, "\u00ea": 234, "\u00eb": 235, "\u00ec": 236, "\u00ed": 237, "\u00ee": 238, "\u00ef": 239, "\u00f0": 240, "\u00f1": 241, "\u00f2": 242, "\u00f3": 243, "\u00f4": 244, "\u00f5": 245, "\u00f6": 246, "\u00f7": 247, "\u00f8": 248, "\u00f9": 249, "\u00fa": 250, "\u00fb": 251, "\u00fc": 252, "\u00fd": 253, "\u00fe": 254, "\u00ff": 255, "<|EOS|>": 256, "<|WB|>": 257, "in": 258, ";<|WB|>": 259, "s<|WB|>": 260, "e<|WB|>": 261, ".<|WB|>": 262, "pr": 263, ");<|WB|>": 264, "int": 265, "ar": 266, ",<|WB|>": 267, "print": 268, "re": 269, "(\"": 270, "t<|WB|>": 271, "printf": 272, "printf(\"": 273, "he": 274, "\\n": 275, "\\n\"": 276, "arg": 277, "ll": 278, "ti": 279, "ut": 280, "me": 281, "d<|WB|>": 282, "er": 283, "llo": 284, "n<|WB|>": 285, "pl": 286, "or": 287, "ing": 288, "it": 289, "es<|WB|>": 290, ")<|WB|>": 291, "put": 292, "an": 293, "ul": 294, "et": 295, "sa": 296, "on": 297, "ra": 298, "t.<|WB|>": 299, "st": 300, "\\n\");<|WB|>": 301, "argv": 302, "the": 303, "puts": 304, "\\n\",<|WB|>": 305, "y<|WB|>": 306, "su": 307, "ma": 308, "om": 309, "ex": 310, "He": 311, "Hello": 312, "wor": 313, "worl": 314, "hello": 315, "hi": 316, "gre": 317, "greet": 318, "er<|WB|>": 319, "e.<|WB|>": 320, "ing<|WB|>": 321, "argv[": 322, "ho": 323, "qu": 324, "en": 325, "pro": 326, "di": 327, "world": 328, "mpl": 329, "argc": 330, "\");<|WB|>": 331, "mes": 332, "ed<|WB|>": 333, "id": 334, "%s": 335, "lin": 336, "men": 337, "ed": 338, "ed.<|WB|>": 339, "mul": 340, "multi": 341, "multipl": 342, "to": 343, "un": 344, "m<|WB|>": 345, "th": 346, "lu": 347, "int<|WB|>": 348, "main": 349, "main(": 350, "Hello,<|WB|>": 351, "world!": 352, "st<|WB|>": 353, "out": 354, "ch": 355, "hello<|WB|>": 356, "us": 357, "i<|WB|>": 358, "puts(\"": 359, "messa": 360, "messag": 361, "bl": 362, "mple<|WB|>": 363, "oo": 364, "na": 365, "com": 366, "f<|WB|>": 367, "argc<|WB|>": 368, "argv[1": 369, "argv[1]": 370, "line<|WB|>": 371, "argu": 372, "argumen": 373, "se<|WB|>": 374, "fa": 375, "vid": 376, "va": 377, "sho": 378, "show": 379, "multipli": 380, "nu": 381, "num": 382, "numb": 383, "ts<|WB|>": 384, "r<|WB|>": 385, "ds<|WB|>": 386, "squ": 387, "squar": 388, "l<|WB|>": 389, "wr": 390, "writ": 391, "tex": 392, "inc": 393, "><|WB|>": 394, "si": 395, "char": 396, "his<|WB|>": 397, "printf(\"H": 398, "there": 399, "greeting<|WB|>": 400, "abl": 401, "and<|WB|>": 402, "en<|WB|>": 403, "=<|WB|>": 404, "\";<|WB|>": 405, "%s\\n\",<|WB|>": 406, "greeting": 407, "con": 408, "ms": 409, "msg": 410, "puts(": 411, "arra": 412, "y.<|WB|>": 413, "message": 414, "iv": 415, "on<|WB|>": 416, "comm": 417, "str": 418, "ger": 419, "argv[1]);<|WB|>": 420, "name": 421, "or<|WB|>": 422, "de": 423, "defa": 424, "defaul": 425, "one<|WB|>": 426, "fr": 427, "sum<|WB|>": 428, "res": 429, "resul": 430, "%d": 431, "%d\\n\",<|WB|>": 432, "tw": 433, "o<|WB|>": 434, "prod": 435, "produ": 436, "produc": 437, "21": 438, "sub": 439, "subt": 440, "subtra": 441, "subtrac": 442, "p<|WB|>": 443, "0,<|WB|>": 444, "divid": 445, "valu": 446, "quo": 447, "quoti": 448, "quotien": 449, "ato": 450, "atoi": 451, "atoi(": 452, "rea": 453, "its<|WB|>": 454, "ba": 455, "loo": 456, "i+": 457, "i++": 458, "ea": 459, "ati": 460, "on.<|WB|>": 461, "le<|WB|>": 462, "ter<|WB|>": 463, "run": 464, "s.<|WB|>": 465, "get": 466, "Her": 467, "Here<|WB|>": 468, "is<|WB|>": 469, "a<|WB|>": 470, "min": 471, "mini": 472, "minima": 473, "minimal<|WB|>": 474, "prog": 475, "progra": 476, "program<|WB|>": 477, "tha": 478, "that<|WB|>": 479, "writes<|WB|>": 480, "som": 481, "some<|WB|>": 482, "text.<|WB|>": 483, "#inc": 484, "#inclu": 485, "#includ": 486, "#include<|WB|>": 487, "<st": 488, "<stdi": 489, "<stdio": 490, "<stdio.": 491, "<stdio.h": 492, "<stdio.h><|WB|>": 493, "main()<|WB|>": 494, "{<|WB|>": 495, "printf(\"Hello,<|WB|>": 496, "world!\\n\");<|WB|>": 497, "ret": 498, "retu": 499, "retur": 500, "return<|WB|>": 501, "0;<|WB|>": 502, "}<|WB|>": 503, "the<|WB|>": 504, "simpl": 505, "simple": 506, "simplest<|WB|>": 507, "C<|WB|>": 508, "output": 509, "outputs<|WB|>": 510, "main(int<|WB|>": 511, "argc,<|WB|>": 512, "char<|WB|>": 513, "**": 514, "**argv": 515, "**argv)<|WB|>": 516, "printf(\"hello<|WB|>": 517, "world\\n\");<|WB|>": 518, "This<|WB|>": 519, "greets<|WB|>": 520, "user<|WB|>": 521, "wit": 522, "with": 523, "with<|WB|>": 524, "sh": 525, "shor": 526, "short<|WB|>": 527, "ph": 528, "phra": 529, "phras": 530, "phrase.<|WB|>": 531, "printf(\"Hi<|WB|>": 532, "there\\n\");<|WB|>": 533, "prints<|WB|>": 534, "using<|WB|>": 535, "puts.<|WB|>": 536, "*argv[": 537, "*argv[]": 538, "*argv[])<|WB|>": 539, "puts(\"Hello,<|WB|>": 540, "world!\");<|WB|>": 541, "message<|WB|>": 542, "sav": 543, "saved<|WB|>": 544, "in<|WB|>": 545, "var": 546, "vari": 547, "variabl": 548, "variable<|WB|>": 549, "then<|WB|>": 550, "writt": 551, "written<|WB|>": 552, "out.<|WB|>": 553, "main(v": 554, "main(vo": 555, "main(void": 556, "main(void)<|WB|>": 557, "*greeting<|WB|>": 558, "\"Hello,<|WB|>": 559, "world!\";<|WB|>": 560, "printf(\"%s\\n\",<|WB|>": 561, "greeting);<|WB|>": 562, "sample<|WB|>": 563, "ke": 564, "kee": 565, "keep": 566, "keeps<|WB|>": 567, "const": 568, "constan": 569, "constant<|WB|>": 570, "it.<|WB|>": 571, "const<|WB|>": 572, "*msg": 573, "*msg<|WB|>": 574, "\"hello<|WB|>": 575, "there\";<|WB|>": 576, "puts(msg": 577, "puts(msg);<|WB|>": 578, "sto": 579, "store": 580, "stores<|WB|>": 581, "text<|WB|>": 582, "an<|WB|>": 583, "array<|WB|>": 584, "array.<|WB|>": 585, "message[": 586, "message[]": 587, "message[]<|WB|>": 588, "\"G": 589, "\"Goo": 590, "\"Good<|WB|>": 591, "mor": 592, "morn": 593, "morning": 594, "morning!": 595, "morning!\\n\"": 596, "morning!\\n\";<|WB|>": 597, "printf(": 598, "printf(message": 599, "printf(message);<|WB|>": 600, "by<|WB|>": 601, "nam": 602, "name<|WB|>": 603, "giv": 604, "given<|WB|>": 605, "command<|WB|>": 606, "line.<|WB|>": 607, "if<|WB|>": 608, "(argc<|WB|>": 609, "<<|WB|>": 610, "2)<|WB|>": 611, "stran": 612, "stranger": 613, "stranger!": 614, "stranger!\\n\");<|WB|>": 615, "%s!": 616, "%s!\\n\",<|WB|>": 617, "It<|WB|>": 618, "fi": 619, "fir": 620, "first<|WB|>": 621, "comman": 622, "command": 623, "command-": 624, "command-line<|WB|>": 625, "argument<|WB|>": 626, "name.<|WB|>": 627, "1)<|WB|>": 628, "printf(\"Hello": 629, "printf(\"Hello<|WB|>": 630, "el": 631, "else<|WB|>": 632, "no": 633, "nob": 634, "nobo": 635, "nobod": 636, "nobody": 637, "nobody\\n\");<|WB|>": 638, "name,<|WB|>": 639, "default<|WB|>": 640, "none<|WB|>": 641, "wa": 642, "was<|WB|>": 643, "provid": 644, "provided.<|WB|>": 645, "printf(\"Hi": 646, "printf(\"Hi,<|WB|>": 647, "%s.": 648, "%s.\\n\",<|WB|>": 649, "1<|WB|>": 650, "?<|WB|>": 651, "argv[1]<|WB|>": 652, ":<|WB|>": 653, "\"g": 654, "\"gu": 655, "\"gue": 656, "\"guest": 657, "\"guest\");<|WB|>": 658, "from": 659, "from<|WB|>": 660, "whe": 661, "when<|WB|>": 662, "ava": 663, "avai": 664, "avail": 665, "availabl": 666, "available.<|WB|>": 667, "puts(argc<|WB|>": 668, "we<|WB|>": 669, "comput": 670, "compute<|WB|>": 671, "sma": 672, "small": 673, "small<|WB|>": 674, "show<|WB|>": 675, "result.<|WB|>": 676, "4,<|WB|>": 677, "b<|WB|>": 678, "7;<|WB|>": 679, "printf(\"sum<|WB|>": 680, "+<|WB|>": 681, "b);<|WB|>": 682, "multiplies<|WB|>": 683, "two<|WB|>": 684, "number": 685, "numbers<|WB|>": 686, "product.<|WB|>": 687, "x<|WB|>": 688, "21,<|WB|>": 689, "21;<|WB|>": 690, "printf(\"%d\\n\",<|WB|>": 691, "*<|WB|>": 692, "y);<|WB|>": 693, "do": 694, "dou": 695, "doubl": 696, "doubles<|WB|>": 697, "number<|WB|>": 698, "12": 699, "12;<|WB|>": 700, "printf(\"tw": 701, "printf(\"twi": 702, "printf(\"twic": 703, "printf(\"twice<|WB|>": 704, "2);<|WB|>": 705, "subtracts<|WB|>": 706, "ano": 707, "anothe": 708, "another<|WB|>": 709, "10,<|WB|>": 710, "q<|WB|>": 711, "3;<|WB|>": 712, "-<|WB|>": 713, "q);<|WB|>": 714, "divide<|WB|>": 715, "values<|WB|>": 716, "outp": 717, "outpu": 718, "output<|WB|>": 719, "40,<|WB|>": 720, "5;<|WB|>": 721, "printf(\"quotien": 722, "printf(\"quotient<|WB|>": 723, "/<|WB|>": 724, "ta": 725, "tak": 726, "takes<|WB|>": 727, "argument": 728, "arguments": 729, "arguments,<|WB|>": 730, "ad": 731, "adds<|WB|>": 732, "them": 733, "them,<|WB|>": 734, "sum": 735, "sum.<|WB|>": 736, "3)<|WB|>": 737, "1;<|WB|>": 738, "atoi(argv[1]);<|WB|>": 739, "atoi(argv[": 740, "atoi(argv[2": 741, "atoi(argv[2]": 742, "atoi(argv[2]);<|WB|>": 743, "Tw": 744, "Two<|WB|>": 745, "are<|WB|>": 746, "multiplied<|WB|>": 747, "dis": 748, "displ": 749, "displa": 750, "display": 751, "displayed.<|WB|>": 752, "!=<|WB|>": 753, "printf(\"produc": 754, "printf(\"product<|WB|>": 755, "reads<|WB|>": 756, "square.<|WB|>": 757, "v<|WB|>": 758, "printf(\"squar": 759, "printf(\"square<|WB|>": 760, "v);<|WB|>": 761, "to<|WB|>": 762, "pa": 763, "pas": 764, "pass": 765, "passed<|WB|>": 766, "base<|WB|>": 767, "1);<|WB|>": 768, "thre": 769, "three<|WB|>": 770, "time": 771, "times<|WB|>": 772, "loop": 773, "loop.<|WB|>": 774, "for<|WB|>": 775, "(int<|WB|>": 776, "i++)<|WB|>": 777, "printf(\"hello": 778, "printf(\"hello\\n\");<|WB|>": 779, "uses<|WB|>": 780, "loop<|WB|>": 781, "say<|WB|>": 782, "hi<|WB|>": 783, "fiv": 784, "five<|WB|>": 785, "times": 786, "times.<|WB|>": 787, "i;<|WB|>": 788, "(i<|WB|>": 789, "puts(\"hi": 790, "puts(\"hi\");<|WB|>": 791, "numbe": 792, "numbere": 793, "numbered<|WB|>": 794, "each": 795, "each<|WB|>": 796, "iter": 797, "iterati": 798, "iteration.<|WB|>": 799, "printf(\"line<|WB|>": 800, "i);<|WB|>": 801, "A<|WB|>": 802, "whi": 803, "while<|WB|>": 804, "rep": 805, "repea": 806, "repeats<|WB|>": 807, "unti": 808, "until<|WB|>": 809, "co": 810, "coun": 811, "counter<|WB|>": 812, "runs<|WB|>": 813, "puts(\"Hello": 814, "puts(\"Hello\");<|WB|>": 815, "i++;<|WB|>": 816, "sc": 817, "scre": 818, "screen": 819, "screen.<|WB|>": 820, "tin": 821, "tiny<|WB|>": 822, "hello-": 823, "hello-worl": 824, "hello-world<|WB|>": 825, "exa": 826, "example<|WB|>": 827, "C.<|WB|>": 828, "say": 829, "says<|WB|>": 830, "exit": 831, "exits.<|WB|>": 832, "exits<|WB|>": 833, "cl": 834, "cle": 835, "clean": 836, "cleanl": 837, "cleanly.<|WB|>": 838, "fri": 839, "frien": 840, "friend": 841, "friendl": 842, "friendly<|WB|>": 843, "sing": 844, "single<|WB|>": 845, "of<|WB|>": 846, "Th": 847, "The<|WB|>": 848, "hel": 849, "held<|WB|>": 850, "string<|WB|>": 851, "chara": 852, "charac": 853, "character<|WB|>": 854, "hol": 855, "holds<|WB|>": 856, "gets<|WB|>": 857, "printed.<|WB|>": 858, "If<|WB|>": 859, "in,<|WB|>": 860, "this<|WB|>": 861, "it<|WB|>": 862, "arguments<|WB|>": 863, "pre": 864, "pres": 865, "presen": 866, "present.<|WB|>": 867, "fall": 868, "falling<|WB|>": 869, "bac": 870, "back": 871, "back<|WB|>": 872, "default.<|WB|>": 873, "sup": 874, "suppl": 875, "suppli": 876, "supplied.<|WB|>": 877, "toget": 878, "togethe": 879, "together<|WB|>": 880, "simple<|WB|>": 881, "multiplic": 882, "multiplicati": 883, "multiplication<|WB|>": 884, "who": 885, "whose<|WB|>": 886, "ans": 887, "answ": 888, "answer<|WB|>": 889, "value<|WB|>": 890, "shown<|WB|>": 891, "result<|WB|>": 892, "subtracti": 893, "subtraction.<|WB|>": 894, "divides<|WB|>": 895, "quotient.<|WB|>": 896, "inte": 897, "integer": 898, "integers<|WB|>": 899, "read<|WB|>": 900, "thei": 901, "their<|WB|>": 902, "squares<|WB|>": 903, "incre": 904, "incremen": 905, "increment": 906, "incremented<|WB|>": 907, "one.<|WB|>": 908, "fe": 909, "few": 910, "few<|WB|>": 911, "multiple<|WB|>": 912, "shows<|WB|>": 913, "runs.<|WB|>": 914, "print<|WB|>": 915, "greeting.<|WB|>": 916}}