{"merges": [[";", "<|WB|>", ";<|WB|>"], [")", ";<|WB|>", ");<|WB|>"], [",", "<|WB|>", ",<|WB|>"], ["i", "n", "in"], ["e", "r", "er"], ["\"", ");<|WB|>", "\");<|WB|>"], ["p", "r", "pr"], ["\\", "n", "\\n"], ["s", "<|WB|>", "s<|WB|>"], ["u", "t", "ut"], ["(", "\"", "(\""], ["e", "<|WB|>", "e<|WB|>"], [".", "<|WB|>", ".<|WB|>"], ["in", "t", "int"], ["p", "ut", "put"], ["s", "t", "st"], ["a", "l", "al"], ["pr", "int", "print"], ["r", "e", "re"], ["e", "n", "en"], ["put", "s", "puts"], ["print", "f", "printf"], ["printf", "(\"", "printf(\""], ["\\n", "\");<|WB|>", "\\n\");<|WB|>"], ["a", "m", "am"], ["o", "n", "on"], ["\"", ";<|WB|>", "\";<|WB|>"], ["d", "<|WB|>", "d<|WB|>"], [")", "<|WB|>", ")<|WB|>"], ["o", "u", "ou"], ["t", "h", "th"], ["a", "r", "ar"], ["t", "<|WB|>", "t<|WB|>"], ["o", "r", "or"], ["u", "m", "um"], ["pr", "o", "pro"], ["in", "g", "ing"], ["y", "<|WB|>", "y<|WB|>"], ["e", "l", "el"], ["]", "<|WB|>", "]<|WB|>"], ["a", "n", "an"], ["w", "or", "wor"], ["st", "r", "str"], ["re", "e", "ree"], ["ree", "t", "reet"], ["ar", "g", "arg"], ["puts", "(", "puts("], ["o", "l", "ol"], ["[", "]<|WB|>", "[]<|WB|>"], ["th", "er", "ther"], ["t", "i", "ti"], ["r", "i", "ri"], ["reet", "ing", "reeting"], ["!", "\\n", "!\\n"], ["d", "i", "di"], ["!", "\");<|WB|>", "!\");<|WB|>"], ["m", "e", "me"], ["+", "+", "++"], ["puts", "(\"", "puts(\""], ["printf(\"", "H", "printf(\"H"], ["!", "\\n\");<|WB|>", "!\\n\");<|WB|>"], ["e", "v", "ev"], ["u", "e", "ue"], ["t", ");<|WB|>", "t);<|WB|>"], ["!", "\";<|WB|>", "!\";<|WB|>"], ["!\\n", "\";<|WB|>", "!\\n\";<|WB|>"], ["s", "e", "se"], ["i", "d", "id"], ["f", "ri", "fri"], ["fri", "en", "frien"], ["pro", "g", "prog"], ["prog", "r", "progr"], ["progr", "am", "program"], ["c", "o", "co"], ["t", "e", "te"], ["ther", "e", "there"], ["l", "o", "lo"], ["v", "al", "val"], ["frien", "d", "friend"], ["program", "m", "programm"], ["programm", "er", "programmer"], ["y", "ou", "you"], ["ou", "n", "oun"], ["l", "in", "lin"], ["ev", "er", "ever"], ["ever", "y", "every"], ["every", "on", "everyon"], ["wor", "l", "worl"], ["p", "al", "pal"], ["g", "ue", "gue"], ["gue", "st", "guest"], ["str", "an", "stran"], ["stran", "g", "strang"], ["strang", "er", "stranger"], ["f", "<|WB|>", "f<|WB|>"], ["0", ";<|WB|>", "0;<|WB|>"], ["o", "w", "ow"], ["h", "i", "hi"], ["t", "o", "to"], ["s", "a", "sa"], ["n", "um", "num"], ["everyon", "e", "everyone"], ["u", "l", "ul"], ["g", "reeting", "greeting"], ["worl", "d", "world"], ["f", "ol", "fol"], ["fol", "k", "folk"], ["folk", "s", "folks"], ["n", "am", "nam"], ["arg", "v", "argv"], ["1", "<|WB|>", "1<|WB|>"], ["\"", "H", "\"H"], ["8", ";<|WB|>", "8;<|WB|>"], ["\"", ",<|WB|>", "\",<|WB|>"], ["8", "<|WB|>", "8<|WB|>"], ["me", "s", "mes"], ["puts(\"", "H", "puts(\"H"], ["5", ";<|WB|>", "5;<|WB|>"], ["2", ");<|WB|>", "2);<|WB|>"], ["1", ";<|WB|>", "1;<|WB|>"], ["di", "f", "dif"], ["6", "<|WB|>", "6<|WB|>"], ["6", ";<|WB|>", "6;<|WB|>"], ["id", "x", "idx"], ["2", ";<|WB|>", "2;<|WB|>"], ["co", "m", "com"], ["3", "<|WB|>", "3<|WB|>"], ["3", ",<|WB|>", "3,<|WB|>"], ["5", "<|WB|>", "5<|WB|>"], ["5", ",<|WB|>", "5,<|WB|>"], ["s", ",<|WB|>", "s,<|WB|>"], ["2", "<|WB|>", "2<|WB|>"], ["6", ",<|WB|>", "6,<|WB|>"], ["d", "u", "du"], ["1", ",<|WB|>", "1,<|WB|>"], ["7", ";<|WB|>", "7;<|WB|>"], ["s", ");<|WB|>", "s);<|WB|>"], ["y", ",<|WB|>", "y,<|WB|>"], ["2", ",<|WB|>", "2,<|WB|>"], ["0", "<|WB|>", "0<|WB|>"], ["0", ");<|WB|>", "0);<|WB|>"], ["7", "<|WB|>", "7<|WB|>"], ["9", ",<|WB|>", "9,<|WB|>"], ["4", ";<|WB|>", "4;<|WB|>"], ["4", "<|WB|>", "4<|WB|>"], ["5", ");<|WB|>", "5);<|WB|>"], ["9", "<|WB|>", "9<|WB|>"], ["9", ";<|WB|>", "9;<|WB|>"], ["3", ";<|WB|>", "3;<|WB|>"], ["e", ");<|WB|>", "e);<|WB|>"], ["3", ");<|WB|>", "3);<|WB|>"], ["4", ",<|WB|>", "4,<|WB|>"], ["0", ",<|WB|>", "0,<|WB|>"], ["6", ");<|WB|>", "6);<|WB|>"], ["7", ",<|WB|>", "7,<|WB|>"], ["8", ",<|WB|>", "8,<|WB|>"], ["7", ");<|WB|>", "7);<|WB|>"], ["4", ");<|WB|>", "4);<|WB|>"], ["p", "l", "pl"], ["m", "a", "ma"], ["ma", "in", "main"], ["c", "<|WB|>", "c<|WB|>"], ["argv", "[", "argv["], ["el", "lo", "ello"], ["s", "um", "sum"], ["\\n", "\",<|WB|>", "\\n\",<|WB|>"], ["++", ")<|WB|>", "++)<|WB|>"], ["i", "t", "it"], ["i", "r", "ir"], ["al", "ut", "alut"], ["alut", "a", "aluta"], ["aluta", "ti", "alutati"], ["alutati", "on", "alutation"], ["c", "on", "con"], ["b", "a", "ba"], ["en", "<|WB|>", "en<|WB|>"], ["mes", "sa", "messa"], ["messa", "g", "messag"], ["pro", "du", "produ"], ["produ", "c", "produc"], ["te", "x", "tex"], ["ow", "d", "owd"], ["++", ";<|WB|>", "++;<|WB|>"], ["re", "s", "res"], ["res", "ul", "resul"], ["1", ");<|WB|>", "1);<|WB|>"], ["ol", "a", "ola"], ["b", "u", "bu"], ["m", "s", "ms"], ["ms", "g", "msg"], ["8", ");<|WB|>", "8);<|WB|>"], ["9", ");<|WB|>", "9);<|WB|>"], ["s", "e<|WB|>", "se<|WB|>"], ["n", "<|WB|>", "n<|WB|>"], ["q", "u", "qu"], ["e", "s<|WB|>", "es<|WB|>"], ["f", "ir", "fir"], ["fir", "st", "first"], ["e", "d<|WB|>", "ed<|WB|>"], ["Y", "o", "Yo"], ["en", "t", "ent"], ["dif", "f", "diff"], ["am", "oun", "amoun"], ["e", "y<|WB|>", "ey<|WB|>"], ["lin", "e<|WB|>", "line<|WB|>"], ["to", "t", "tot"], ["tot", "al", "total"], ["c", "oun", "coun"], ["S", "alutation", "Salutation"], ["r", "h", "rh"], ["se", "con", "secon"], ["d", ");<|WB|>", "d);<|WB|>"], ["%", "s", "%s"], ["G", "reeting", "Greeting"], ["l", "h", "lh"], ["in", "put", "input"], ["W", "el", "Wel"], ["int", "<|WB|>", "int<|WB|>"], ["main", "(", "main("], ["arg", "c<|WB|>", "argc<|WB|>"], ["argv[", "1", "argv[1"], ["ello", ",<|WB|>", "ello,<|WB|>"], ["s", "h", "sh"], ["i", ",<|WB|>", "i,<|WB|>"], ["b", "l", "bl"], ["num", "b", "numb"], ["numb", "er", "number"], ["]", ");<|WB|>", "]);<|WB|>"], ["r", "a", "ra"], ["Yo", ",<|WB|>", "Yo,<|WB|>"], ["a", "d", "ad"], ["o", "<|WB|>", "o<|WB|>"], ["m", "<|WB|>", "m<|WB|>"], ["o", "ut", "out"], ["Salutation", "s,<|WB|>", "Salutations,<|WB|>"], ["o", "d", "od"], ["ing", "<|WB|>", "ing<|WB|>"], ["w", "h", "wh"], ["d", ".<|WB|>", "d.<|WB|>"], ["Greeting", "s,<|WB|>", "Greetings,<|WB|>"], ["owd", "y,<|WB|>", "owdy,<|WB|>"], ["ola", ",<|WB|>", "ola,<|WB|>"], ["k", "<|WB|>", "k<|WB|>"], ["bu", "f", "buf"], ["i", "<|WB|>", "i<|WB|>"], ["Wel", "co", "Welco"], ["Welco", "me", "Welcome"], ["Welcome", ",<|WB|>", "Welcome,<|WB|>"], ["e", "y,<|WB|>", "ey,<|WB|>"], ["e", "[]<|WB|>", "e[]<|WB|>"], ["a", "<|WB|>", "a<|WB|>"], ["nam", "e<|WB|>", "name<|WB|>"], ["i", "s<|WB|>", "is<|WB|>"], ["pl", "e<|WB|>", "ple<|WB|>"], ["in", "c", "inc"], [">", "<|WB|>", "><|WB|>"], ["val", "u", "valu"], ["valu", "e<|WB|>", "value<|WB|>"], ["s", "qu", "squ"], ["squ", "a", "squa"], ["squa", "re", "square"], ["an", "d<|WB|>", "and<|WB|>"], ["sh", "ow", "show"], ["sum", "<|WB|>", "sum<|WB|>"], ["=", "<|WB|>", "=<|WB|>"], ["%", "d", "%d"], ["%d", "\\n\",<|WB|>", "%d\\n\",<|WB|>"], ["sum", ");<|WB|>", "sum);<|WB|>"], ["lo", "o", "loo"], ["loo", "p", "loop"], ["or", "<|WB|>", "or<|WB|>"], ["hi", "<|WB|>", "hi<|WB|>"], ["d", "ou", "dou"], ["dou", "bl", "doubl"], ["first", "<|WB|>", "first<|WB|>"], ["x", "<|WB|>", "x<|WB|>"], ["a", "to", "ato"], ["ato", "i", "atoi"], ["atoi", "(", "atoi("], ["argv[1", "]);<|WB|>", "argv[1]);<|WB|>"], ["w", "o<|WB|>", "wo<|WB|>"], ["arg", "um", "argum"], ["argum", "ent", "argument"], ["diff", "er", "differ"], ["differ", "en", "differen"], ["differen", "c", "differenc"], ["e", ".<|WB|>", "e.<|WB|>"], ["amoun", "t<|WB|>", "amount<|WB|>"], ["dif", "f<|WB|>", "diff<|WB|>"], ["diff", ");<|WB|>", "diff);<|WB|>"], ["t", "s<|WB|>", "ts<|WB|>"], ["idx", "<|WB|>", "idx<|WB|>"], ["com", "m", "comm"], ["val", "ue", "value"], ["value", ");<|WB|>", "value);<|WB|>"], ["re", "main", "remain"], ["remain", "d", "remaind"], ["remaind", "er", "remainder"], ["a", ");<|WB|>", "a);<|WB|>"], ["total", "<|WB|>", "total<|WB|>"], ["coun", "t<|WB|>", "count<|WB|>"], ["coun", "t);<|WB|>", "count);<|WB|>"], ["i", "m", "im"], ["rh", "s<|WB|>", "rhs<|WB|>"], ["secon", "d<|WB|>", "second<|WB|>"], ["secon", "d);<|WB|>", "second);<|WB|>"], ["ba", "se<|WB|>", "base<|WB|>"], ["p", "ar", "par"], ["par", "it", "parit"], ["di", "v", "div"], ["div", "id", "divid"], ["qu", "o", "quo"], ["quo", "ti", "quoti"], ["ent", ".<|WB|>", "ent.<|WB|>"], ["x", ");<|WB|>", "x);<|WB|>"], ["%s", "\\n\",<|WB|>", "%s\\n\",<|WB|>"], ["messag", "e<|WB|>", "message<|WB|>"], ["j", "<|WB|>", "j<|WB|>"], ["m", "ul", "mul"], ["mul", "ti", "multi"], ["multi", "pl", "multipl"], ["t", ".<|WB|>", "t.<|WB|>"], ["z", "<|WB|>", "z<|WB|>"], ["total", ");<|WB|>", "total);<|WB|>"], ["e", "d.<|WB|>", "ed.<|WB|>"], ["val", "<|WB|>", "val<|WB|>"], ["m", ");<|WB|>", "m);<|WB|>"], ["greeting", "<|WB|>", "greeting<|WB|>"], ["tex", "t<|WB|>", "text<|WB|>"], ["tex", "t);<|WB|>", "text);<|WB|>"], ["owd", "y<|WB|>", "owdy<|WB|>"], ["w", "ri", "wri"], ["te", "s<|WB|>", "tes<|WB|>"], ["produc", "t<|WB|>", "product<|WB|>"], ["lh", "s<|WB|>", "lhs<|WB|>"], ["lh", "s);<|WB|>", "lhs);<|WB|>"], ["resul", "t<|WB|>", "result<|WB|>"], ["te", "d<|WB|>", "ted<|WB|>"], ["buf", ");<|WB|>", "buf);<|WB|>"], ["s", "u", "su"], ["su", "b", "sub"], ["sub", "t", "subt"], ["subt", "ra", "subtra"], ["subtra", "c", "subtrac"], ["ther", "<|WB|>", "ther<|WB|>"], ["produc", "t);<|WB|>", "product);<|WB|>"], ["input", "<|WB|>", "input<|WB|>"], ["input", ");<|WB|>", "input);<|WB|>"], ["n", ");<|WB|>", "n);<|WB|>"], ["i", ");<|WB|>", "i);<|WB|>"], ["str", "<|WB|>", "str<|WB|>"], ["str", ");<|WB|>", "str);<|WB|>"], ["greeting", ");<|WB|>", "greeting);<|WB|>"], ["n", "e", "ne"], ["ne", "g", "neg"], ["neg", "a", "nega"], ["wor", "d);<|WB|>", "word);<|WB|>"], ["ello", "<|WB|>", "ello<|WB|>"], ["rh", "s);<|WB|>", "rhs);<|WB|>"], ["resul", "t);<|WB|>", "result);<|WB|>"], ["hi", ");<|WB|>", "hi);<|WB|>"], ["msg", "<|WB|>", "msg<|WB|>"], ["msg", ");<|WB|>", "msg);<|WB|>"], ["ba", "se", "base"], ["base", ");<|WB|>", "base);<|WB|>"], ["num", "<|WB|>", "num<|WB|>"], ["amoun", "t);<|WB|>", "amount);<|WB|>"], ["b", "<|WB|>", "b<|WB|>"], ["val", ");<|WB|>", "val);<|WB|>"], ["num", ");<|WB|>", "num);<|WB|>"], ["com", "e<|WB|>", "come<|WB|>"], ["messag", "e);<|WB|>", "message);<|WB|>"], ["nam", "e);<|WB|>", "name);<|WB|>"], ["first", ");<|WB|>", "first);<|WB|>"], ["b", ");<|WB|>", "b);<|WB|>"], ["z", ");<|WB|>", "z);<|WB|>"], ["wor", "d<|WB|>", "word<|WB|>"], ["lin", "e);<|WB|>", "line);<|WB|>"], ["bu", "f<|WB|>", "buf<|WB|>"], ["c", ");<|WB|>", "c);<|WB|>"], ["y", ");<|WB|>", "y);<|WB|>"], ["ola", "<|WB|>", "ola<|WB|>"], ["I", "f<|WB|>", "If<|WB|>"], ["p", "a", "pa"], ["pa", "s", "pas"], ["pas", "se", "passe"], ["passe", "d<|WB|>", "passed<|WB|>"], ["in", ",<|WB|>", "in,<|WB|>"], ["th", "is<|WB|>", "this<|WB|>"], ["s", "am", "sam"], ["sam", "ple<|WB|>", "sample<|WB|>"], ["g", "reet", "greet"], ["greet", "s<|WB|>", "greets<|WB|>"], ["i", "t<|WB|>", "it<|WB|>"], ["b", "y<|WB|>", "by<|WB|>"], ["nam", "e", "name"], ["name", ",<|WB|>", "name,<|WB|>"], ["el", "se<|WB|>", "else<|WB|>"], ["there", ".<|WB|>", "there.<|WB|>"], ["#", "inc", "#inc"], ["#inc", "l", "#incl"], ["#incl", "u", "#inclu"], ["#inclu", "d", "#includ"], ["#includ", "e<|WB|>", "#include<|WB|>"], ["<", "st", "<st"], ["<st", "di", "<stdi"], ["<stdi", "o", "<stdio"], ["<stdio", ".", "<stdio."], ["<stdio.", "h", "<stdio.h"], ["<stdio.h", "><|WB|>", "<stdio.h><|WB|>"], ["main(", "int<|WB|>", "main(int<|WB|>"], ["arg", "c", "argc"], ["argc", ",<|WB|>", "argc,<|WB|>"], ["c", "h", "ch"], ["ch", "ar", "char"], ["char", "<|WB|>", "char<|WB|>"], ["*", "*", "**"], ["**", "argv", "**argv"], ["**argv", ")<|WB|>", "**argv)<|WB|>"], ["{", "<|WB|>", "{<|WB|>"], ["puts(", "argc<|WB|>", "puts(argc<|WB|>"], ["?", "<|WB|>", "?<|WB|>"], ["argv[1", "]<|WB|>", "argv[1]<|WB|>"], [":", "<|WB|>", ":<|WB|>"], ["\"H", "ello,<|WB|>", "\"Hello,<|WB|>"], ["there", "!\");<|WB|>", "there!\");<|WB|>"], ["re", "t", "ret"], ["ret", "u", "retu"], ["retu", "r", "retur"], ["retur", "n<|WB|>", "return<|WB|>"], ["}", "<|WB|>", "}<|WB|>"], ["H", "er", "Her"], ["Her", "e<|WB|>", "Here<|WB|>"], ["square", "d<|WB|>", "squared<|WB|>"], ["show", "n<|WB|>", "shown<|WB|>"], ["on", "<|WB|>", "on<|WB|>"], ["s", "c", "sc"], ["sc", "re", "scre"], ["scre", "en", "screen"], ["screen", ".<|WB|>", "screen.<|WB|>"], ["main(", "v", "main(v"], ["main(v", "o", "main(vo"], ["main(vo", "id", "main(void"], ["main(void", ")<|WB|>", "main(void)<|WB|>"], ["2", "8;<|WB|>", "28;<|WB|>"], ["printf(\"", "%d\\n\",<|WB|>", "printf(\"%d\\n\",<|WB|>"], ["*", "<|WB|>", "*<|WB|>"], ["T", "hi", "Thi"], ["Thi", "s<|WB|>", "This<|WB|>"], ["u", "se", "use"], ["use", "s<|WB|>", "uses<|WB|>"], ["loop", "<|WB|>", "loop<|WB|>"], ["to", "<|WB|>", "to<|WB|>"], ["print", "<|WB|>", "print<|WB|>"], ["u", "p", "up"], ["up", "<|WB|>", "up<|WB|>"], ["ti", "mes", "times"], ["times", ".<|WB|>", "times.<|WB|>"], ["*", "argv[", "*argv["], ["*argv[", "]", "*argv[]"], ["*argv[]", ")<|WB|>", "*argv[])<|WB|>"], ["n", ";<|WB|>", "n;<|WB|>"], ["f", "or<|WB|>", "for<|WB|>"], ["(", "n<|WB|>", "(n<|WB|>"], ["<", "<|WB|>", "<<|WB|>"], ["n", "++)<|WB|>", "n++)<|WB|>"], ["puts(\"H", "i,<|WB|>", "puts(\"Hi,<|WB|>"], ["friend", "!\");<|WB|>", "friend!\");<|WB|>"], ["sa", "y", "say"], ["say", "s<|WB|>", "says<|WB|>"], ["e", "x", "ex"], ["ex", "it", "exit"], ["exit", "s", "exits"], ["exits", ".<|WB|>", "exits.<|WB|>"], ["main(", ")<|WB|>", "main()<|WB|>"], ["printf(\"H", "i,<|WB|>", "printf(\"Hi,<|WB|>"], ["programmer", "!\\n\");<|WB|>", "programmer!\\n\");<|WB|>"], ["program", "<|WB|>", "program<|WB|>"], ["doubl", "es<|WB|>", "doubles<|WB|>"], ["number", "<|WB|>", "number<|WB|>"], ["print", "s<|WB|>", "prints<|WB|>"], ["it", ".<|WB|>", "it.<|WB|>"], ["doubl", "ed<|WB|>", "doubled<|WB|>"], ["i", "f<|WB|>", "if<|WB|>"], ["(", "argc<|WB|>", "(argc<|WB|>"], ["2", ")<|WB|>", "2)<|WB|>"], ["atoi(", "argv[1]);<|WB|>", "atoi(argv[1]);<|WB|>"], ["you", "<|WB|>", "you<|WB|>"], ["w", "i", "wi"], ["wi", "th", "with"], ["with", "<|WB|>", "with<|WB|>"], ["sh", "or", "shor"], ["shor", "t<|WB|>", "short<|WB|>"], ["p", "h", "ph"], ["ph", "ra", "phra"], ["phra", "se", "phrase"], ["phrase", ".<|WB|>", "phrase.<|WB|>"], ["printf(\"", "Yo,<|WB|>", "printf(\"Yo,<|WB|>"], ["you", "!\\n\");<|WB|>", "you!\\n\");<|WB|>"], ["R", "e", "Re"], ["Re", "ad", "Read"], ["Read", "s<|WB|>", "Reads<|WB|>"], ["t", "wo<|WB|>", "two<|WB|>"], ["argument", "s<|WB|>", "arguments<|WB|>"], ["th", "e", "the"], ["the", "ir", "their"], ["their", "<|WB|>", "their<|WB|>"], ["differenc", "e.<|WB|>", "difference.<|WB|>"], ["3", ")<|WB|>", "3)<|WB|>"], ["atoi(", "argv[", "atoi(argv["], ["atoi(argv[", "2", "atoi(argv[2"], ["atoi(argv[2", "]);<|WB|>", "atoi(argv[2]);<|WB|>"], ["-", "<|WB|>", "-<|WB|>"], ["puts(\"H", "ey<|WB|>", "puts(\"Hey<|WB|>"], ["there", ",<|WB|>", "there,<|WB|>"], ["you", "!\");<|WB|>", "you!\");<|WB|>"], ["A", "<|WB|>", "A<|WB|>"], ["re", "p", "rep"], ["rep", "e", "repe"], ["repe", "a", "repea"], ["repea", "ts<|WB|>", "repeats<|WB|>"], ["th", "e<|WB|>", "the<|WB|>"], ["f", "e", "fe"], ["fe", "w", "few"], ["few", "<|WB|>", "few<|WB|>"], ["idx", ";<|WB|>", "idx;<|WB|>"], ["(", "idx<|WB|>", "(idx<|WB|>"], ["idx", "++)<|WB|>", "idx++)<|WB|>"], ["everyone", "!\");<|WB|>", "everyone!\");<|WB|>"], ["square", "s<|WB|>", "squares<|WB|>"], ["f", "r", "fr"], ["fr", "o", "fro"], ["fro", "m<|WB|>", "from<|WB|>"], ["comm", "and<|WB|>", "command<|WB|>"], ["out", "put", "output"], ["output", "s<|WB|>", "outputs<|WB|>"], ["w", "e<|WB|>", "we<|WB|>"], ["com", "put", "comput"], ["comput", "e<|WB|>", "compute<|WB|>"], ["remainder", "<|WB|>", "remainder<|WB|>"], ["o", "f<|WB|>", "of<|WB|>"], ["2", "3<|WB|>", "23<|WB|>"], ["5", "1<|WB|>", "51<|WB|>"], ["show", "<|WB|>", "show<|WB|>"], ["2", "3,<|WB|>", "23,<|WB|>"], ["5", "1;<|WB|>", "51;<|WB|>"], ["%", "<|WB|>", "%<|WB|>"], ["1", "5<|WB|>", "15<|WB|>"], ["1", "5;<|WB|>", "15;<|WB|>"], ["+", "<|WB|>", "+<|WB|>"], ["m", "in", "min"], ["min", "im", "minim"], ["minim", "al", "minimal"], ["minimal", "<|WB|>", "minimal<|WB|>"], ["th", "a", "tha"], ["tha", "t<|WB|>", "that<|WB|>"], ["friend", "l", "friendl"], ["friendl", "y<|WB|>", "friendly<|WB|>"], ["lin", "e.<|WB|>", "line.<|WB|>"], ["printf(\"", "Salutations,<|WB|>", "printf(\"Salutations,<|WB|>"], ["there", "!\\n\");<|WB|>", "there!\\n\");<|WB|>"], ["ad", "d", "add"], ["add", "s<|WB|>", "adds<|WB|>"], ["number", "s<|WB|>", "numbers<|WB|>"], ["comm", "an", "comman"], ["comman", "d", "command"], ["command", "-", "command-"], ["command-", "line<|WB|>", "command-line<|WB|>"], ["sum", ".<|WB|>", "sum.<|WB|>"], ["1", "2;<|WB|>", "12;<|WB|>"], ["ev", "en<|WB|>", "even<|WB|>"], ["od", "d<|WB|>", "odd<|WB|>"], ["d", "e", "de"], ["de", "p", "dep"], ["dep", "en", "depen"], ["depen", "d", "depend"], ["depend", "ing<|WB|>", "depending<|WB|>"], ["it", "s<|WB|>", "its<|WB|>"], ["parit", "y", "parity"], ["parity", ".<|WB|>", "parity.<|WB|>"], ["(", "rhs<|WB|>", "(rhs<|WB|>"], ["=", "=<|WB|>", "==<|WB|>"], ["0", ")<|WB|>", "0)<|WB|>"], ["printf(\"", "ev", "printf(\"ev"], ["printf(\"ev", "en", "printf(\"even"], ["printf(\"even", "\\n\");<|WB|>", "printf(\"even\\n\");<|WB|>"], ["printf(\"", "od", "printf(\"od"], ["printf(\"od", "d", "printf(\"odd"], ["printf(\"odd", "\\n\");<|WB|>", "printf(\"odd\\n\");<|WB|>"], ["divid", "es<|WB|>", "divides<|WB|>"], ["quoti", "ent.<|WB|>", "quotient.<|WB|>"], ["2", "0;<|WB|>", "20;<|WB|>"], ["/", "<|WB|>", "/<|WB|>"], ["g", "i", "gi"], ["gi", "v", "giv"], ["giv", "en<|WB|>", "given<|WB|>"], ["1", ")<|WB|>", "1)<|WB|>"], ["printf(\"", "Yo", "printf(\"Yo"], ["printf(\"Yo", "<|WB|>", "printf(\"Yo<|WB|>"], ["you", "\\n\");<|WB|>", "you\\n\");<|WB|>"], ["ti", "me", "time"], ["time", "s<|WB|>", "times<|WB|>"], ["u", "s", "us"], ["us", "ing<|WB|>", "using<|WB|>"], ["loop", ".<|WB|>", "loop.<|WB|>"], ["(", "int<|WB|>", "(int<|WB|>"], ["j", "++)<|WB|>", "j++)<|WB|>"], ["friend", "!\\n\");<|WB|>", "friend!\\n\");<|WB|>"], ["multipl", "i", "multipli"], ["multipli", "es<|WB|>", "multiplies<|WB|>"], ["produc", "t.<|WB|>", "product.<|WB|>"], ["s", "im", "sim"], ["sim", "ple<|WB|>", "simple<|WB|>"], ["multipl", "y<|WB|>", "multiply<|WB|>"], ["wh", "o", "who"], ["who", "se<|WB|>", "whose<|WB|>"], ["an", "s", "ans"], ["ans", "w", "answ"], ["answ", "er", "answer"], ["answer", "<|WB|>", "answer<|WB|>"], ["print", "ed.<|WB|>", "printed.<|WB|>"], ["5", "1,<|WB|>", "51,<|WB|>"], ["4", "7;<|WB|>", "47;<|WB|>"], ["st", "o", "sto"], ["sto", "re", "store"], ["store", "s<|WB|>", "stores<|WB|>"], ["in", "<|WB|>", "in<|WB|>"], ["con", "st", "const"], ["const", "<|WB|>", "const<|WB|>"], ["*", "text<|WB|>", "*text<|WB|>"], ["\"", "Greetings,<|WB|>", "\"Greetings,<|WB|>"], ["world", "!\";<|WB|>", "world!\";<|WB|>"], ["printf(\"", "%s\\n\",<|WB|>", "printf(\"%s\\n\",<|WB|>"], ["sa", "v", "sav"], ["sav", "ed<|WB|>", "saved<|WB|>"], ["print", "ed<|WB|>", "printed<|WB|>"], ["puts", ".<|WB|>", "puts.<|WB|>"], ["*", "s<|WB|>", "*s<|WB|>"], ["\"H", "ey<|WB|>", "\"Hey<|WB|>"], ["folks", "!\";<|WB|>", "folks!\";<|WB|>"], ["puts(", "s);<|WB|>", "puts(s);<|WB|>"], ["h", "owdy<|WB|>", "howdy<|WB|>"], ["printf(\"H", "owdy,<|WB|>", "printf(\"Howdy,<|WB|>"], ["everyone", "!\\n\");<|WB|>", "everyone!\\n\");<|WB|>"], ["printf(\"H", "ey<|WB|>", "printf(\"Hey<|WB|>"], ["printf(\"H", "ello,<|WB|>", "printf(\"Hello,<|WB|>"], ["%s", ".", "%s."], ["%s.", "\\n\",<|WB|>", "%s.\\n\",<|WB|>"], ["\"", "there", "\"there"], ["\"there", "\");<|WB|>", "\"there\");<|WB|>"], ["t", "in", "tin"], ["tin", "y<|WB|>", "tiny<|WB|>"], ["C", "<|WB|>", "C<|WB|>"], ["wri", "tes<|WB|>", "writes<|WB|>"], ["out", "<|WB|>", "out<|WB|>"], ["greeting", ".<|WB|>", "greeting.<|WB|>"], ["printf(\"", "Greetings,<|WB|>", "printf(\"Greetings,<|WB|>"], ["pal", "!\\n\");<|WB|>", "pal!\\n\");<|WB|>"], ["w", "hi", "whi"], ["whi", "l", "whil"], ["whil", "e<|WB|>", "while<|WB|>"], ["(", "j<|WB|>", "(j<|WB|>"], ["5", ")<|WB|>", "5)<|WB|>"], ["puts(\"H", "owdy,<|WB|>", "puts(\"Howdy,<|WB|>"], ["j", "++;<|WB|>", "j++;<|WB|>"], ["printf(\"", "line<|WB|>", "printf(\"line<|WB|>"], ["j", ");<|WB|>", "j);<|WB|>"], ["5", "2<|WB|>", "52<|WB|>"], ["5", "2;<|WB|>", "52;<|WB|>"], ["differenc", "e<|WB|>", "difference<|WB|>"], ["4", "2<|WB|>", "42<|WB|>"], ["3", "5<|WB|>", "35<|WB|>"], ["4", "2,<|WB|>", "42,<|WB|>"], ["3", "5;<|WB|>", "35;<|WB|>"], ["T", "wo<|WB|>", "Two<|WB|>"], ["ar", "e<|WB|>", "are<|WB|>"], ["com", "b", "comb"], ["comb", "in", "combin"], ["combin", "ed<|WB|>", "combined<|WB|>"], ["di", "s", "dis"], ["dis", "pl", "displ"], ["displ", "a", "displa"], ["displa", "y", "display"], ["display", "ed.<|WB|>", "displayed.<|WB|>"], ["inc", "re", "incre"], ["incre", "m", "increm"], ["increm", "en", "incremen"], ["incremen", "ted<|WB|>", "incremented<|WB|>"], ["printf(\"H", "ola,<|WB|>", "printf(\"Hola,<|WB|>"], ["1", "1<|WB|>", "11<|WB|>"], ["5", "0<|WB|>", "50<|WB|>"], ["5", "0);<|WB|>", "50);<|WB|>"], ["\"H", "owdy,<|WB|>", "\"Howdy,<|WB|>"], ["programmer", "!\";<|WB|>", "programmer!\";<|WB|>"], ["puts(", "text);<|WB|>", "puts(text);<|WB|>"], ["k", "++)<|WB|>", "k++)<|WB|>"], ["guest", "!\\n\");<|WB|>", "guest!\\n\");<|WB|>"], ["puts(\"", "Greetings,<|WB|>", "puts(\"Greetings,<|WB|>"], ["programmer", "!\");<|WB|>", "programmer!\");<|WB|>"], ["h", "el", "hel"], ["hel", "d<|WB|>", "held<|WB|>"], ["v", "ar", "var"], ["var", "i", "vari"], ["vari", "a", "varia"], ["varia", "bl", "variabl"], ["variabl", "e<|WB|>", "variable<|WB|>"], ["th", "en<|WB|>", "then<|WB|>"], ["wri", "t", "writ"], ["writ", "t", "writt"], ["writt", "en<|WB|>", "written<|WB|>"], ["out", ".<|WB|>", "out.<|WB|>"], ["buf", "[]<|WB|>", "buf[]<|WB|>"], ["\"", "Yo,<|WB|>", "\"Yo,<|WB|>"], ["world", "!\\n\";<|WB|>", "world!\\n\";<|WB|>"], ["puts(", "buf);<|WB|>", "puts(buf);<|WB|>"], ["subtrac", "ts<|WB|>", "subtracts<|WB|>"], ["on", "e<|WB|>", "one<|WB|>"], ["an", "o", "ano"], ["ano", "ther<|WB|>", "another<|WB|>"], ["stranger", "!\\n\");<|WB|>", "stranger!\\n\");<|WB|>"], ["folks", ".<|WB|>", "folks.<|WB|>"], ["\"H", "i,<|WB|>", "\"Hi,<|WB|>"], ["folks", "!\");<|WB|>", "folks!\");<|WB|>"], ["subtrac", "t<|WB|>", "subtract<|WB|>"], ["2", "9,<|WB|>", "29,<|WB|>"], ["3", "4;<|WB|>", "34;<|WB|>"], ["puts(\"H", "ola,<|WB|>", "puts(\"Hola,<|WB|>"], ["i", ";<|WB|>", "i;<|WB|>"], ["(", "i<|WB|>", "(i<|WB|>"], ["i", "++)<|WB|>", "i++)<|WB|>"], ["folks", "!\\n\");<|WB|>", "folks!\\n\");<|WB|>"], ["t", "a", "ta"], ["ta", "k", "tak"], ["tak", "es<|WB|>", "takes<|WB|>"], ["remainder", ".<|WB|>", "remainder.<|WB|>"], ["puts(\"", "Yo,<|WB|>", "puts(\"Yo,<|WB|>"], ["guest", "!\");<|WB|>", "guest!\");<|WB|>"], ["I", "t<|WB|>", "It<|WB|>"], ["argument", ",<|WB|>", "argument,<|WB|>"], ["f", "al", "fal"], ["fal", "l", "fall"], ["fall", "ing<|WB|>", "falling<|WB|>"], ["ba", "c", "bac"], ["bac", "k<|WB|>", "back<|WB|>"], ["pal", ".<|WB|>", "pal.<|WB|>"], ["printf(\"", "Greeting", "printf(\"Greeting"], ["printf(\"Greeting", "s<|WB|>", "printf(\"Greetings<|WB|>"], ["pal", "\\n\");<|WB|>", "pal\\n\");<|WB|>"], ["*", "str<|WB|>", "*str<|WB|>"], ["puts(", "str);<|WB|>", "puts(str);<|WB|>"], ["5", "7<|WB|>", "57<|WB|>"], ["4", "5);<|WB|>", "45);<|WB|>"], ["*", "greeting<|WB|>", "*greeting<|WB|>"], ["pal", "!\";<|WB|>", "pal!\";<|WB|>"], ["puts(", "greeting);<|WB|>", "puts(greeting);<|WB|>"], ["nega", "tes<|WB|>", "negates<|WB|>"], ["-", "m);<|WB|>", "-m);<|WB|>"], ["wor", "d", "word"], ["word", "[]<|WB|>", "word[]<|WB|>"], ["\"", "Salutations,<|WB|>", "\"Salutations,<|WB|>"], ["everyone", "!\\n\";<|WB|>", "everyone!\\n\";<|WB|>"], ["puts(", "word);<|WB|>", "puts(word);<|WB|>"], ["printf(\"H", "ello<|WB|>", "printf(\"Hello<|WB|>"], ["folks", "\\n\");<|WB|>", "folks\\n\");<|WB|>"], ["5", "6<|WB|>", "56<|WB|>"], ["3", "9<|WB|>", "39<|WB|>"], ["5", "6,<|WB|>", "56,<|WB|>"], ["3", "9;<|WB|>", "39;<|WB|>"], ["\"", "world", "\"world"], ["\"world", "\");<|WB|>", "\"world\");<|WB|>"], ["y", "o<|WB|>", "yo<|WB|>"], ["guest", "<|WB|>", "guest<|WB|>"], ["printf(\"", "Welcome,<|WB|>", "printf(\"Welcome,<|WB|>"], ["C", "h", "Ch"], ["Ch", "e", "Che"], ["Che", "c", "Chec"], ["Chec", "k", "Check"], ["Check", "s<|WB|>", "Checks<|WB|>"], ["number", "'", "number'"], ["number'", "s<|WB|>", "number's<|WB|>"], ["parit", "y<|WB|>", "parity<|WB|>"], ["resul", "t.<|WB|>", "result.<|WB|>"], ["5", "3<|WB|>", "53<|WB|>"], ["3", "3;<|WB|>", "33;<|WB|>"], ["-", "rhs);<|WB|>", "-rhs);<|WB|>"], ["(", "base<|WB|>", "(base<|WB|>"], ["*", "hi<|WB|>", "*hi<|WB|>"], ["puts(", "hi);<|WB|>", "puts(hi);<|WB|>"], ["printf(\"H", "ey,<|WB|>", "printf(\"Hey,<|WB|>"], ["\"", "everyone", "\"everyone"], ["\"everyone", "\");<|WB|>", "\"everyone\");<|WB|>"], ["*", "msg<|WB|>", "*msg<|WB|>"], ["guest", "!\";<|WB|>", "guest!\";<|WB|>"], ["-", "base);<|WB|>", "-base);<|WB|>"], ["world", ".<|WB|>", "world.<|WB|>"], ["%s", "!\\n", "%s!\\n"], ["%s!\\n", "\",<|WB|>", "%s!\\n\",<|WB|>"], ["t", "el", "tel"], ["tel", "l", "tell"], ["tell", "s<|WB|>", "tells<|WB|>"], ["wh", "e", "whe"], ["whe", "ther<|WB|>", "whether<|WB|>"], ["od", "d.<|WB|>", "odd.<|WB|>"], ["(", "value<|WB|>", "(value<|WB|>"], ["h", "ey<|WB|>", "hey<|WB|>"], ["ther", "e<|WB|>", "there<|WB|>"], ["wh", "en<|WB|>", "when<|WB|>"], ["pr", "e", "pre"], ["pre", "s", "pres"], ["pres", "ent.<|WB|>", "present.<|WB|>"], ["greeting", "s<|WB|>", "greetings<|WB|>"], ["stranger", "!\");<|WB|>", "stranger!\");<|WB|>"], ["3", "0<|WB|>", "30<|WB|>"], ["2", "5<|WB|>", "25<|WB|>"], ["2", "5);<|WB|>", "25);<|WB|>"], ["2", "9<|WB|>", "29<|WB|>"], ["3", "0;<|WB|>", "30;<|WB|>"], ["puts(\"H", "ello,<|WB|>", "puts(\"Hello,<|WB|>"], ["world", "!\");<|WB|>", "world!\");<|WB|>"], ["(", "m<|WB|>", "(m<|WB|>"], ["printf(\"H", "i<|WB|>", "printf(\"Hi<|WB|>"], ["there", "\\n\");<|WB|>", "there\\n\");<|WB|>"], ["you", ".<|WB|>", "you.<|WB|>"], ["\"", "you", "\"you"], ["\"you", "\");<|WB|>", "\"you\");<|WB|>"], ["2", "4<|WB|>", "24<|WB|>"], ["1", "1);<|WB|>", "11);<|WB|>"], ["everyone", "!\";<|WB|>", "everyone!\";<|WB|>"], ["(", "num<|WB|>", "(num<|WB|>"], ["(", "sum<|WB|>", "(sum<|WB|>"], ["2", "4;<|WB|>", "24;<|WB|>"], ["guest", ".<|WB|>", "guest.<|WB|>"], ["\"", "guest", "\"guest"], ["\"guest", "\");<|WB|>", "\"guest\");<|WB|>"], ["1", "2,<|WB|>", "12,<|WB|>"], ["2", "3;<|WB|>", "23;<|WB|>"], ["world", "!\\n\");<|WB|>", "world!\\n\");<|WB|>"], ["m", "o", "mo"], ["mo", "du", "modu"], ["modu", "lo", "modulo"], ["modulo", "<|WB|>", "modulo<|WB|>"], ["5", "5);<|WB|>", "55);<|WB|>"], ["3", "6;<|WB|>", "36;<|WB|>"], ["-", "num);<|WB|>", "-num);<|WB|>"], ["(", "lhs<|WB|>", "(lhs<|WB|>"], ["k", ";<|WB|>", "k;<|WB|>"], ["(", "k<|WB|>", "(k<|WB|>"], ["pal", "!\");<|WB|>", "pal!\");<|WB|>"], ["w", "el", "wel"], ["wel", "come<|WB|>", "welcome<|WB|>"], ["\"", "Welcome,<|WB|>", "\"Welcome,<|WB|>"], ["greeting", "[]<|WB|>", "greeting[]<|WB|>"], ["there", "!\\n\";<|WB|>", "there!\\n\";<|WB|>"], ["puts(\"", "Salutations,<|WB|>", "puts(\"Salutations,<|WB|>"], ["idx", "++;<|WB|>", "idx++;<|WB|>"], ["(", "diff<|WB|>", "(diff<|WB|>"], ["-", "x);<|WB|>", "-x);<|WB|>"], ["*", "message<|WB|>", "*message<|WB|>"], ["friend", "!\";<|WB|>", "friend!\";<|WB|>"], ["puts(", "message);<|WB|>", "puts(message);<|WB|>"], ["messag", "e[]<|WB|>", "message[]<|WB|>"], ["stranger", "!\\n\";<|WB|>", "stranger!\\n\";<|WB|>"], ["nam", "e[]<|WB|>", "name[]<|WB|>"], ["programmer", "!\\n\";<|WB|>", "programmer!\\n\";<|WB|>"], ["puts(", "name);<|WB|>", "puts(name);<|WB|>"], ["\"H", "ey,<|WB|>", "\"Hey,<|WB|>"], ["1", "9<|WB|>", "19<|WB|>"], ["3", "3<|WB|>", "33<|WB|>"], ["3", "3);<|WB|>", "33);<|WB|>"], ["j", ";<|WB|>", "j;<|WB|>"], ["5", "4<|WB|>", "54<|WB|>"], ["1", "8<|WB|>", "18<|WB|>"], ["5", "4,<|WB|>", "54,<|WB|>"], ["1", "8;<|WB|>", "18;<|WB|>"], ["puts(\"H", "ey,<|WB|>", "puts(\"Hey,<|WB|>"], ["4", "8<|WB|>", "48<|WB|>"], ["5", "2);<|WB|>", "52);<|WB|>"], ["s", "alutation", "salutation"], ["salutation", "s<|WB|>", "salutations<|WB|>"], ["5", "3,<|WB|>", "53,<|WB|>"], ["2", "5;<|WB|>", "25;<|WB|>"], ["1", "6;<|WB|>", "16;<|WB|>"], ["-", "n);<|WB|>", "-n);<|WB|>"], ["-", "value);<|WB|>", "-value);<|WB|>"], ["3", "5,<|WB|>", "35,<|WB|>"], ["-", "lhs);<|WB|>", "-lhs);<|WB|>"], ["printf(\"", "Salutation", "printf(\"Salutation"], ["printf(\"Salutation", "s<|WB|>", "printf(\"Salutations<|WB|>"], ["n", "++;<|WB|>", "n++;<|WB|>"], ["1", "6<|WB|>", "16<|WB|>"], ["3", "8<|WB|>", "38<|WB|>"], ["3", "8);<|WB|>", "38);<|WB|>"], ["4", ")<|WB|>", "4)<|WB|>"], ["i", "++;<|WB|>", "i++;<|WB|>"], ["s", "[]<|WB|>", "s[]<|WB|>"], ["pal", "!\\n\";<|WB|>", "pal!\\n\";<|WB|>"], ["hi", "[]<|WB|>", "hi[]<|WB|>"], ["4", "6,<|WB|>", "46,<|WB|>"], ["quoti", "en", "quotien"], ["quotien", "t<|WB|>", "quotient<|WB|>"], ["1", "0<|WB|>", "10<|WB|>"], ["1", "0,<|WB|>", "10,<|WB|>"], ["5", "4;<|WB|>", "54;<|WB|>"], ["(", "first<|WB|>", "(first<|WB|>"], ["friend", "!\\n\";<|WB|>", "friend!\\n\";<|WB|>"], ["1", "7;<|WB|>", "17;<|WB|>"], ["\"", "stranger", "\"stranger"], ["\"stranger", "\");<|WB|>", "\"stranger\");<|WB|>"], ["(", "input<|WB|>", "(input<|WB|>"], ["8", ")<|WB|>", "8)<|WB|>"], ["friend", ".<|WB|>", "friend.<|WB|>"], ["worl", "d<|WB|>", "world<|WB|>"], ["puts(\"", "Welcome,<|WB|>", "puts(\"Welcome,<|WB|>"], ["*", "word<|WB|>", "*word<|WB|>"], ["\"H", "ola,<|WB|>", "\"Hola,<|WB|>"], ["world", "\\n\");<|WB|>", "world\\n\");<|WB|>"], ["lin", "e[]<|WB|>", "line[]<|WB|>"], ["folks", "!\\n\";<|WB|>", "folks!\\n\";<|WB|>"], ["puts(", "line);<|WB|>", "puts(line);<|WB|>"], ["4", "5<|WB|>", "45<|WB|>"], ["k", "++;<|WB|>", "k++;<|WB|>"], ["h", "ello<|WB|>", "hello<|WB|>"], ["3", "6,<|WB|>", "36,<|WB|>"], ["1", "1;<|WB|>", "11;<|WB|>"], ["idx", ");<|WB|>", "idx);<|WB|>"], ["everyone", ".<|WB|>", "everyone.<|WB|>"], ["k", ");<|WB|>", "k);<|WB|>"], ["4", "8);<|WB|>", "48);<|WB|>"], ["2", "7,<|WB|>", "27,<|WB|>"], ["programmer", ".<|WB|>", "programmer.<|WB|>"], ["\"", "programmer", "\"programmer"], ["\"programmer", "\");<|WB|>", "\"programmer\");<|WB|>"], ["nega", "ted<|WB|>", "negated<|WB|>"], ["(", "amount<|WB|>", "(amount<|WB|>"], ["1", "3,<|WB|>", "13,<|WB|>"], ["str", "[]<|WB|>", "str[]<|WB|>"], ["3", "8,<|WB|>", "38,<|WB|>"], ["*", "line<|WB|>", "*line<|WB|>"], ["7", ")<|WB|>", "7)<|WB|>"], ["stranger", "<|WB|>", "stranger<|WB|>"], ["3", "7,<|WB|>", "37,<|WB|>"], ["2", "6;<|WB|>", "26;<|WB|>"], ["*", "name<|WB|>", "*name<|WB|>"], ["1", "8);<|WB|>", "18);<|WB|>"], ["5", "5<|WB|>", "55<|WB|>"], ["3", "2);<|WB|>", "32);<|WB|>"], ["4", "7<|WB|>", "47<|WB|>"], ["4", "1<|WB|>", "41<|WB|>"], ["4", "1);<|WB|>", "41);<|WB|>"], ["5", "8<|WB|>", "58<|WB|>"], ["3", "0);<|WB|>", "30);<|WB|>"], ["\"", "friend", "\"friend"], ["\"friend", "\");<|WB|>", "\"friend\");<|WB|>"], ["6", "0);<|WB|>", "60);<|WB|>"], ["-", "input);<|WB|>", "-input);<|WB|>"], ["2", "7;<|WB|>", "27;<|WB|>"], ["(", "result<|WB|>", "(result<|WB|>"], ["1", "2<|WB|>", "12<|WB|>"], ["2", "6<|WB|>", "26<|WB|>"], ["1", "1,<|WB|>", "11,<|WB|>"], ["4", "8,<|WB|>", "48,<|WB|>"], ["1", "3;<|WB|>", "13;<|WB|>"], ["(", "c<|WB|>", "(c<|WB|>"], ["(", "total<|WB|>", "(total<|WB|>"], ["stranger", "!\";<|WB|>", "stranger!\";<|WB|>"], ["puts(", "msg);<|WB|>", "puts(msg);<|WB|>"], ["2", "6,<|WB|>", "26,<|WB|>"], ["5", "3;<|WB|>", "53;<|WB|>"], ["ad", "d<|WB|>", "add<|WB|>"], ["3", "7<|WB|>", "37<|WB|>"], ["1", "4;<|WB|>", "14;<|WB|>"], ["2", "0,<|WB|>", "20,<|WB|>"], ["5", "6;<|WB|>", "56;<|WB|>"], ["*", "buf<|WB|>", "*buf<|WB|>"], ["3", "1<|WB|>", "31<|WB|>"], ["2", "9);<|WB|>", "29);<|WB|>"], ["stranger", ".<|WB|>", "stranger.<|WB|>"], ["stranger", "\\n\");<|WB|>", "stranger\\n\");<|WB|>"], ["\"", "folks", "\"folks"], ["\"folks", "\");<|WB|>", "\"folks\");<|WB|>"], ["4", "6<|WB|>", "46<|WB|>"], ["(", "x<|WB|>", "(x<|WB|>"], ["divid", "e<|WB|>", "divide<|WB|>"], ["4", "7,<|WB|>", "47,<|WB|>"], ["(", "b<|WB|>", "(b<|WB|>"], ["2", "2<|WB|>", "22<|WB|>"], ["4", "3);<|WB|>", "43);<|WB|>"], ["1", "4,<|WB|>", "14,<|WB|>"], ["2", "1;<|WB|>", "21;<|WB|>"], ["-", "i);<|WB|>", "-i);<|WB|>"], ["(", "product<|WB|>", "(product<|WB|>"], ["(", "val<|WB|>", "(val<|WB|>"], ["2", "0<|WB|>", "20<|WB|>"], ["2", "1<|WB|>", "21<|WB|>"], ["(", "second<|WB|>", "(second<|WB|>"], ["tex", "t", "text"], ["text", "[]<|WB|>", "text[]<|WB|>"], ["(", "a<|WB|>", "(a<|WB|>"], ["4", "9<|WB|>", "49<|WB|>"], ["3", "3,<|WB|>", "33,<|WB|>"]], "vocab": {"0": "\u0000", "1": "\u0001", "2": "\u0002", "3": "\u0003", "4": "\u0004", "5": "\u0005", "6": "\u0006", "7": "\u0007", "8": "\b", "9": "\t", "10": "\n", "11": "\u000b", "12": "\f", "13": "\r", "14": "\u000e", "15": "\u000f", "16": "\u0010", "17": "\u0011", "18": "\u0012", "19": "\u0013", "20": "\u0014", "21": "\u0015", "22": "\u0016", "23": "\u0017", "24": "\u0018", "25": "\u0019", "26": "\u001a", "27": "\u001b", "28": "\u001c", "29": "\u001d", "30": "\u001e", "31": "\u001f", "32": " ", "33": "!", "34": "\"", "35": "#", "36": "$", "37": "%", "38": "&", "39": "'", "40": "(", "41": ")", "42": "*", "43": "+", "44": ",", "45": "-", "46": ".", "47": "/", "48": "0", "49": "1", "50": "2", "51": "3", "52": "4", "53": "5", "54": "6", "55": "7", "56": "8", "57": "9", "58": ":", "59": ";", "60": "<", "61": "=", "62": ">", "63": "?", "64": "@", "65": "A", "66": "B", "67": "C", "68": "D", "69": "E", "70": "F", "71": "G", "72": "H", "73": "I", "74": "J", "75": "K", "76": "L", "77": "M", "78": "N", "79": "O", "80": "P", "81": "Q", "82": "R", "83": "S", "84": "T", "85": "U", "86": "V", "87": "W", "88": "X", "89": "Y", "90": "Z", "91": "[", "92": "\\", "93": "]", "94": "^", "95": "_", "96": "`", "97": "a", "98": "b", "99": "c", "100": "d", "101": "e", "102": "f", "103": "g", "104": "h", "105": "i", "106": "j", "107": "k", "108": "l", "109": "m", "110": "n", "111": "o", "112": "p", "113": "q", "114": "r", "115": "s", "116": "t", "117": "u", "118": "v", "119": "w", "120": "x", "121": "y", "122": "z", "123": "{", "124": "|", "125": "}", "126": "~", "127": "\u007f", "128": "\u0080", "129": "\u0081", "130": "\u0082", "131": "\u0083", "132": "\u0084", "133": "\u0085", "134": "\u0086", "135": "\u0087", "136": "\u0088", "137": "\u0089", "138": "\u008a", "139": "\u008b", "140": "\u008c", "141": "\u008d", "142": "\u008e", "143": "\u008f", "144": "\u0090", "145": "\u0091", "146": "\u0092", "147": "\u0093", "148": "\u0094", "149": "\u0095", "150": "\u0096", "151": "\u0097", "152": "\u0098", "153": "\u0099", "154": "\u009a", "155": "\u009b", "156": "\u009c", "157": "\u009d", "158": "\u009e", "159": "\u009f", "160": "\u00a0", "161": "\u00a1", "162": "\u00a2", "163": "\u00a3", "164": "\u00a4", "165": "\u00a5", "166": "\u00a6", "167": "\u00a7", "168": "\u00a8", "169": "\u00a9", "170": "\u00aa", "171": "\u00ab", "172": "\u00ac", "173": "\u00ad", "174": "\u00ae", "175": "\u00af", "176": "\u00b0", "177": "\u00b1", "178": "\u00b2", "179": "\u00b3", "180": "\u00b4", "181": "\u00b5", "182": "\u00b6", "183": "\u00b7", "184": "\u00b8", "185": "\u00b9", "186": "\u00ba", "187": "\u00bb", "188": "\u00bc", "189": "\u00bd", "190": "\u00be", "191": "\u00bf", "192": "\u00c0", "193": "\u00c1", "194": "\u00c2", "195": "\u00c3", "196": "\u00c4", "197": "\u00c5", "198": "\u00c6", "199": "\u00c7", "200": "\u00c8", "201": "\u00c9", "202": "\u00ca", "203": "\u00cb", "204": "\u00cc", "205": "\u00cd", "206": "\u00ce", "207": "\u00cf", "208": "\u00d0", "209": "\u00d1", "210": "\u00d2", "211": "\u00d3", "212": "\u00d4", "213": "\u00d5", "214": "\u00d6", "215": "\u00d7", "216": "\u00d8", "217": "\u00d9", "218": "\u00da", "219": "\u00db", "220": "\u00dc", "221": "\u00dd", "222": "\u00de", "223": "\u00df", "224": "\u00e0", "225": "\u00e1", "226": "\u00e2", "227": "\u00e3", "228": "\u00e4", "229": "\u00e5", "230": "\u00e6", "231": "\u00e7", "232": "\u00e8", "233": "\u00e9", "234": "\u00ea", "235": "\u00eb", "236": "\u00ec", "237": "\u00ed", "238": "\u00ee", "239": "\u00ef", "240": "\u00f0", "241": "\u00f1", "242": "\u00f2", "243": "\u00f3", "244": "\u00f4", "245": "\u00f5", "246": "\u00f6", "247": "\u00f7", "248": "\u00f8", "249": "\u00f9", "250": "\u00fa", "251": "\u00fb", "252": "\u00fc", "253": "\u00fd", "254": "\u00fe", "255": "\u00ff", "256": "<|EOS|>", "257": "<|WB|>", "258": ";<|WB|>", "259": ");<|WB|>", "260": ",<|WB|>", "261": "in", "262": "er", "263": "\");<|WB|>", "264": "pr", "265": "\\n", "266": "s<|WB|>", "267": "ut", "268": "(\"", "269": "e<|WB|>", "270": ".<|WB|>", "271": "int", "272": "put", "273": "st", "274": "al", "275": "print", "276": "re", "277": "en", "278": "puts", "279": "printf", "280": "printf(\"", "281": "\\n\");<|WB|>", "282": "am", "283": "on", "284": "\";<|WB|>", "285": "d<|WB|>", "286": ")<|WB|>", "287": "ou", "288": "th", "289": "ar", "290": "t<|WB|>", "291": "or", "292": "um", "293": "pro", "294": "ing", "295": "y<|WB|>", "296": "el", "297": "]<|WB|>", "298": "an", "299": "wor", "300": "str", "301": "ree", "302": "reet", "303": "arg", "304": "puts(", "305": "ol", "306": "[]<|WB|>", "307": "ther", "308": "ti", "309": "ri", "310": "reeting", "311": "!\\n", "312": "di", "313": "!\");<|WB|>", "314": "me", "315": "++", "316": "puts(\"", "317": "printf(\"H", "318": "!\\n\");<|WB|>", "319": "ev", "320": "ue", "321": "t);<|WB|>", "322": "!\";<|WB|>", "323": "!\\n\";<|WB|>", "324": "se", "325": "id", "326": "fri", "327": "frien", "328": "prog", "329": "progr", "330": "program", "331": "co", "332": "te", "333": "there", "334": "lo", "335": "val", "336": "friend", "337": "programm", "338": "programmer", "339": "you", "340": "oun", "341": "lin", "342": "ever", "343": "every", "344": "everyon", "345": "worl", "346": "pal", "347": "gue", "348": "guest", "349": "stran", "350": "strang", "351": "stranger", "352": "f<|WB|>", "353": "0;<|WB|>", "354": "ow", "355": "hi", "356": "to", "357": "sa", "358": "num", "359": "everyone", "360": "ul", "361": "greeting", "362": "world", "363": "fol", "364": "folk", "365": "folks", "366": "nam", "367": "argv", "368": "1<|WB|>", "369": "\"H", "370": "8;<|WB|>", "371": "\",<|WB|>", "372": "8<|WB|>", "373": "mes", "374": "puts(\"H", "375": "5;<|WB|>", "376": "2);<|WB|>", "377": "1;<|WB|>", "378": "dif", "379": "6<|WB|>", "380": "6;<|WB|>", "381": "idx", "382": "2;<|WB|>", "383": "com", "384": "3<|WB|>", "385": "3,<|WB|>", "386": "5<|WB|>", "387": "5,<|WB|>", "388": "s,<|WB|>", "389": "2<|WB|>", "390": "6,<|WB|>", "391": "du", "392": "1,<|WB|>", "393": "7;<|WB|>", "394": "s);<|WB|>", "395": "y,<|WB|>", "396": "2,<|WB|>", "397": "0<|WB|>", "398": "0);<|WB|>", "399": "7<|WB|>", "400": "9,<|WB|>", "401": "4;<|WB|>", "402": "4<|WB|>", "403": "5);<|WB|>", "404": "9<|WB|>", "405": "9;<|WB|>", "406": "3;<|WB|>", "407": "e);<|WB|>", "408": "3);<|WB|>", "409": "4,<|WB|>", "410": "0,<|WB|>", "411": "6);<|WB|>", "412": "7,<|WB|>", "413": "8,<|WB|>", "414": "7);<|WB|>", "415": "4);<|WB|>", "416": "pl", "417": "ma", "418": "main", "419": "c<|WB|>", "420": "argv[", "421": "ello", "422": "sum", "423": "\\n\",<|WB|>", "424": "++)<|WB|>", "425": "it", "426": "ir", "427": "alut", "428": "aluta", "429": "alutati", "430": "alutation", "431": "con", "432": "ba", "433": "en<|WB|>", "434": "messa", "435": "messag", "436": "produ", "437": "produc", "438": "tex", "439": "owd", "440": "++;<|WB|>", "441": "res", "442": "resul", "443": "1);<|WB|>", "444": "ola", "445": "bu", "446": "ms", "447": "msg", "448": "8);<|WB|>", "449": "9);<|WB|>", "450": "se<|WB|>", "451": "n<|WB|>", "452": "qu", "453": "es<|WB|>", "454": "fir", "455": "first", "456": "ed<|WB|>", "457": "Yo", "458": "ent", "459": "diff", "460": "amoun", "461": "ey<|WB|>", "462": "line<|WB|>", "463": "tot", "464": "total", "465": "coun", "466": "Salutation", "467": "rh", "468": "secon", "469": "d);<|WB|>", "470": "%s", "471": "Greeting", "472": "lh", "473": "input", "474": "Wel", "475": "int<|WB|>", "476": "main(", "477": "argc<|WB|>", "478": "argv[1", "479": "ello,<|WB|>", "480": "sh", "481": "i,<|WB|>", "482": "bl", "483": "numb", "484": "number", "485": "]);<|WB|>", "486": "ra", "487": "Yo,<|WB|>", "488": "ad", "489": "o<|WB|>", "490": "m<|WB|>", "491": "out", "492": "Salutations,<|WB|>", "493": "od", "494": "ing<|WB|>", "495": "wh", "496": "d.<|WB|>", "497": "Greetings,<|WB|>", "498": "owdy,<|WB|>", "499": "ola,<|WB|>", "500": "k<|WB|>", "501": "buf", "502": "i<|WB|>", "503": "Welco", "504": "Welcome", "505": "Welcome,<|WB|>", "506": "ey,<|WB|>", "507": "e[]<|WB|>", "508": "a<|WB|>", "509": "name<|WB|>", "510": "is<|WB|>", "511": "ple<|WB|>", "512": "inc", "513": "><|WB|>", "514": "valu", "515": "value<|WB|>", "516": "squ", "517": "squa", "518": "square", "519": "and<|WB|>", "520": "show", "521": "sum<|WB|>", "522": "=<|WB|>", "523": "%d", "524": "%d\\n\",<|WB|>", "525": "sum);<|WB|>", "526": "loo", "527": "loop", "528": "or<|WB|>", "529": "hi<|WB|>", "530": "dou", "531": "doubl", "532": "first<|WB|>", "533": "x<|WB|>", "534": "ato", "535": "atoi", "536": "atoi(", "537": "argv[1]);<|WB|>", "538": "wo<|WB|>", "539": "argum", "540": "argument", "541": "differ", "542": "differen", "543": "differenc", "544": "e.<|WB|>", "545": "amount<|WB|>", "546": "diff<|WB|>", "547": "diff);<|WB|>", "548": "ts<|WB|>", "549": "idx<|WB|>", "550": "comm", "551": "value", "552": "value);<|WB|>", "553": "remain", "554": "remaind", "555": "remainder", "556": "a);<|WB|>", "557": "total<|WB|>", "558": "count<|WB|>", "559": "count);<|WB|>", "560": "im", "561": "rhs<|WB|>", "562": "second<|WB|>", "563": "second);<|WB|>", "564": "base<|WB|>", "565": "par", "566": "parit", "567": "div", "568": "divid", "569": "quo", "570": "quoti", "571": "ent.<|WB|>", "572": "x);<|WB|>", "573": "%s\\n\",<|WB|>", "574": "message<|WB|>", "575": "j<|WB|>", "576": "mul", "577": "multi", "578": "multipl", "579": "t.<|WB|>", "580": "z<|WB|>", "581": "total);<|WB|>", "582": "ed.<|WB|>", "583": "val<|WB|>", "584": "m);<|WB|>", "585": "greeting<|WB|>", "586": "text<|WB|>", "587": "text);<|WB|>", "588": "owdy<|WB|>", "589": "wri", "590": "tes<|WB|>", "591": "product<|WB|>", "592": "lhs<|WB|>", "593": "lhs);<|WB|>", "594": "result<|WB|>", "595": "ted<|WB|>", "596": "buf);<|WB|>", "597": "su", "598": "sub", "599": "subt", "600": "subtra", "601": "subtrac", "602": "ther<|WB|>", "603": "product);<|WB|>", "604": "input<|WB|>", "605": "input);<|WB|>", "606": "n);<|WB|>", "607": "i);<|WB|>", "608": "str<|WB|>", "609": "str);<|WB|>", "610": "greeting);<|WB|>", "611": "ne", "612": "neg", "613": "nega", "614": "word);<|WB|>", "615": "ello<|WB|>", "616": "rhs);<|WB|>", "617": "result);<|WB|>", "618": "hi);<|WB|>", "619": "msg<|WB|>", "620": "msg);<|WB|>", "621": "base", "622": "base);<|WB|>", "623": "num<|WB|>", "624": "amount);<|WB|>", "625": "b<|WB|>", "626": "val);<|WB|>", "627": "num);<|WB|>", "628": "come<|WB|>", "629": "message);<|WB|>", "630": "name);<|WB|>", "631": "first);<|WB|>", "632": "b);<|WB|>", "633": "z);<|WB|>", "634": "word<|WB|>", "635": "line);<|WB|>", "636": "buf<|WB|>", "637": "c);<|WB|>", "638": "y);<|WB|>", "639": "ola<|WB|>", "640": "If<|WB|>", "641": "pa", "642": "pas", "643": "passe", "644": "passed<|WB|>", "645": "in,<|WB|>", "646": "this<|WB|>", "647": "sam", "648": "sample<|WB|>", "649": "greet", "650": "greets<|WB|>", "651": "it<|WB|>", "652": "by<|WB|>", "653": "name", "654": "name,<|WB|>", "655": "else<|WB|>", "656": "there.<|WB|>", "657": "#inc", "658": "#incl", "659": "#inclu", "660": "#includ", "661": "#include<|WB|>", "662": "<st", "663": "<stdi", "664": "<stdio", "665": "<stdio.", "666": "<stdio.h", "667": "<stdio.h><|WB|>", "668": "main(int<|WB|>", "669": "argc", "670": "argc,<|WB|>", "671": "ch", "672": "char", "673": "char<|WB|>", "674": "**", "675": "**argv", "676": "**argv)<|WB|>", "677": "{<|WB|>", "678": "puts(argc<|WB|>", "679": "?<|WB|>", "680": "argv[1]<|WB|>", "681": ":<|WB|>", "682": "\"Hello,<|WB|>", "683": "there!\");<|WB|>", "684": "ret", "685": "retu", "686": "retur", "687": "return<|WB|>", "688": "}<|WB|>", "689": "Her", "690": "Here<|WB|>", "691": "squared<|WB|>", "692": "shown<|WB|>", "693": "on<|WB|>", "694": "sc", "695": "scre", "696": "screen", "697": "screen.<|WB|>", "698": "main(v", "699": "main(vo", "700": "main(void", "701": "main(void)<|WB|>", "702": "28;<|WB|>", "703": "printf(\"%d\\n\",<|WB|>", "704": "*<|WB|>", "705": "Thi", "706": "This<|WB|>", "707": "use", "708": "uses<|WB|>", "709": "loop<|WB|>", "710": "to<|WB|>", "711": "print<|WB|>", "712": "up", "713": "up<|WB|>", "714": "times", "715": "times.<|WB|>", "716": "*argv[", "717": "*argv[]", "718": "*argv[])<|WB|>", "719": "n;<|WB|>", "720": "for<|WB|>", "721": "(n<|WB|>", "722": "<<|WB|>", "723": "n++)<|WB|>", "724": "puts(\"Hi,<|WB|>", "725": "friend!\");<|WB|>", "726": "say", "727": "says<|WB|>", "728": "ex", "729": "exit", "730": "exits", "731": "exits.<|WB|>", "732": "main()<|WB|>", "733": "printf(\"Hi,<|WB|>", "734": "programmer!\\n\");<|WB|>", "735": "program<|WB|>", "736": "doubles<|WB|>", "737": "number<|WB|>", "738": "prints<|WB|>", "739": "it.<|WB|>", "740": "doubled<|WB|>", "741": "if<|WB|>", "742": "(argc<|WB|>", "743": "2)<|WB|>", "744": "atoi(argv[1]);<|WB|>", "745": "you<|WB|>", "746": "wi", "747": "with", "748": "with<|WB|>", "749": "shor", "750": "short<|WB|>", "751": "ph", "752": "phra", "753": "phrase", "754": "phrase.<|WB|>", "755": "printf(\"Yo,<|WB|>", "756": "you!\\n\");<|WB|>", "757": "Re", "758": "Read", "759": "Reads<|WB|>", "760": "two<|WB|>", "761": "arguments<|WB|>", "762": "the", "763": "their", "764": "their<|WB|>", "765": "difference.<|WB|>", "766": "3)<|WB|>", "767": "atoi(argv[", "768": "atoi(argv[2", "769": "atoi(argv[2]);<|WB|>", "770": "-<|WB|>", "771": "puts(\"Hey<|WB|>", "772": "there,<|WB|>", "773": "you!\");<|WB|>", "774": "A<|WB|>", "775": "rep", "776": "repe", "777": "repea", "778": "repeats<|WB|>", "779": "the<|WB|>", "780": "fe", "781": "few", "782": "few<|WB|>", "783": "idx;<|WB|>", "784": "(idx<|WB|>", "785": "idx++)<|WB|>", "786": "everyone!\");<|WB|>", "787": "squares<|WB|>", "788": "fr", "789": "fro", "790": "from<|WB|>", "791": "command<|WB|>", "792": "output", "793": "outputs<|WB|>", "794": "we<|WB|>", "795": "comput", "796": "compute<|WB|>", "797": "remainder<|WB|>", "798": "of<|WB|>", "799": "23<|WB|>", "800": "51<|WB|>", "801": "show<|WB|>", "802": "23,<|WB|>", "803": "51;<|WB|>", "804": "%<|WB|>", "805": "15<|WB|>", "806": "15;<|WB|>", "807": "+<|WB|>", "808": "min", "809": "minim", "810": "minimal", "811": "minimal<|WB|>", "812": "tha", "813": "that<|WB|>", "814": "friendl", "815": "friendly<|WB|>", "816": "line.<|WB|>", "817": "printf(\"Salutations,<|WB|>", "818": "there!\\n\");<|WB|>", "819": "add", "820": "adds<|WB|>", "821": "numbers<|WB|>", "822": "comman", "823": "command", "824": "command-", "825": "command-line<|WB|>", "826": "sum.<|WB|>", "827": "12;<|WB|>", "828": "even<|WB|>", "829": "odd<|WB|>", "830": "de", "831": "dep", "832": "depen", "833": "depend", "834": "depending<|WB|>", "835": "its<|WB|>", "836": "parity", "837": "parity.<|WB|>", "838": "(rhs<|WB|>", "839": "==<|WB|>", "840": "0)<|WB|>", "841": "printf(\"ev", "842": "printf(\"even", "843": "printf(\"even\\n\");<|WB|>", "844": "printf(\"od", "845": "printf(\"odd", "846": "printf(\"odd\\n\");<|WB|>", "847": "divides<|WB|>", "848": "quotient.<|WB|>", "849": "20;<|WB|>", "850": "/<|WB|>", "851": "gi", "852": "giv", "853": "given<|WB|>", "854": "1)<|WB|>", "855": "printf(\"Yo", "856": "printf(\"Yo<|WB|>", "857": "you\\n\");<|WB|>", "858": "time", "859": "times<|WB|>", "860": "us", "861": "using<|WB|>", "862": "loop.<|WB|>", "863": "(int<|WB|>", "864": "j++)<|WB|>", "865": "friend!\\n\");<|WB|>", "866": "multipli", "867": "multiplies<|WB|>", "868": "product.<|WB|>", "869": "sim", "870": "simple<|WB|>", "871": "multiply<|WB|>", "872": "who", "873": "whose<|WB|>", "874": "ans", "875": "answ", "876": "answer", "877": "answer<|WB|>", "878": "printed.<|WB|>", "879": "51,<|WB|>", "880": "47;<|WB|>", "881": "sto", "882": "store", "883": "stores<|WB|>", "884": "in<|WB|>", "885": "const", "886": "const<|WB|>", "887": "*text<|WB|>", "888": "\"Greetings,<|WB|>", "889": "world!\";<|WB|>", "890": "printf(\"%s\\n\",<|WB|>", "891": "sav", "892": "saved<|WB|>", "893": "printed<|WB|>", "894": "puts.<|WB|>", "895": "*s<|WB|>", "896": "\"Hey<|WB|>", "897": "folks!\";<|WB|>", "898": "puts(s);<|WB|>", "899": "howdy<|WB|>", "900": "printf(\"Howdy,<|WB|>", "901": "everyone!\\n\");<|WB|>", "902": "printf(\"Hey<|WB|>", "903": "printf(\"Hello,<|WB|>", "904": "%s.", "905": "%s.\\n\",<|WB|>", "906": "\"there", "907": "\"there\");<|WB|>", "908": "tin", "909": "tiny<|WB|>", "910": "C<|WB|>", "911": "writes<|WB|>", "912": "out<|WB|>", "913": "greeting.<|WB|>", "914": "printf(\"Greetings,<|WB|>", "915": "pal!\\n\");<|WB|>", "916": "whi", "917": "whil", "918": "while<|WB|>", "919": "(j<|WB|>", "920": "5)<|WB|>", "921": "puts(\"Howdy,<|WB|>", "922": "j++;<|WB|>", "923": "printf(\"line<|WB|>", "924": "j);<|WB|>", "925": "52<|WB|>", "926": "52;<|WB|>", "927": "difference<|WB|>", "928": "42<|WB|>", "929": "35<|WB|>", "930": "42,<|WB|>", "931": "35;<|WB|>", "932": "Two<|WB|>", "933": "are<|WB|>", "934": "comb", "935": "combin", "936": "combined<|WB|>", "937": "dis", "938": "displ", "939": "displa", "940": "display", "941": "displayed.<|WB|>", "942": "incre", "943": "increm", "944": "incremen", "945": "incremented<|WB|>", "946": "printf(\"Hola,<|WB|>", "947": "11<|WB|>", "948": "50<|WB|>", "949": "50);<|WB|>", "950": "\"Howdy,<|WB|>", "951": "programmer!\";<|WB|>", "952": "puts(text);<|WB|>", "953": "k++)<|WB|>", "954": "guest!\\n\");<|WB|>", "955": "puts(\"Greetings,<|WB|>", "956": "programmer!\");<|WB|>", "957": "hel", "958": "held<|WB|>", "959": "var", "960": "vari", "961": "varia", "962": "variabl", "963": "variable<|WB|>", "964": "then<|WB|>", "965": "writ", "966": "writt", "967": "written<|WB|>", "968": "out.<|WB|>", "969": "buf[]<|WB|>", "970": "\"Yo,<|WB|>", "971": "world!\\n\";<|WB|>", "972": "puts(buf);<|WB|>", "973": "subtracts<|WB|>", "974": "one<|WB|>", "975": "ano", "976": "another<|WB|>", "977": "stranger!\\n\");<|WB|>", "978": "folks.<|WB|>", "979": "\"Hi,<|WB|>", "980": "folks!\");<|WB|>", "981": "subtract<|WB|>", "982": "29,<|WB|>", "983": "34;<|WB|>", "984": "puts(\"Hola,<|WB|>", "985": "i;<|WB|>", "986": "(i<|WB|>", "987": "i++)<|WB|>", "988": "folks!\\n\");<|WB|>", "989": "ta", "990": "tak", "991": "takes<|WB|>", "992": "remainder.<|WB|>", "993": "puts(\"Yo,<|WB|>", "994": "guest!\");<|WB|>", "995": "It<|WB|>", "996": "argument,<|WB|>", "997": "fal", "998": "fall", "999": "falling<|WB|>", "1000": "bac", "1001": "back<|WB|>", "1002": "pal.<|WB|>", "1003": "printf(\"Greeting", "1004": "printf(\"Greetings<|WB|>", "1005": "pal\\n\");<|WB|>", "1006": "*str<|WB|>", "1007": "puts(str);<|WB|>", "1008": "57<|WB|>", "1009": "45);<|WB|>", "1010": "*greeting<|WB|>", "1011": "pal!\";<|WB|>", "1012": "puts(greeting);<|WB|>", "1013": "negates<|WB|>", "1014": "-m);<|WB|>", "1015": "word", "1016": "word[]<|WB|>", "1017": "\"Salutations,<|WB|>", "1018": "everyone!\\n\";<|WB|>", "1019": "puts(word);<|WB|>", "1020": "printf(\"Hello<|WB|>", "1021": "folks\\n\");<|WB|>", "1022": "56<|WB|>", "1023": "39<|WB|>", "1024": "56,<|WB|>", "1025": "39;<|WB|>", "1026": "\"world", "1027": "\"world\");<|WB|>", "1028": "yo<|WB|>", "1029": "guest<|WB|>", "1030": "printf(\"Welcome,<|WB|>", "1031": "Ch", "1032": "Che", "1033": "Chec", "1034": "Check", "1035": "Checks<|WB|>", "1036": "number'", "1037": "number's<|WB|>", "1038": "parity<|WB|>", "1039": "result.<|WB|>", "1040": "53<|WB|>", "1041": "33;<|WB|>", "1042": "-rhs);<|WB|>", "1043": "(base<|WB|>", "1044": "*hi<|WB|>", "1045": "puts(hi);<|WB|>", "1046": "printf(\"Hey,<|WB|>", "1047": "\"everyone", "1048": "\"everyone\");<|WB|>", "1049": "*msg<|WB|>", "1050": "guest!\";<|WB|>", "1051": "-base);<|WB|>", "1052": "world.<|WB|>", "1053": "%s!\\n", "1054": "%s!\\n\",<|WB|>", "1055": "tel", "1056": "tell", "1057": "tells<|WB|>", "1058": "whe", "1059": "whether<|WB|>", "1060": "odd.<|WB|>", "1061": "(value<|WB|>", "1062": "hey<|WB|>", "1063": "there<|WB|>", "1064": "when<|WB|>", "1065": "pre", "1066": "pres", "1067": "present.<|WB|>", "1068": "greetings<|WB|>", "1069": "stranger!\");<|WB|>", "1070": "30<|WB|>", "1071": "25<|WB|>", "1072": "25);<|WB|>", "1073": "29<|WB|>", "1074": "30;<|WB|>", "1075": "puts(\"Hello,<|WB|>", "1076": "world!\");<|WB|>", "1077": "(m<|WB|>", "1078": "printf(\"Hi<|WB|>", "1079": "there\\n\");<|WB|>", "1080": "you.<|WB|>", "1081": "\"you", "1082": "\"you\");<|WB|>", "1083": "24<|WB|>", "1084": "11);<|WB|>", "1085": "everyone!\";<|WB|>", "1086": "(num<|WB|>", "1087": "(sum<|WB|>", "1088": "24;<|WB|>", "1089": "guest.<|WB|>", "1090": "\"guest", "1091": "\"guest\");<|WB|>", "1092": "12,<|WB|>", "1093": "23;<|WB|>", "1094": "world!\\n\");<|WB|>", "1095": "mo", "1096": "modu", "1097": "modulo", "1098": "modulo<|WB|>", "1099": "55);<|WB|>", "1100": "36;<|WB|>", "1101": "-num);<|WB|>", "1102": "(lhs<|WB|>", "1103": "k;<|WB|>", "1104": "(k<|WB|>", "1105": "pal!\");<|WB|>", "1106": "wel", "1107": "welcome<|WB|>", "1108": "\"Welcome,<|WB|>", "1109": "greeting[]<|WB|>", "1110": "there!\\n\";<|WB|>", "1111": "puts(\"Salutations,<|WB|>", "1112": "idx++;<|WB|>", "1113": "(diff<|WB|>", "1114": "-x);<|WB|>", "1115": "*message<|WB|>", "1116": "friend!\";<|WB|>", "1117": "puts(message);<|WB|>", "1118": "message[]<|WB|>", "1119": "stranger!\\n\";<|WB|>", "1120": "name[]<|WB|>", "1121": "programmer!\\n\";<|WB|>", "1122": "puts(name);<|WB|>", "1123": "\"Hey,<|WB|>", "1124": "19<|WB|>", "1125": "33<|WB|>", "1126": "33);<|WB|>", "1127": "j;<|WB|>", "1128": "54<|WB|>", "1129": "18<|WB|>", "1130": "54,<|WB|>", "1131": "18;<|WB|>", "1132": "puts(\"Hey,<|WB|>", "1133": "48<|WB|>", "1134": "52);<|WB|>", "1135": "salutation", "1136": "salutations<|WB|>", "1137": "53,<|WB|>", "1138": "25;<|WB|>", "1139": "16;<|WB|>", "1140": "-n);<|WB|>", "1141": "-value);<|WB|>", "1142": "35,<|WB|>", "1143": "-lhs);<|WB|>", "1144": "printf(\"Salutation", "1145": "printf(\"Salutations<|WB|>", "1146": "n++;<|WB|>", "1147": "16<|WB|>", "1148": "38<|WB|>", "1149": "38);<|WB|>", "1150": "4)<|WB|>", "1151": "i++;<|WB|>", "1152": "s[]<|WB|>", "1153": "pal!\\n\";<|WB|>", "1154": "hi[]<|WB|>", "1155": "46,<|WB|>", "1156": "quotien", "1157": "quotient<|WB|>", "1158": "10<|WB|>", "1159": "10,<|WB|>", "1160": "54;<|WB|>", "1161": "(first<|WB|>", "1162": "friend!\\n\";<|WB|>", "1163": "17;<|WB|>", "1164": "\"stranger", "1165": "\"stranger\");<|WB|>", "1166": "(input<|WB|>", "1167": "8)<|WB|>", "1168": "friend.<|WB|>", "1169": "world<|WB|>", "1170": "puts(\"Welcome,<|WB|>", "1171": "*word<|WB|>", "1172": "\"Hola,<|WB|>", "1173": "world\\n\");<|WB|>", "1174": "line[]<|WB|>", "1175": "folks!\\n\";<|WB|>", "1176": "puts(line);<|WB|>", "1177": "45<|WB|>", "1178": "k++;<|WB|>", "1179": "hello<|WB|>", "1180": "36,<|WB|>", "1181": "11;<|WB|>", "1182": "idx);<|WB|>", "1183": "everyone.<|WB|>", "1184": "k);<|WB|>", "1185": "48);<|WB|>", "1186": "27,<|WB|>", "1187": "programmer.<|WB|>", "1188": "\"programmer", "1189": "\"programmer\");<|WB|>", "1190": "negated<|WB|>", "1191": "(amount<|WB|>", "1192": "13,<|WB|>", "1193": "str[]<|WB|>", "1194": "38,<|WB|>", "1195": "*line<|WB|>", "1196": "7)<|WB|>", "1197": "stranger<|WB|>", "1198": "37,<|WB|>", "1199": "26;<|WB|>", "1200": "*name<|WB|>", "1201": "18);<|WB|>", "1202": "55<|WB|>", "1203": "32);<|WB|>", "1204": "47<|WB|>", "1205": "41<|WB|>", "1206": "41);<|WB|>", "1207": "58<|WB|>", "1208": "30);<|WB|>", "1209": "\"friend", "1210": "\"friend\");<|WB|>", "1211": "60);<|WB|>", "1212": "-input);<|WB|>", "1213": "27;<|WB|>", "1214": "(result<|WB|>", "1215": "12<|WB|>", "1216": "26<|WB|>", "1217": "11,<|WB|>", "1218": "48,<|WB|>", "1219": "13;<|WB|>", "1220": "(c<|WB|>", "1221": "(total<|WB|>", "1222": "stranger!\";<|WB|>", "1223": "puts(msg);<|WB|>", "1224": "26,<|WB|>", "1225": "53;<|WB|>", "1226": "add<|WB|>", "1227": "37<|WB|>", "1228": "14;<|WB|>", "1229": "20,<|WB|>", "1230": "56;<|WB|>", "1231": "*buf<|WB|>", "1232": "31<|WB|>", "1233": "29);<|WB|>", "1234": "stranger.<|WB|>", "1235": "stranger\\n\");<|WB|>", "1236": "\"folks", "1237": "\"folks\");<|WB|>", "1238": "46<|WB|>", "1239": "(x<|WB|>", "1240": "divide<|WB|>", "1241": "47,<|WB|>", "1242": "(b<|WB|>", "1243": "22<|WB|>", "1244": "43);<|WB|>", "1245": "14,<|WB|>", "1246": "21;<|WB|>", "1247": "-i);<|WB|>", "1248": "(product<|WB|>", "1249": "(val<|WB|>", "1250": "20<|WB|>", "1251": "21<|WB|>", "1252": "(second<|WB|>", "1253": "text", "1254": "text[]<|WB|>", "1255": "(a<|WB|>", "1256": "49<|WB|>", "1257": "33,<|WB|>"}, "inverse_vocab": {"\u0000": 0, "\u0001": 1, "\u0002": 2, "\u0003": 3, "\u0004": 4, "\u0005": 5, "\u0006": 6, "\u0007": 7, "\b": 8, "\t": 9, "\n": 10, "\u000b": 11, "\f": 12, "\r": 13, "\u000e": 14, "\u000f": 15, "\u0010": 16, "\u0011": 17, "\u0012": 18, "\u0013": 19, "\u0014": 20, "\u0015": 21, "\u0016": 22, "\u0017": 23, "\u0018": 24, "\u0019": 25, "\u001a": 26, "\u001b": 27, "\u001c": 28, "\u001d": 29, "\u001e": 30, "\u001f": 31, " ": 32, "!": 33, "\"": 34, "#": 35, "$": 36, "%": 37, "&": 38, "'": 39, "(": 40, ")": 41, "*": 42, "+": 43, ",": 44, "-": 45, ".": 46, "/": 47, "0": 48, "1": 49, "2": 50, "3": 51, "4": 52, "5": 53, "6": 54, "7": 55, "8": 56, "9": 57, ":": 58, ";": 59, "<": 60, "=": 61, ">": 62, "?": 63, "@": 64, "A": 65, "B": 66, "C": 67, "D": 68, "E": 69, "F": 70, "G": 71, "H": 72, "I": 73, "J": 74, "K": 75, "L": 76, "M": 77, "N": 78, "O": 79, "P": 80, "Q": 81, "R": 82, "S": 83, "T": 84, "U": 85, "V": 86, "W": 87, "X": 88, "Y": 89, "Z": 90, "[": 91, "\\": 92, "]": 93, "^": 94, "_": 95, "`": 96, "a": 97, "b": 98, "c": 99, "d": 100, "e": 101, "f": 102, "g": 103, "h": 104, "i": 105, "j": 106, "k": 107, "l": 108, "m": 109, "n": 110, "o": 111, "p": 112, "q": 113, "r": 114, "s": 115, "t": 116, "u": 117, "v": 118, "w": 119, "x": 120, "y": 121, "z": 122, "{": 123, "|": 124, "}": 125, "~": 126, "\u007f": 127, "\u0080": 128, "\u0081": 129, "\u0082": 130, "\u0083": 131, "\u0084": 132, "\u0085": 133, "\u0086": 134, "\u0087": 135, "\u0088": 136, "\u0089": 137, "\u008a": 138, "\u008b": 139, "\u008c": 140, "\u008d": 141, "\u008e": 142, "\u008f": 143, "\u0090": 144, "\u0091": 145, "\u0092": 146, "\u0093": 147, "\u0094": 148, "\u0095": 149, "\u0096": 150, "\u0097": 151, "\u0098": 152, "\u0099": 153, "\u009a": 154, "\u009b": 155, "\u009c": 156, "\u009d": 157, "\u009e": 158, "\u009f": 159, "\u00a0": 160, "\u00a1": 161, "\u00a2": 162, "\u00a3": 163, "\u00a4": 164, "\u00a5": 165, "\u00a6": 166, "\u00a7": 167, "\u00a8": 168, "\u00a9": 169, "\u00aa": 170, "\u00ab": 171, "\u00ac": 172, "\u00ad": 173, "\u00ae": 174, "\u00af": 175, "\u00b0": 176, "\u00b1": 177, "\u00b2": 178, "\u00b3": 179, "\u00b4": 180, "\u00b5": 181, "\u00b6": 182, "\u00b7": 183, "\u00b8": 184, "\u00b9": 185, "\u00ba": 186, "\u00bb": 187, "\u00bc": 188, "\u00bd": 189, "\u00be": 190, "\u00bf": 191, "\u00c0": 192, "\u00c1": 193, "\u00c2": 194, "\u00c3": 195, "\u00c4": 196, "\u00c5": 197, "\u00c6": 198, "\u00c7": 199, "\u00c8": 200, "\u00c9": 201, "\u00ca": 202, "\u00cb": 203, "\u00cc": 204, "\u00cd": 205, "\u00ce": 206, "\u00cf": 207, "\u00d0": 208, "\u00d1": 209, "\u00d2": 210, "\u00d3": 211, "\u00d4": 212, "\u00d5": 213, "\u00d6": 214, "\u00d7": 215, "\u00d8": 216, "\u00d9": 217, "\u00da": 218, "\u00db": 219, "\u00dc": 220, "\u00dd": 221, "\u00de": 222, "\u00df": 223, "\u00e0": 224, "\u00e1": 225, "\u00e2": 226, "\u00e3": 227, "\u00e4": 228, "\u00e5": 229, "\u00e6": 230, "\u00e7": 231, "\u00e8": 232, "\u00e9": 233, "\u00ea": 234, "\u00eb": 235, "\u00ec": 236, "\u00ed": 237, "\u00ee": 238, "\u00ef": 239, "\u00f0": 240, "\u00f1": 241, "\u00f2": 242, "\u00f3": 243, "\u00f4": 244, "\u00f5": 245, "\u00f6": 246, "\u00f7": 247, "\u00f8": 248, "\u00f9": 249, "\u00fa": 250, "\u00fb": 251, "\u00fc": 252, "\u00fd": 253, "\u00fe": 254, "\u00ff": 255, "<|EOS|>": 256, "<|WB|>": 257, ";<|WB|>": 258, ");<|WB|>": 259, ",<|WB|>": 260, "in": 261, "er": 262, "\");<|WB|>": 263, "pr": 264, "\\n": 265, "s<|WB|>": 266, "ut": 267, "(\"": 268, "e<|WB|>": 269, ".<|WB|>": 270, "int": 271, "put": 272, "st": 273, "al": 274, "print": 275, "re": 276, "en": 277, "puts": 278, "printf": 279, "printf(\"": 280, "\\n\");<|WB|>": 281, "am": 282, "on": 283, "\";<|WB|>": 284, "d<|WB|>": 285, ")<|WB|>": 286, "ou": 287, "th": 288, "ar": 289, "t<|WB|>": 290, "or": 291, "um": 292, "pro": 293, "ing": 294, "y<|WB|>": 295, "el": 296, "]<|WB|>": 297, "an": 298, "wor": 299, "str": 300, "ree": 301, "reet": 302, "arg": 303, "puts(": 304, "ol": 305, "[]<|WB|>": 306, "ther": 307, "ti": 308, "ri": 309, "reeting": 310, "!\\n": 311, "di": 312, "!\");<|WB|>": 313, "me": 314, "++": 315, "puts(\"": 316, "printf(\"H": 317, "!\\n\");<|WB|>": 318, "ev": 319, "ue": 320, "t);<|WB|>": 321, "!\";<|WB|>": 322, "!\\n\";<|WB|>": 323, "se": 324, "id": 325, "fri": 326, "frien": 327, "prog": 328, "progr": 329, "program": 330, "co": 331, "te": 332, "there": 333, "lo": 334, "val": 335, "friend": 336, "programm": 337, "programmer": 338, "you": 339, "oun": 340, "lin": 341, "ever": 342, "every": 343, "everyon": 344, "worl": 345, "pal": 346, "gue": 347, "guest": 348, "stran": 349, "strang": 350, "stranger": 351, "f<|WB|>": 352, "0;<|WB|>": 353, "ow": 354, "hi": 355, "to": 356, "sa": 357, "num": 358, "everyone": 359, "ul": 360, "greeting": 361, "world": 362, "fol": 363, "folk": 364, "folks": 365, "nam": 366, "argv": 367, "1<|WB|>": 368, "\"H": 369, "8;<|WB|>": 370, "\",<|WB|>": 371, "8<|WB|>": 372, "mes": 373, "puts(\"H": 374, "5;<|WB|>": 375, "2);<|WB|>": 376, "1;<|WB|>": 377, "dif": 378, "6<|WB|>": 379, "6;<|WB|>": 380, "idx": 381, "2;<|WB|>": 382, "com": 383, "3<|WB|>": 384, "3,<|WB|>": 385, "5<|WB|>": 386, "5,<|WB|>": 387, "s,<|WB|>": 388, "2<|WB|>": 389, "6,<|WB|>": 390, "du": 391, "1,<|WB|>": 392, "7;<|WB|>": 393, "s);<|WB|>": 394, "y,<|WB|>": 395, "2,<|WB|>": 396, "0<|WB|>": 397, "0);<|WB|>": 398, "7<|WB|>": 399, "9,<|WB|>": 400, "4;<|WB|>": 401, "4<|WB|>": 402, "5);<|WB|>": 403, "9<|WB|>": 404, "9;<|WB|>": 405, "3;<|WB|>": 406, "e);<|WB|>": 407, "3);<|WB|>": 408, "4,<|WB|>": 409, "0,<|WB|>": 410, "6);<|WB|>": 411, "7,<|WB|>": 412, "8,<|WB|>": 413, "7);<|WB|>": 414, "4);<|WB|>": 415, "pl": 416, "ma": 417, "main": 418, "c<|WB|>": 419, "argv[": 420, "ello": 421, "sum": 422, "\\n\",<|WB|>": 423, "++)<|WB|>": 424, "it": 425, "ir": 426, "alut": 427, "aluta": 428, "alutati": 429, "alutation": 430, "con": 431, "ba": 432, "en<|WB|>": 433, "messa": 434, "messag": 435, "produ": 436, "produc": 437, "tex": 438, "owd": 439, "++;<|WB|>": 440, "res": 441, "resul": 442, "1);<|WB|>": 443, "ola": 444, "bu": 445, "ms": 446, "msg": 447, "8);<|WB|>": 448, "9);<|WB|>": 449, "se<|WB|>": 450, "n<|WB|>": 451, "qu": 452, "es<|WB|>": 453, "fir": 454, "first": 455, "ed<|WB|>": 456, "Yo": 457, "ent": 458, "diff": 459, "amoun": 460, "ey<|WB|>": 461, "line<|WB|>": 462, "tot": 463, "total": 464, "coun": 465, "Salutation": 466, "rh": 467, "secon": 468, "d);<|WB|>": 469, "%s": 470, "Greeting": 471, "lh": 472, "input": 473, "Wel": 474, "int<|WB|>": 475, "main(": 476, "argc<|WB|>": 477, "argv[1": 478, "ello,<|WB|>": 479, "sh": 480, "i,<|WB|>": 481, "bl": 482, "numb": 483, "number": 484, "]);<|WB|>": 485, "ra": 486, "Yo,<|WB|>": 487, "ad": 488, "o<|WB|>": 489, "m<|WB|>": 490, "out": 491, "Salutations,<|WB|>": 492, "od": 493, "ing<|WB|>": 494, "wh": 495, "d.<|WB|>": 496, "Greetings,<|WB|>": 497, "owdy,<|WB|>": 498, "ola,<|WB|>": 499, "k<|WB|>": 500, "buf": 501, "i<|WB|>": 502, "Welco": 503, "Welcome": 504, "Welcome,<|WB|>": 505, "ey,<|WB|>": 506, "e[]<|WB|>": 507, "a<|WB|>": 508, "name<|WB|>": 509, "is<|WB|>": 510, "ple<|WB|>": 511, "inc": 512, "><|WB|>": 513, "valu": 514, "value<|WB|>": 515, "squ": 516, "squa": 517, "square": 518, "and<|WB|>": 519, "show": 520, "sum<|WB|>": 521, "=<|WB|>": 522, "%d": 523, "%d\\n\",<|WB|>": 524, "sum);<|WB|>": 525, "loo": 526, "loop": 527, "or<|WB|>": 528, "hi<|WB|>": 529, "dou": 530, "doubl": 531, "first<|WB|>": 532, "x<|WB|>": 533, "ato": 534, "atoi": 535, "atoi(": 536, "argv[1]);<|WB|>": 537, "wo<|WB|>": 538, "argum": 539, "argument": 540, "differ": 541, "differen": 542, "differenc": 543, "e.<|WB|>": 544, "amount<|WB|>": 545, "diff<|WB|>": 546, "diff);<|WB|>": 547, "ts<|WB|>": 548, "idx<|WB|>": 549, "comm": 550, "value": 551, "value);<|WB|>": 552, "remain": 553, "remaind": 554, "remainder": 555, "a);<|WB|>": 556, "total<|WB|>": 557, "count<|WB|>": 558, "count);<|WB|>": 559, "im": 560, "rhs<|WB|>": 561, "second<|WB|>": 562, "second);<|WB|>": 563, "base<|WB|>": 564, "par": 565, "parit": 566, "div": 567, "divid": 568, "quo": 569, "quoti": 570, "ent.<|WB|>": 571, "x);<|WB|>": 572, "%s\\n\",<|WB|>": 573, "message<|WB|>": 574, "j<|WB|>": 575, "mul": 576, "multi": 577, "multipl": 578, "t.<|WB|>": 579, "z<|WB|>": 580, "total);<|WB|>": 581, "ed.<|WB|>": 582, "val<|WB|>": 583, "m);<|WB|>": 584, "greeting<|WB|>": 585, "text<|WB|>": 586, "text);<|WB|>": 587, "owdy<|WB|>": 588, "wri": 589, "tes<|WB|>": 590, "product<|WB|>": 591, "lhs<|WB|>": 592, "lhs);<|WB|>": 593, "result<|WB|>": 594, "ted<|WB|>": 595, "buf);<|WB|>": 596, "su": 597, "sub": 598, "subt": 599, "subtra": 600, "subtrac": 601, "ther<|WB|>": 602, "product);<|WB|>": 603, "input<|WB|>": 604, "input);<|WB|>": 605, "n);<|WB|>": 606, "i);<|WB|>": 607, "str<|WB|>": 608, "str);<|WB|>": 609, "greeting);<|WB|>": 610, "ne": 611, "neg": 612, "nega": 613, "word);<|WB|>": 614, "ello<|WB|>": 615, "rhs);<|WB|>": 616, "result);<|WB|>": 617, "hi);<|WB|>": 618, "msg<|WB|>": 619, "msg);<|WB|>": 620, "base": 621, "base);<|WB|>": 622, "num<|WB|>": 623, "amount);<|WB|>": 624, "b<|WB|>": 625, "val);<|WB|>": 626, "num);<|WB|>": 627, "come<|WB|>": 628, "message);<|WB|>": 629, "name);<|WB|>": 630, "first);<|WB|>": 631, "b);<|WB|>": 632, "z);<|WB|>": 633, "word<|WB|>": 634, "line);<|WB|>": 635, "buf<|WB|>": 636, "c);<|WB|>": 637, "y);<|WB|>": 638, "ola<|WB|>": 639, "If<|WB|>": 640, "pa": 641, "pas": 642, "passe": 643, "passed<|WB|>": 644, "in,<|WB|>": 645, "this<|WB|>": 646, "sam": 647, "sample<|WB|>": 648, "greet": 649, "greets<|WB|>": 650, "it<|WB|>": 651, "by<|WB|>": 652, "name": 653, "name,<|WB|>": 654, "else<|WB|>": 655, "there.<|WB|>": 656, "#inc": 657, "#incl": 658, "#inclu": 659, "#includ": 660, "#include<|WB|>": 661, "<st": 662, "<stdi": 663, "<stdio": 664, "<stdio.": 665, "<stdio.h": 666, "<stdio.h><|WB|>": 667, "main(int<|WB|>": 668, "argc": 669, "argc,<|WB|>": 670, "ch": 671, "char": 672, "char<|WB|>": 673, "**": 674, "**argv": 675, "**argv)<|WB|>": 676, "{<|WB|>": 677, "puts(argc<|WB|>": 678, "?<|WB|>": 679, "argv[1]<|WB|>": 680, ":<|WB|>": 681, "\"Hello,<|WB|>": 682, "there!\");<|WB|>": 683, "ret": 684, "retu": 685, "retur": 686, "return<|WB|>": 687, "}<|WB|>": 688, "Her": 689, "Here<|WB|>": 690, "squared<|WB|>": 691, "shown<|WB|>": 692, "on<|WB|>": 693, "sc": 694, "scre": 695, "screen": 696, "screen.<|WB|>": 697, "main(v": 698, "main(vo": 699, "main(void": 700, "main(void)<|WB|>": 701, "28;<|WB|>": 702, "printf(\"%d\\n\",<|WB|>": 703, "*<|WB|>": 704, "Thi": 705, "This<|WB|>": 706, "use": 707, "uses<|WB|>": 708, "loop<|WB|>": 709, "to<|WB|>": 710, "print<|WB|>": 711, "up": 712, "up<|WB|>": 713, "times": 714, "times.<|WB|>": 715, "*argv[": 716, "*argv[]": 717, "*argv[])<|WB|>": 718, "n;<|WB|>": 719, "for<|WB|>": 720, "(n<|WB|>": 721, "<<|WB|>": 722, "n++)<|WB|>": 723, "puts(\"Hi,<|WB|>": 724, "friend!\");<|WB|>": 725, "say": 726, "says<|WB|>": 727, "ex": 728, "exit": 729, "exits": 730, "exits.<|WB|>": 731, "main()<|WB|>": 732, "printf(\"Hi,<|WB|>": 733, "programmer!\\n\");<|WB|>": 734, "program<|WB|>": 735, "doubles<|WB|>": 736, "number<|WB|>": 737, "prints<|WB|>": 738, "it.<|WB|>": 739, "doubled<|WB|>": 740, "if<|WB|>": 741, "(argc<|WB|>": 742, "2)<|WB|>": 743, "atoi(argv[1]);<|WB|>": 744, "you<|WB|>": 745, "wi": 746, "with": 747, "with<|WB|>": 748, "shor": 749, "short<|WB|>": 750, "ph": 751, "phra": 752, "phrase": 753, "phrase.<|WB|>": 754, "printf(\"Yo,<|WB|>": 755, "you!\\n\");<|WB|>": 756, "Re": 757, "Read": 758, "Reads<|WB|>": 759, "two<|WB|>": 760, "arguments<|WB|>": 761, "the": 762, "their": 763, "their<|WB|>": 764, "difference.<|WB|>": 765, "3)<|WB|>": 766, "atoi(argv[": 767, "atoi(argv[2": 768, "atoi(argv[2]);<|WB|>": 769, "-<|WB|>": 770, "puts(\"Hey<|WB|>": 771, "there,<|WB|>": 772, "you!\");<|WB|>": 773, "A<|WB|>": 774, "rep": 775, "repe": 776, "repea": 777, "repeats<|WB|>": 778, "the<|WB|>": 779, "fe": 780, "few": 781, "few<|WB|>": 782, "idx;<|WB|>": 783, "(idx<|WB|>": 784, "idx++)<|WB|>": 785, "everyone!\");<|WB|>": 786, "squares<|WB|>": 787, "fr": 788, "fro": 789, "from<|WB|>": 790, "command<|WB|>": 791, "output": 792, "outputs<|WB|>": 793, "we<|WB|>": 794, "comput": 795, "compute<|WB|>": 796, "remainder<|WB|>": 797, "of<|WB|>": 798, "23<|WB|>": 799, "51<|WB|>": 800, "show<|WB|>": 801, "23,<|WB|>": 802, "51;<|WB|>": 803, "%<|WB|>": 804, "15<|WB|>": 805, "15;<|WB|>": 806, "+<|WB|>": 807, "min": 808, "minim": 809, "minimal": 810, "minimal<|WB|>": 811, "tha": 812, "that<|WB|>": 813, "friendl": 814, "friendly<|WB|>": 815, "line.<|WB|>": 816, "printf(\"Salutations,<|WB|>": 817, "there!\\n\");<|WB|>": 818, "add": 819, "adds<|WB|>": 820, "numbers<|WB|>": 821, "comman": 822, "command": 823, "command-": 824, "command-line<|WB|>": 825, "sum.<|WB|>": 826, "12;<|WB|>": 827, "even<|WB|>": 828, "odd<|WB|>": 829, "de": 830, "dep": 831, "depen": 832, "depend": 833, "depending<|WB|>": 834, "its<|WB|>": 835, "parity": 836, "parity.<|WB|>": 837, "(rhs<|WB|>": 838, "==<|WB|>": 839, "0)<|WB|>": 840, "printf(\"ev": 841, "printf(\"even": 842, "printf(\"even\\n\");<|WB|>": 843, "printf(\"od": 844, "printf(\"odd": 845, "printf(\"odd\\n\");<|WB|>": 846, "divides<|WB|>": 847, "quotient.<|WB|>": 848, "20;<|WB|>": 849, "/<|WB|>": 850, "gi": 851, "giv": 852, "given<|WB|>": 853, "1)<|WB|>": 854, "printf(\"Yo": 855, "printf(\"Yo<|WB|>": 856, "you\\n\");<|WB|>": 857, "time": 858, "times<|WB|>": 859, "us": 860, "using<|WB|>": 861, "loop.<|WB|>": 862, "(int<|WB|>": 863, "j++)<|WB|>": 864, "friend!\\n\");<|WB|>": 865, "multipli": 866, "multiplies<|WB|>": 867, "product.<|WB|>": 868, "sim": 869, "simple<|WB|>": 870, "multiply<|WB|>": 871, "who": 872, "whose<|WB|>": 873, "ans": 874, "answ": 875, "answer": 876, "answer<|WB|>": 877, "printed.<|WB|>": 878, "51,<|WB|>": 879, "47;<|WB|>": 880, "sto": 881, "store": 882, "stores<|WB|>": 883, "in<|WB|>": 884, "const": 885, "const<|WB|>": 886, "*text<|WB|>": 887, "\"Greetings,<|WB|>": 888, "world!\";<|WB|>": 889, "printf(\"%s\\n\",<|WB|>": 890, "sav": 891, "saved<|WB|>": 892, "printed<|WB|>": 893, "puts.<|WB|>": 894, "*s<|WB|>": 895, "\"Hey<|WB|>": 896, "folks!\";<|WB|>": 897, "puts(s);<|WB|>": 898, "howdy<|WB|>": 899, "printf(\"Howdy,<|WB|>": 900, "everyone!\\n\");<|WB|>": 901, "printf(\"Hey<|WB|>": 902, "printf(\"Hello,<|WB|>": 903, "%s.": 904, "%s.\\n\",<|WB|>": 905, "\"there": 906, "\"there\");<|WB|>": 907, "tin": 908, "tiny<|WB|>": 909, "C<|WB|>": 910, "writes<|WB|>": 911, "out<|WB|>": 912, "greeting.<|WB|>": 913, "printf(\"Greetings,<|WB|>": 914, "pal!\\n\");<|WB|>": 915, "whi": 916, "whil": 917, "while<|WB|>": 918, "(j<|WB|>": 919, "5)<|WB|>": 920, "puts(\"Howdy,<|WB|>": 921, "j++;<|WB|>": 922, "printf(\"line<|WB|>": 923, "j);<|WB|>": 924, "52<|WB|>": 925, "52;<|WB|>": 926, "difference<|WB|>": 927, "42<|WB|>": 928, "35<|WB|>": 929, "42,<|WB|>": 930, "35;<|WB|>": 931, "Two<|WB|>": 932, "are<|WB|>": 933, "comb": 934, "combin": 935, "combined<|WB|>": 936, "dis": 937, "displ": 938, "displa": 939, "display": 940, "displayed.<|WB|>": 941, "incre": 942, "increm": 943, "incremen": 944, "incremented<|WB|>": 945, "printf(\"Hola,<|WB|>": 946, "11<|WB|>": 947, "50<|WB|>": 948, "50);<|WB|>": 949, "\"Howdy,<|WB|>": 950, "programmer!\";<|WB|>": 951, "puts(text);<|WB|>": 952, "k++)<|WB|>": 953, "guest!\\n\");<|WB|>": 954, "puts(\"Greetings,<|WB|>": 955, "programmer!\");<|WB|>": 956, "hel": 957, "held<|WB|>": 958, "var": 959, "vari": 960, "varia": 961, "variabl": 962, "variable<|WB|>": 963, "then<|WB|>": 964, "writ": 965, "writt": 966, "written<|WB|>": 967, "out.<|WB|>": 968, "buf[]<|WB|>": 969, "\"Yo,<|WB|>": 970, "world!\\n\";<|WB|>": 971, "puts(buf);<|WB|>": 972, "subtracts<|WB|>": 973, "one<|WB|>": 974, "ano": 975, "another<|WB|>": 976, "stranger!\\n\");<|WB|>": 977, "folks.<|WB|>": 978, "\"Hi,<|WB|>": 979, "folks!\");<|WB|>": 980, "subtract<|WB|>": 981, "29,<|WB|>": 982, "34;<|WB|>": 983, "puts(\"Hola,<|WB|>": 984, "i;<|WB|>": 985, "(i<|WB|>": 986, "i++)<|WB|>": 987, "folks!\\n\");<|WB|>": 988, "ta": 989, "tak": 990, "takes<|WB|>": 991, "remainder.<|WB|>": 992, "puts(\"Yo,<|WB|>": 993, "guest!\");<|WB|>": 994, "It<|WB|>": 995, "argument,<|WB|>": 996, "fal": 997, "fall": 998, "falling<|WB|>": 999, "bac": 1000, "back<|WB|>": 1001, "pal.<|WB|>": 1002, "printf(\"Greeting": 1003, "printf(\"Greetings<|WB|>": 1004, "pal\\n\");<|WB|>": 1005, "*str<|WB|>": 1006, "puts(str);<|WB|>": 1007, "57<|WB|>": 1008, "45);<|WB|>": 1009, "*greeting<|WB|>": 1010, "pal!\";<|WB|>": 1011, "puts(greeting);<|WB|>": 1012, "negates<|WB|>": 1013, "-m);<|WB|>": 1014, "word": 1015, "word[]<|WB|>": 1016, "\"Salutations,<|WB|>": 1017, "everyone!\\n\";<|WB|>": 1018, "puts(word);<|WB|>": 1019, "printf(\"Hello<|WB|>": 1020, "folks\\n\");<|WB|>": 1021, "56<|WB|>": 1022, "39<|WB|>": 1023, "56,<|WB|>": 1024, "39;<|WB|>": 1025, "\"world": 1026, "\"world\");<|WB|>": 1027, "yo<|WB|>": 1028, "guest<|WB|>": 1029, "printf(\"Welcome,<|WB|>": 1030, "Ch": 1031, "Che": 1032, "Chec": 1033, "Check": 1034, "Checks<|WB|>": 1035, "number'": 1036, "number's<|WB|>": 1037, "parity<|WB|>": 1038, "result.<|WB|>": 1039, "53<|WB|>": 1040, "33;<|WB|>": 1041, "-rhs);<|WB|>": 1042, "(base<|WB|>": 1043, "*hi<|WB|>": 1044, "puts(hi);<|WB|>": 1045, "printf(\"Hey,<|WB|>": 1046, "\"everyone": 1047, "\"everyone\");<|WB|>": 1048, "*msg<|WB|>": 1049, "guest!\";<|WB|>": 1050, "-base);<|WB|>": 1051, "world.<|WB|>": 1052, "%s!\\n": 1053, "%s!\\n\",<|WB|>": 1054, "tel": 1055, "tell": 1056, "tells<|WB|>": 1057, "whe": 1058, "whether<|WB|>": 1059, "odd.<|WB|>": 1060, "(value<|WB|>": 1061, "hey<|WB|>": 1062, "there<|WB|>": 1063, "when<|WB|>": 1064, "pre": 1065, "pres": 1066, "present.<|WB|>": 1067, "greetings<|WB|>": 1068, "stranger!\");<|WB|>": 1069, "30<|WB|>": 1070, "25<|WB|>": 1071, "25);<|WB|>": 1072, "29<|WB|>": 1073, "30;<|WB|>": 1074, "puts(\"Hello,<|WB|>": 1075, "world!\");<|WB|>": 1076, "(m<|WB|>": 1077, "printf(\"Hi<|WB|>": 1078, "there\\n\");<|WB|>": 1079, "you.<|WB|>": 1080, "\"you": 1081, "\"you\");<|WB|>": 1082, "24<|WB|>": 1083, "11);<|WB|>": 1084, "everyone!\";<|WB|>": 1085, "(num<|WB|>": 1086, "(sum<|WB|>": 1087, "24;<|WB|>": 1088, "guest.<|WB|>": 1089, "\"guest": 1090, "\"guest\");<|WB|>": 1091, "12,<|WB|>": 1092, "23;<|WB|>": 1093, "world!\\n\");<|WB|>": 1094, "mo": 1095, "modu": 1096, "modulo": 1097, "modulo<|WB|>": 1098, "55);<|WB|>": 1099, "36;<|WB|>": 1100, "-num);<|WB|>": 1101, "(lhs<|WB|>": 1102, "k;<|WB|>": 1103, "(k<|WB|>": 1104, "pal!\");<|WB|>": 1105, "wel": 1106, "welcome<|WB|>": 1107, "\"Welcome,<|WB|>": 1108, "greeting[]<|WB|>": 1109, "there!\\n\";<|WB|>": 1110, "puts(\"Salutations,<|WB|>": 1111, "idx++;<|WB|>": 1112, "(diff<|WB|>": 1113, "-x);<|WB|>": 1114, "*message<|WB|>": 1115, "friend!\";<|WB|>": 1116, "puts(message);<|WB|>": 1117, "message[]<|WB|>": 1118, "stranger!\\n\";<|WB|>": 1119, "name[]<|WB|>": 1120, "programmer!\\n\";<|WB|>": 1121, "puts(name);<|WB|>": 1122, "\"Hey,<|WB|>": 1123, "19<|WB|>": 1124, "33<|WB|>": 1125, "33);<|WB|>": 1126, "j;<|WB|>": 1127, "54<|WB|>": 1128, "18<|WB|>": 1129, "54,<|WB|>": 1130, "18;<|WB|>": 1131, "puts(\"Hey,<|WB|>": 1132, "48<|WB|>": 1133, "52);<|WB|>": 1134, "salutation": 1135, "salutations<|WB|>": 1136, "53,<|WB|>": 1137, "25;<|WB|>": 1138, "16;<|WB|>": 1139, "-n);<|WB|>": 1140, "-value);<|WB|>": 1141, "35,<|WB|>": 1142, "-lhs);<|WB|>": 1143, "printf(\"Salutation": 1144, "printf(\"Salutations<|WB|>": 1145, "n++;<|WB|>": 1146, "16<|WB|>": 1147, "38<|WB|>": 1148, "38);<|WB|>": 1149, "4)<|WB|>": 1150, "i++;<|WB|>": 1151, "s[]<|WB|>": 1152, "pal!\\n\";<|WB|>": 1153, "hi[]<|WB|>": 1154, "46,<|WB|>": 1155, "quotien": 1156, "quotient<|WB|>": 1157, "10<|WB|>": 1158, "10,<|WB|>": 1159, "54;<|WB|>": 1160, "(first<|WB|>": 1161, "friend!\\n\";<|WB|>": 1162, "17;<|WB|>": 1163, "\"stranger": 1164, "\"stranger\");<|WB|>": 1165, "(input<|WB|>": 1166, "8)<|WB|>": 1167, "friend.<|WB|>": 1168, "world<|WB|>": 1169, "puts(\"Welcome,<|WB|>": 1170, "*word<|WB|>": 1171, "\"Hola,<|WB|>": 1172, "world\\n\");<|WB|>": 1173, "line[]<|WB|>": 1174, "folks!\\n\";<|WB|>": 1175, "puts(line);<|WB|>": 1176, "45<|WB|>": 1177, "k++;<|WB|>": 1178, "hello<|WB|>": 1179, "36,<|WB|>": 1180, "11;<|WB|>": 1181, "idx);<|WB|>": 1182, "everyone.<|WB|>": 1183, "k);<|WB|>": 1184, "48);<|WB|>": 1185, "27,<|WB|>": 1186, "programmer.<|WB|>": 1187, "\"programmer": 1188, "\"programmer\");<|WB|>": 1189, "negated<|WB|>": 1190, "(amount<|WB|>": 1191, "13,<|WB|>": 1192, "str[]<|WB|>": 1193, "38,<|WB|>": 1194, "*line<|WB|>": 1195, "7)<|WB|>": 1196, "stranger<|WB|>": 1197, "37,<|WB|>": 1198, "26;<|WB|>": 1199, "*name<|WB|>": 1200, "18);<|WB|>": 1201, "55<|WB|>": 1202, "32);<|WB|>": 1203, "47<|WB|>": 1204, "41<|WB|>": 1205, "41);<|WB|>": 1206, "58<|WB|>": 1207, "30);<|WB|>": 1208, "\"friend": 1209, "\"friend\");<|WB|>": 1210, "60);<|WB|>": 1211, "-input);<|WB|>": 1212, "27;<|WB|>": 1213, "(result<|WB|>": 1214, "12<|WB|>": 1215, "26<|WB|>": 1216, "11,<|WB|>": 1217, "48,<|WB|>": 1218, "13;<|WB|>": 1219, "(c<|WB|>": 1220, "(total<|WB|>": 1221, "stranger!\";<|WB|>": 1222, "puts(msg);<|WB|>": 1223, "26,<|WB|>": 1224, "53;<|WB|>": 1225, "add<|WB|>": 1226, "37<|WB|>": 1227, "14;<|WB|>": 1228, "20,<|WB|>": 1229, "56;<|WB|>": 1230, "*buf<|WB|>": 1231, "31<|WB|>": 1232, "29);<|WB|>": 1233, "stranger.<|WB|>": 1234, "stranger\\n\");<|WB|>": 1235, "\"folks": 1236, "\"folks\");<|WB|>": 1237, "46<|WB|>": 1238, "(x<|WB|>": 1239, "divide<|WB|>": 1240, "47,<|WB|>": 1241, "(b<|WB|>": 1242, "22<|WB|>": 1243, "43);<|WB|>": 1244, "14,<|WB|>": 1245, "21;<|WB|>": 1246, "-i);<|WB|>": 1247, "(product<|WB|>": 1248, "(val<|WB|>": 1249, "20<|WB|>": 1250, "21<|WB|>": 1251, "(second<|WB|>": 1252, "text": 1253, "text[]<|WB|>": 1254, "(a<|WB|>": 1255, "49<|WB|>": 1256, "33,<|WB|>": 1257}}