{"merges": [["i", "n", "in"], [";", "<|WB|>", ";<|WB|>"], [".", "<|WB|>", ".<|WB|>"], ["s", "<|WB|>", "s<|WB|>"], ["e", "<|WB|>", "e<|WB|>"], ["p", "r", "pr"], [")", ";<|WB|>", ");<|WB|>"], ["in", "t", "int"], ["a", "r", "ar"], ["r", "e", "re"], [",", "<|WB|>", ",<|WB|>"], ["pr", "int", "print"], ["(", "\"", "(\""], ["t", "<|WB|>", "t<|WB|>"], ["print", "f", "printf"], ["printf", "(\"", "printf(\""], ["h", "e", "he"], ["ar", "g", "arg"], ["\\", "n", "\\n"], ["\\n", "\"", "\\n\""], ["l", "l", "ll"], ["t", "i", "ti"], ["m", "e", "me"], ["d", "<|WB|>", "d<|WB|>"], ["u", "t", "ut"], ["ll", "o", "llo"], ["n", "<|WB|>", "n<|WB|>"], ["p", "l", "pl"], ["e", "r", "er"], ["o", "r", "or"], ["in", "g", "ing"], ["i", "t", "it"], ["e", "s<|WB|>", "es<|WB|>"], ["a", "n", "an"], [")", "<|WB|>", ")<|WB|>"], ["p", "ut", "put"], ["u", "l", "ul"], ["s", "a", "sa"], ["e", "t", "et"], ["o", "n", "on"], ["r", "a", "ra"], ["s", "t", "st"], ["arg", "v", "argv"], ["\\n\"", ");<|WB|>", "\\n\");<|WB|>"], ["t", "he", "the"], ["t", ".<|WB|>", "t.<|WB|>"], ["put", "s", "puts"], ["\\n\"", ",<|WB|>", "\\n\",<|WB|>"], ["y", "<|WB|>", "y<|WB|>"], ["s", "u", "su"], ["m", "a", "ma"], ["H", "e", "He"], ["He", "llo", "Hello"], ["w", "or", "wor"], ["wor", "l", "worl"], ["e", "x", "ex"], ["he", "llo", "hello"], ["g", "re", "gre"], ["gre", "et", "greet"], ["er", "<|WB|>", "er<|WB|>"], ["e", ".<|WB|>", "e.<|WB|>"], ["argv", "[", "argv["], ["ing", "<|WB|>", "ing<|WB|>"], ["h", "o", "ho"], ["o", "m", "om"], ["q", "u", "qu"], ["e", "n", "en"], ["h", "i", "hi"], ["pr", "o", "pro"], ["me", "s", "mes"], ["d", "i", "di"], ["arg", "c", "argc"], ["worl", "d", "world"], ["m", "pl", "mpl"], ["l", "in", "lin"], ["\"", ");<|WB|>", "\");<|WB|>"], ["e", "d<|WB|>", "ed<|WB|>"], ["%", "s", "%s"], ["e", "d", "ed"], ["ed", ".<|WB|>", "ed.<|WB|>"], ["i", "d", "id"], ["me", "n", "men"], ["pl", "i", "pli"], ["m", "ul", "mul"], ["mul", "ti", "multi"], ["t", "o", "to"], ["u", "n", "un"], ["m", "<|WB|>", "m<|WB|>"], ["mes", "sa", "messa"], ["messa", "g", "messag"], ["s", ".<|WB|>", "s.<|WB|>"], ["l", "u", "lu"], ["int", "<|WB|>", "int<|WB|>"], ["ma", "in", "main"], ["main", "(", "main("], ["c", "h", "ch"], ["Hello", ",<|WB|>", "Hello,<|WB|>"], ["world", "!", "world!"], ["mpl", "e<|WB|>", "mple<|WB|>"], ["hello", "<|WB|>", "hello<|WB|>"], ["t", "h", "th"], ["u", "s", "us"], ["i", "<|WB|>", "i<|WB|>"], ["l", "e<|WB|>", "le<|WB|>"], ["lin", "e<|WB|>", "line<|WB|>"], ["puts", "(\"", "puts(\""], ["o", "ut", "out"], ["s", "t<|WB|>", "st<|WB|>"], ["d", "s<|WB|>", "ds<|WB|>"], ["o", "o", "oo"], ["n", "a", "na"], ["arg", "u", "argu"], ["argu", "men", "argumen"], ["t", "s<|WB|>", "ts<|WB|>"], ["argc", "<|WB|>", "argc<|WB|>"], ["argv[", "1", "argv[1"], ["argv[1", "]", "argv[1]"], ["c", "om", "com"], ["s", "e<|WB|>", "se<|WB|>"], ["f", "a", "fa"], ["v", "id", "vid"], ["s", "ho", "sho"], ["sho", "w", "show"], ["multi", "pli", "multipli"], ["n", "u", "nu"], ["nu", "m", "num"], ["num", "b", "numb"], ["s", "qu", "squ"], ["squ", "ar", "squar"], ["v", "a", "va"], ["r", "<|WB|>", "r<|WB|>"], ["w", "r", "wr"], ["wr", "it", "writ"], ["an", "d<|WB|>", "and<|WB|>"], ["re", "t", "ret"], ["ret", "u", "retu"], ["retu", "r", "retur"], ["in", "c", "inc"], [">", "<|WB|>", "><|WB|>"], ["ch", "ar", "char"], ["ex", "it", "exit"], ["y", ".<|WB|>", "y.<|WB|>"], ["printf(\"", "H", "printf(\"H"], ["the", "re", "there"], ["f", "<|WB|>", "f<|WB|>"], ["t", "ex", "tex"], ["a", "b", "ab"], ["e", "n<|WB|>", "en<|WB|>"], ["greet", "ing<|WB|>", "greeting<|WB|>"], ["=", "<|WB|>", "=<|WB|>"], ["\"", ";<|WB|>", "\";<|WB|>"], ["%s", "\\n\",<|WB|>", "%s\\n\",<|WB|>"], ["greet", "ing", "greeting"], ["c", "on", "con"], ["st", "r", "str"], ["m", "s", "ms"], ["ms", "g", "msg"], ["puts", "(", "puts("], ["a", "c", "ac"], ["t", "er<|WB|>", "ter<|WB|>"], ["ar", "ra", "arra"], ["g", "et", "get"], ["messag", "e", "message"], ["re", "a", "rea"], ["f", "r", "fr"], ["g", "er", "ger"], ["argv[1]", ");<|WB|>", "argv[1]);<|WB|>"], ["f", "i", "fi"], ["com", "m", "comm"], ["na", "me", "name"], ["or", "<|WB|>", "or<|WB|>"], ["d", "e", "de"], ["de", "fa", "defa"], ["defa", "ul", "defaul"], ["on", "e<|WB|>", "one<|WB|>"], ["su", "m<|WB|>", "sum<|WB|>"], ["re", "s", "res"], ["res", "ul", "resul"], ["%", "d", "%d"], ["%d", "\\n\",<|WB|>", "%d\\n\",<|WB|>"], ["s", "i", "si"], ["a", "ti", "ati"], ["o", "n<|WB|>", "on<|WB|>"], ["2", "1", "21"], ["t", "w", "tw"], ["su", "b", "sub"], ["sub", "t", "subt"], ["subt", "ra", "subtra"], ["subtra", "c", "subtrac"], ["on", ".<|WB|>", "on.<|WB|>"], ["p", "<|WB|>", "p<|WB|>"], ["0", ",<|WB|>", "0,<|WB|>"], ["di", "vid", "divid"], ["o", "<|WB|>", "o<|WB|>"], ["qu", "o", "quo"], ["quo", "ti", "quoti"], ["quoti", "en", "quotien"], ["a", "to", "ato"], ["ato", "i", "atoi"], ["atoi", "(", "atoi("], ["pro", "d", "prod"], ["prod", "u", "produ"], ["produ", "c", "produc"], ["va", "lu", "valu"], ["l", "oo", "loo"], ["e", "a", "ea"], ["i", "+", "i+"], ["i+", "+", "i++"], ["l", "<|WB|>", "l<|WB|>"], ["r", "un", "run"], ["T", "hi", "Thi"], ["Thi", "s<|WB|>", "This<|WB|>"], ["pro", "g", "prog"], ["prog", "ra", "progra"], ["progra", "m<|WB|>", "program<|WB|>"], ["writ", "es<|WB|>", "writes<|WB|>"], ["a", "<|WB|>", "a<|WB|>"], ["s", "h", "sh"], ["sh", "or", "shor"], ["shor", "t<|WB|>", "short<|WB|>"], ["messag", "e<|WB|>", "message<|WB|>"], ["retur", "n", "return"], ["return", "s.<|WB|>", "returns.<|WB|>"], ["#", "inc", "#inc"], ["#inc", "lu", "#inclu"], ["#inclu", "d", "#includ"], ["#includ", "e<|WB|>", "#include<|WB|>"], ["<", "st", "<st"], ["<st", "di", "<stdi"], ["<stdi", "o", "<stdio"], ["<stdio", ".", "<stdio."], ["<stdio.", "h", "<stdio.h"], ["<stdio.h", "><|WB|>", "<stdio.h><|WB|>"], ["main(", "int<|WB|>", "main(int<|WB|>"], ["argc", ",<|WB|>", "argc,<|WB|>"], ["char", "<|WB|>", "char<|WB|>"], ["*", "*", "**"], ["**", "argv", "**argv"], ["**argv", ")<|WB|>", "**argv)<|WB|>"], ["{", "<|WB|>", "{<|WB|>"], ["printf(\"", "Hello,<|WB|>", "printf(\"Hello,<|WB|>"], ["world!", "\\n\");<|WB|>", "world!\\n\");<|WB|>"], ["retur", "n<|WB|>", "return<|WB|>"], ["0", ";<|WB|>", "0;<|WB|>"], ["}", "<|WB|>", "}<|WB|>"], ["sa", "mple<|WB|>", "sample<|WB|>"], ["print", "s<|WB|>", "prints<|WB|>"], ["exit", "s<|WB|>", "exits<|WB|>"], ["c", "l", "cl"], ["cl", "e", "cle"], ["cle", "an", "clean"], ["clean", "l", "cleanl"], ["cleanl", "y.<|WB|>", "cleanly.<|WB|>"], ["printf(\"", "hello<|WB|>", "printf(\"hello<|WB|>"], ["world", "\\n\");<|WB|>", "world\\n\");<|WB|>"], ["greet", "s<|WB|>", "greets<|WB|>"], ["th", "e<|WB|>", "the<|WB|>"], ["us", "er<|WB|>", "user<|WB|>"], ["w", "it", "wit"], ["wit", "h", "with"], ["with", "<|WB|>", "with<|WB|>"], ["p", "h", "ph"], ["ph", "ra", "phra"], ["phra", "s", "phras"], ["phras", "e.<|WB|>", "phrase.<|WB|>"], ["*", "argv[", "*argv["], ["*argv[", "]", "*argv[]"], ["*argv[]", ")<|WB|>", "*argv[])<|WB|>"], ["printf(\"H", "i<|WB|>", "printf(\"Hi<|WB|>"], ["there", "\\n\");<|WB|>", "there\\n\");<|WB|>"], ["s", "ing", "sing"], ["sing", "le<|WB|>", "single<|WB|>"], ["o", "f<|WB|>", "of<|WB|>"], ["tex", "t.<|WB|>", "text.<|WB|>"], ["puts(\"", "Hello,<|WB|>", "puts(\"Hello,<|WB|>"], ["world!", "\");<|WB|>", "world!\");<|WB|>"], ["H", "er", "Her"], ["Her", "e<|WB|>", "Here<|WB|>"], ["i", "s<|WB|>", "is<|WB|>"], ["sa", "v", "sav"], ["sav", "ed<|WB|>", "saved<|WB|>"], ["in", "<|WB|>", "in<|WB|>"], ["v", "ar", "var"], ["var", "i", "vari"], ["vari", "ab", "variab"], ["variab", "le<|WB|>", "variable<|WB|>"], ["the", "n<|WB|>", "then<|WB|>"], ["writ", "t", "writt"], ["writt", "en<|WB|>", "written<|WB|>"], ["out", ".<|WB|>", "out.<|WB|>"], ["*", "greeting<|WB|>", "*greeting<|WB|>"], ["\"", "Hello,<|WB|>", "\"Hello,<|WB|>"], ["world!", "\";<|WB|>", "world!\";<|WB|>"], ["printf(\"", "%s\\n\",<|WB|>", "printf(\"%s\\n\",<|WB|>"], ["greeting", ");<|WB|>", "greeting);<|WB|>"], ["T", "h", "Th"], ["Th", "e<|WB|>", "The<|WB|>"], ["he", "l", "hel"], ["hel", "d<|WB|>", "held<|WB|>"], ["con", "st<|WB|>", "const<|WB|>"], ["str", "ing<|WB|>", "string<|WB|>"], ["puts", ".<|WB|>", "puts.<|WB|>"], ["*", "msg", "*msg"], ["*msg", "<|WB|>", "*msg<|WB|>"], ["\"", "hello<|WB|>", "\"hello<|WB|>"], ["there", "\";<|WB|>", "there\";<|WB|>"], ["puts(", "msg", "puts(msg"], ["puts(msg", ");<|WB|>", "puts(msg);<|WB|>"], ["char", "ac", "charac"], ["charac", "ter<|WB|>", "character<|WB|>"], ["arra", "y<|WB|>", "array<|WB|>"], ["ho", "l", "hol"], ["hol", "ds<|WB|>", "holds<|WB|>"], ["th", "a", "tha"], ["tha", "t<|WB|>", "that<|WB|>"], ["get", "s<|WB|>", "gets<|WB|>"], ["print", "ed.<|WB|>", "printed.<|WB|>"], ["main(", "v", "main(v"], ["main(v", "o", "main(vo"], ["main(vo", "id", "main(void"], ["main(void", ")<|WB|>", "main(void)<|WB|>"], ["message", "[", "message["], ["message[", "]", "message[]"], ["message[]", "<|WB|>", "message[]<|WB|>"], ["\"", "G", "\"G"], ["\"G", "oo", "\"Goo"], ["\"Goo", "d<|WB|>", "\"Good<|WB|>"], ["m", "or", "mor"], ["mor", "n", "morn"], ["morn", "ing", "morning"], ["morning", "!", "morning!"], ["morning!", "\\n\"", "morning!\\n\""], ["morning!\\n\"", ";<|WB|>", "morning!\\n\";<|WB|>"], ["printf", "(", "printf("], ["printf(", "message", "printf(message"], ["printf(message", ");<|WB|>", "printf(message);<|WB|>"], ["ex", "a", "exa"], ["exa", "mple<|WB|>", "example<|WB|>"], ["rea", "ds<|WB|>", "reads<|WB|>"], ["na", "m", "nam"], ["nam", "e<|WB|>", "name<|WB|>"], ["fr", "om", "from"], ["from", "<|WB|>", "from<|WB|>"], ["argumen", "ts<|WB|>", "arguments<|WB|>"], ["it", ".<|WB|>", "it.<|WB|>"], ["main(", ")<|WB|>", "main()<|WB|>"], ["i", "f<|WB|>", "if<|WB|>"], ["(", "argc<|WB|>", "(argc<|WB|>"], ["<", "<|WB|>", "<<|WB|>"], ["2", ")<|WB|>", "2)<|WB|>"], ["str", "an", "stran"], ["stran", "ger", "stranger"], ["stranger", "!", "stranger!"], ["stranger!", "\\n\");<|WB|>", "stranger!\\n\");<|WB|>"], ["%s", "!", "%s!"], ["%s!", "\\n\",<|WB|>", "%s!\\n\",<|WB|>"], ["I", "t<|WB|>", "It<|WB|>"], ["fi", "r", "fir"], ["fir", "st<|WB|>", "first<|WB|>"], ["comm", "an", "comman"], ["comman", "d", "command"], ["command", "-", "command-"], ["command-", "line<|WB|>", "command-line<|WB|>"], ["argumen", "t<|WB|>", "argument<|WB|>"], ["b", "y<|WB|>", "by<|WB|>"], ["name", ".<|WB|>", "name.<|WB|>"], ["1", ")<|WB|>", "1)<|WB|>"], ["printf(\"", "Hello", "printf(\"Hello"], ["printf(\"Hello", "<|WB|>", "printf(\"Hello<|WB|>"], ["e", "l", "el"], ["el", "se<|WB|>", "else<|WB|>"], ["n", "o", "no"], ["no", "b", "nob"], ["nob", "o", "nobo"], ["nobo", "d", "nobod"], ["nobod", "y", "nobody"], ["nobody", "\\n\");<|WB|>", "nobody\\n\");<|WB|>"], ["g", "i", "gi"], ["gi", "v", "giv"], ["giv", "en<|WB|>", "given<|WB|>"], ["name", ",<|WB|>", "name,<|WB|>"], ["defaul", "t<|WB|>", "default<|WB|>"], ["n", "one<|WB|>", "none<|WB|>"], ["w", "a", "wa"], ["wa", "s<|WB|>", "was<|WB|>"], ["pro", "vid", "provid"], ["provid", "ed.<|WB|>", "provided.<|WB|>"], ["printf(\"H", "i", "printf(\"Hi"], ["printf(\"Hi", ",<|WB|>", "printf(\"Hi,<|WB|>"], ["%s", ".", "%s."], ["%s.", "\\n\",<|WB|>", "%s.\\n\",<|WB|>"], ["1", "<|WB|>", "1<|WB|>"], ["?", "<|WB|>", "?<|WB|>"], ["argv[1]", "<|WB|>", "argv[1]<|WB|>"], [":", "<|WB|>", ":<|WB|>"], ["\"", "g", "\"g"], ["\"g", "u", "\"gu"], ["\"gu", "e", "\"gue"], ["\"gue", "st", "\"guest"], ["\"guest", "\");<|WB|>", "\"guest\");<|WB|>"], ["su", "p", "sup"], ["sup", "pli", "suppli"], ["suppli", "ed.<|WB|>", "supplied.<|WB|>"], ["puts(", "argc<|WB|>", "puts(argc<|WB|>"], ["w", "e<|WB|>", "we<|WB|>"], ["com", "put", "comput"], ["comput", "e<|WB|>", "compute<|WB|>"], ["s", "ma", "sma"], ["sma", "ll", "small"], ["small", "<|WB|>", "small<|WB|>"], ["show", "<|WB|>", "show<|WB|>"], ["resul", "t.<|WB|>", "result.<|WB|>"], ["4", ",<|WB|>", "4,<|WB|>"], ["b", "<|WB|>", "b<|WB|>"], ["7", ";<|WB|>", "7;<|WB|>"], ["printf(\"", "sum<|WB|>", "printf(\"sum<|WB|>"], ["+", "<|WB|>", "+<|WB|>"], ["b", ");<|WB|>", "b);<|WB|>"], ["A", "<|WB|>", "A<|WB|>"], ["si", "mple<|WB|>", "simple<|WB|>"], ["multipli", "c", "multiplic"], ["multiplic", "ati", "multiplicati"], ["multiplicati", "on<|WB|>", "multiplication<|WB|>"], ["w", "ho", "who"], ["who", "se<|WB|>", "whose<|WB|>"], ["an", "s", "ans"], ["ans", "w", "answ"], ["answ", "er<|WB|>", "answer<|WB|>"], ["x", "<|WB|>", "x<|WB|>"], ["21", ",<|WB|>", "21,<|WB|>"], ["21", ";<|WB|>", "21;<|WB|>"], ["printf(\"", "%d\\n\",<|WB|>", "printf(\"%d\\n\",<|WB|>"], ["*", "<|WB|>", "*<|WB|>"], ["y", ");<|WB|>", "y);<|WB|>"], ["d", "o", "do"], ["do", "u", "dou"], ["dou", "b", "doub"], ["doub", "l", "doubl"], ["doubl", "es<|WB|>", "doubles<|WB|>"], ["numb", "er<|WB|>", "number<|WB|>"], ["1", "2", "12"], ["12", ";<|WB|>", "12;<|WB|>"], ["printf(\"", "tw", "printf(\"tw"], ["printf(\"tw", "i", "printf(\"twi"], ["printf(\"twi", "c", "printf(\"twic"], ["printf(\"twic", "e<|WB|>", "printf(\"twice<|WB|>"], ["2", ");<|WB|>", "2);<|WB|>"], ["resul", "t<|WB|>", "result<|WB|>"], ["subtrac", "ti", "subtracti"], ["subtracti", "on.<|WB|>", "subtraction.<|WB|>"], ["1", "0,<|WB|>", "10,<|WB|>"], ["q", "<|WB|>", "q<|WB|>"], ["3", ";<|WB|>", "3;<|WB|>"], ["-", "<|WB|>", "-<|WB|>"], ["q", ");<|WB|>", "q);<|WB|>"], ["divid", "es<|WB|>", "divides<|WB|>"], ["tw", "o<|WB|>", "two<|WB|>"], ["numb", "er", "number"], ["number", "s<|WB|>", "numbers<|WB|>"], ["quotien", "t.<|WB|>", "quotient.<|WB|>"], ["4", "0,<|WB|>", "40,<|WB|>"], ["5", ";<|WB|>", "5;<|WB|>"], ["printf(\"", "quotien", "printf(\"quotien"], ["printf(\"quotien", "t<|WB|>", "printf(\"quotient<|WB|>"], ["/", "<|WB|>", "/<|WB|>"], ["t", "a", "ta"], ["ta", "k", "tak"], ["tak", "es<|WB|>", "takes<|WB|>"], ["argumen", "t", "argument"], ["argument", "s", "arguments"], ["arguments", ",<|WB|>", "arguments,<|WB|>"], ["a", "d", "ad"], ["ad", "ds<|WB|>", "adds<|WB|>"], ["the", "m", "them"], ["them", ",<|WB|>", "them,<|WB|>"], ["su", "m", "sum"], ["sum", ".<|WB|>", "sum.<|WB|>"], ["3", ")<|WB|>", "3)<|WB|>"], ["1", ";<|WB|>", "1;<|WB|>"], ["atoi(", "argv[1]);<|WB|>", "atoi(argv[1]);<|WB|>"], ["atoi(", "argv[", "atoi(argv["], ["atoi(argv[", "2", "atoi(argv[2"], ["atoi(argv[2", "]", "atoi(argv[2]"], ["atoi(argv[2]", ");<|WB|>", "atoi(argv[2]);<|WB|>"], ["T", "w", "Tw"], ["Tw", "o<|WB|>", "Two<|WB|>"], ["ar", "e<|WB|>", "are<|WB|>"], ["multipli", "ed<|WB|>", "multiplied<|WB|>"], ["di", "s", "dis"], ["dis", "pl", "displ"], ["displ", "a", "displa"], ["displa", "y", "display"], ["display", "ed.<|WB|>", "displayed.<|WB|>"], ["!", "=<|WB|>", "!=<|WB|>"], ["printf(\"", "produc", "printf(\"produc"], ["printf(\"produc", "t<|WB|>", "printf(\"product<|WB|>"], ["it", "s<|WB|>", "its<|WB|>"], ["squar", "e.<|WB|>", "square.<|WB|>"], ["v", "<|WB|>", "v<|WB|>"], ["printf(\"", "squar", "printf(\"squar"], ["printf(\"squar", "e<|WB|>", "printf(\"square<|WB|>"], ["v", ");<|WB|>", "v);<|WB|>"], ["a", "n<|WB|>", "an<|WB|>"], ["valu", "e<|WB|>", "value<|WB|>"], ["inc", "re", "incre"], ["incre", "men", "incremen"], ["incremen", "t", "increment"], ["increment", "ed<|WB|>", "incremented<|WB|>"], ["on", "e.<|WB|>", "one.<|WB|>"], ["b", "a", "ba"], ["ba", "se<|WB|>", "base<|WB|>"], ["1", ");<|WB|>", "1);<|WB|>"], ["f", "or<|WB|>", "for<|WB|>"], ["loo", "p<|WB|>", "loop<|WB|>"], ["re", "p", "rep"], ["rep", "ea", "repea"], ["repea", "ts<|WB|>", "repeats<|WB|>"], ["f", "e", "fe"], ["fe", "w", "few"], ["few", "<|WB|>", "few<|WB|>"], ["ti", "mes", "times"], ["times", ".<|WB|>", "times.<|WB|>"], ["(", "int<|WB|>", "(int<|WB|>"], ["i++", ")<|WB|>", "i++)<|WB|>"], ["printf(\"", "hello", "printf(\"hello"], ["printf(\"hello", "\\n\");<|WB|>", "printf(\"hello\\n\");<|WB|>"], ["us", "es<|WB|>", "uses<|WB|>"], ["to", "<|WB|>", "to<|WB|>"], ["sa", "y<|WB|>", "say<|WB|>"], ["hi", "<|WB|>", "hi<|WB|>"], ["fi", "v", "fiv"], ["fiv", "e<|WB|>", "five<|WB|>"], ["i", ";<|WB|>", "i;<|WB|>"], ["(", "i<|WB|>", "(i<|WB|>"], ["puts(\"", "hi", "puts(\"hi"], ["puts(\"hi", "\");<|WB|>", "puts(\"hi\");<|WB|>"], ["numb", "e", "numbe"], ["numbe", "re", "numbere"], ["numbere", "d<|WB|>", "numbered<|WB|>"], ["ea", "ch", "each"], ["each", "<|WB|>", "each<|WB|>"], ["it", "er", "iter"], ["iter", "ati", "iterati"], ["iterati", "on.<|WB|>", "iteration.<|WB|>"], ["printf(\"", "line<|WB|>", "printf(\"line<|WB|>"], ["i", ");<|WB|>", "i);<|WB|>"], ["w", "hi", "whi"], ["whi", "le<|WB|>", "while<|WB|>"], ["print", "<|WB|>", "print<|WB|>"], ["greeting", ".<|WB|>", "greeting.<|WB|>"], ["puts(\"", "Hello", "puts(\"Hello"], ["puts(\"Hello", "\");<|WB|>", "puts(\"Hello\");<|WB|>"], ["i++", ";<|WB|>", "i++;<|WB|>"], ["s", "c", "sc"], ["sc", "re", "scre"], ["scre", "en", "screen"], ["screen", ".<|WB|>", "screen.<|WB|>"], ["m", "in", "min"], ["min", "i", "mini"], ["mini", "ma", "minima"], ["minima", "l<|WB|>", "minimal<|WB|>"], ["s", "om", "som"], ["som", "e<|WB|>", "some<|WB|>"], ["t", "in", "tin"], ["tin", "y<|WB|>", "tiny<|WB|>"], ["hello", "-", "hello-"], ["hello-", "worl", "hello-worl"], ["hello-worl", "d<|WB|>", "hello-world<|WB|>"], ["C", ".<|WB|>", "C.<|WB|>"], ["sa", "y", "say"], ["say", "s<|WB|>", "says<|WB|>"], ["exit", "s.<|WB|>", "exits.<|WB|>"], ["si", "mpl", "simpl"], ["simpl", "e", "simple"], ["simple", "st<|WB|>", "simplest<|WB|>"], ["C", "<|WB|>", "C<|WB|>"], ["out", "put", "output"], ["output", "s<|WB|>", "outputs<|WB|>"], ["fr", "i", "fri"], ["fri", "en", "frien"], ["frien", "d", "friend"], ["friend", "l", "friendl"], ["friendl", "y<|WB|>", "friendly<|WB|>"], ["lin", "e.<|WB|>", "line.<|WB|>"], ["us", "ing<|WB|>", "using<|WB|>"], ["st", "o", "sto"], ["sto", "re", "store"], ["store", "s<|WB|>", "stores<|WB|>"], ["k", "e", "ke"], ["ke", "e", "kee"], ["kee", "p", "keep"], ["keep", "s<|WB|>", "keeps<|WB|>"], ["con", "st", "const"], ["const", "an", "constan"], ["constan", "t<|WB|>", "constant<|WB|>"], ["tex", "t<|WB|>", "text<|WB|>"], ["arra", "y.<|WB|>", "array.<|WB|>"], ["comm", "and<|WB|>", "command<|WB|>"], ["w", "he", "whe"], ["whe", "n<|WB|>", "when<|WB|>"], ["i", "t<|WB|>", "it<|WB|>"], ["pr", "e", "pre"], ["pre", "s", "pres"], ["pres", "en", "presen"], ["presen", "t.<|WB|>", "present.<|WB|>"], ["fa", "ll", "fall"], ["fall", "ing<|WB|>", "falling<|WB|>"], ["b", "ac", "bac"], ["bac", "k", "back"], ["back", "<|WB|>", "back<|WB|>"], ["defaul", "t.<|WB|>", "default.<|WB|>"], ["a", "va", "ava"], ["ava", "i", "avai"], ["avai", "l", "avail"], ["avail", "ab", "availab"], ["availab", "l", "availabl"], ["availabl", "e.<|WB|>", "available.<|WB|>"], ["to", "get", "toget"], ["toget", "he", "togethe"], ["togethe", "r<|WB|>", "together<|WB|>"], ["multipli", "es<|WB|>", "multiplies<|WB|>"], ["produc", "t.<|WB|>", "product.<|WB|>"], ["show", "n<|WB|>", "shown<|WB|>"], ["subtrac", "ts<|WB|>", "subtracts<|WB|>"], ["an", "o", "ano"], ["ano", "the", "anothe"], ["anothe", "r<|WB|>", "another<|WB|>"], ["divid", "e<|WB|>", "divide<|WB|>"], ["valu", "es<|WB|>", "values<|WB|>"], ["out", "p", "outp"], ["outp", "u", "outpu"], ["outpu", "t<|WB|>", "output<|WB|>"], ["int", "e", "inte"], ["inte", "ger", "integer"], ["integer", "s<|WB|>", "integers<|WB|>"], ["rea", "d<|WB|>", "read<|WB|>"], ["the", "i", "thei"], ["thei", "r<|WB|>", "their<|WB|>"], ["squar", "es<|WB|>", "squares<|WB|>"], ["p", "a", "pa"], ["pa", "s", "pas"], ["pas", "s", "pass"], ["pass", "ed<|WB|>", "passed<|WB|>"], ["th", "re", "thre"], ["thre", "e<|WB|>", "three<|WB|>"], ["ti", "me", "time"], ["time", "s<|WB|>", "times<|WB|>"], ["loo", "p", "loop"], ["loop", ".<|WB|>", "loop.<|WB|>"], ["multi", "pl", "multipl"], ["multipl", "e<|WB|>", "multiple<|WB|>"], ["show", "s<|WB|>", "shows<|WB|>"], ["c", "o", "co"], ["co", "un", "coun"], ["coun", "ter<|WB|>", "counter<|WB|>"], ["run", "s.<|WB|>", "runs.<|WB|>"], ["un", "ti", "unti"], ["unti", "l<|WB|>", "until<|WB|>"], ["run", "s<|WB|>", "runs<|WB|>"]], "vocab": {"0": "\u0000", "1": "\u0001", "2": "\u0002", "3": "\u0003", "4": "\u0004", "5": "\u0005", "6": "\u0006", "7": "\u0007", "8": "\b", "9": "\t", "10": "\n", "11": "\u000b", "12": "\f", "13": "\r", "14": "\u000e", "15": "\u000f", "16": "\u0010", "17": "\u0011", "18": "\u0012", "19": "\u0013", "20": "\u0014", "21": "\u0015", "22": "\u0016", "23": "\u0017", "24": "\u0018", "25": "\u0019", "26": "\u001a", "27": "\u001b", "28": "\u001c", "29": "\u001d", "30": "\u001e", "31": "\u001f", "32": " ", "33": "!", "34": "\"", "35": "#", "36": "$", "37": "%", "38": "&", "39": "'", "40": "(", "41": ")", "42": "*", "43": "+", "44": ",", "45": "-", "46": ".", "47": "/", "48": "0", "49": "1", "50": "2", "51": "3", "52": "4", "53": "5", "54": "6", "55": "7", "56": "8", "57": "9", "58": ":", "59": ";", "60": "<", "61": "=", "62": ">", "63": "?", "64": "@", "65": "A", "66": "B", "67": "C", "68": "D", "69": "E", "70": "F", "71": "G", "72": "H", "73": "I", "74": "J", "75": "K", "76": "L", "77": "M", "78": "N", "79": "O", "80": "P", "81": "Q", "82": "R", "83": "S", "84": "T", "85": "U", "86": "V", "87": "W", "88": "X", "89": "Y", "90": "Z", "91": "[", "92": "\\", "93": "]", "94": "^", "95": "_", "96": "`", "97": "a", "98": "b", "99": "c", "100": "d", "101": "e", "102": "f", "103": "g", "104": "h", "105": "i", "106": "j", "107": "k", "108": "l", "109": "m", "110": "n", "111": "o", "112": "p", "113": "q", "114": "r", "115": "s", "116": "t", "117": "u", "118": "v", "119": "w", "120": "x", "121": "y", "122": "z", "123": "{", "124": "|", "125": "}", "126": "~", "127": "\u007f", "128": "\u0080", "129": "\u0081", "130": "\u0082", "131": "\u0083", "132": "\u0084", "133": "\u0085", "134": "\u0086", "135": "\u0087", "136": "\u0088", "137": "\u0089", "138": "\u008a", "139": "\u008b", "140": "\u008c", "141": "\u008d", "142": "\u008e", "143": "\u008f", "144": "\u0090", "145": "\u0091", "146": "\u0092", "147": "\u0093", "148": "\u0094", "149": "\u0095", "150": "\u0096", "151": "\u0097", "152": "\u0098", "153": "\u0099", "154": "\u009a", "155": "\u009b", "156": "\u009c", "157": "\u009d", "158": "\u009e", "159": "\u009f", "160": "\u00a0", "161": "\u00a1", "162": "\u00a2", "163": "\u00a3", "164": "\u00a4", "165": "\u00a5", "166": "\u00a6", "167": "\u00a7", "168": "\u00a8", "169": "\u00a9", "170": "\u00aa", "171": "\u00ab", "172": "\u00ac", "173": "\u00ad", "174": "\u00ae", "175": "\u00af", "176": "\u00b0", "177": "\u00b1", "178": "\u00b2", "179": "\u00b3", "180": "\u00b4", "181": "\u00b5", "182": "\u00b6", "183": "\u00b7", "184": "\u00b8", "185": "\u00b9", "186": "\u00ba", "187": "\u00bb", "188": "\u00bc", "189": "\u00bd", "190": "\u00be", "191": "\u00bf", "192": "\u00c0", "193": "\u00c1", "194": "\u00c2", "195": "\u00c3", "196": "\u00c4", "197": "\u00c5", "198": "\u00c6", "199": "\u00c7", "200": "\u00c8", "201": "\u00c9", "202": "\u00ca", "203": "\u00cb", "204": "\u00cc", "205": "\u00cd", "206": "\u00ce", "207": "\u00cf", "208": "\u00d0", "209": "\u00d1", "210": "\u00d2", "211": "\u00d3", "212": "\u00d4", "213": "\u00d5", "214": "\u00d6", "215": "\u00d7", "216": "\u00d8", "217": "\u00d9", "218": "\u00da", "219": "\u00db", "220": "\u00dc", "221": "\u00dd", "222": "\u00de", "223": "\u00df", "224": "\u00e0", "225": "\u00e1", "226": "\u00e2", "227": "\u00e3", "228": "\u00e4", "229": "\u00e5", "230": "\u00e6", "231": "\u00e7", "232": "\u00e8", "233": "\u00e9", "234": "\u00ea", "235": "\u00eb", "236": "\u00ec", "237": "\u00ed", "238": "\u00ee", "239": "\u00ef", "240": "\u00f0", "241": "\u00f1", "242": "\u00f2", "243": "\u00f3", "244": "\u00f4", "245": "\u00f5", "246": "\u00f6", "247": "\u00f7", "248": "\u00f8", "249": "\u00f9", "250": "\u00fa", "251": "\u00fb", "252": "\u00fc", "253": "\u00fd", "254": "\u00fe", "255": "\u00ff", "256": "<|EOS|>", "257": "<|WB|>", "258": "in", "259": ";<|WB|>", "260": ".<|WB|>", "261": "s<|WB|>", "262": "e<|WB|>", "263": "pr", "264": ");<|WB|>", "265": "int", "266": "ar", "267": "re", "268": ",<|WB|>", "269": "print", "270": "(\"", "271": "t<|WB|>", "272": "printf", "273": "printf(\"", "274": "he", "275": "arg", "276": "\\n", "277": "\\n\"", "278": "ll", "279": "ti", "280": "me", "281": "d<|WB|>", "282": "ut", "283": "llo", "284": "n<|WB|>", "285": "pl", "286": "er", "287": "or", "288": "ing", "289": "it", "290": "es<|WB|>", "291": "an", "292": ")<|WB|>", "293": "put", "294": "ul", "295": "sa", "296": "et", "297": "on", "298": "ra", "299": "st", "300": "argv", "301": "\\n\");<|WB|>", "302": "the", "303": "t.<|WB|>", "304": "puts", "305": "\\n\",<|WB|>", "306": "y<|WB|>", "307": "su", "308": "ma", "309": "He", "310": "Hello", "311": "wor", "312": "worl", "313": "ex", "314": "hello", "315": "gre", "316": "greet", "317": "er<|WB|>", "318": "e.<|WB|>", "319": "argv[", "320": "ing<|WB|>", "321": "ho", "322": "om", "323": "qu", "324": "en", "325": "hi", "326": "pro", "327": "mes", "328": "di", "329": "argc", "330": "world", "331": "mpl", "332": "lin", "333": "\");<|WB|>", "334": "ed<|WB|>", "335": "%s", "336": "ed", "337": "ed.<|WB|>", "338": "id", "339": "men", "340": "pli", "341": "mul", "342": "multi", "343": "to", "344": "un", "345": "m<|WB|>", "346": "messa", "347": "messag", "348": "s.<|WB|>", "349": "lu", "350": "int<|WB|>", "351": "main", "352": "main(", "353": "ch", "354": "Hello,<|WB|>", "355": "world!", "356": "mple<|WB|>", "357": "hello<|WB|>", "358": "th", "359": "us", "360": "i<|WB|>", "361": "le<|WB|>", "362": "line<|WB|>", "363": "puts(\"", "364": "out", "365": "st<|WB|>", "366": "ds<|WB|>", "367": "oo", "368": "na", "369": "argu", "370": "argumen", "371": "ts<|WB|>", "372": "argc<|WB|>", "373": "argv[1", "374": "argv[1]", "375": "com", "376": "se<|WB|>", "377": "fa", "378": "vid", "379": "sho", "380": "show", "381": "multipli", "382": "nu", "383": "num", "384": "numb", "385": "squ", "386": "squar", "387": "va", "388": "r<|WB|>", "389": "wr", "390": "writ", "391": "and<|WB|>", "392": "ret", "393": "retu", "394": "retur", "395": "inc", "396": "><|WB|>", "397": "char", "398": "exit", "399": "y.<|WB|>", "400": "printf(\"H", "401": "there", "402": "f<|WB|>", "403": "tex", "404": "ab", "405": "en<|WB|>", "406": "greeting<|WB|>", "407": "=<|WB|>", "408": "\";<|WB|>", "409": "%s\\n\",<|WB|>", "410": "greeting", "411": "con", "412": "str", "413": "ms", "414": "msg", "415": "puts(", "416": "ac", "417": "ter<|WB|>", "418": "arra", "419": "get", "420": "message", "421": "rea", "422": "fr", "423": "ger", "424": "argv[1]);<|WB|>", "425": "fi", "426": "comm", "427": "name", "428": "or<|WB|>", "429": "de", "430": "defa", "431": "defaul", "432": "one<|WB|>", "433": "sum<|WB|>", "434": "res", "435": "resul", "436": "%d", "437": "%d\\n\",<|WB|>", "438": "si", "439": "ati", "440": "on<|WB|>", "441": "21", "442": "tw", "443": "sub", "444": "subt", "445": "subtra", "446": "subtrac", "447": "on.<|WB|>", "448": "p<|WB|>", "449": "0,<|WB|>", "450": "divid", "451": "o<|WB|>", "452": "quo", "453": "quoti", "454": "quotien", "455": "ato", "456": "atoi", "457": "atoi(", "458": "prod", "459": "produ", "460": "produc", "461": "valu", "462": "loo", "463": "ea", "464": "i+", "465": "i++", "466": "l<|WB|>", "467": "run", "468": "Thi", "469": "This<|WB|>", "470": "prog", "471": "progra", "472": "program<|WB|>", "473": "writes<|WB|>", "474": "a<|WB|>", "475": "sh", "476": "shor", "477": "short<|WB|>", "478": "message<|WB|>", "479": "return", "480": "returns.<|WB|>", "481": "#inc", "482": "#inclu", "483": "#includ", "484": "#include<|WB|>", "485": "<st", "486": "<stdi", "487": "<stdio", "488": "<stdio.", "489": "<stdio.h", "490": "<stdio.h><|WB|>", "491": "main(int<|WB|>", "492": "argc,<|WB|>", "493": "char<|WB|>", "494": "**", "495": "**argv", "496": "**argv)<|WB|>", "497": "{<|WB|>", "498": "printf(\"Hello,<|WB|>", "499": "world!\\n\");<|WB|>", "500": "return<|WB|>", "501": "0;<|WB|>", "502": "}<|WB|>", "503": "sample<|WB|>", "504": "prints<|WB|>", "505": "exits<|WB|>", "506": "cl", "507": "cle", "508": "clean", "509": "cleanl", "510": "cleanly.<|WB|>", "511": "printf(\"hello<|WB|>", "512": "world\\n\");<|WB|>", "513": "greets<|WB|>", "514": "the<|WB|>", "515": "user<|WB|>", "516": "wit", "517": "with", "518": "with<|WB|>", "519": "ph", "520": "phra", "521": "phras", "522": "phrase.<|WB|>", "523": "*argv[", "524": "*argv[]", "525": "*argv[])<|WB|>", "526": "printf(\"Hi<|WB|>", "527": "there\\n\");<|WB|>", "528": "sing", "529": "single<|WB|>", "530": "of<|WB|>", "531": "text.<|WB|>", "532": "puts(\"Hello,<|WB|>", "533": "world!\");<|WB|>", "534": "Her", "535": "Here<|WB|>", "536": "is<|WB|>", "537": "sav", "538": "saved<|WB|>", "539": "in<|WB|>", "540": "var", "541": "vari", "542": "variab", "543": "variable<|WB|>", "544": "then<|WB|>", "545": "writt", "546": "written<|WB|>", "547": "out.<|WB|>", "548": "*greeting<|WB|>", "549": "\"Hello,<|WB|>", "550": "world!\";<|WB|>", "551": "printf(\"%s\\n\",<|WB|>", "552": "greeting);<|WB|>", "553": "Th", "554": "The<|WB|>", "555": "hel", "556": "held<|WB|>", "557": "const<|WB|>", "558": "string<|WB|>", "559": "puts.<|WB|>", "560": "*msg", "561": "*msg<|WB|>", "562": "\"hello<|WB|>", "563": "there\";<|WB|>", "564": "puts(msg", "565": "puts(msg);<|WB|>", "566": "charac", "567": "character<|WB|>", "568": "array<|WB|>", "569": "hol", "570": "holds<|WB|>", "571": "tha", "572": "that<|WB|>", "573": "gets<|WB|>", "574": "printed.<|WB|>", "575": "main(v", "576": "main(vo", "577": "main(void", "578": "main(void)<|WB|>", "579": "message[", "580": "message[]", "581": "message[]<|WB|>", "582": "\"G", "583": "\"Goo", "584": "\"Good<|WB|>", "585": "mor", "586": "morn", "587": "morning", "588": "morning!", "589": "morning!\\n\"", "590": "morning!\\n\";<|WB|>", "591": "printf(", "592": "printf(message", "593": "printf(message);<|WB|>", "594": "exa", "595": "example<|WB|>", "596": "reads<|WB|>", "597": "nam", "598": "name<|WB|>", "599": "from", "600": "from<|WB|>", "601": "arguments<|WB|>", "602": "it.<|WB|>", "603": "main()<|WB|>", "604": "if<|WB|>", "605": "(argc<|WB|>", "606": "<<|WB|>", "607": "2)<|WB|>", "608": "stran", "609": "stranger", "610": "stranger!", "611": "stranger!\\n\");<|WB|>", "612": "%s!", "613": "%s!\\n\",<|WB|>", "614": "It<|WB|>", "615": "fir", "616": "first<|WB|>", "617": "comman", "618": "command", "619": "command-", "620": "command-line<|WB|>", "621": "argument<|WB|>", "622": "by<|WB|>", "623": "name.<|WB|>", "624": "1)<|WB|>", "625": "printf(\"Hello", "626": "printf(\"Hello<|WB|>", "627": "el", "628": "else<|WB|>", "629": "no", "630": "nob", "631": "nobo", "632": "nobod", "633": "nobody", "634": "nobody\\n\");<|WB|>", "635": "gi", "636": "giv", "637": "given<|WB|>", "638": "name,<|WB|>", "639": "default<|WB|>", "640": "none<|WB|>", "641": "wa", "642": "was<|WB|>", "643": "provid", "644": "provided.<|WB|>", "645": "printf(\"Hi", "646": "printf(\"Hi,<|WB|>", "647": "%s.", "648": "%s.\\n\",<|WB|>", "649": "1<|WB|>", "650": "?<|WB|>", "651": "argv[1]<|WB|>", "652": ":<|WB|>", "653": "\"g", "654": "\"gu", "655": "\"gue", "656": "\"guest", "657": "\"guest\");<|WB|>", "658": "sup", "659": "suppli", "660": "supplied.<|WB|>", "661": "puts(argc<|WB|>", "662": "we<|WB|>", "663": "comput", "664": "compute<|WB|>", "665": "sma", "666": "small", "667": "small<|WB|>", "668": "show<|WB|>", "669": "result.<|WB|>", "670": "4,<|WB|>", "671": "b<|WB|>", "672": "7;<|WB|>", "673": "printf(\"sum<|WB|>", "674": "+<|WB|>", "675": "b);<|WB|>", "676": "A<|WB|>", "677": "simple<|WB|>", "678": "multiplic", "679": "multiplicati", "680": "multiplication<|WB|>", "681": "who", "682": "whose<|WB|>", "683": "ans", "684": "answ", "685": "answer<|WB|>", "686": "x<|WB|>", "687": "21,<|WB|>", "688": "21;<|WB|>", "689": "printf(\"%d\\n\",<|WB|>", "690": "*<|WB|>", "691": "y);<|WB|>", "692": "do", "693": "dou", "694": "doub", "695": "doubl", "696": "doubles<|WB|>", "697": "number<|WB|>", "698": "12", "699": "12;<|WB|>", "700": "printf(\"tw", "701": "printf(\"twi", "702": "printf(\"twic", "703": "printf(\"twice<|WB|>", "704": "2);<|WB|>", "705": "result<|WB|>", "706": "subtracti", "707": "subtraction.<|WB|>", "708": "10,<|WB|>", "709": "q<|WB|>", "710": "3;<|WB|>", "711": "-<|WB|>", "712": "q);<|WB|>", "713": "divides<|WB|>", "714": "two<|WB|>", "715": "number", "716": "numbers<|WB|>", "717": "quotient.<|WB|>", "718": "40,<|WB|>", "719": "5;<|WB|>", "720": "printf(\"quotien", "721": "printf(\"quotient<|WB|>", "722": "/<|WB|>", "723": "ta", "724": "tak", "725": "takes<|WB|>", "726": "argument", "727": "arguments", "728": "arguments,<|WB|>", "729": "ad", "730": "adds<|WB|>", "731": "them", "732": "them,<|WB|>", "733": "sum", "734": "sum.<|WB|>", "735": "3)<|WB|>", "736": "1;<|WB|>", "737": "atoi(argv[1]);<|WB|>", "738": "atoi(argv[", "739": "atoi(argv[2", "740": "atoi(argv[2]", "741": "atoi(argv[2]);<|WB|>", "742": "Tw", "743": "Two<|WB|>", "744": "are<|WB|>", "745": "multiplied<|WB|>", "746": "dis", "747": "displ", "748": "displa", "749": "display", "750": "displayed.<|WB|>", "751": "!=<|WB|>", "752": "printf(\"produc", "753": "printf(\"product<|WB|>", "754": "its<|WB|>", "755": "square.<|WB|>", "756": "v<|WB|>", "757": "printf(\"squar", "758": "printf(\"square<|WB|>", "759": "v);<|WB|>", "760": "an<|WB|>", "761": "value<|WB|>", "762": "incre", "763": "incremen", "764": "increment", "765": "incremented<|WB|>", "766": "one.<|WB|>", "767": "ba", "768": "base<|WB|>", "769": "1);<|WB|>", "770": "for<|WB|>", "771": "loop<|WB|>", "772": "rep", "773": "repea", "774": "repeats<|WB|>", "775": "fe", "776": "few", "777": "few<|WB|>", "778": "times", "779": "times.<|WB|>", "780": "(int<|WB|>", "781": "i++)<|WB|>", "782": "printf(\"hello", "783": "printf(\"hello\\n\");<|WB|>", "784": "uses<|WB|>", "785": "to<|WB|>", "786": "say<|WB|>", "787": "hi<|WB|>", "788": "fiv", "789": "five<|WB|>", "790": "i;<|WB|>", "791": "(i<|WB|>", "792": "puts(\"hi", "793": "puts(\"hi\");<|WB|>", "794": "numbe", "795": "numbere", "796": "numbered<|WB|>", "797": "each", "798": "each<|WB|>", "799": "iter", "800": "iterati", "801": "iteration.<|WB|>", "802": "printf(\"line<|WB|>", "803": "i);<|WB|>", "804": "whi", "805": "while<|WB|>", "806": "print<|WB|>", "807": "greeting.<|WB|>", "808": "puts(\"Hello", "809": "puts(\"Hello\");<|WB|>", "810": "i++;<|WB|>", "811": "sc", "812": "scre", "813": "screen", "814": "screen.<|WB|>", "815": "min", "816": "mini", "817": "minima", "818": "minimal<|WB|>", "819": "som", "820": "some<|WB|>", "821": "tin", "822": "tiny<|WB|>", "823": "hello-", "824": "hello-worl", "825": "hello-world<|WB|>", "826": "C.<|WB|>", "827": "say", "828": "says<|WB|>", "829": "exits.<|WB|>", "830": "simpl", "831": "simple", "832": "simplest<|WB|>", "833": "C<|WB|>", "834": "output", "835": "outputs<|WB|>", "836": "fri", "837": "frien", "838": "friend", "839": "friendl", "840": "friendly<|WB|>", "841": "line.<|WB|>", "842": "using<|WB|>", "843": "sto", "844": "store", "845": "stores<|WB|>", "846": "ke", "847": "kee", "848": "keep", "849": "keeps<|WB|>", "850": "const", "851": "constan", "852": "constant<|WB|>", "853": "text<|WB|>", "854": "array.<|WB|>", "855": "command<|WB|>", "856": "whe", "857": "when<|WB|>", "858": "it<|WB|>", "859": "pre", "860": "pres", "861": "presen", "862": "present.<|WB|>", "863": "fall", "864": "falling<|WB|>", "865": "bac", "866": "back", "867": "back<|WB|>", "868": "default.<|WB|>", "869": "ava", "870": "avai", "871": "avail", "872": "availab", "873": "availabl", "874": "available.<|WB|>", "875": "toget", "876": "togethe", "877": "together<|WB|>", "878": "multiplies<|WB|>", "879": "product.<|WB|>", "880": "shown<|WB|>", "881": "subtracts<|WB|>", "882": "ano", "883": "anothe", "884": "another<|WB|>", "885": "divide<|WB|>", "886": "values<|WB|>", "887": "outp", "888": "outpu", "889": "output<|WB|>", "890": "inte", "891": "integer", "892": "integers<|WB|>", "893": "read<|WB|>", "894": "thei", "895": "their<|WB|>", "896": "squares<|WB|>", "897": "pa", "898": "pas", "899": "pass", "900": "passed<|WB|>", "901": "thre", "902": "three<|WB|>", "903": "time", "904": "times<|WB|>", "905": "loop", "906": "loop.<|WB|>", "907": "multipl", "908": "multiple<|WB|>", "909": "shows<|WB|>", "910": "co", "911": "coun", "912": "counter<|WB|>", "913": "runs.<|WB|>", "914": "unti", "915": "until<|WB|>", "916": "runs<|WB|>"}, "inverse_vocab": {"\u0000": 0, "\u0001": 1, "\u0002": 2, "\u0003": 3, "\u0004": 4, "\u0005": 5, "\u0006": 6, "\u0007": 7, "\b": 8, "\t": 9, "\n": 10, "\u000b": 11, "\f": 12, "\r": 13, "\u000e": 14, "\u000f": 15, "\u0010": 16, "\u0011": 17, "\u0012": 18, "\u0013": 19, "\u0014": 20, "\u0015": 21, "\u0016": 22, "\u0017": 23, "\u0018": 24, "\u0019": 25, "\u001a": 26, "\u001b": 27, "\u001c": 28, "\u001d": 29, "\u001e": 30, "\u001f": 31, " ": 32, "!": 33, "\"": 34, "#": 35, "$": 36, "%": 37, "&": 38, "'": 39, "(": 40, ")": 41, "*": 42, "+": 43, ",": 44, "-": 45, ".": 46, "/": 47, "0": 48, "1": 49, "2": 50, "3": 51, "4": 52, "5": 53, "6": 54, "7": 55, "8": 56, "9": 57, ":": 58, ";": 59, "<": 60, "=": 61, ">": 62, "?": 63, "@": 64, "A": 65, "B": 66, "C": 67, "D": 68, "E": 69, "F": 70, "G": 71, "H": 72, "I": 73, "J": 74, "K": 75, "L": 76, "M": 77, "N": 78, "O": 79, "P": 80, "Q": 81, "R": 82, "S": 83, "T": 84, "U": 85, "V": 86, "W": 87, "X": 88, "Y": 89, "Z": 90, "[": 91, "\\": 92, "]": 93, "^": 94, "_": 95, "`": 96, "a": 97, "b": 98, "c": 99, "d": 100, "e": 101, "f": 102, "g": 103, "h": 104, "i": 105, "j": 106, "k": 107, "l": 108, "m": 109, "n": 110, "o": 111, "p": 112, "q": 113, "r": 114, "s": 115, "t": 116, "u": 117, "v": 118, "w": 119, "x": 120, "y": 121, "z": 122, "{": 123, "|": 124, "}": 125, "~": 126, "\u007f": 127, "\u0080": 128, "\u0081": 129, "\u0082": 130, "\u0083": 131, "\u0084": 132, "\u0085": 133, "\u0086": 134, "\u0087": 135, "\u0088": 136, "\u0089": 137, "\u008a": 138, "\u008b": 139, "\u008c": 140, "\u008d": 141, "\u008e": 142, "\u008f": 143, "\u0090": 144, "\u0091": 145, "\u0092": 146, "\u0093": 147, "\u0094": 148, "\u0095": 149, "\u0096": 150, "\u0097": 151, "\u0098": 152, "\u0099": 153, "\u009a": 154, "\u009b": 155, "\u009c": 156, "\u009d": 157, "\u009e": 158, "\u009f": 159, "\u00a0": 160, "\u00a1": 161, "\u00a2": 162, "\u00a3": 163, "\u00a4": 164, "\u00a5": 165, "\u00a6": 166, "\u00a7": 167, "\u00a8": 168, "\u00a9": 169, "\u00aa": 170, "\u00ab": 171, "\u00ac": 172, "\u00ad": 173, "\u00ae": 174, "\u00af": 175, "\u00b0": 176, "\u00b1": 177, "\u00b2": 178, "\u00b3": 179, "\u00b4": 180, "\u00b5": 181, "\u00b6": 182, "\u00b7": 183, "\u00b8": 184, "\u00b9": 185, "\u00ba": 186, "\u00bb": 187, "\u00bc": 188, "\u00bd": 189, "\u00be": 190, "\u00bf": 191, "\u00c0": 192, "\u00c1": 193, "\u00c2": 194, "\u00c3": 195, "\u00c4": 196, "\u00c5": 197, "\u00c6": 198, "\u00c7": 199, "\u00c8": 200, "\u00c9": 201, "\u00ca": 202, "\u00cb": 203, "\u00cc": 204, "\u00cd": 205, "\u00ce": 206, "\u00cf": 207, "\u00d0": 208, "\u00d1": 209, "\u00d2": 210, "\u00d3": 211, "\u00d4": 212, "\u00d5": 213, "\u00d6": 214, "\u00d7": 215, "\u00d8": 216, "\u00d9": 217, "\u00da": 218, "\u00db": 219, "\u00dc": 220, "\u00dd": 221, "\u00de": 222, "\u00df": 223, "\u00e0": 224, "\u00e1": 225, "\u00e2": 226, "\u00e3": 227, "\u00e4": 228, "\u00e5": 229, "\u00e6": 230, "\u00e7": 231, "\u00e8": 232, "\u00e9": 233, "\u00ea": 234, "\u00eb": 235, "\u00ec": 236, "\u00ed": 237, "\u00ee": 238, "\u00ef": 239, "\u00f0": 240, "\u00f1": 241, "\u00f2": 242, "\u00f3": 243, "\u00f4": 244, "\u00f5": 245, "\u00f6": 246, "\u00f7": 247, "\u00f8": 248, "\u00f9": 249, "\u00fa": 250, "\u00fb": 251, "\u00fc": 252, "\u00fd": 253, "\u00fe": 254, "\u00ff": 255, "<|EOS|>": 256, "<|WB|>": 257, "in": 258, ";<|WB|>": 259, ".<|WB|>": 260, "s<|WB|>": 261, "e<|WB|>": 262, "pr": 263, ");<|WB|>": 264, "int": 265, "ar": 266, "re": 267, ",<|WB|>": 268, "print": 269, "(\"": 270, "t<|WB|>": 271, "printf": 272, "printf(\"": 273, "he": 274, "arg": 275, "\\n": 276, "\\n\"": 277, "ll": 278, "ti": 279, "me": 280, "d<|WB|>": 281, "ut": 282, "llo": 283, "n<|WB|>": 284, "pl": 285, "er": 286, "or": 287, "ing": 288, "it": 289, "es<|WB|>": 290, "an": 291, ")<|WB|>": 292, "put": 293, "ul": 294, "sa": 295, "et": 296, "on": 297, "ra": 298, "st": 299, "argv": 300, "\\n\");<|WB|>": 301, "the": 302, "t.<|WB|>": 303, "puts": 304, "\\n\",<|WB|>": 305, "y<|WB|>": 306, "su": 307, "ma": 308, "He": 309, "Hello": 310, "wor": 311, "worl": 312, "ex": 313, "hello": 314, "gre": 315, "greet": 316, "er<|WB|>": 317, "e.<|WB|>": 318, "argv[": 319, "ing<|WB|>": 320, "ho": 321, "om": 322, "qu": 323, "en": 324, "hi": 325, "pro": 326, "mes": 327, "di": 328, "argc": 329, "world": 330, "mpl": 331, "lin": 332, "\");<|WB|>": 333, "ed<|WB|>": 334, "%s": 335, "ed": 336, "ed.<|WB|>": 337, "id": 338, "men": 339, "pli": 340, "mul": 341, "multi": 342, "to": 343, "un": 344, "m<|WB|>": 345, "messa": 346, "messag": 347, "s.<|WB|>": 348, "lu": 349, "int<|WB|>": 350, "main": 351, "main(": 352, "ch": 353, "Hello,<|WB|>": 354, "world!": 355, "mple<|WB|>": 356, "hello<|WB|>": 357, "th": 358, "us": 359, "i<|WB|>": 360, "le<|WB|>": 361, "line<|WB|>": 362, "puts(\"": 363, "out": 364, "st<|WB|>": 365, "ds<|WB|>": 366, "oo": 367, "na": 368, "argu": 369, "argumen": 370, "ts<|WB|>": 371, "argc<|WB|>": 372, "argv[1": 373, "argv[1]": 374, "com": 375, "se<|WB|>": 376, "fa": 377, "vid": 378, "sho": 379, "show": 380, "multipli": 381, "nu": 382, "num": 383, "numb": 384, "squ": 385, "squar": 386, "va": 387, "r<|WB|>": 388, "wr": 389, "writ": 390, "and<|WB|>": 391, "ret": 392, "retu": 393, "retur": 394, "inc": 395, "><|WB|>": 396, "char": 397, "exit": 398, "y.<|WB|>": 399, "printf(\"H": 400, "there": 401, "f<|WB|>": 402, "tex": 403, "ab": 404, "en<|WB|>": 405, "greeting<|WB|>": 406, "=<|WB|>": 407, "\";<|WB|>": 408, "%s\\n\",<|WB|>": 409, "greeting": 410, "con": 411, "str": 412, "ms": 413, "msg": 414, "puts(": 415, "ac": 416, "ter<|WB|>": 417, "arra": 418, "get": 419, "message": 420, "rea": 421, "fr": 422, "ger": 423, "argv[1]);<|WB|>": 424, "fi": 425, "comm": 426, "name": 427, "or<|WB|>": 428, "de": 429, "defa": 430, "defaul": 431, "one<|WB|>": 432, "sum<|WB|>": 433, "res": 434, "resul": 435, "%d": 436, "%d\\n\",<|WB|>": 437, "si": 438, "ati": 439, "on<|WB|>": 440, "21": 441, "tw": 442, "sub": 443, "subt": 444, "subtra": 445, "subtrac": 446, "on.<|WB|>": 447, "p<|WB|>": 448, "0,<|WB|>": 449, "divid": 450, "o<|WB|>": 451, "quo": 452, "quoti": 453, "quotien": 454, "ato": 455, "atoi": 456, "atoi(": 457, "prod": 458, "produ": 459, "produc": 460, "valu": 461, "loo": 462, "ea": 463, "i+": 464, "i++": 465, "l<|WB|>": 466, "run": 467, "Thi": 468, "This<|WB|>": 469, "prog": 470, "progra": 471, "program<|WB|>": 472, "writes<|WB|>": 473, "a<|WB|>": 474, "sh": 475, "shor": 476, "short<|WB|>": 477, "message<|WB|>": 478, "return": 479, "returns.<|WB|>": 480, "#inc": 481, "#inclu": 482, "#includ": 483, "#include<|WB|>": 484, "<st": 485, "<stdi": 486, "<stdio": 487, "<stdio.": 488, "<stdio.h": 489, "<stdio.h><|WB|>": 490, "main(int<|WB|>": 491, "argc,<|WB|>": 492, "char<|WB|>": 493, "**": 494, "**argv": 495, "**argv)<|WB|>": 496, "{<|WB|>": 497, "printf(\"Hello,<|WB|>": 498, "world!\\n\");<|WB|>": 499, "return<|WB|>": 500, "0;<|WB|>": 501, "}<|WB|>": 502, "sample<|WB|>": 503, "prints<|WB|>": 504, "exits<|WB|>": 505, "cl": 506, "cle": 507, "clean": 508, "cleanl": 509, "cleanly.<|WB|>": 510, "printf(\"hello<|WB|>": 511, "world\\n\");<|WB|>": 512, "greets<|WB|>": 513, "the<|WB|>": 514, "user<|WB|>": 515, "wit": 516, "with": 517, "with<|WB|>": 518, "ph": 519, "phra": 520, "phras": 521, "phrase.<|WB|>": 522, "*argv[": 523, "*argv[]": 524, "*argv[])<|WB|>": 525, "printf(\"Hi<|WB|>": 526, "there\\n\");<|WB|>": 527, "sing": 528, "single<|WB|>": 529, "of<|WB|>": 530, "text.<|WB|>": 531, "puts(\"Hello,<|WB|>": 532, "world!\");<|WB|>": 533, "Her": 534, "Here<|WB|>": 535, "is<|WB|>": 536, "sav": 537, "saved<|WB|>": 538, "in<|WB|>": 539, "var": 540, "vari": 541, "variab": 542, "variable<|WB|>": 543, "then<|WB|>": 544, "writt": 545, "written<|WB|>": 546, "out.<|WB|>": 547, "*greeting<|WB|>": 548, "\"Hello,<|WB|>": 549, "world!\";<|WB|>": 550, "printf(\"%s\\n\",<|WB|>": 551, "greeting);<|WB|>": 552, "Th": 553, "The<|WB|>": 554, "hel": 555, "held<|WB|>": 556, "const<|WB|>": 557, "string<|WB|>": 558, "puts.<|WB|>": 559, "*msg": 560, "*msg<|WB|>": 561, "\"hello<|WB|>": 562, "there\";<|WB|>": 563, "puts(msg": 564, "puts(msg);<|WB|>": 565, "charac": 566, "character<|WB|>": 567, "array<|WB|>": 568, "hol": 569, "holds<|WB|>": 570, "tha": 571, "that<|WB|>": 572, "gets<|WB|>": 573, "printed.<|WB|>": 574, "main(v": 575, "main(vo": 576, "main(void": 577, "main(void)<|WB|>": 578, "message[": 579, "message[]": 580, "message[]<|WB|>": 581, "\"G": 582, "\"Goo": 583, "\"Good<|WB|>": 584, "mor": 585, "morn": 586, "morning": 587, "morning!": 588, "morning!\\n\"": 589, "morning!\\n\";<|WB|>": 590, "printf(": 591, "printf(message": 592, "printf(message);<|WB|>": 593, "exa": 594, "example<|WB|>": 595, "reads<|WB|>": 596, "nam": 597, "name<|WB|>": 598, "from": 599, "from<|WB|>": 600, "arguments<|WB|>": 601, "it.<|WB|>": 602, "main()<|WB|>": 603, "if<|WB|>": 604, "(argc<|WB|>": 605, "<<|WB|>": 606, "2)<|WB|>": 607, "stran": 608, "stranger": 609, "stranger!": 610, "stranger!\\n\");<|WB|>": 611, "%s!": 612, "%s!\\n\",<|WB|>": 613, "It<|WB|>": 614, "fir": 615, "first<|WB|>": 616, "comman": 617, "command": 618, "command-": 619, "command-line<|WB|>": 620, "argument<|WB|>": 621, "by<|WB|>": 622, "name.<|WB|>": 623, "1)<|WB|>": 624, "printf(\"Hello": 625, "printf(\"Hello<|WB|>": 626, "el": 627, "else<|WB|>": 628, "no": 629, "nob": 630, "nobo": 631, "nobod": 632, "nobody": 633, "nobody\\n\");<|WB|>": 634, "gi": 635, "giv": 636, "given<|WB|>": 637, "name,<|WB|>": 638, "default<|WB|>": 639, "none<|WB|>": 640, "wa": 641, "was<|WB|>": 642, "provid": 643, "provided.<|WB|>": 644, "printf(\"Hi": 645, "printf(\"Hi,<|WB|>": 646, "%s.": 647, "%s.\\n\",<|WB|>": 648, "1<|WB|>": 649, "?<|WB|>": 650, "argv[1]<|WB|>": 651, ":<|WB|>": 652, "\"g": 653, "\"gu": 654, "\"gue": 655, "\"guest": 656, "\"guest\");<|WB|>": 657, "sup": 658, "suppli": 659, "supplied.<|WB|>": 660, "puts(argc<|WB|>": 661, "we<|WB|>": 662, "comput": 663, "compute<|WB|>": 664, "sma": 665, "small": 666, "small<|WB|>": 667, "show<|WB|>": 668, "result.<|WB|>": 669, "4,<|WB|>": 670, "b<|WB|>": 671, "7;<|WB|>": 672, "printf(\"sum<|WB|>": 673, "+<|WB|>": 674, "b);<|WB|>": 675, "A<|WB|>": 676, "simple<|WB|>": 677, "multiplic": 678, "multiplicati": 679, "multiplication<|WB|>": 680, "who": 681, "whose<|WB|>": 682, "ans": 683, "answ": 684, "answer<|WB|>": 685, "x<|WB|>": 686, "21,<|WB|>": 687, "21;<|WB|>": 688, "printf(\"%d\\n\",<|WB|>": 689, "*<|WB|>": 690, "y);<|WB|>": 691, "do": 692, "dou": 693, "doub": 694, "doubl": 695, "doubles<|WB|>": 696, "number<|WB|>": 697, "12": 698, "12;<|WB|>": 699, "printf(\"tw": 700, "printf(\"twi": 701, "printf(\"twic": 702, "printf(\"twice<|WB|>": 703, "2);<|WB|>": 704, "result<|WB|>": 705, "subtracti": 706, "subtraction.<|WB|>": 707, "10,<|WB|>": 708, "q<|WB|>": 709, "3;<|WB|>": 710, "-<|WB|>": 711, "q);<|WB|>": 712, "divides<|WB|>": 713, "two<|WB|>": 714, "number": 715, "numbers<|WB|>": 716, "quotient.<|WB|>": 717, "40,<|WB|>": 718, "5;<|WB|>": 719, "printf(\"quotien": 720, "printf(\"quotient<|WB|>": 721, "/<|WB|>": 722, "ta": 723, "tak": 724, "takes<|WB|>": 725, "argument": 726, "arguments": 727, "arguments,<|WB|>": 728, "ad": 729, "adds<|WB|>": 730, "them": 731, "them,<|WB|>": 732, "sum": 733, "sum.<|WB|>": 734, "3)<|WB|>": 735, "1;<|WB|>": 736, "atoi(argv[1]);<|WB|>": 737, "atoi(argv[": 738, "atoi(argv[2": 739, "atoi(argv[2]": 740, "atoi(argv[2]);<|WB|>": 741, "Tw": 742, "Two<|WB|>": 743, "are<|WB|>": 744, "multiplied<|WB|>": 745, "dis": 746, "displ": 747, "displa": 748, "display": 749, "displayed.<|WB|>": 750, "!=<|WB|>": 751, "printf(\"produc": 752, "printf(\"product<|WB|>": 753, "its<|WB|>": 754, "square.<|WB|>": 755, "v<|WB|>": 756, "printf(\"squar": 757, "printf(\"square<|WB|>": 758, "v);<|WB|>": 759, "an<|WB|>": 760, "value<|WB|>": 761, "incre": 762, "incremen": 763, "increment": 764, "incremented<|WB|>": 765, "one.<|WB|>": 766, "ba": 767, "base<|WB|>": 768, "1);<|WB|>": 769, "for<|WB|>": 770, "loop<|WB|>": 771, "rep": 772, "repea": 773, "repeats<|WB|>": 774, "fe": 775, "few": 776, "few<|WB|>": 777, "times": 778, "times.<|WB|>": 779, "(int<|WB|>": 780, "i++)<|WB|>": 781, "printf(\"hello": 782, "printf(\"hello\\n\");<|WB|>": 783, "uses<|WB|>": 784, "to<|WB|>": 785, "say<|WB|>": 786, "hi<|WB|>": 787, "fiv": 788, "five<|WB|>": 789, "i;<|WB|>": 790, "(i<|WB|>": 791, "puts(\"hi": 792, "puts(\"hi\");<|WB|>": 793, "numbe": 794, "numbere": 795, "numbered<|WB|>": 796, "each": 797, "each<|WB|>": 798, "iter": 799, "iterati": 800, "iteration.<|WB|>": 801, "printf(\"line<|WB|>": 802, "i);<|WB|>": 803, "whi": 804, "while<|WB|>": 805, "print<|WB|>": 806, "greeting.<|WB|>": 807, "puts(\"Hello": 808, "puts(\"Hello\");<|WB|>": 809, "i++;<|WB|>": 810, "sc": 811, "scre": 812, "screen": 813, "screen.<|WB|>": 814, "min": 815, "mini": 816, "minima": 817, "minimal<|WB|>": 818, "som": 819, "some<|WB|>": 820, "tin": 821, "tiny<|WB|>": 822, "hello-": 823, "hello-worl": 824, "hello-world<|WB|>": 825, "C.<|WB|>": 826, "say": 827, "says<|WB|>": 828, "exits.<|WB|>": 829, "simpl": 830, "simple": 831, "simplest<|WB|>": 832, "C<|WB|>": 833, "output": 834, "outputs<|WB|>": 835, "fri": 836, "frien": 837, "friend": 838, "friendl": 839, "friendly<|WB|>": 840, "line.<|WB|>": 841, "using<|WB|>": 842, "sto": 843, "store": 844, "stores<|WB|>": 845, "ke": 846, "kee": 847, "keep": 848, "keeps<|WB|>": 849, "const": 850, "constan": 851, "constant<|WB|>": 852, "text<|WB|>": 853, "array.<|WB|>": 854, "command<|WB|>": 855, "whe": 856, "when<|WB|>": 857, "it<|WB|>": 858, "pre": 859, "pres": 860, "presen": 861, "present.<|WB|>": 862, "fall": 863, "falling<|WB|>": 864, "bac": 865, "back": 866, "back<|WB|>": 867, "default.<|WB|>": 868, "ava": 869, "avai": 870, "avail": 871, "availab": 872, "availabl": 873, "available.<|WB|>": 874, "toget": 875, "togethe": 876, "together<|WB|>": 877, "multiplies<|WB|>": 878, "product.<|WB|>": 879, "shown<|WB|>": 880, "subtracts<|WB|>": 881, "ano": 882, "anothe": 883, "another<|WB|>": 884, "divide<|WB|>": 885, "values<|WB|>": 886, "outp": 887, "outpu": 888, "output<|WB|>": 889, "inte": 890, "integer": 891, "integers<|WB|>": 892, "read<|WB|>": 893, "thei": 894, "their<|WB|>": 895, "squares<|WB|>": 896, "pa": 897, "pas": 898, "pass": 899, "passed<|WB|>": 900, "thre": 901, "three<|WB|>": 902, "time": 903, "times<|WB|>": 904, "loop": 905, "loop.<|WB|>": 906, "multipl": 907, "multiple<|WB|>": 908, "shows<|WB|>": 909, "co": 910, "coun": 911, "counter<|WB|>": 912, "runs.<|WB|>": 913, "unti": 914, "until<|WB|>": 915, "runs<|WB|>": 916}}