{"merges": [["d", "<|WB|>", "d<|WB|>"], ["e", "<|WB|>", "e<|WB|>"], [".", "<|WB|>", ".<|WB|>"], ["e", "d<|WB|>", "ed<|WB|>"], ["e", "r", "er"], ["i", "n", "in"], ["t", "<|WB|>", "t<|WB|>"], ["s", "<|WB|>", "s<|WB|>"], ["e", "n", "en"], ["y", "<|WB|>", "y<|WB|>"], ["a", "r", "ar"], [",", "<|WB|>", ",<|WB|>"], ["a", "n", "an"], ["s", "t", "st"], ["o", "n", "on"], ["in", "g", "ing"], ["t", "h", "th"], ["o", "u", "ou"], ["ing", "<|WB|>", "ing<|WB|>"], ["r", "e", "re"], ["l", "l", "ll"], ["g", "h", "gh"], ["er", "<|WB|>", "er<|WB|>"], ["t", "i", "ti"], ["o", "r", "or"], ["i", "gh", "igh"], ["w", "a", "wa"], ["e", ".<|WB|>", "e.<|WB|>"], ["c", "h", "ch"], ["en", "<|WB|>", "en<|WB|>"], ["o", "o", "oo"], ["o", "w", "ow"], ["u", "n", "un"], ["w", "h", "wh"], ["e", "l", "el"], ["s", "t<|WB|>", "st<|WB|>"], ["t", "ed<|WB|>", "ted<|WB|>"], ["o", "m", "om"], ["v", "er", "ver"], ["c", "k", "ck"], ["e", "a", "ea"], ["i", "t", "it"], ["m", "a", "ma"], ["h", "a", "ha"], ["a", "in", "ain"], ["l", "e", "le"], ["i", "l", "il"], ["y", ".<|WB|>", "y.<|WB|>"], ["igh", "t", "ight"], ["r", "i", "ri"], ["e", "s<|WB|>", "es<|WB|>"], ["e", "c", "ec"], ["e", "t<|WB|>", "et<|WB|>"], ["d", ",<|WB|>", "d,<|WB|>"], ["d", "a", "da"], ["p", "a", "pa"], ["s", "e<|WB|>", "se<|WB|>"], ["r", "o", "ro"], ["l", "e<|WB|>", "le<|WB|>"], ["n", "e", "ne"], ["ll", "<|WB|>", "ll<|WB|>"], ["w", "e", "we"], ["e", "m", "em"], ["en", "t", "ent"], ["b", "e", "be"], ["an", "g", "ang"], ["e", "ar", "ear"], ["s", ",<|WB|>", "s,<|WB|>"], ["h", "e<|WB|>", "he<|WB|>"], ["a", "b", "ab"], ["e", "ver", "ever"], ["k", "<|WB|>", "k<|WB|>"], ["l", "y<|WB|>", "ly<|WB|>"], ["a", "t<|WB|>", "at<|WB|>"], ["ou", "n", "oun"], ["s", ".<|WB|>", "s.<|WB|>"], ["o", "l", "ol"], ["o", "ck", "ock"], ["e", "d", "ed"], ["o", "<|WB|>", "o<|WB|>"], ["f", "i", "fi"], ["on", "g", "ong"], ["on", "e<|WB|>", "one<|WB|>"], ["m", "o", "mo"], ["v", "e<|WB|>", "ve<|WB|>"], ["u", "st<|WB|>", "ust<|WB|>"], ["i", "d", "id"], ["i", "s", "is"], ["a", "t", "at"], ["u", "l", "ul"], ["c", "om", "com"], ["ight", ".<|WB|>", "ight.<|WB|>"], ["p", "i", "pi"], ["ll", "ed<|WB|>", "lled<|WB|>"], ["s", "s<|WB|>", "ss<|WB|>"], ["ever", "y", "every"], ["l", "oo", "loo"], ["v", "ed<|WB|>", "ved<|WB|>"], ["st", "u", "stu"], ["c", "ar", "car"], ["an", "<|WB|>", "an<|WB|>"], ["g", "r", "gr"], ["ain", "<|WB|>", "ain<|WB|>"], ["a", "p", "ap"], ["a", "g", "ag"], ["w", "in", "win"], ["ow", "<|WB|>", "ow<|WB|>"], ["m", "<|WB|>", "m<|WB|>"], ["c", "l", "cl"], ["wa", "ll", "wall"], ["t", "er<|WB|>", "ter<|WB|>"], ["f", "or", "for"], ["oo", "d<|WB|>", "ood<|WB|>"], ["i", "t<|WB|>", "it<|WB|>"], ["re", "a", "rea"], ["w", "<|WB|>", "w<|WB|>"], ["s", "u", "su"], ["e", "x", "ex"], ["ex", "p", "exp"], ["l", "ow", "low"], ["ch", "ang", "chang"], ["s", "e", "se"], ["l", "d<|WB|>", "ld<|WB|>"], ["e", "y<|WB|>", "ey<|WB|>"], ["en", "c", "enc"], ["f", "e", "fe"], ["b", "u", "bu"], ["th", "er<|WB|>", "ther<|WB|>"], ["q", "u", "qu"], ["h", "ou", "hou"], ["n", "<|WB|>", "n<|WB|>"], ["n", "o", "no"], ["l", "i", "li"], ["s", "m", "sm"], ["t", "er", "ter"], ["l", "a", "la"], ["b", "o", "bo"], ["v", "er<|WB|>", "ver<|WB|>"], ["d", "o", "do"], ["o", "p", "op"], ["i", "m", "im"], ["en", "d", "end"], ["h", "ear", "hear"], ["s", "a", "sa"], ["y", "ing<|WB|>", "ying<|WB|>"], ["s", "s", "ss"], ["st", "r", "str"], ["er", "e<|WB|>", "ere<|WB|>"], ["l", "y.<|WB|>", "ly.<|WB|>"], ["ch", "<|WB|>", "ch<|WB|>"], ["d", "y<|WB|>", "dy<|WB|>"], ["m", "or", "mor"], ["l", "igh", "ligh"], ["it", "ch", "itch"], ["an", "d<|WB|>", "and<|WB|>"], ["e", "f", "ef"], ["b", "el", "bel"], ["p", "r", "pr"], ["ag", "ain", "again"], ["in", "<|WB|>", "in<|WB|>"], ["ch", "ed<|WB|>", "ched<|WB|>"], ["le", "t", "let"], ["re", "e<|WB|>", "ree<|WB|>"], ["un", "d", "und"], ["st", "ood<|WB|>", "stood<|WB|>"], ["g", "ar", "gar"], ["d", "en<|WB|>", "den<|WB|>"], ["g", "re", "gre"], ["er", ",<|WB|>", "er,<|WB|>"], ["o", "f", "of"], ["exp", "ec", "expec"], ["wa", "y<|WB|>", "way<|WB|>"], ["y", "ou", "you"], ["w", "or", "wor"], ["v", "en<|WB|>", "ven<|WB|>"], ["e", "t", "et"], ["T", "h", "Th"], ["k", "ed<|WB|>", "ked<|WB|>"], ["fi", "el", "fiel"], ["enc", "e<|WB|>", "ence<|WB|>"], ["l", "ong", "long"], ["c", "ol", "col"], ["em", "<|WB|>", "em<|WB|>"], ["an", "ted<|WB|>", "anted<|WB|>"], ["k", "e<|WB|>", "ke<|WB|>"], ["qu", "i", "qui"], ["r", "<|WB|>", "r<|WB|>"], ["on", "e.<|WB|>", "one.<|WB|>"], ["e", "p", "ep"], ["p", "<|WB|>", "p<|WB|>"], ["o", "ver", "over"], ["pa", "ti", "pati"], ["d", "ec", "dec"], ["u", "r", "ur"], ["b", "r", "br"], ["sm", "e", "sme"], ["i", "on", "ion"], ["en", "t<|WB|>", "ent<|WB|>"], ["c", "at", "cat"], ["c", "ou", "cou"], ["th", "<|WB|>", "th<|WB|>"], ["s", "w", "sw"], ["an", "d", "and"], ["g", "<|WB|>", "g<|WB|>"], ["do", "or", "door"], ["an", "i", "ani"], ["ani", "ma", "anima"], ["anima", "l", "animal"], ["a", "m", "am"], ["m", "ar", "mar"], ["b", "oo", "boo"], ["s", "low", "slow"], ["an", "t<|WB|>", "ant<|WB|>"], ["i", "s<|WB|>", "is<|WB|>"], ["n", "ight", "night"], ["c", "on", "con"], ["ti", "on", "tion"], ["t", "r", "tr"], ["im", "p", "imp"], ["ss", "i", "ssi"], ["i", "d<|WB|>", "id<|WB|>"], ["hou", "se<|WB|>", "house<|WB|>"], ["e", ",<|WB|>", "e,<|WB|>"], ["v", "ing<|WB|>", "ving<|WB|>"], ["ck", "<|WB|>", "ck<|WB|>"], ["wh", "ere<|WB|>", "where<|WB|>"], ["ti", "c", "tic"], ["ar", "<|WB|>", "ar<|WB|>"], ["c", "r", "cr"], ["en", "ti", "enti"], ["ou", "t<|WB|>", "out<|WB|>"], ["th", "ou", "thou"], ["id", "ea", "idea"], ["r", "ed<|WB|>", "red<|WB|>"], ["h", "<|WB|>", "h<|WB|>"], ["b", "a", "ba"], ["t", "ow", "tow"], ["str", "ang", "strang"], ["ear", "<|WB|>", "ear<|WB|>"], ["t", ".<|WB|>", "t.<|WB|>"], ["da", "y<|WB|>", "day<|WB|>"], ["ock", "ed<|WB|>", "ocked<|WB|>"], ["f", "in", "fin"], ["th", ".<|WB|>", "th.<|WB|>"], ["d", "ar", "dar"], ["da", "y", "day"], ["'", "s<|WB|>", "'s<|WB|>"], ["wh", "i", "whi"], ["T", "he<|WB|>", "The<|WB|>"], ["mor", "n", "morn"], ["morn", "ing<|WB|>", "morning<|WB|>"], ["ligh", "t<|WB|>", "light<|WB|>"], ["s", "pi", "spi"], ["spi", "lled<|WB|>", "spilled<|WB|>"], ["a", "c", "ac"], ["ac", "ro", "acro"], ["acro", "ss<|WB|>", "across<|WB|>"], ["th", "e<|WB|>", "the<|WB|>"], ["k", "itch", "kitch"], ["kitch", "en<|WB|>", "kitchen<|WB|>"], ["t", "ab", "tab"], ["tab", "le<|WB|>", "table<|WB|>"], ["ma", "d", "mad"], ["mad", "e<|WB|>", "made<|WB|>"], ["every", "th", "everyth"], ["everyth", "ing<|WB|>", "everything<|WB|>"], ["loo", "k<|WB|>", "look<|WB|>"], ["b", "ri", "bri"], ["bri", "ef", "brief"], ["brief", "ly<|WB|>", "briefly<|WB|>"], ["ne", "w", "new"], ["new", ".<|WB|>", "new.<|WB|>"], ["S", "he<|WB|>", "She<|WB|>"], ["ha", "d<|WB|>", "had<|WB|>"], ["a", "l", "al"], ["al", "wa", "alwa"], ["alwa", "y", "alway"], ["alway", "s<|WB|>", "always<|WB|>"], ["bel", "i", "beli"], ["beli", "e", "belie"], ["belie", "ved<|WB|>", "believed<|WB|>"], ["th", "at<|WB|>", "that<|WB|>"], ["s", "ma", "sma"], ["sma", "ll<|WB|>", "small<|WB|>"], ["g", "e", "ge"], ["ge", "stu", "gestu"], ["gestu", "re", "gesture"], ["gesture", "s<|WB|>", "gestures<|WB|>"], ["car", "ri", "carri"], ["carri", "ed<|WB|>", "carried<|WB|>"], ["mor", "e<|WB|>", "more<|WB|>"], ["we", "igh", "weigh"], ["weigh", "t<|WB|>", "weight<|WB|>"], ["th", "an<|WB|>", "than<|WB|>"], ["gr", "and<|WB|>", "grand<|WB|>"], ["pr", "on", "pron"], ["pron", "oun", "pronoun"], ["pronoun", "c", "pronounc"], ["pronounc", "em", "pronouncem"], ["pronouncem", "ent", "pronouncement"], ["pronouncement", "s.<|WB|>", "pronouncements.<|WB|>"], ["R", "ain<|WB|>", "Rain<|WB|>"], ["t", "ap", "tap"], ["tap", "p", "tapp"], ["tapp", "ed<|WB|>", "tapped<|WB|>"], ["again", "st<|WB|>", "against<|WB|>"], ["win", "d", "wind"], ["wind", "ow<|WB|>", "window<|WB|>"], ["a", "<|WB|>", "a<|WB|>"], ["r", "h", "rh"], ["rh", "y", "rhy"], ["rhy", "th", "rhyth"], ["rhyth", "m<|WB|>", "rhythm<|WB|>"], ["ma", "t", "mat"], ["mat", "ched<|WB|>", "matched<|WB|>"], ["ol", "d<|WB|>", "old<|WB|>"], ["cl", "ock", "clock"], ["clock", "<|WB|>", "clock<|WB|>"], ["on", "<|WB|>", "on<|WB|>"], ["wall", ".<|WB|>", "wall.<|WB|>"], ["H", "e<|WB|>", "He<|WB|>"], ["r", "er", "rer"], ["rer", "ea", "rerea"], ["rerea", "d<|WB|>", "reread<|WB|>"], ["let", "ter<|WB|>", "letter<|WB|>"], ["th", "ree<|WB|>", "three<|WB|>"], ["ti", "m", "tim"], ["tim", "es<|WB|>", "times<|WB|>"], ["be", "for", "befor"], ["befor", "e<|WB|>", "before<|WB|>"], ["und", "er", "under"], ["under", "stood<|WB|>", "understood<|WB|>"], ["wh", "at<|WB|>", "what<|WB|>"], ["wa", "s<|WB|>", "was<|WB|>"], ["rea", "ll", "reall"], ["reall", "y<|WB|>", "really<|WB|>"], ["a", "s", "as"], ["as", "k", "ask"], ["ask", "ing", "asking"], ["asking", ".<|WB|>", "asking.<|WB|>"], ["gar", "den<|WB|>", "garden<|WB|>"], ["gre", "w<|WB|>", "grew<|WB|>"], ["w", "il", "wil"], ["wil", "d<|WB|>", "wild<|WB|>"], ["su", "m", "sum"], ["sum", "m", "summ"], ["summ", "er,<|WB|>", "summer,<|WB|>"], ["f", "u", "fu"], ["fu", "ll<|WB|>", "full<|WB|>"], ["of", "<|WB|>", "of<|WB|>"], ["we", "ed", "weed"], ["weed", "s<|WB|>", "weeds<|WB|>"], ["un", "expec", "unexpec"], ["unexpec", "ted<|WB|>", "unexpected<|WB|>"], ["f", "low", "flow"], ["flow", "er", "flower"], ["flower", "s.<|WB|>", "flowers.<|WB|>"], ["A", "<|WB|>", "A<|WB|>"], ["g", "ood<|WB|>", "good<|WB|>"], ["st", "or", "stor"], ["stor", "y<|WB|>", "story<|WB|>"], ["chang", "es<|WB|>", "changes<|WB|>"], ["you", "<|WB|>", "you<|WB|>"], ["se", "e<|WB|>", "see<|WB|>"], ["wor", "ld<|WB|>", "world<|WB|>"], ["e", "ven<|WB|>", "even<|WB|>"], ["a", "f", "af"], ["af", "ter<|WB|>", "after<|WB|>"], ["for", "g", "forg"], ["forg", "et<|WB|>", "forget<|WB|>"], ["d", "et", "det"], ["det", "a", "deta"], ["deta", "il", "detail"], ["detail", "s.<|WB|>", "details.<|WB|>"], ["Th", "ey<|WB|>", "They<|WB|>"], ["wa", "l", "wal"], ["wal", "ked<|WB|>", "walked<|WB|>"], ["t", "o<|WB|>", "to<|WB|>"], ["ed", "g", "edg"], ["edg", "e<|WB|>", "edge<|WB|>"], ["fiel", "d<|WB|>", "field<|WB|>"], ["s", "il", "sil"], ["sil", "ence<|WB|>", "silence<|WB|>"], ["for", "<|WB|>", "for<|WB|>"], ["long", "<|WB|>", "long<|WB|>"], ["wh", "il", "whil"], ["whil", "e.<|WB|>", "while.<|WB|>"], ["c", "of", "cof"], ["cof", "fe", "coffe"], ["coffe", "e<|WB|>", "coffee<|WB|>"], ["g", "one<|WB|>", "gone<|WB|>"], ["col", "d,<|WB|>", "cold,<|WB|>"], ["bu", "t<|WB|>", "but<|WB|>"], ["ne", "i", "nei"], ["nei", "ther<|WB|>", "neither<|WB|>"], ["th", "em<|WB|>", "them<|WB|>"], ["w", "anted<|WB|>", "wanted<|WB|>"], ["mo", "ve<|WB|>", "move<|WB|>"], ["ma", "ke<|WB|>", "make<|WB|>"], ["mo", "re", "more"], ["more", ".<|WB|>", "more.<|WB|>"], ["E", "ver", "Ever"], ["Ever", "y<|WB|>", "Every<|WB|>"], ["c", "it", "cit"], ["cit", "y<|WB|>", "city<|WB|>"], ["ha", "s<|WB|>", "has<|WB|>"], ["qui", "et<|WB|>", "quiet<|WB|>"], ["hou", "r<|WB|>", "hour<|WB|>"], ["j", "ust<|WB|>", "just<|WB|>"], ["da", "w", "daw"], ["daw", "n<|WB|>", "dawn<|WB|>"], ["wh", "en<|WB|>", "when<|WB|>"], ["bel", "ong", "belong"], ["belong", "s<|WB|>", "belongs<|WB|>"], ["n", "o<|WB|>", "no<|WB|>"], ["k", "ep", "kep"], ["kep", "t<|WB|>", "kept<|WB|>"], ["ti", "ck", "tick"], ["tick", "et<|WB|>", "ticket<|WB|>"], ["stu", "b", "stub"], ["stub", "<|WB|>", "stub<|WB|>"], ["h", "er<|WB|>", "her<|WB|>"], ["wall", "et<|WB|>", "wallet<|WB|>"], ["t", "ri", "tri"], ["tri", "p<|WB|>", "trip<|WB|>"], ["over", ".<|WB|>", "over.<|WB|>"], ["le", "ar", "lear"], ["lear", "n", "learn"], ["learn", "ed<|WB|>", "learned<|WB|>"], ["pati", "ence<|WB|>", "patience<|WB|>"], ["no", "t<|WB|>", "not<|WB|>"], ["wa", "it", "wait"], ["wait", "ing", "waiting"], ["waiting", ",<|WB|>", "waiting,<|WB|>"], ["dec", "id", "decid"], ["decid", "ing<|WB|>", "deciding<|WB|>"], ["h", "ur", "hur"], ["hur", "r", "hurr"], ["hurr", "y.<|WB|>", "hurry.<|WB|>"], ["li", "br", "libr"], ["libr", "ar", "librar"], ["librar", "y<|WB|>", "library<|WB|>"], ["sme", "lled<|WB|>", "smelled<|WB|>"], ["pa", "p", "pap"], ["pap", "er<|WB|>", "paper<|WB|>"], ["d", "ust<|WB|>", "dust<|WB|>"], ["dec", "is", "decis"], ["decis", "ion", "decision"], ["decision", "s.<|WB|>", "decisions.<|WB|>"], ["su", "d", "sud"], ["sud", "den<|WB|>", "sudden<|WB|>"], ["g", "ust<|WB|>", "gust<|WB|>"], ["win", "d<|WB|>", "wind<|WB|>"], ["s", "ent<|WB|>", "sent<|WB|>"], ["loo", "se<|WB|>", "loose<|WB|>"], ["pa", "g", "pag"], ["pag", "es<|WB|>", "pages<|WB|>"], ["s", "cat", "scat"], ["scat", "ter", "scatter"], ["scatter", "ing<|WB|>", "scattering<|WB|>"], ["la", "w", "law"], ["law", "n", "lawn"], ["lawn", ".<|WB|>", "lawn.<|WB|>"], ["bu", "il", "buil"], ["buil", "t<|WB|>", "built<|WB|>"], ["bo", "at<|WB|>", "boat<|WB|>"], ["gar", "ag", "garag"], ["garag", "e<|WB|>", "garage<|WB|>"], ["o", "ver<|WB|>", "over<|WB|>"], ["cou", "r", "cour"], ["cour", "se<|WB|>", "course<|WB|>"], ["win", "ter", "winter"], ["winter", ".<|WB|>", "winter.<|WB|>"], ["S", "om", "Som"], ["Som", "e<|WB|>", "Some<|WB|>"], ["qu", "e", "que"], ["que", "st", "quest"], ["quest", "ion", "question"], ["question", "s<|WB|>", "questions<|WB|>"], ["ar", "e<|WB|>", "are<|WB|>"], ["wor", "th<|WB|>", "worth<|WB|>"], ["an", "sw", "answ"], ["answ", "er", "answer"], ["answer", "s<|WB|>", "answers<|WB|>"], ["th", "ey<|WB|>", "they<|WB|>"], ["se", "em<|WB|>", "seem<|WB|>"], ["d", "em", "dem"], ["dem", "and", "demand"], ["demand", ".<|WB|>", "demand.<|WB|>"], ["do", "g<|WB|>", "dog<|WB|>"], ["wa", "i", "wai"], ["wai", "ted<|WB|>", "waited<|WB|>"], ["b", "y<|WB|>", "by<|WB|>"], ["door", ",<|WB|>", "door,<|WB|>"], ["h", "op", "hop"], ["hop", "ef", "hopef"], ["hopef", "ul", "hopeful"], ["hopeful", "<|WB|>", "hopeful<|WB|>"], ["on", "ly<|WB|>", "only<|WB|>"], ["animal", "s<|WB|>", "animals<|WB|>"], ["c", "an<|WB|>", "can<|WB|>"], ["b", "e.<|WB|>", "be.<|WB|>"], ["w", "ro", "wro"], ["wro", "t", "wrot"], ["wrot", "e<|WB|>", "wrote<|WB|>"], ["n", "am", "nam"], ["nam", "e<|WB|>", "name<|WB|>"], ["mar", "g", "marg"], ["marg", "in<|WB|>", "margin<|WB|>"], ["boo", "k", "book"], ["book", ",<|WB|>", "book,<|WB|>"], ["th", "en<|WB|>", "then<|WB|>"], ["re", "gre", "regre"], ["regre", "t", "regret"], ["regret", "ted<|WB|>", "regretted<|WB|>"], ["im", "m", "imm"], ["imm", "ed", "immed"], ["immed", "i", "immedi"], ["immedi", "at", "immediat"], ["immediat", "el", "immediatel"], ["immediatel", "y.<|WB|>", "immediately.<|WB|>"], ["E", "v", "Ev"], ["Ev", "en", "Even"], ["Even", "ing<|WB|>", "Evening<|WB|>"], ["ar", "ri", "arri"], ["arri", "ved<|WB|>", "arrived<|WB|>"], ["slow", "l", "slowl"], ["slowl", "y", "slowly"], ["slowly", ",<|WB|>", "slowly,<|WB|>"], ["a", "s<|WB|>", "as<|WB|>"], ["i", "f", "if"], ["if", "<|WB|>", "if<|WB|>"], ["re", "l", "rel"], ["rel", "u", "relu"], ["relu", "c", "reluc"], ["reluc", "t", "reluct"], ["reluct", "ant<|WB|>", "reluctant<|WB|>"], ["com", "m", "comm"], ["comm", "it<|WB|>", "commit<|WB|>"], ["end", "ing<|WB|>", "ending<|WB|>"], ["da", "y.<|WB|>", "day.<|WB|>"], ["cou", "ld<|WB|>", "could<|WB|>"], ["hear", "<|WB|>", "hear<|WB|>"], ["ri", "ver<|WB|>", "river<|WB|>"], ["f", "r", "fr"], ["fr", "om", "from"], ["from", "<|WB|>", "from<|WB|>"], ["h", "is<|WB|>", "his<|WB|>"], ["r", "oo", "roo"], ["roo", "m<|WB|>", "room<|WB|>"], ["mo", "st<|WB|>", "most<|WB|>"], ["night", "s<|WB|>", "nights<|WB|>"], ["r", "ight.<|WB|>", "right.<|WB|>"], ["be", "st<|WB|>", "best<|WB|>"], ["con", "ver", "conver"], ["conver", "sa", "conversa"], ["conversa", "tion", "conversation"], ["conversation", "s<|WB|>", "conversations<|WB|>"], ["ha", "p", "hap"], ["hap", "p", "happ"], ["happ", "en<|WB|>", "happen<|WB|>"], ["tr", "ying<|WB|>", "trying<|WB|>"], ["b", "e<|WB|>", "be<|WB|>"], ["imp", "re", "impre"], ["impre", "ssi", "impressi"], ["impressi", "v", "impressiv"], ["impressiv", "e.<|WB|>", "impressive.<|WB|>"], ["s", "ing", "sing"], ["sing", "le<|WB|>", "single<|WB|>"], ["l", "an", "lan"], ["lan", "ter", "lanter"], ["lanter", "n<|WB|>", "lantern<|WB|>"], ["h", "un", "hun"], ["hun", "g<|WB|>", "hung<|WB|>"], ["en", "d<|WB|>", "end<|WB|>"], ["d", "ock", "dock"], ["dock", ",<|WB|>", "dock,<|WB|>"], ["s", "wa", "swa"], ["swa", "ying<|WB|>", "swaying<|WB|>"], ["w", "i", "wi"], ["wi", "th<|WB|>", "with<|WB|>"], ["ti", "d", "tid"], ["tid", "e.<|WB|>", "tide.<|WB|>"], ["re", "hear", "rehear"], ["rehear", "s", "rehears"], ["rehears", "ed<|WB|>", "rehearsed<|WB|>"], ["ap", "ol", "apol"], ["apol", "o", "apolo"], ["apolo", "g", "apolog"], ["apolog", "y<|WB|>", "apology<|WB|>"], ["we", "e", "wee"], ["wee", "k<|WB|>", "week<|WB|>"], ["st", "i", "sti"], ["sti", "ll<|WB|>", "still<|WB|>"], ["sa", "id<|WB|>", "said<|WB|>"], ["a", "ll<|WB|>", "all<|WB|>"], ["w", "r", "wr"], ["wr", "ong", "wrong"], ["wrong", ".<|WB|>", "wrong.<|WB|>"], ["f", "ar", "far"], ["far", "m", "farm"], ["farm", "house<|WB|>", "farmhouse<|WB|>"], ["le", "an", "lean"], ["lean", "ed<|WB|>", "leaned<|WB|>"], ["s", "l", "sl"], ["sl", "ight", "slight"], ["slight", "ly<|WB|>", "slightly<|WB|>"], ["s", "id", "sid"], ["sid", "e,<|WB|>", "side,<|WB|>"], ["ha", "ving<|WB|>", "having<|WB|>"], ["g", "i", "gi"], ["gi", "ven<|WB|>", "given<|WB|>"], ["u", "p<|WB|>", "up<|WB|>"], ["be", "ing<|WB|>", "being<|WB|>"], ["str", "a", "stra"], ["stra", "ight.<|WB|>", "straight.<|WB|>"], ["c", "oun", "coun"], ["coun", "ted<|WB|>", "counted<|WB|>"], ["st", "ar", "star"], ["star", "s<|WB|>", "stars<|WB|>"], ["un", "ti", "unti"], ["unti", "l", "until"], ["until", "<|WB|>", "until<|WB|>"], ["ne", "ck<|WB|>", "neck<|WB|>"], ["a", "ched<|WB|>", "ached<|WB|>"], ["g", "a", "ga"], ["ga", "ve<|WB|>", "gave<|WB|>"], ["s", "om", "som"], ["som", "e", "some"], ["some", "where<|WB|>", "somewhere<|WB|>"], ["pa", "st<|WB|>", "past<|WB|>"], ["h", "und", "hund"], ["hund", "re", "hundre"], ["hundre", "d", "hundred"], ["hundred", ".<|WB|>", "hundred.<|WB|>"], ["Th", "ere<|WB|>", "There<|WB|>"], ["p", "ar", "par"], ["par", "tic", "partic"], ["partic", "ul", "particul"], ["particul", "ar<|WB|>", "particular<|WB|>"], ["l", "on", "lon"], ["lon", "el", "lonel"], ["lonel", "in", "lonelin"], ["lonelin", "e", "loneline"], ["loneline", "ss<|WB|>", "loneliness<|WB|>"], ["com", "es<|WB|>", "comes<|WB|>"], ["t", "oo", "too"], ["too", "<|WB|>", "too<|WB|>"], ["qui", "ck", "quick"], ["quick", "ly.<|WB|>", "quickly.<|WB|>"], ["pi", "e<|WB|>", "pie<|WB|>"], ["cr", "ust<|WB|>", "crust<|WB|>"], ["d", "is", "dis"], ["dis", "a", "disa"], ["disa", "st", "disast"], ["disast", "er,<|WB|>", "disaster,<|WB|>"], ["fi", "ll", "fill"], ["fill", "ing<|WB|>", "filling<|WB|>"], ["enti", "re", "entire"], ["entire", "ly.<|WB|>", "entirely.<|WB|>"], ["ar", "g", "arg"], ["arg", "u", "argu"], ["argu", "ed<|WB|>", "argued<|WB|>"], ["ab", "out<|WB|>", "about<|WB|>"], ["ma", "p", "map"], ["map", "s<|WB|>", "maps<|WB|>"], ["thou", "gh", "though"], ["though", "<|WB|>", "though<|WB|>"], ["an", "y<|WB|>", "any<|WB|>"], ["idea", "<|WB|>", "idea<|WB|>"], ["w", "er", "wer"], ["wer", "e.<|WB|>", "were.<|WB|>"], ["F", "ro", "Fro"], ["Fro", "st<|WB|>", "Frost<|WB|>"], ["p", "ain", "pain"], ["pain", "ted<|WB|>", "painted<|WB|>"], ["g", "la", "gla"], ["gla", "ss<|WB|>", "glass<|WB|>"], ["d", "el", "del"], ["del", "i", "deli"], ["deli", "cat", "delicat"], ["delicat", "e<|WB|>", "delicate<|WB|>"], ["wh", "it", "whit"], ["whit", "e<|WB|>", "white<|WB|>"], ["f", "er", "fer"], ["fer", "n", "fern"], ["fern", "s<|WB|>", "ferns<|WB|>"], ["over", "n", "overn"], ["overn", "ight.<|WB|>", "overnight.<|WB|>"], ["c", "o", "co"], ["co", "ll", "coll"], ["coll", "ec", "collec"], ["collec", "ted<|WB|>", "collected<|WB|>"], ["p", "o", "po"], ["po", "st", "post"], ["post", "car", "postcar"], ["postcar", "d", "postcard"], ["postcard", "s<|WB|>", "postcards<|WB|>"], ["p", "la", "pla"], ["pla", "c", "plac"], ["plac", "es<|WB|>", "places<|WB|>"], ["s", "he<|WB|>", "she<|WB|>"], ["ne", "ver<|WB|>", "never<|WB|>"], ["be", "en<|WB|>", "been<|WB|>"], ["p", "ro", "pro"], ["pro", "b", "prob"], ["prob", "ab", "probab"], ["probab", "ly<|WB|>", "probably<|WB|>"], ["w", "ou", "wou"], ["wou", "ld<|WB|>", "would<|WB|>"], ["g", "o", "go"], ["go", ".<|WB|>", "go.<|WB|>"], ["tr", "ain<|WB|>", "train<|WB|>"], ["slow", "ed<|WB|>", "slowed<|WB|>"], ["ent", "er", "enter"], ["enter", "ed<|WB|>", "entered<|WB|>"], ["st", "a", "sta"], ["sta", "tion", "station"], ["station", ",<|WB|>", "station,<|WB|>"], ["s", "igh", "sigh"], ["sigh", "ing<|WB|>", "sighing<|WB|>"], ["li", "ke<|WB|>", "like<|WB|>"], ["ti", "red<|WB|>", "tired<|WB|>"], ["animal", ".<|WB|>", "animal.<|WB|>"], ["f", "oun", "foun"], ["foun", "d<|WB|>", "found<|WB|>"], ["p", "h", "ph"], ["ph", "o", "pho"], ["pho", "t", "phot"], ["phot", "o", "photo"], ["photo", "gr", "photogr"], ["photogr", "ap", "photograp"], ["photograp", "h<|WB|>", "photograph<|WB|>"], ["gr", "and", "grand"], ["grand", "mo", "grandmo"], ["grandmo", "ther<|WB|>", "grandmother<|WB|>"], ["stu", "d", "stud"], ["stud", "i", "studi"], ["studi", "ed<|WB|>", "studied<|WB|>"], ["m", "u", "mu"], ["mu", "ch<|WB|>", "much<|WB|>"], ["long", "er<|WB|>", "longer<|WB|>"], ["expec", "t", "expect"], ["expect", "ed", "expected"], ["expected", ".<|WB|>", "expected.<|WB|>"], ["sme", "ll<|WB|>", "smell<|WB|>"], ["b", "rea", "brea"], ["brea", "d<|WB|>", "bread<|WB|>"], ["d", "ri", "dri"], ["dri", "f", "drif"], ["drif", "ted<|WB|>", "drifted<|WB|>"], ["ba", "k", "bak"], ["bak", "er", "baker"], ["baker", "y<|WB|>", "bakery<|WB|>"], ["p", "u", "pu"], ["pu", "lled<|WB|>", "pulled<|WB|>"], ["wh", "o", "who"], ["who", "le<|WB|>", "whole<|WB|>"], ["st", "re", "stre"], ["stre", "et<|WB|>", "street<|WB|>"], ["tow", "ar", "towar"], ["towar", "d<|WB|>", "toward<|WB|>"], ["it", ".<|WB|>", "it.<|WB|>"], ["I", "t<|WB|>", "It<|WB|>"], ["strang", "e<|WB|>", "strange<|WB|>"], ["h", "ow<|WB|>", "how<|WB|>"], ["f", "am", "fam"], ["fam", "il", "famil"], ["famil", "i", "famili"], ["famili", "ar<|WB|>", "familiar<|WB|>"], ["br", "ing<|WB|>", "bring<|WB|>"], ["ba", "ck<|WB|>", "back<|WB|>"], ["enti", "r", "entir"], ["entir", "e<|WB|>", "entire<|WB|>"], ["y", "ear<|WB|>", "year<|WB|>"], ["in", "st", "inst"], ["inst", "an", "instan"], ["instan", "t.<|WB|>", "instant.<|WB|>"], ["p", "l", "pl"], ["pl", "anted<|WB|>", "planted<|WB|>"], ["t", "ree<|WB|>", "tree<|WB|>"], ["cl", "ou", "clou"], ["clou", "dy<|WB|>", "cloudy<|WB|>"], ["s", "o<|WB|>", "so<|WB|>"], ["s", "h", "sh"], ["sh", "ocked<|WB|>", "shocked<|WB|>"], ["s", "un", "sun"], ["sun", ".<|WB|>", "sun.<|WB|>"], ["sw", "itch", "switch"], ["switch", "ing<|WB|>", "switching<|WB|>"], ["be", "t", "bet"], ["bet", "we", "betwe"], ["betwe", "en<|WB|>", "between<|WB|>"], ["sa", "ying<|WB|>", "saying<|WB|>"], ["fin", "e<|WB|>", "fine<|WB|>"], ["no", "t", "not"], ["not", ",<|WB|>", "not,<|WB|>"], ["m", "e", "me"], ["me", "ant<|WB|>", "meant<|WB|>"], ["bo", "th.<|WB|>", "both.<|WB|>"], ["mar", "k", "mark"], ["mark", "et<|WB|>", "market<|WB|>"], ["S", "at", "Sat"], ["Sat", "ur", "Satur"], ["Satur", "day<|WB|>", "Saturday<|WB|>"], ["l", "ou", "lou"], ["lou", "d,<|WB|>", "loud,<|WB|>"], ["col", "or", "color"], ["color", "f", "colorf"], ["colorf", "ul", "colorful"], ["colorful", ",<|WB|>", "colorful,<|WB|>"], ["com", "p", "comp"], ["comp", "let", "complet"], ["complet", "el", "completel"], ["completel", "y<|WB|>", "completely<|WB|>"], ["imp", "o", "impo"], ["impo", "ssi", "impossi"], ["impossi", "b", "impossib"], ["impossib", "le<|WB|>", "impossible<|WB|>"], ["r", "u", "ru"], ["ru", "s", "rus"], ["rus", "h<|WB|>", "rush<|WB|>"], ["th", "r", "thr"], ["thr", "ou", "throu"], ["throu", "gh", "through"], ["through", ".<|WB|>", "through.<|WB|>"], ["idea", "s<|WB|>", "ideas<|WB|>"], ["d", "ow", "dow"], ["dow", "n<|WB|>", "down<|WB|>"], ["dar", "k<|WB|>", "dark<|WB|>"], ["day", "l", "dayl"], ["dayl", "ight.<|WB|>", "daylight.<|WB|>"], ["car", "ved<|WB|>", "carved<|WB|>"], ["v", "a", "va"], ["va", "ll", "vall"], ["vall", "ey<|WB|>", "valley<|WB|>"], ["m", "i", "mi"], ["mi", "ll", "mill"], ["mill", "en", "millen"], ["millen", "n", "millenn"], ["millenn", "i", "millenni"], ["millenni", "a", "millennia"], ["millennia", ",<|WB|>", "millennia,<|WB|>"], ["pati", "ent<|WB|>", "patient<|WB|>"], ["st", "one<|WB|>", "stone<|WB|>"], ["strang", "er<|WB|>", "stranger<|WB|>"], ["sm", "il", "smil"], ["smil", "ed<|WB|>", "smiled<|WB|>"], ["bu", "s,<|WB|>", "bus,<|WB|>"], ["loo", "ked<|WB|>", "looked<|WB|>"], ["a", "way<|WB|>", "away<|WB|>"], ["fi", "r", "fir"], ["fir", "st", "first"], ["first", ".<|WB|>", "first.<|WB|>"], ["s", "n", "sn"], ["sn", "ow<|WB|>", "snow<|WB|>"], ["s", "wall", "swall"], ["swall", "ow", "swallow"], ["swallow", "ed<|WB|>", "swallowed<|WB|>"], ["tow", "n", "town"], ["town", "'s<|WB|>", "town's<|WB|>"], ["s", "oun", "soun"], ["soun", "d,<|WB|>", "sound,<|WB|>"], ["l", "ea", "lea"], ["lea", "ving<|WB|>", "leaving<|WB|>"], ["cr", "un", "crun"], ["crun", "ch<|WB|>", "crunch<|WB|>"], ["boo", "t", "boot"], ["boot", "s<|WB|>", "boots<|WB|>"], ["h", "om", "hom"], ["hom", "e.<|WB|>", "home.<|WB|>"], ["ha", "b", "hab"], ["hab", "it<|WB|>", "habit<|WB|>"], ["fin", "is", "finis"], ["finis", "h", "finish"], ["finish", "ing<|WB|>", "finishing<|WB|>"], ["o", "ther<|WB|>", "other<|WB|>"], ["p", "e", "pe"], ["pe", "op", "peop"], ["peop", "le", "people"], ["people", "'s<|WB|>", "people's<|WB|>"], ["s", "ent", "sent"], ["sent", "enc", "sentenc"], ["sentenc", "e", "sentence"], ["sentence", "s,<|WB|>", "sentences,<|WB|>"], ["whi", "ch<|WB|>", "which<|WB|>"], ["d", "id<|WB|>", "did<|WB|>"], ["end", "ear<|WB|>", "endear<|WB|>"], ["every", "one.<|WB|>", "everyone.<|WB|>"], ["ligh", "thou", "lighthou"], ["lighthou", "se<|WB|>", "lighthouse<|WB|>"], ["b", "ea", "bea"], ["bea", "m<|WB|>", "beam<|WB|>"], ["s", "we", "swe"], ["swe", "p", "swep"], ["swep", "t<|WB|>", "swept<|WB|>"], ["wa", "ter<|WB|>", "water<|WB|>"], ["ever", "y<|WB|>", "every<|WB|>"], ["fe", "w<|WB|>", "few<|WB|>"], ["s", "ec", "sec"], ["sec", "on", "secon"], ["secon", "d", "second"], ["second", "s,<|WB|>", "seconds,<|WB|>"], ["st", "ea", "stea"], ["stea", "dy<|WB|>", "steady<|WB|>"], ["p", "ul", "pul"], ["pul", "se<|WB|>", "pulse<|WB|>"], ["dar", "k", "dark"], ["dark", ".<|WB|>", "dark.<|WB|>"], ["le", "f", "lef"], ["lef", "t<|WB|>", "left<|WB|>"], ["door", "<|WB|>", "door<|WB|>"], ["un", "l", "unl"], ["unl", "ocked<|WB|>", "unlocked<|WB|>"], ["night", ",<|WB|>", "night,<|WB|>"], ["ha", "ve<|WB|>", "have<|WB|>"], ["exp", "l", "expl"], ["expl", "ain", "explain"], ["explain", "ed<|WB|>", "explained<|WB|>"], ["wh", "y.<|WB|>", "why.<|WB|>"], ["pr", "om", "prom"], ["prom", "is", "promis"], ["promis", "es<|WB|>", "promises<|WB|>"], ["fe", "el", "feel"], ["feel", "<|WB|>", "feel<|WB|>"], ["you", "r<|WB|>", "your<|WB|>"], ["m", "ou", "mou"], ["mou", "th.<|WB|>", "mouth.<|WB|>"], ["k", "et", "ket"], ["ket", "t", "kett"], ["kett", "le<|WB|>", "kettle<|WB|>"], ["whi", "st", "whist"], ["whist", "le", "whistle"], ["whistle", "d,<|WB|>", "whistled,<|WB|>"], ["se", "em", "seem"], ["seem", "ed<|WB|>", "seemed<|WB|>"], ["com", "e<|WB|>", "come<|WB|>"], ["li", "f", "lif"], ["lif", "e.<|WB|>", "life.<|WB|>"], ["m", "ea", "mea"], ["mea", "su", "measu"], ["measu", "red<|WB|>", "measured<|WB|>"], ["s", "ea", "sea"], ["sea", "s", "seas"], ["seas", "on", "season"], ["season", "s,<|WB|>", "seasons,<|WB|>"], ["day", "s,<|WB|>", "days,<|WB|>"], ["pa", "ss", "pass"], ["pass", "ed<|WB|>", "passed<|WB|>"], ["g", "ent", "gent"], ["gent", "ly.<|WB|>", "gently.<|WB|>"], ["un", "op", "unop"], ["unop", "en", "unopen"], ["unopen", "e", "unopene"], ["unopene", "d,<|WB|>", "unopened,<|WB|>"], ["c", "er", "cer"], ["cer", "t", "cert"], ["cert", "ain<|WB|>", "certain<|WB|>"], ["it", "s<|WB|>", "its<|WB|>"], ["con", "t", "cont"], ["cont", "ent", "content"], ["content", "s<|WB|>", "contents<|WB|>"], ["chang", "e<|WB|>", "change<|WB|>"], ["th", "ing", "thing"], ["thing", "s<|WB|>", "things<|WB|>"], ["rea", "dy<|WB|>", "ready<|WB|>"], ["chang", "e.<|WB|>", "change.<|WB|>"], ["bo", "y<|WB|>", "boy<|WB|>"], ["st", "ep", "step"], ["step", "s<|WB|>", "steps<|WB|>"], ["ro", "a", "roa"], ["roa", "d<|WB|>", "road<|WB|>"], ["k", "ne", "kne"], ["kne", "w<|WB|>", "knew<|WB|>"], ["hear", "t.<|WB|>", "heart.<|WB|>"], ["ha", "w", "haw"], ["haw", "k<|WB|>", "hawk<|WB|>"], ["c", "i", "ci"], ["ci", "r", "cir"], ["cir", "cl", "circl"], ["circl", "ed<|WB|>", "circled<|WB|>"], ["h", "igh", "high"], ["high", "<|WB|>", "high<|WB|>"], ["ab", "o", "abo"], ["abo", "ve<|WB|>", "above<|WB|>"], ["fiel", "d,<|WB|>", "field,<|WB|>"], ["again", ".<|WB|>", "again.<|WB|>"], ["pi", "an", "pian"], ["pian", "o<|WB|>", "piano<|WB|>"], ["c", "or", "cor"], ["cor", "n", "corn"], ["corn", "er<|WB|>", "corner<|WB|>"], ["t", "un", "tun"], ["tun", "e,<|WB|>", "tune,<|WB|>"], ["every", "one<|WB|>", "everyone<|WB|>"], ["p", "re", "pre"], ["pre", "t", "pret"], ["pret", "end", "pretend"], ["pretend", "ed<|WB|>", "pretended<|WB|>"], ["no", "tic", "notic"]], "vocab": {"0": "\u0000", "1": "\u0001", "2": "\u0002", "3": "\u0003", "4": "\u0004", "5": "\u0005", "6": "\u0006", "7": "\u0007", "8": "\b", "9": "\t", "10": "\n", "11": "\u000b", "12": "\f", "13": "\r", "14": "\u000e", "15": "\u000f", "16": "\u0010", "17": "\u0011", "18": "\u0012", "19": "\u0013", "20": "\u0014", "21": "\u0015", "22": "\u0016", "23": "\u0017", "24": "\u0018", "25": "\u0019", "26": "\u001a", "27": "\u001b", "28": "\u001c", "29": "\u001d", "30": "\u001e", "31": "\u001f", "32": " ", "33": "!", "34": "\"", "35": "#", "36": "$", "37": "%", "38": "&", "39": "'", "40": "(", "41": ")", "42": "*", "43": "+", "44": ",", "45": "-", "46": ".", "47": "/", "48": "0", "49": "1", "50": "2", "51": "3", "52": "4", "53": "5", "54": "6", "55": "7", "56": "8", "57": "9", "58": ":", "59": ";", "60": "<", "61": "=", "62": ">", "63": "?", "64": "@", "65": "A", "66": "B", "67": "C", "68": "D", "69": "E", "70": "F", "71": "G", "72": "H", "73": "I", "74": "J", "75": "K", "76": "L", "77": "M", "78": "N", "79": "O", "80": "P", "81": "Q", "82": "R", "83": "S", "84": "T", "85": "U", "86": "V", "87": "W", "88": "X", "89": "Y", "90": "Z", "91": "[", "92": "\\", "93": "]", "94": "^", "95": "_", "96": "`", "97": "a", "98": "b", "99": "c", "100": "d", "101": "e", "102": "f", "103": "g", "104": "h", "105": "i", "106": "j", "107": "k", "108": "l", "109": "m", "110": "n", "111": "o", "112": "p", "113": "q", "114": "r", "115": "s", "116": "t", "117": "u", "118": "v", "119": "w", "120": "x", "121": "y", "122": "z", "123": "{", "124": "|", "125": "}", "126": "~", "127": "\u007f", "128": "\u0080", "129": "\u0081", "130": "\u0082", "131": "\u0083", "132": "\u0084", "133": "\u0085", "134": "\u0086", "135": "\u0087", "136": "\u0088", "137": "\u0089", "138": "\u008a", "139": "\u008b", "140": "\u008c", "141": "\u008d", "142": "\u008e", "143": "\u008f", "144": "\u0090", "145": "\u0091", "146": "\u0092", "147": "\u0093", "148": "\u0094", "149": "\u0095", "150": "\u0096", "151": "\u0097", "152": "\u0098", "153": "\u0099", "154": "\u009a", "155": "\u009b", "156": "\u009c", "157": "\u009d", "158": "\u009e", "159": "\u009f", "160": "\u00a0", "161": "\u00a1", "162": "\u00a2", "163": "\u00a3", "164": "\u00a4", "165": "\u00a5", "166": "\u00a6", "167": "\u00a7", "168": "\u00a8", "169": "\u00a9", "170": "\u00aa", "171": "\u00ab", "172": "\u00ac", "173": "\u00ad", "174": "\u00ae", "175": "\u00af", "176": "\u00b0", "177": "\u00b1", "178": "\u00b2", "179": "\u00b3", "180": "\u00b4", "181": "\u00b5", "182": "\u00b6", "183": "\u00b7", "184": "\u00b8", "185": "\u00b9", "186": "\u00ba", "187": "\u00bb", "188": "\u00bc", "189": "\u00bd", "190": "\u00be", "191": "\u00bf", "192": "\u00c0", "193": "\u00c1", "194": "\u00c2", "195": "\u00c3", "196": "\u00c4", "197": "\u00c5", "198": "\u00c6", "199": "\u00c7", "200": "\u00c8", "201": "\u00c9", "202": "\u00ca", "203": "\u00cb", "204": "\u00cc", "205": "\u00cd", "206": "\u00ce", "207": "\u00cf", "208": "\u00d0", "209": "\u00d1", "210": "\u00d2", "211": "\u00d3", "212": "\u00d4", "213": "\u00d5", "214": "\u00d6", "215": "\u00d7", "216": "\u00d8", "217": "\u00d9", "218": "\u00da", "219": "\u00db", "220": "\u00dc", "221": "\u00dd", "222": "\u00de", "223": "\u00df", "224": "\u00e0", "225": "\u00e1", "226": "\u00e2", "227": "\u00e3", "228": "\u00e4", "229": "\u00e5", "230": "\u00e6", "231": "\u00e7", "232": "\u00e8", "233": "\u00e9", "234": "\u00ea", "235": "\u00eb", "236": "\u00ec", "237": "\u00ed", "238": "\u00ee", "239": "\u00ef", "240": "\u00f0", "241": "\u00f1", "242": "\u00f2", "243": "\u00f3", "244": "\u00f4", "245": "\u00f5", "246": "\u00f6", "247": "\u00f7", "248": "\u00f8", "249": "\u00f9", "250": "\u00fa", "251": "\u00fb", "252": "\u00fc", "253": "\u00fd", "254": "\u00fe", "255": "\u00ff", "256": "<|EOS|>", "257": "<|WB|>", "258": "d<|WB|>", "259": "e<|WB|>", "260": ".<|WB|>", "261": "ed<|WB|>", "262": "er", "263": "in", "264": "t<|WB|>", "265": "s<|WB|>", "266": "en", "267": "y<|WB|>", "268": "ar", "269": ",<|WB|>", "270": "an", "271": "st", "272": "on", "273": "ing", "274": "th", "275": "ou", "276": "ing<|WB|>", "277": "re", "278": "ll", "279": "gh", "280": "er<|WB|>", "281": "ti", "282": "or", "283": "igh", "284": "wa", "285": "e.<|WB|>", "286": "ch", "287": "en<|WB|>", "288": "oo", "289": "ow", "290": "un", "291": "wh", "292": "el", "293": "st<|WB|>", "294": "ted<|WB|>", "295": "om", "296": "ver", "297": "ck", "298": "ea", "299": "it", "300": "ma", "301": "ha", "302": "ain", "303": "le", "304": "il", "305": "y.<|WB|>", "306": "ight", "307": "ri", "308": "es<|WB|>", "309": "ec", "310": "et<|WB|>", "311": "d,<|WB|>", "312": "da", "313": "pa", "314": "se<|WB|>", "315": "ro", "316": "le<|WB|>", "317": "ne", "318": "ll<|WB|>", "319": "we", "320": "em", "321": "ent", "322": "be", "323": "ang", "324": "ear", "325": "s,<|WB|>", "326": "he<|WB|>", "327": "ab", "328": "ever", "329": "k<|WB|>", "330": "ly<|WB|>", "331": "at<|WB|>", "332": "oun", "333": "s.<|WB|>", "334": "ol", "335": "ock", "336": "ed", "337": "o<|WB|>", "338": "fi", "339": "ong", "340": "one<|WB|>", "341": "mo", "342": "ve<|WB|>", "343": "ust<|WB|>", "344": "id", "345": "is", "346": "at", "347": "ul", "348": "com", "349": "ight.<|WB|>", "350": "pi", "351": "lled<|WB|>", "352": "ss<|WB|>", "353": "every", "354": "loo", "355": "ved<|WB|>", "356": "stu", "357": "car", "358": "an<|WB|>", "359": "gr", "360": "ain<|WB|>", "361": "ap", "362": "ag", "363": "win", "364": "ow<|WB|>", "365": "m<|WB|>", "366": "cl", "367": "wall", "368": "ter<|WB|>", "369": "for", "370": "ood<|WB|>", "371": "it<|WB|>", "372": "rea", "373": "w<|WB|>", "374": "su", "375": "ex", "376": "exp", "377": "low", "378": "chang", "379": "se", "380": "ld<|WB|>", "381": "ey<|WB|>", "382": "enc", "383": "fe", "384": "bu", "385": "ther<|WB|>", "386": "qu", "387": "hou", "388": "n<|WB|>", "389": "no", "390": "li", "391": "sm", "392": "ter", "393": "la", "394": "bo", "395": "ver<|WB|>", "396": "do", "397": "op", "398": "im", "399": "end", "400": "hear", "401": "sa", "402": "ying<|WB|>", "403": "ss", "404": "str", "405": "ere<|WB|>", "406": "ly.<|WB|>", "407": "ch<|WB|>", "408": "dy<|WB|>", "409": "mor", "410": "ligh", "411": "itch", "412": "and<|WB|>", "413": "ef", "414": "bel", "415": "pr", "416": "again", "417": "in<|WB|>", "418": "ched<|WB|>", "419": "let", "420": "ree<|WB|>", "421": "und", "422": "stood<|WB|>", "423": "gar", "424": "den<|WB|>", "425": "gre", "426": "er,<|WB|>", "427": "of", "428": "expec", "429": "way<|WB|>", "430": "you", "431": "wor", "432": "ven<|WB|>", "433": "et", "434": "Th", "435": "ked<|WB|>", "436": "fiel", "437": "ence<|WB|>", "438": "long", "439": "col", "440": "em<|WB|>", "441": "anted<|WB|>", "442": "ke<|WB|>", "443": "qui", "444": "r<|WB|>", "445": "one.<|WB|>", "446": "ep", "447": "p<|WB|>", "448": "over", "449": "pati", "450": "dec", "451": "ur", "452": "br", "453": "sme", "454": "ion", "455": "ent<|WB|>", "456": "cat", "457": "cou", "458": "th<|WB|>", "459": "sw", "460": "and", "461": "g<|WB|>", "462": "door", "463": "ani", "464": "anima", "465": "animal", "466": "am", "467": "mar", "468": "boo", "469": "slow", "470": "ant<|WB|>", "471": "is<|WB|>", "472": "night", "473": "con", "474": "tion", "475": "tr", "476": "imp", "477": "ssi", "478": "id<|WB|>", "479": "house<|WB|>", "480": "e,<|WB|>", "481": "ving<|WB|>", "482": "ck<|WB|>", "483": "where<|WB|>", "484": "tic", "485": "ar<|WB|>", "486": "cr", "487": "enti", "488": "out<|WB|>", "489": "thou", "490": "idea", "491": "red<|WB|>", "492": "h<|WB|>", "493": "ba", "494": "tow", "495": "strang", "496": "ear<|WB|>", "497": "t.<|WB|>", "498": "day<|WB|>", "499": "ocked<|WB|>", "500": "fin", "501": "th.<|WB|>", "502": "dar", "503": "day", "504": "'s<|WB|>", "505": "whi", "506": "The<|WB|>", "507": "morn", "508": "morning<|WB|>", "509": "light<|WB|>", "510": "spi", "511": "spilled<|WB|>", "512": "ac", "513": "acro", "514": "across<|WB|>", "515": "the<|WB|>", "516": "kitch", "517": "kitchen<|WB|>", "518": "tab", "519": "table<|WB|>", "520": "mad", "521": "made<|WB|>", "522": "everyth", "523": "everything<|WB|>", "524": "look<|WB|>", "525": "bri", "526": "brief", "527": "briefly<|WB|>", "528": "new", "529": "new.<|WB|>", "530": "She<|WB|>", "531": "had<|WB|>", "532": "al", "533": "alwa", "534": "alway", "535": "always<|WB|>", "536": "beli", "537": "belie", "538": "believed<|WB|>", "539": "that<|WB|>", "540": "sma", "541": "small<|WB|>", "542": "ge", "543": "gestu", "544": "gesture", "545": "gestures<|WB|>", "546": "carri", "547": "carried<|WB|>", "548": "more<|WB|>", "549": "weigh", "550": "weight<|WB|>", "551": "than<|WB|>", "552": "grand<|WB|>", "553": "pron", "554": "pronoun", "555": "pronounc", "556": "pronouncem", "557": "pronouncement", "558": "pronouncements.<|WB|>", "559": "Rain<|WB|>", "560": "tap", "561": "tapp", "562": "tapped<|WB|>", "563": "against<|WB|>", "564": "wind", "565": "window<|WB|>", "566": "a<|WB|>", "567": "rh", "568": "rhy", "569": "rhyth", "570": "rhythm<|WB|>", "571": "mat", "572": "matched<|WB|>", "573": "old<|WB|>", "574": "clock", "575": "clock<|WB|>", "576": "on<|WB|>", "577": "wall.<|WB|>", "578": "He<|WB|>", "579": "rer", "580": "rerea", "581": "reread<|WB|>", "582": "letter<|WB|>", "583": "three<|WB|>", "584": "tim", "585": "times<|WB|>", "586": "befor", "587": "before<|WB|>", "588": "under", "589": "understood<|WB|>", "590": "what<|WB|>", "591": "was<|WB|>", "592": "reall", "593": "really<|WB|>", "594": "as", "595": "ask", "596": "asking", "597": "asking.<|WB|>", "598": "garden<|WB|>", "599": "grew<|WB|>", "600": "wil", "601": "wild<|WB|>", "602": "sum", "603": "summ", "604": "summer,<|WB|>", "605": "fu", "606": "full<|WB|>", "607": "of<|WB|>", "608": "weed", "609": "weeds<|WB|>", "610": "unexpec", "611": "unexpected<|WB|>", "612": "flow", "613": "flower", "614": "flowers.<|WB|>", "615": "A<|WB|>", "616": "good<|WB|>", "617": "stor", "618": "story<|WB|>", "619": "changes<|WB|>", "620": "you<|WB|>", "621": "see<|WB|>", "622": "world<|WB|>", "623": "even<|WB|>", "624": "af", "625": "after<|WB|>", "626": "forg", "627": "forget<|WB|>", "628": "det", "629": "deta", "630": "detail", "631": "details.<|WB|>", "632": "They<|WB|>", "633": "wal", "634": "walked<|WB|>", "635": "to<|WB|>", "636": "edg", "637": "edge<|WB|>", "638": "field<|WB|>", "639": "sil", "640": "silence<|WB|>", "641": "for<|WB|>", "642": "long<|WB|>", "643": "whil", "644": "while.<|WB|>", "645": "cof", "646": "coffe", "647": "coffee<|WB|>", "648": "gone<|WB|>", "649": "cold,<|WB|>", "650": "but<|WB|>", "651": "nei", "652": "neither<|WB|>", "653": "them<|WB|>", "654": "wanted<|WB|>", "655": "move<|WB|>", "656": "make<|WB|>", "657": "more", "658": "more.<|WB|>", "659": "Ever", "660": "Every<|WB|>", "661": "cit", "662": "city<|WB|>", "663": "has<|WB|>", "664": "quiet<|WB|>", "665": "hour<|WB|>", "666": "just<|WB|>", "667": "daw", "668": "dawn<|WB|>", "669": "when<|WB|>", "670": "belong", "671": "belongs<|WB|>", "672": "no<|WB|>", "673": "kep", "674": "kept<|WB|>", "675": "tick", "676": "ticket<|WB|>", "677": "stub", "678": "stub<|WB|>", "679": "her<|WB|>", "680": "wallet<|WB|>", "681": "tri", "682": "trip<|WB|>", "683": "over.<|WB|>", "684": "lear", "685": "learn", "686": "learned<|WB|>", "687": "patience<|WB|>", "688": "not<|WB|>", "689": "wait", "690": "waiting", "691": "waiting,<|WB|>", "692": "decid", "693": "deciding<|WB|>", "694": "hur", "695": "hurr", "696": "hurry.<|WB|>", "697": "libr", "698": "librar", "699": "library<|WB|>", "700": "smelled<|WB|>", "701": "pap", "702": "paper<|WB|>", "703": "dust<|WB|>", "704": "decis", "705": "decision", "706": "decisions.<|WB|>", "707": "sud", "708": "sudden<|WB|>", "709": "gust<|WB|>", "710": "wind<|WB|>", "711": "sent<|WB|>", "712": "loose<|WB|>", "713": "pag", "714": "pages<|WB|>", "715": "scat", "716": "scatter", "717": "scattering<|WB|>", "718": "law", "719": "lawn", "720": "lawn.<|WB|>", "721": "buil", "722": "built<|WB|>", "723": "boat<|WB|>", "724": "garag", "725": "garage<|WB|>", "726": "over<|WB|>", "727": "cour", "728": "course<|WB|>", "729": "winter", "730": "winter.<|WB|>", "731": "Som", "732": "Some<|WB|>", "733": "que", "734": "quest", "735": "question", "736": "questions<|WB|>", "737": "are<|WB|>", "738": "worth<|WB|>", "739": "answ", "740": "answer", "741": "answers<|WB|>", "742": "they<|WB|>", "743": "seem<|WB|>", "744": "dem", "745": "demand", "746": "demand.<|WB|>", "747": "dog<|WB|>", "748": "wai", "749": "waited<|WB|>", "750": "by<|WB|>", "751": "door,<|WB|>", "752": "hop", "753": "hopef", "754": "hopeful", "755": "hopeful<|WB|>", "756": "only<|WB|>", "757": "animals<|WB|>", "758": "can<|WB|>", "759": "be.<|WB|>", "760": "wro", "761": "wrot", "762": "wrote<|WB|>", "763": "nam", "764": "name<|WB|>", "765": "marg", "766": "margin<|WB|>", "767": "book", "768": "book,<|WB|>", "769": "then<|WB|>", "770": "regre", "771": "regret", "772": "regretted<|WB|>", "773": "imm", "774": "immed", "775": "immedi", "776": "immediat", "777": "immediatel", "778": "immediately.<|WB|>", "779": "Ev", "780": "Even", "781": "Evening<|WB|>", "782": "arri", "783": "arrived<|WB|>", "784": "slowl", "785": "slowly", "786": "slowly,<|WB|>", "787": "as<|WB|>", "788": "if", "789": "if<|WB|>", "790": "rel", "791": "relu", "792": "reluc", "793": "reluct", "794": "reluctant<|WB|>", "795": "comm", "796": "commit<|WB|>", "797": "ending<|WB|>", "798": "day.<|WB|>", "799": "could<|WB|>", "800": "hear<|WB|>", "801": "river<|WB|>", "802": "fr", "803": "from", "804": "from<|WB|>", "805": "his<|WB|>", "806": "roo", "807": "room<|WB|>", "808": "most<|WB|>", "809": "nights<|WB|>", "810": "right.<|WB|>", "811": "best<|WB|>", "812": "conver", "813": "conversa", "814": "conversation", "815": "conversations<|WB|>", "816": "hap", "817": "happ", "818": "happen<|WB|>", "819": "trying<|WB|>", "820": "be<|WB|>", "821": "impre", "822": "impressi", "823": "impressiv", "824": "impressive.<|WB|>", "825": "sing", "826": "single<|WB|>", "827": "lan", "828": "lanter", "829": "lantern<|WB|>", "830": "hun", "831": "hung<|WB|>", "832": "end<|WB|>", "833": "dock", "834": "dock,<|WB|>", "835": "swa", "836": "swaying<|WB|>", "837": "wi", "838": "with<|WB|>", "839": "tid", "840": "tide.<|WB|>", "841": "rehear", "842": "rehears", "843": "rehearsed<|WB|>", "844": "apol", "845": "apolo", "846": "apolog", "847": "apology<|WB|>", "848": "wee", "849": "week<|WB|>", "850": "sti", "851": "still<|WB|>", "852": "said<|WB|>", "853": "all<|WB|>", "854": "wr", "855": "wrong", "856": "wrong.<|WB|>", "857": "far", "858": "farm", "859": "farmhouse<|WB|>", "860": "lean", "861": "leaned<|WB|>", "862": "sl", "863": "slight", "864": "slightly<|WB|>", "865": "sid", "866": "side,<|WB|>", "867": "having<|WB|>", "868": "gi", "869": "given<|WB|>", "870": "up<|WB|>", "871": "being<|WB|>", "872": "stra", "873": "straight.<|WB|>", "874": "coun", "875": "counted<|WB|>", "876": "star", "877": "stars<|WB|>", "878": "unti", "879": "until", "880": "until<|WB|>", "881": "neck<|WB|>", "882": "ached<|WB|>", "883": "ga", "884": "gave<|WB|>", "885": "som", "886": "some", "887": "somewhere<|WB|>", "888": "past<|WB|>", "889": "hund", "890": "hundre", "891": "hundred", "892": "hundred.<|WB|>", "893": "There<|WB|>", "894": "par", "895": "partic", "896": "particul", "897": "particular<|WB|>", "898": "lon", "899": "lonel", "900": "lonelin", "901": "loneline", "902": "loneliness<|WB|>", "903": "comes<|WB|>", "904": "too", "905": "too<|WB|>", "906": "quick", "907": "quickly.<|WB|>", "908": "pie<|WB|>", "909": "crust<|WB|>", "910": "dis", "911": "disa", "912": "disast", "913": "disaster,<|WB|>", "914": "fill", "915": "filling<|WB|>", "916": "entire", "917": "entirely.<|WB|>", "918": "arg", "919": "argu", "920": "argued<|WB|>", "921": "about<|WB|>", "922": "map", "923": "maps<|WB|>", "924": "though", "925": "though<|WB|>", "926": "any<|WB|>", "927": "idea<|WB|>", "928": "wer", "929": "were.<|WB|>", "930": "Fro", "931": "Frost<|WB|>", "932": "pain", "933": "painted<|WB|>", "934": "gla", "935": "glass<|WB|>", "936": "del", "937": "deli", "938": "delicat", "939": "delicate<|WB|>", "940": "whit", "941": "white<|WB|>", "942": "fer", "943": "fern", "944": "ferns<|WB|>", "945": "overn", "946": "overnight.<|WB|>", "947": "co", "948": "coll", "949": "collec", "950": "collected<|WB|>", "951": "po", "952": "post", "953": "postcar", "954": "postcard", "955": "postcards<|WB|>", "956": "pla", "957": "plac", "958": "places<|WB|>", "959": "she<|WB|>", "960": "never<|WB|>", "961": "been<|WB|>", "962": "pro", "963": "prob", "964": "probab", "965": "probably<|WB|>", "966": "wou", "967": "would<|WB|>", "968": "go", "969": "go.<|WB|>", "970": "train<|WB|>", "971": "slowed<|WB|>", "972": "enter", "973": "entered<|WB|>", "974": "sta", "975": "station", "976": "station,<|WB|>", "977": "sigh", "978": "sighing<|WB|>", "979": "like<|WB|>", "980": "tired<|WB|>", "981": "animal.<|WB|>", "982": "foun", "983": "found<|WB|>", "984": "ph", "985": "pho", "986": "phot", "987": "photo", "988": "photogr", "989": "photograp", "990": "photograph<|WB|>", "991": "grand", "992": "grandmo", "993": "grandmother<|WB|>", "994": "stud", "995": "studi", "996": "studied<|WB|>", "997": "mu", "998": "much<|WB|>", "999": "longer<|WB|>", "1000": "expect", "1001": "expected", "1002": "expected.<|WB|>", "1003": "smell<|WB|>", "1004": "brea", "1005": "bread<|WB|>", "1006": "dri", "1007": "drif", "1008": "drifted<|WB|>", "1009": "bak", "1010": "baker", "1011": "bakery<|WB|>", "1012": "pu", "1013": "pulled<|WB|>", "1014": "who", "1015": "whole<|WB|>", "1016": "stre", "1017": "street<|WB|>", "1018": "towar", "1019": "toward<|WB|>", "1020": "it.<|WB|>", "1021": "It<|WB|>", "1022": "strange<|WB|>", "1023": "how<|WB|>", "1024": "fam", "1025": "famil", "1026": "famili", "1027": "familiar<|WB|>", "1028": "bring<|WB|>", "1029": "back<|WB|>", "1030": "entir", "1031": "entire<|WB|>", "1032": "year<|WB|>", "1033": "inst", "1034": "instan", "1035": "instant.<|WB|>", "1036": "pl", "1037": "planted<|WB|>", "1038": "tree<|WB|>", "1039": "clou", "1040": "cloudy<|WB|>", "1041": "so<|WB|>", "1042": "sh", "1043": "shocked<|WB|>", "1044": "sun", "1045": "sun.<|WB|>", "1046": "switch", "1047": "switching<|WB|>", "1048": "bet", "1049": "betwe", "1050": "between<|WB|>", "1051": "saying<|WB|>", "1052": "fine<|WB|>", "1053": "not", "1054": "not,<|WB|>", "1055": "me", "1056": "meant<|WB|>", "1057": "both.<|WB|>", "1058": "mark", "1059": "market<|WB|>", "1060": "Sat", "1061": "Satur", "1062": "Saturday<|WB|>", "1063": "lou", "1064": "loud,<|WB|>", "1065": "color", "1066": "colorf", "1067": "colorful", "1068": "colorful,<|WB|>", "1069": "comp", "1070": "complet", "1071": "completel", "1072": "completely<|WB|>", "1073": "impo", "1074": "impossi", "1075": "impossib", "1076": "impossible<|WB|>", "1077": "ru", "1078": "rus", "1079": "rush<|WB|>", "1080": "thr", "1081": "throu", "1082": "through", "1083": "through.<|WB|>", "1084": "ideas<|WB|>", "1085": "dow", "1086": "down<|WB|>", "1087": "dark<|WB|>", "1088": "dayl", "1089": "daylight.<|WB|>", "1090": "carved<|WB|>", "1091": "va", "1092": "vall", "1093": "valley<|WB|>", "1094": "mi", "1095": "mill", "1096": "millen", "1097": "millenn", "1098": "millenni", "1099": "millennia", "1100": "millennia,<|WB|>", "1101": "patient<|WB|>", "1102": "stone<|WB|>", "1103": "stranger<|WB|>", "1104": "smil", "1105": "smiled<|WB|>", "1106": "bus,<|WB|>", "1107": "looked<|WB|>", "1108": "away<|WB|>", "1109": "fir", "1110": "first", "1111": "first.<|WB|>", "1112": "sn", "1113": "snow<|WB|>", "1114": "swall", "1115": "swallow", "1116": "swallowed<|WB|>", "1117": "town", "1118": "town's<|WB|>", "1119": "soun", "1120": "sound,<|WB|>", "1121": "lea", "1122": "leaving<|WB|>", "1123": "crun", "1124": "crunch<|WB|>", "1125": "boot", "1126": "boots<|WB|>", "1127": "hom", "1128": "home.<|WB|>", "1129": "hab", "1130": "habit<|WB|>", "1131": "finis", "1132": "finish", "1133": "finishing<|WB|>", "1134": "other<|WB|>", "1135": "pe", "1136": "peop", "1137": "people", "1138": "people's<|WB|>", "1139": "sent", "1140": "sentenc", "1141": "sentence", "1142": "sentences,<|WB|>", "1143": "which<|WB|>", "1144": "did<|WB|>", "1145": "endear<|WB|>", "1146": "everyone.<|WB|>", "1147": "lighthou", "1148": "lighthouse<|WB|>", "1149": "bea", "1150": "beam<|WB|>", "1151": "swe", "1152": "swep", "1153": "swept<|WB|>", "1154": "water<|WB|>", "1155": "every<|WB|>", "1156": "few<|WB|>", "1157": "sec", "1158": "secon", "1159": "second", "1160": "seconds,<|WB|>", "1161": "stea", "1162": "steady<|WB|>", "1163": "pul", "1164": "pulse<|WB|>", "1165": "dark", "1166": "dark.<|WB|>", "1167": "lef", "1168": "left<|WB|>", "1169": "door<|WB|>", "1170": "unl", "1171": "unlocked<|WB|>", "1172": "night,<|WB|>", "1173": "have<|WB|>", "1174": "expl", "1175": "explain", "1176": "explained<|WB|>", "1177": "why.<|WB|>", "1178": "prom", "1179": "promis", "1180": "promises<|WB|>", "1181": "feel", "1182": "feel<|WB|>", "1183": "your<|WB|>", "1184": "mou", "1185": "mouth.<|WB|>", "1186": "ket", "1187": "kett", "1188": "kettle<|WB|>", "1189": "whist", "1190": "whistle", "1191": "whistled,<|WB|>", "1192": "seem", "1193": "seemed<|WB|>", "1194": "come<|WB|>", "1195": "lif", "1196": "life.<|WB|>", "1197": "mea", "1198": "measu", "1199": "measured<|WB|>", "1200": "sea", "1201": "seas", "1202": "season", "1203": "seasons,<|WB|>", "1204": "days,<|WB|>", "1205": "pass", "1206": "passed<|WB|>", "1207": "gent", "1208": "gently.<|WB|>", "1209": "unop", "1210": "unopen", "1211": "unopene", "1212": "unopened,<|WB|>", "1213": "cer", "1214": "cert", "1215": "certain<|WB|>", "1216": "its<|WB|>", "1217": "cont", "1218": "content", "1219": "contents<|WB|>", "1220": "change<|WB|>", "1221": "thing", "1222": "things<|WB|>", "1223": "ready<|WB|>", "1224": "change.<|WB|>", "1225": "boy<|WB|>", "1226": "step", "1227": "steps<|WB|>", "1228": "roa", "1229": "road<|WB|>", "1230": "kne", "1231": "knew<|WB|>", "1232": "heart.<|WB|>", "1233": "haw", "1234": "hawk<|WB|>", "1235": "ci", "1236": "cir", "1237": "circl", "1238": "circled<|WB|>", "1239": "high", "1240": "high<|WB|>", "1241": "abo", "1242": "above<|WB|>", "1243": "field,<|WB|>", "1244": "again.<|WB|>", "1245": "pian", "1246": "piano<|WB|>", "1247": "cor", "1248": "corn", "1249": "corner<|WB|>", "1250": "tun", "1251": "tune,<|WB|>", "1252": "everyone<|WB|>", "1253": "pre", "1254": "pret", "1255": "pretend", "1256": "pretended<|WB|>", "1257": "notic"}, "inverse_vocab": {"\u0000": 0, "\u0001": 1, "\u0002": 2, "\u0003": 3, "\u0004": 4, "\u0005": 5, "\u0006": 6, "\u0007": 7, "\b": 8, "\t": 9, "\n": 10, "\u000b": 11, "\f": 12, "\r": 13, "\u000e": 14, "\u000f": 15, "\u0010": 16, "\u0011": 17, "\u0012": 18, "\u0013": 19, "\u0014": 20, "\u0015": 21, "\u0016": 22, "\u0017": 23, "\u0018": 24, "\u0019": 25, "\u001a": 26, "\u001b": 27, "\u001c": 28, "\u001d": 29, "\u001e": 30, "\u001f": 31, " ": 32, "!": 33, "\"": 34, "#": 35, "$": 36, "%": 37, "&": 38, "'": 39, "(": 40, ")": 41, "*": 42, "+": 43, ",": 44, "-": 45, ".": 46, "/": 47, "0": 48, "1": 49, "2": 50, "3": 51, "4": 52, "5": 53, "6": 54, "7": 55, "8": 56, "9": 57, ":": 58, ";": 59, "<": 60, "=": 61, ">": 62, "?": 63, "@": 64, "A": 65, "B": 66, "C": 67, "D": 68, "E": 69, "F": 70, "G": 71, "H": 72, "I": 73, "J": 74, "K": 75, "L": 76, "M": 77, "N": 78, "O": 79, "P": 80, "Q": 81, "R": 82, "S": 83, "T": 84, "U": 85, "V": 86, "W": 87, "X": 88, "Y": 89, "Z": 90, "[": 91, "\\": 92, "]": 93, "^": 94, "_": 95, "`": 96, "a": 97, "b": 98, "c": 99, "d": 100, "e": 101, "f": 102, "g": 103, "h": 104, "i": 105, "j": 106, "k": 107, "l": 108, "m": 109, "n": 110, "o": 111, "p": 112, "q": 113, "r": 114, "s": 115, "t": 116, "u": 117, "v": 118, "w": 119, "x": 120, "y": 121, "z": 122, "{": 123, "|": 124, "}": 125, "~": 126, "\u007f": 127, "\u0080": 128, "\u0081": 129, "\u0082": 130, "\u0083": 131, "\u0084": 132, "\u0085": 133, "\u0086": 134, "\u0087": 135, "\u0088": 136, "\u0089": 137, "\u008a": 138, "\u008b": 139, "\u008c": 140, "\u008d": 141, "\u008e": 142, "\u008f": 143, "\u0090": 144, "\u0091": 145, "\u0092": 146, "\u0093": 147, "\u0094": 148, "\u0095": 149, "\u0096": 150, "\u0097": 151, "\u0098": 152, "\u0099": 153, "\u009a": 154, "\u009b": 155, "\u009c": 156, "\u009d": 157, "\u009e": 158, "\u009f": 159, "\u00a0": 160, "\u00a1": 161, "\u00a2": 162, "\u00a3": 163, "\u00a4": 164, "\u00a5": 165, "\u00a6": 166, "\u00a7": 167, "\u00a8": 168, "\u00a9": 169, "\u00aa": 170, "\u00ab": 171, "\u00ac": 172, "\u00ad": 173, "\u00ae": 174, "\u00af": 175, "\u00b0": 176, "\u00b1": 177, "\u00b2": 178, "\u00b3": 179, "\u00b4": 180, "\u00b5": 181, "\u00b6": 182, "\u00b7": 183, "\u00b8": 184, "\u00b9": 185, "\u00ba": 186, "\u00bb": 187, "\u00bc": 188, "\u00bd": 189, "\u00be": 190, "\u00bf": 191, "\u00c0": 192, "\u00c1": 193, "\u00c2": 194, "\u00c3": 195, "\u00c4": 196, "\u00c5": 197, "\u00c6": 198, "\u00c7": 199, "\u00c8": 200, "\u00c9": 201, "\u00ca": 202, "\u00cb": 203, "\u00cc": 204, "\u00cd": 205, "\u00ce": 206, "\u00cf": 207, "\u00d0": 208, "\u00d1": 209, "\u00d2": 210, "\u00d3": 211, "\u00d4": 212, "\u00d5": 213, "\u00d6": 214, "\u00d7": 215, "\u00d8": 216, "\u00d9": 217, "\u00da": 218, "\u00db": 219, "\u00dc": 220, "\u00dd": 221, "\u00de": 222, "\u00df": 223, "\u00e0": 224, "\u00e1": 225, "\u00e2": 226, "\u00e3": 227, "\u00e4": 228, "\u00e5": 229, "\u00e6": 230, "\u00e7": 231, "\u00e8": 232, "\u00e9": 233, "\u00ea": 234, "\u00eb": 235, "\u00ec": 236, "\u00ed": 237, "\u00ee": 238, "\u00ef": 239, "\u00f0": 240, "\u00f1": 241, "\u00f2": 242, "\u00f3": 243, "\u00f4": 244, "\u00f5": 245, "\u00f6": 246, "\u00f7": 247, "\u00f8": 248, "\u00f9": 249, "\u00fa": 250, "\u00fb": 251, "\u00fc": 252, "\u00fd": 253, "\u00fe": 254, "\u00ff": 255, "<|EOS|>": 256, "<|WB|>": 257, "d<|WB|>": 258, "e<|WB|>": 259, ".<|WB|>": 260, "ed<|WB|>": 261, "er": 262, "in": 263, "t<|WB|>": 264, "s<|WB|>": 265, "en": 266, "y<|WB|>": 267, "ar": 268, ",<|WB|>": 269, "an": 270, "st": 271, "on": 272, "ing": 273, "th": 274, "ou": 275, "ing<|WB|>": 276, "re": 277, "ll": 278, "gh": 279, "er<|WB|>": 280, "ti": 281, "or": 282, "igh": 283, "wa": 284, "e.<|WB|>": 285, "ch": 286, "en<|WB|>": 287, "oo": 288, "ow": 289, "un": 290, "wh": 291, "el": 292, "st<|WB|>": 293, "ted<|WB|>": 294, "om": 295, "ver": 296, "ck": 297, "ea": 298, "it": 299, "ma": 300, "ha": 301, "ain": 302, "le": 303, "il": 304, "y.<|WB|>": 305, "ight": 306, "ri": 307, "es<|WB|>": 308, "ec": 309, "et<|WB|>": 310, "d,<|WB|>": 311, "da": 312, "pa": 313, "se<|WB|>": 314, "ro": 315, "le<|WB|>": 316, "ne": 317, "ll<|WB|>": 318, "we": 319, "em": 320, "ent": 321, "be": 322, "ang": 323, "ear": 324, "s,<|WB|>": 325, "he<|WB|>": 326, "ab": 327, "ever": 328, "k<|WB|>": 329, "ly<|WB|>": 330, "at<|WB|>": 331, "oun": 332, "s.<|WB|>": 333, "ol": 334, "ock": 335, "ed": 336, "o<|WB|>": 337, "fi": 338, "ong": 339, "one<|WB|>": 340, "mo": 341, "ve<|WB|>": 342, "ust<|WB|>": 343, "id": 344, "is": 345, "at": 346, "ul": 347, "com": 348, "ight.<|WB|>": 349, "pi": 350, "lled<|WB|>": 351, "ss<|WB|>": 352, "every": 353, "loo": 354, "ved<|WB|>": 355, "stu": 356, "car": 357, "an<|WB|>": 358, "gr": 359, "ain<|WB|>": 360, "ap": 361, "ag": 362, "win": 363, "ow<|WB|>": 364, "m<|WB|>": 365, "cl": 366, "wall": 367, "ter<|WB|>": 368, "for": 369, "ood<|WB|>": 370, "it<|WB|>": 371, "rea": 372, "w<|WB|>": 373, "su": 374, "ex": 375, "exp": 376, "low": 377, "chang": 378, "se": 379, "ld<|WB|>": 380, "ey<|WB|>": 381, "enc": 382, "fe": 383, "bu": 384, "ther<|WB|>": 385, "qu": 386, "hou": 387, "n<|WB|>": 388, "no": 389, "li": 390, "sm": 391, "ter": 392, "la": 393, "bo": 394, "ver<|WB|>": 395, "do": 396, "op": 397, "im": 398, "end": 399, "hear": 400, "sa": 401, "ying<|WB|>": 402, "ss": 403, "str": 404, "ere<|WB|>": 405, "ly.<|WB|>": 406, "ch<|WB|>": 407, "dy<|WB|>": 408, "mor": 409, "ligh": 410, "itch": 411, "and<|WB|>": 412, "ef": 413, "bel": 414, "pr": 415, "again": 416, "in<|WB|>": 417, "ched<|WB|>": 418, "let": 419, "ree<|WB|>": 420, "und": 421, "stood<|WB|>": 422, "gar": 423, "den<|WB|>": 424, "gre": 425, "er,<|WB|>": 426, "of": 427, "expec": 428, "way<|WB|>": 429, "you": 430, "wor": 431, "ven<|WB|>": 432, "et": 433, "Th": 434, "ked<|WB|>": 435, "fiel": 436, "ence<|WB|>": 437, "long": 438, "col": 439, "em<|WB|>": 440, "anted<|WB|>": 441, "ke<|WB|>": 442, "qui": 443, "r<|WB|>": 444, "one.<|WB|>": 445, "ep": 446, "p<|WB|>": 447, "over": 448, "pati": 449, "dec": 450, "ur": 451, "br": 452, "sme": 453, "ion": 454, "ent<|WB|>": 455, "cat": 456, "cou": 457, "th<|WB|>": 458, "sw": 459, "and": 460, "g<|WB|>": 461, "door": 462, "ani": 463, "anima": 464, "animal": 465, "am": 466, "mar": 467, "boo": 468, "slow": 469, "ant<|WB|>": 470, "is<|WB|>": 471, "night": 472, "con": 473, "tion": 474, "tr": 475, "imp": 476, "ssi": 477, "id<|WB|>": 478, "house<|WB|>": 479, "e,<|WB|>": 480, "ving<|WB|>": 481, "ck<|WB|>": 482, "where<|WB|>": 483, "tic": 484, "ar<|WB|>": 485, "cr": 486, "enti": 487, "out<|WB|>": 488, "thou": 489, "idea": 490, "red<|WB|>": 491, "h<|WB|>": 492, "ba": 493, "tow": 494, "strang": 495, "ear<|WB|>": 496, "t.<|WB|>": 497, "day<|WB|>": 498, "ocked<|WB|>": 499, "fin": 500, "th.<|WB|>": 501, "dar": 502, "day": 503, "'s<|WB|>": 504, "whi": 505, "The<|WB|>": 506, "morn": 507, "morning<|WB|>": 508, "light<|WB|>": 509, "spi": 510, "spilled<|WB|>": 511, "ac": 512, "acro": 513, "across<|WB|>": 514, "the<|WB|>": 515, "kitch": 516, "kitchen<|WB|>": 517, "tab": 518, "table<|WB|>": 519, "mad": 520, "made<|WB|>": 521, "everyth": 522, "everything<|WB|>": 523, "look<|WB|>": 524, "bri": 525, "brief": 526, "briefly<|WB|>": 527, "new": 528, "new.<|WB|>": 529, "She<|WB|>": 530, "had<|WB|>": 531, "al": 532, "alwa": 533, "alway": 534, "always<|WB|>": 535, "beli": 536, "belie": 537, "believed<|WB|>": 538, "that<|WB|>": 539, "sma": 540, "small<|WB|>": 541, "ge": 542, "gestu": 543, "gesture": 544, "gestures<|WB|>": 545, "carri": 546, "carried<|WB|>": 547, "more<|WB|>": 548, "weigh": 549, "weight<|WB|>": 550, "than<|WB|>": 551, "grand<|WB|>": 552, "pron": 553, "pronoun": 554, "pronounc": 555, "pronouncem": 556, "pronouncement": 557, "pronouncements.<|WB|>": 558, "Rain<|WB|>": 559, "tap": 560, "tapp": 561, "tapped<|WB|>": 562, "against<|WB|>": 563, "wind": 564, "window<|WB|>": 565, "a<|WB|>": 566, "rh": 567, "rhy": 568, "rhyth": 569, "rhythm<|WB|>": 570, "mat": 571, "matched<|WB|>": 572, "old<|WB|>": 573, "clock": 574, "clock<|WB|>": 575, "on<|WB|>": 576, "wall.<|WB|>": 577, "He<|WB|>": 578, "rer": 579, "rerea": 580, "reread<|WB|>": 581, "letter<|WB|>": 582, "three<|WB|>": 583, "tim": 584, "times<|WB|>": 585, "befor": 586, "before<|WB|>": 587, "under": 588, "understood<|WB|>": 589, "what<|WB|>": 590, "was<|WB|>": 591, "reall": 592, "really<|WB|>": 593, "as": 594, "ask": 595, "asking": 596, "asking.<|WB|>": 597, "garden<|WB|>": 598, "grew<|WB|>": 599, "wil": 600, "wild<|WB|>": 601, "sum": 602, "summ": 603, "summer,<|WB|>": 604, "fu": 605, "full<|WB|>": 606, "of<|WB|>": 607, "weed": 608, "weeds<|WB|>": 609, "unexpec": 610, "unexpected<|WB|>": 611, "flow": 612, "flower": 613, "flowers.<|WB|>": 614, "A<|WB|>": 615, "good<|WB|>": 616, "stor": 617, "story<|WB|>": 618, "changes<|WB|>": 619, "you<|WB|>": 620, "see<|WB|>": 621, "world<|WB|>": 622, "even<|WB|>": 623, "af": 624, "after<|WB|>": 625, "forg": 626, "forget<|WB|>": 627, "det": 628, "deta": 629, "detail": 630, "details.<|WB|>": 631, "They<|WB|>": 632, "wal": 633, "walked<|WB|>": 634, "to<|WB|>": 635, "edg": 636, "edge<|WB|>": 637, "field<|WB|>": 638, "sil": 639, "silence<|WB|>": 640, "for<|WB|>": 641, "long<|WB|>": 642, "whil": 643, "while.<|WB|>": 644, "cof": 645, "coffe": 646, "coffee<|WB|>": 647, "gone<|WB|>": 648, "cold,<|WB|>": 649, "but<|WB|>": 650, "nei": 651, "neither<|WB|>": 652, "them<|WB|>": 653, "wanted<|WB|>": 654, "move<|WB|>": 655, "make<|WB|>": 656, "more": 657, "more.<|WB|>": 658, "Ever": 659, "Every<|WB|>": 660, "cit": 661, "city<|WB|>": 662, "has<|WB|>": 663, "quiet<|WB|>": 664, "hour<|WB|>": 665, "just<|WB|>": 666, "daw": 667, "dawn<|WB|>": 668, "when<|WB|>": 669, "belong": 670, "belongs<|WB|>": 671, "no<|WB|>": 672, "kep": 673, "kept<|WB|>": 674, "tick": 675, "ticket<|WB|>": 676, "stub": 677, "stub<|WB|>": 678, "her<|WB|>": 679, "wallet<|WB|>": 680, "tri": 681, "trip<|WB|>": 682, "over.<|WB|>": 683, "lear": 684, "learn": 685, "learned<|WB|>": 686, "patience<|WB|>": 687, "not<|WB|>": 688, "wait": 689, "waiting": 690, "waiting,<|WB|>": 691, "decid": 692, "deciding<|WB|>": 693, "hur": 694, "hurr": 695, "hurry.<|WB|>": 696, "libr": 697, "librar": 698, "library<|WB|>": 699, "smelled<|WB|>": 700, "pap": 701, "paper<|WB|>": 702, "dust<|WB|>": 703, "decis": 704, "decision": 705, "decisions.<|WB|>": 706, "sud": 707, "sudden<|WB|>": 708, "gust<|WB|>": 709, "wind<|WB|>": 710, "sent<|WB|>": 711, "loose<|WB|>": 712, "pag": 713, "pages<|WB|>": 714, "scat": 715, "scatter": 716, "scattering<|WB|>": 717, "law": 718, "lawn": 719, "lawn.<|WB|>": 720, "buil": 721, "built<|WB|>": 722, "boat<|WB|>": 723, "garag": 724, "garage<|WB|>": 725, "over<|WB|>": 726, "cour": 727, "course<|WB|>": 728, "winter": 729, "winter.<|WB|>": 730, "Som": 731, "Some<|WB|>": 732, "que": 733, "quest": 734, "question": 735, "questions<|WB|>": 736, "are<|WB|>": 737, "worth<|WB|>": 738, "answ": 739, "answer": 740, "answers<|WB|>": 741, "they<|WB|>": 742, "seem<|WB|>": 743, "dem": 744, "demand": 745, "demand.<|WB|>": 746, "dog<|WB|>": 747, "wai": 748, "waited<|WB|>": 749, "by<|WB|>": 750, "door,<|WB|>": 751, "hop": 752, "hopef": 753, "hopeful": 754, "hopeful<|WB|>": 755, "only<|WB|>": 756, "animals<|WB|>": 757, "can<|WB|>": 758, "be.<|WB|>": 759, "wro": 760, "wrot": 761, "wrote<|WB|>": 762, "nam": 763, "name<|WB|>": 764, "marg": 765, "margin<|WB|>": 766, "book": 767, "book,<|WB|>": 768, "then<|WB|>": 769, "regre": 770, "regret": 771, "regretted<|WB|>": 772, "imm": 773, "immed": 774, "immedi": 775, "immediat": 776, "immediatel": 777, "immediately.<|WB|>": 778, "Ev": 779, "Even": 780, "Evening<|WB|>": 781, "arri": 782, "arrived<|WB|>": 783, "slowl": 784, "slowly": 785, "slowly,<|WB|>": 786, "as<|WB|>": 787, "if": 788, "if<|WB|>": 789, "rel": 790, "relu": 791, "reluc": 792, "reluct": 793, "reluctant<|WB|>": 794, "comm": 795, "commit<|WB|>": 796, "ending<|WB|>": 797, "day.<|WB|>": 798, "could<|WB|>": 799, "hear<|WB|>": 800, "river<|WB|>": 801, "fr": 802, "from": 803, "from<|WB|>": 804, "his<|WB|>": 805, "roo": 806, "room<|WB|>": 807, "most<|WB|>": 808, "nights<|WB|>": 809, "right.<|WB|>": 810, "best<|WB|>": 811, "conver": 812, "conversa": 813, "conversation": 814, "conversations<|WB|>": 815, "hap": 816, "happ": 817, "happen<|WB|>": 818, "trying<|WB|>": 819, "be<|WB|>": 820, "impre": 821, "impressi": 822, "impressiv": 823, "impressive.<|WB|>": 824, "sing": 825, "single<|WB|>": 826, "lan": 827, "lanter": 828, "lantern<|WB|>": 829, "hun": 830, "hung<|WB|>": 831, "end<|WB|>": 832, "dock": 833, "dock,<|WB|>": 834, "swa": 835, "swaying<|WB|>": 836, "wi": 837, "with<|WB|>": 838, "tid": 839, "tide.<|WB|>": 840, "rehear": 841, "rehears": 842, "rehearsed<|WB|>": 843, "apol": 844, "apolo": 845, "apolog": 846, "apology<|WB|>": 847, "wee": 848, "week<|WB|>": 849, "sti": 850, "still<|WB|>": 851, "said<|WB|>": 852, "all<|WB|>": 853, "wr": 854, "wrong": 855, "wrong.<|WB|>": 856, "far": 857, "farm": 858, "farmhouse<|WB|>": 859, "lean": 860, "leaned<|WB|>": 861, "sl": 862, "slight": 863, "slightly<|WB|>": 864, "sid": 865, "side,<|WB|>": 866, "having<|WB|>": 867, "gi": 868, "given<|WB|>": 869, "up<|WB|>": 870, "being<|WB|>": 871, "stra": 872, "straight.<|WB|>": 873, "coun": 874, "counted<|WB|>": 875, "star": 876, "stars<|WB|>": 877, "unti": 878, "until": 879, "until<|WB|>": 880, "neck<|WB|>": 881, "ached<|WB|>": 882, "ga": 883, "gave<|WB|>": 884, "som": 885, "some": 886, "somewhere<|WB|>": 887, "past<|WB|>": 888, "hund": 889, "hundre": 890, "hundred": 891, "hundred.<|WB|>": 892, "There<|WB|>": 893, "par": 894, "partic": 895, "particul": 896, "particular<|WB|>": 897, "lon": 898, "lonel": 899, "lonelin": 900, "loneline": 901, "loneliness<|WB|>": 902, "comes<|WB|>": 903, "too": 904, "too<|WB|>": 905, "quick": 906, "quickly.<|WB|>": 907, "pie<|WB|>": 908, "crust<|WB|>": 909, "dis": 910, "disa": 911, "disast": 912, "disaster,<|WB|>": 913, "fill": 914, "filling<|WB|>": 915, "entire": 916, "entirely.<|WB|>": 917, "arg": 918, "argu": 919, "argued<|WB|>": 920, "about<|WB|>": 921, "map": 922, "maps<|WB|>": 923, "though": 924, "though<|WB|>": 925, "any<|WB|>": 926, "idea<|WB|>": 927, "wer": 928, "were.<|WB|>": 929, "Fro": 930, "Frost<|WB|>": 931, "pain": 932, "painted<|WB|>": 933, "gla": 934, "glass<|WB|>": 935, "del": 936, "deli": 937, "delicat": 938, "delicate<|WB|>": 939, "whit": 940, "white<|WB|>": 941, "fer": 942, "fern": 943, "ferns<|WB|>": 944, "overn": 945, "overnight.<|WB|>": 946, "co": 947, "coll": 948, "collec": 949, "collected<|WB|>": 950, "po": 951, "post": 952, "postcar": 953, "postcard": 954, "postcards<|WB|>": 955, "pla": 956, "plac": 957, "places<|WB|>": 958, "she<|WB|>": 959, "never<|WB|>": 960, "been<|WB|>": 961, "pro": 962, "prob": 963, "probab": 964, "probably<|WB|>": 965, "wou": 966, "would<|WB|>": 967, "go": 968, "go.<|WB|>": 969, "train<|WB|>": 970, "slowed<|WB|>": 971, "enter": 972, "entered<|WB|>": 973, "sta": 974, "station": 975, "station,<|WB|>": 976, "sigh": 977, "sighing<|WB|>": 978, "like<|WB|>": 979, "tired<|WB|>": 980, "animal.<|WB|>": 981, "foun": 982, "found<|WB|>": 983, "ph": 984, "pho": 985, "phot": 986, "photo": 987, "photogr": 988, "photograp": 989, "photograph<|WB|>": 990, "grand": 991, "grandmo": 992, "grandmother<|WB|>": 993, "stud": 994, "studi": 995, "studied<|WB|>": 996, "mu": 997, "much<|WB|>": 998, "longer<|WB|>": 999, "expect": 1000, "expected": 1001, "expected.<|WB|>": 1002, "smell<|WB|>": 1003, "brea": 1004, "bread<|WB|>": 1005, "dri": 1006, "drif": 1007, "drifted<|WB|>": 1008, "bak": 1009, "baker": 1010, "bakery<|WB|>": 1011, "pu": 1012, "pulled<|WB|>": 1013, "who": 1014, "whole<|WB|>": 1015, "stre": 1016, "street<|WB|>": 1017, "towar": 1018, "toward<|WB|>": 1019, "it.<|WB|>": 1020, "It<|WB|>": 1021, "strange<|WB|>": 1022, "how<|WB|>": 1023, "fam": 1024, "famil": 1025, "famili": 1026, "familiar<|WB|>": 1027, "bring<|WB|>": 1028, "back<|WB|>": 1029, "entir": 1030, "entire<|WB|>": 1031, "year<|WB|>": 1032, "inst": 1033, "instan": 1034, "instant.<|WB|>": 1035, "pl": 1036, "planted<|WB|>": 1037, "tree<|WB|>": 1038, "clou": 1039, "cloudy<|WB|>": 1040, "so<|WB|>": 1041, "sh": 1042, "shocked<|WB|>": 1043, "sun": 1044, "sun.<|WB|>": 1045, "switch": 1046, "switching<|WB|>": 1047, "bet": 1048, "betwe": 1049, "between<|WB|>": 1050, "saying<|WB|>": 1051, "fine<|WB|>": 1052, "not": 1053, "not,<|WB|>": 1054, "me": 1055, "meant<|WB|>": 1056, "both.<|WB|>": 1057, "mark": 1058, "market<|WB|>": 1059, "Sat": 1060, "Satur": 1061, "Saturday<|WB|>": 1062, "lou": 1063, "loud,<|WB|>": 1064, "color": 1065, "colorf": 1066, "colorful": 1067, "colorful,<|WB|>": 1068, "comp": 1069, "complet": 1070, "completel": 1071, "completely<|WB|>": 1072, "impo": 1073, "impossi": 1074, "impossib": 1075, "impossible<|WB|>": 1076, "ru": 1077, "rus": 1078, "rush<|WB|>": 1079, "thr": 1080, "throu": 1081, "through": 1082, "through.<|WB|>": 1083, "ideas<|WB|>": 1084, "dow": 1085, "down<|WB|>": 1086, "dark<|WB|>": 1087, "dayl": 1088, "daylight.<|WB|>": 1089, "carved<|WB|>": 1090, "va": 1091, "vall": 1092, "valley<|WB|>": 1093, "mi": 1094, "mill": 1095, "millen": 1096, "millenn": 1097, "millenni": 1098, "millennia": 1099, "millennia,<|WB|>": 1100, "patient<|WB|>": 1101, "stone<|WB|>": 1102, "stranger<|WB|>": 1103, "smil": 1104, "smiled<|WB|>": 1105, "bus,<|WB|>": 1106, "looked<|WB|>": 1107, "away<|WB|>": 1108, "fir": 1109, "first": 1110, "first.<|WB|>": 1111, "sn": 1112, "snow<|WB|>": 1113, "swall": 1114, "swallow": 1115, "swallowed<|WB|>": 1116, "town": 1117, "town's<|WB|>": 1118, "soun": 1119, "sound,<|WB|>": 1120, "lea": 1121, "leaving<|WB|>": 1122, "crun": 1123, "crunch<|WB|>": 1124, "boot": 1125, "boots<|WB|>": 1126, "hom": 1127, "home.<|WB|>": 1128, "hab": 1129, "habit<|WB|>": 1130, "finis": 1131, "finish": 1132, "finishing<|WB|>": 1133, "other<|WB|>": 1134, "pe": 1135, "peop": 1136, "people": 1137, "people's<|WB|>": 1138, "sent": 1139, "sentenc": 1140, "sentence": 1141, "sentences,<|WB|>": 1142, "which<|WB|>": 1143, "did<|WB|>": 1144, "endear<|WB|>": 1145, "everyone.<|WB|>": 1146, "lighthou": 1147, "lighthouse<|WB|>": 1148, "bea": 1149, "beam<|WB|>": 1150, "swe": 1151, "swep": 1152, "swept<|WB|>": 1153, "water<|WB|>": 1154, "every<|WB|>": 1155, "few<|WB|>": 1156, "sec": 1157, "secon": 1158, "second": 1159, "seconds,<|WB|>": 1160, "stea": 1161, "steady<|WB|>": 1162, "pul": 1163, "pulse<|WB|>": 1164, "dark": 1165, "dark.<|WB|>": 1166, "lef": 1167, "left<|WB|>": 1168, "door<|WB|>": 1169, "unl": 1170, "unlocked<|WB|>": 1171, "night,<|WB|>": 1172, "have<|WB|>": 1173, "expl": 1174, "explain": 1175, "explained<|WB|>": 1176, "why.<|WB|>": 1177, "prom": 1178, "promis": 1179, "promises<|WB|>": 1180, "feel": 1181, "feel<|WB|>": 1182, "your<|WB|>": 1183, "mou": 1184, "mouth.<|WB|>": 1185, "ket": 1186, "kett": 1187, "kettle<|WB|>": 1188, "whist": 1189, "whistle": 1190, "whistled,<|WB|>": 1191, "seem": 1192, "seemed<|WB|>": 1193, "come<|WB|>": 1194, "lif": 1195, "life.<|WB|>": 1196, "mea": 1197, "measu": 1198, "measured<|WB|>": 1199, "sea": 1200, "seas": 1201, "season": 1202, "seasons,<|WB|>": 1203, "days,<|WB|>": 1204, "pass": 1205, "passed<|WB|>": 1206, "gent": 1207, "gently.<|WB|>": 1208, "unop": 1209, "unopen": 1210, "unopene": 1211, "unopened,<|WB|>": 1212, "cer": 1213, "cert": 1214, "certain<|WB|>": 1215, "its<|WB|>": 1216, "cont": 1217, "content": 1218, "contents<|WB|>": 1219, "change<|WB|>": 1220, "thing": 1221, "things<|WB|>": 1222, "ready<|WB|>": 1223, "change.<|WB|>": 1224, "boy<|WB|>": 1225, "step": 1226, "steps<|WB|>": 1227, "roa": 1228, "road<|WB|>": 1229, "kne": 1230, "knew<|WB|>": 1231, "heart.<|WB|>": 1232, "haw": 1233, "hawk<|WB|>": 1234, "ci": 1235, "cir": 1236, "circl": 1237, "circled<|WB|>": 1238, "high": 1239, "high<|WB|>": 1240, "abo": 1241, "above<|WB|>": 1242, "field,<|WB|>": 1243, "again.<|WB|>": 1244, "pian": 1245, "piano<|WB|>": 1246, "cor": 1247, "corn": 1248, "corner<|WB|>": 1249, "tun": 1250, "tune,<|WB|>": 1251, "everyone<|WB|>": 1252, "pre": 1253, "pret": 1254, "pretend": 1255, "pretended<|WB|>": 1256, "notic": 1257}}