{"merges": [[",", "<|WB|>", ",<|WB|>"], [".", "<|WB|>", ".<|WB|>"], ["i", "n", "in"], ["e", "d", "ed"], ["e", "r", "er"], ["s", "<|WB|>", "s<|WB|>"], ["e", "<|WB|>", "e<|WB|>"], ["ed", "<|WB|>", "ed<|WB|>"], ["r", "e", "re"], ["o", "n", "on"], ["in", "g", "ing"], ["e", "n", "en"], ["s", "t", "st"], ["a", "r", "ar"], ["a", "n", "an"], ["a", "t", "at"], ["o", "r", "or"], ["ing", "<|WB|>", "ing<|WB|>"], ["t", "<|WB|>", "t<|WB|>"], ["y", "<|WB|>", "y<|WB|>"], ["o", "u", "ou"], ["t", "h", "th"], ["l", "l", "ll"], ["t", "i", "ti"], ["er", "<|WB|>", "er<|WB|>"], ["s", ",<|WB|>", "s,<|WB|>"], ["o", "w", "ow"], ["l", "i", "li"], ["l", "e", "le"], ["c", "h", "ch"], ["s", "e", "se"], ["d", "<|WB|>", "d<|WB|>"], ["s", "h", "sh"], ["d", "e", "de"], ["s", ".<|WB|>", "s.<|WB|>"], ["m", "e", "me"], ["r", "a", "ra"], ["r", "o", "ro"], ["a", "l", "al"], ["r", "i", "ri"], ["g", "h", "gh"], ["s", "i", "si"], ["u", "n", "un"], ["b", "e", "be"], ["u", "r", "ur"], ["a", "c", "ac"], ["o", "o", "oo"], ["e", "l", "el"], ["st", "<|WB|>", "st<|WB|>"], ["e", ".<|WB|>", "e.<|WB|>"], ["i", "l", "il"], ["ed", ",<|WB|>", "ed,<|WB|>"], ["i", "t", "it"], ["i", "on", "ion"], ["c", "o", "co"], ["a", "m", "am"], ["a", "d", "ad"], ["e", ",<|WB|>", "e,<|WB|>"], ["a", "s", "as"], ["e", "s<|WB|>", "es<|WB|>"], ["y", ".<|WB|>", "y.<|WB|>"], ["p", "l", "pl"], ["y", ",<|WB|>", "y,<|WB|>"], ["u", "l", "ul"], ["en", "t", "ent"], ["v", "er", "ver"], ["en", "<|WB|>", "en<|WB|>"], ["ou", "n", "oun"], ["k", "<|WB|>", "k<|WB|>"], ["a", "b", "ab"], ["w", "a", "wa"], ["a", "p", "ap"], ["i", "c", "ic"], ["a", "g", "ag"], ["h", "er", "her"], ["o", "p", "op"], ["ed", ".<|WB|>", "ed.<|WB|>"], ["r", "u", "ru"], ["ti", "on", "tion"], ["t", ",<|WB|>", "t,<|WB|>"], ["n", "e", "ne"], ["t", "er", "ter"], ["e", "m", "em"], ["t", ".<|WB|>", "t.<|WB|>"], ["n", "<|WB|>", "n<|WB|>"], ["f", "or", "for"], ["e", "p", "ep"], ["ing", ".<|WB|>", "ing.<|WB|>"], ["c", "on", "con"], ["t", "ed<|WB|>", "ted<|WB|>"], ["n", "o", "no"], ["an", "d", "and"], ["'", "s<|WB|>", "'s<|WB|>"], ["at", "ion", "ation"], ["f", "i", "fi"], ["en", "c", "enc"], ["l", "e<|WB|>", "le<|WB|>"], ["s", "e<|WB|>", "se<|WB|>"], ["c", "a", "ca"], ["l", "o", "lo"], ["e", "c", "ec"], ["s", "o", "so"], ["q", "u", "qu"], ["p", "o", "po"], ["h", "i", "hi"], ["m", "i", "mi"], ["a", "ll", "all"], ["u", "m", "um"], ["t", "ra", "tra"], ["e", "ar", "ear"], ["l", "y<|WB|>", "ly<|WB|>"], ["ing", ",<|WB|>", "ing,<|WB|>"], ["a", "in", "ain"], ["ow", "<|WB|>", "ow<|WB|>"], ["a", "k", "ak"], ["w", "or", "wor"], ["en", "t<|WB|>", "ent<|WB|>"], ["gh", "t<|WB|>", "ght<|WB|>"], ["m", "o", "mo"], ["al", "<|WB|>", "al<|WB|>"], ["g", "r", "gr"], ["p", "ro", "pro"], ["i", "r", "ir"], ["in", "d", "ind"], ["w", "e", "we"], ["t", "t", "tt"], ["e", "x", "ex"], ["m", "<|WB|>", "m<|WB|>"], ["ll", "<|WB|>", "ll<|WB|>"], ["e", "v", "ev"], ["w", "h", "wh"], ["d", "i", "di"], ["ch", "<|WB|>", "ch<|WB|>"], ["b", "u", "bu"], ["an", "g", "ang"], ["s", "p", "sp"], ["ow", "n", "own"], ["on", "e<|WB|>", "one<|WB|>"], ["se", "l", "sel"], ["w", "at", "wat"], ["u", "p", "up"], ["er", ",<|WB|>", "er,<|WB|>"], ["s", "s<|WB|>", "ss<|WB|>"], ["e", "s,<|WB|>", "es,<|WB|>"], ["b", "o", "bo"], ["ar", "k", "ark"], ["m", "or", "mor"], ["e", "st", "est"], ["at", "h", "ath"], ["t", "o", "to"], ["v", "ed<|WB|>", "ved<|WB|>"], ["f", "ul", "ful"], ["g", "i", "gi"], ["t", "s<|WB|>", "ts<|WB|>"], ["d", "ed<|WB|>", "ded<|WB|>"], ["r", "ou", "rou"], ["on", "g", "ong"], ["v", "i", "vi"], ["g", "re", "gre"], ["d", "a", "da"], ["er", "s<|WB|>", "ers<|WB|>"], ["d", "o", "do"], ["s", "c", "sc"], ["w", "ar", "war"], ["c", "i", "ci"], ["on", "<|WB|>", "on<|WB|>"], ["co", "m", "com"], ["b", "re", "bre"], ["an", "<|WB|>", "an<|WB|>"], ["f", "u", "fu"], ["st", "or", "stor"], ["f", "o", "fo"], ["w", "i", "wi"], ["or", "<|WB|>", "or<|WB|>"], ["ac", "k", "ack"], ["s", "s", "ss"], ["pl", "an", "plan"], ["f", "a", "fa"], ["b", "l", "bl"], ["th", "<|WB|>", "th<|WB|>"], ["ou", "r", "our"], ["a", "u", "au"], ["t", "ur", "tur"], ["e", "a", "ea"], ["le", "ar", "lear"], ["s", "ur", "sur"], ["at", "<|WB|>", "at<|WB|>"], ["d", "er", "der"], ["le", ",<|WB|>", "le,<|WB|>"], ["f", "f", "ff"], ["g", "e", "ge"], ["en", "d", "end"], ["k", "e", "ke"], ["i", "gh", "igh"], ["t", "ru", "tru"], ["u", "re", "ure"], ["o", "b", "ob"], ["l", "d<|WB|>", "ld<|WB|>"], ["f", "in", "fin"], ["v", "e<|WB|>", "ve<|WB|>"], ["sel", "f", "self"], ["e", "s.<|WB|>", "es.<|WB|>"], ["ed", "g", "edg"], ["m", "b", "mb"], ["an", "y", "any"], ["th", "e", "the"], ["s", "a", "sa"], ["th", "er<|WB|>", "ther<|WB|>"], ["l", "oo", "loo"], ["i", "sh", "ish"], ["a", "f", "af"], ["ation", "<|WB|>", "ation<|WB|>"], ["ti", "me", "time"], ["k", "ed<|WB|>", "ked<|WB|>"], ["er", ".<|WB|>", "er.<|WB|>"], ["st", "e", "ste"], ["an", "d<|WB|>", "and<|WB|>"], ["so", "me", "some"], ["si", "de", "side"], ["ar", "<|WB|>", "ar<|WB|>"], ["at", "i", "ati"], ["enc", "e<|WB|>", "ence<|WB|>"], ["wat", "ch", "watch"], ["p", "a", "pa"], ["c", "ar", "car"], ["n", "ow", "now"], ["ir", "<|WB|>", "ir<|WB|>"], ["y", "ear", "year"], ["m", "an", "man"], ["h", "and", "hand"], ["t", "ing<|WB|>", "ting<|WB|>"], ["d", "ing<|WB|>", "ding<|WB|>"], ["g", "o", "go"], ["ar", "d", "ard"], ["v", "el", "vel"], ["w", "in", "win"], ["ar", "g", "arg"], ["w", "<|WB|>", "w<|WB|>"], ["le", "s<|WB|>", "les<|WB|>"], ["p", "i", "pi"], ["se", ",<|WB|>", "se,<|WB|>"], ["t", "re", "tre"], ["d", "re", "dre"], ["m", "in", "min"], ["p", "er", "per"], ["m", "ark", "mark"], ["s", "er", "ser"], ["sh", "i", "shi"], ["c", "re", "cre"], ["b", "or", "bor"], ["r", "un", "run"], ["l", "y,<|WB|>", "ly,<|WB|>"], ["oo", "l", "ool"], ["k", "e<|WB|>", "ke<|WB|>"], ["de", "ci", "deci"], ["m", "a", "ma"], ["me", "as", "meas"], ["tur", "n", "turn"], ["g", "l", "gl"], ["s", "m", "sm"], ["her", "e<|WB|>", "here<|WB|>"], ["p", "ar", "par"], ["th", "ou", "thou"], ["th", "ing<|WB|>", "thing<|WB|>"], ["on", "e,<|WB|>", "one,<|WB|>"], ["be", "g", "beg"], ["s", "u", "su"], ["w", "ind", "wind"], ["at", "her", "ather"], ["e", "t<|WB|>", "et<|WB|>"], ["c", "e<|WB|>", "ce<|WB|>"], ["b", "ri", "bri"], ["ow", "n<|WB|>", "own<|WB|>"], ["e", "ver", "ever"], ["v", "er<|WB|>", "ver<|WB|>"], ["ev", "en", "even"], ["d", "e<|WB|>", "de<|WB|>"], ["oo", "d<|WB|>", "ood<|WB|>"], ["ke", "ep", "keep"], ["g", "<|WB|>", "g<|WB|>"], ["m", "ed<|WB|>", "med<|WB|>"], ["f", "e", "fe"], ["b", "i", "bi"], ["st", "re", "stre"], ["at", "e<|WB|>", "ate<|WB|>"], ["ac", "c", "acc"], ["k", "s<|WB|>", "ks<|WB|>"], ["h", "o", "ho"], ["ra", "in", "rain"], ["pl", "ac", "plac"], ["t", "y<|WB|>", "ty<|WB|>"], ["c", "k<|WB|>", "ck<|WB|>"], ["un", "d", "und"], ["ab", "le<|WB|>", "able<|WB|>"], ["li", "v", "liv"], ["t", "s,<|WB|>", "ts,<|WB|>"], ["p", "e", "pe"], ["tion", ".<|WB|>", "tion.<|WB|>"], ["at", "t", "att"], ["oun", "d", "ound"], ["p", "ed<|WB|>", "ped<|WB|>"], ["s", "ed<|WB|>", "sed<|WB|>"], ["enc", "e.<|WB|>", "ence.<|WB|>"], ["c", "l", "cl"], ["p", "ri", "pri"], ["j", "ec", "jec"], ["p", "re", "pre"], ["s", "w", "sw"], ["h", "a", "ha"], ["a", "<|WB|>", "a<|WB|>"], ["u", "t", "ut"], ["le", "a", "lea"], ["de", "li", "deli"], ["b", "er", "ber"], ["ti", "c", "tic"], ["p", "ati", "pati"], ["ti", "m", "tim"], ["b", "ak", "bak"], ["h", "ou", "hou"], ["oun", "d<|WB|>", "ound<|WB|>"], ["est", "ion", "estion"], ["p", "u", "pu"], ["b", "r", "br"], ["l", "d", "ld"], ["si", "on", "sion"], ["d", "g", "dg"], ["g", "en", "gen"], ["ation", "s<|WB|>", "ations<|WB|>"], ["fi", "sh", "fish"], ["ent", ".<|WB|>", "ent.<|WB|>"], ["h", "ear", "hear"], ["ong", "<|WB|>", "ong<|WB|>"], ["ac", "t", "act"], ["be", "ll", "bell"], ["c", "oun", "coun"], ["t", "r", "tr"], ["an", "t<|WB|>", "ant<|WB|>"], ["fu", "ll", "full"], ["n", "ing<|WB|>", "ning<|WB|>"], ["v", "o", "vo"], ["th", "er", "ther"], ["sh", "op", "shop"], ["d", "u", "du"], ["st", ".<|WB|>", "st.<|WB|>"], ["re", "g", "reg"], ["af", "ter", "after"], ["h", "e", "he"], ["o", "<|WB|>", "o<|WB|>"], ["m", "u", "mu"], ["c", "lo", "clo"], ["t", "e", "te"], ["c", "er", "cer"], ["t", "ain", "tain"], ["k", "ing<|WB|>", "king<|WB|>"], ["ll", "ed<|WB|>", "lled<|WB|>"], ["t", "own", "town"], ["ing", "s<|WB|>", "ings<|WB|>"], [";", "<|WB|>", ";<|WB|>"], ["pl", "e<|WB|>", "ple<|WB|>"], ["tion", "<|WB|>", "tion<|WB|>"], ["p", "<|WB|>", "p<|WB|>"], ["t", "in", "tin"], ["li", "gh", "ligh"], ["r", "ang", "rang"], ["pro", "mi", "promi"], ["s", "in", "sin"], ["an", "sw", "answ"], ["tion", ",<|WB|>", "tion,<|WB|>"], ["de", ".<|WB|>", "de.<|WB|>"], ["t", "w", "tw"], ["ic", "e<|WB|>", "ice<|WB|>"], ["it", "e<|WB|>", "ite<|WB|>"], ["v", "es<|WB|>", "ves<|WB|>"], ["at", "ed<|WB|>", "ated<|WB|>"], ["wind", "ow", "window"], ["am", "e<|WB|>", "ame<|WB|>"], ["ath", "er<|WB|>", "ather<|WB|>"], ["p", "s<|WB|>", "ps<|WB|>"], ["d", "d", "dd"], ["y", "s<|WB|>", "ys<|WB|>"], ["m", "ind", "mind"], ["b", "oo", "boo"], ["qu", "i", "qui"], ["ch", "e", "che"], ["ful", "<|WB|>", "ful<|WB|>"], ["bri", "dg", "bridg"], ["ou", "t", "out"], ["gen", "er", "gener"], ["m", "en<|WB|>", "men<|WB|>"], ["re", "me", "reme"], ["reme", "mb", "rememb"], ["er", "ed<|WB|>", "ered<|WB|>"], ["ever", "y", "every"], ["s", "ch", "sch"], ["s", "l", "sl"], ["i", "d", "id"], ["en", "ed<|WB|>", "ened<|WB|>"], ["ex", "act", "exact"], ["ag", "e<|WB|>", "age<|WB|>"], ["l", "ed<|WB|>", "led<|WB|>"], ["li", "f", "lif"], ["da", "y<|WB|>", "day<|WB|>"], ["th", "em", "them"], ["wor", "k", "work"], ["t", "er<|WB|>", "ter<|WB|>"], ["f", "ac", "fac"], ["pi", "ec", "piec"], ["si", "l", "sil"], ["ar", "s<|WB|>", "ars<|WB|>"], ["after", "no", "afterno"], ["or", "ch", "orch"], ["ou", "s<|WB|>", "ous<|WB|>"], ["ch", "il", "chil"], ["n", "ow<|WB|>", "now<|WB|>"], ["ent", "s<|WB|>", "ents<|WB|>"], ["w", "r", "wr"], ["ll", ",<|WB|>", "ll,<|WB|>"], ["re", "li", "reli"], ["w", "al", "wal"], ["ll", "s<|WB|>", "lls<|WB|>"], ["c", "ks<|WB|>", "cks<|WB|>"], ["p", "an", "pan"], ["m", "at", "mat"], ["f", "am", "fam"], ["n", "igh", "nigh"], ["ra", "c", "rac"], ["s", "ing<|WB|>", "sing<|WB|>"], ["j", "u", "ju"], ["a", "d<|WB|>", "ad<|WB|>"], ["ur", "e<|WB|>", "ure<|WB|>"], ["ful", ".<|WB|>", "ful.<|WB|>"], ["m", "it", "mit"], ["t", "s.<|WB|>", "ts.<|WB|>"], ["on", ",<|WB|>", "on,<|WB|>"], ["t", "e<|WB|>", "te<|WB|>"], ["en", ",<|WB|>", "en,<|WB|>"], ["st", "op", "stop"], ["s", "le", "sle"], ["s", "ent", "sent"], ["r", "y", "ry"], ["h", "our", "hour"], ["hi", "m", "him"], ["o", "m<|WB|>", "om<|WB|>"], ["em", "p", "emp"], ["ar", "m", "arm"], ["fo", "re", "fore"], ["fin", "ish", "finish"], ["l", "<|WB|>", "l<|WB|>"], ["pro", "jec", "projec"], ["d", "ic", "dic"], ["ex", "p", "exp"], ["am", "<|WB|>", "am<|WB|>"], ["ar", "k<|WB|>", "ark<|WB|>"], ["c", "lear", "clear"], ["on", "e", "one"], ["ar", "e<|WB|>", "are<|WB|>"], ["li", "c", "lic"], ["re", "mark", "remark"], ["gr", "and", "grand"], ["qu", "estion", "question"], ["f", "er", "fer"], ["t", "ea", "tea"], ["v", "ing<|WB|>", "ving<|WB|>"], ["se", "as", "seas"], ["se", ".<|WB|>", "se.<|WB|>"], ["me", "mor", "memor"], ["bl", "ack", "black"], ["po", "in", "poin"], ["vi", "si", "visi"], ["di", "s", "dis"], ["re", "n", "ren"], ["h", "e<|WB|>", "he<|WB|>"], ["mor", "n", "morn"], ["war", "m", "warm"], ["f", "<|WB|>", "f<|WB|>"], ["o", "v", "ov"], ["all", "y<|WB|>", "ally<|WB|>"], ["st", "i", "sti"], ["side", ",<|WB|>", "side,<|WB|>"], ["au", "t", "aut"], ["aut", "um", "autum"], ["ag", "ain", "again"], ["gl", "as", "glas"], ["sm", "all", "small"], ["in", "<|WB|>", "in<|WB|>"], ["bre", "ad", "bread"], ["d", ".<|WB|>", "d.<|WB|>"], ["or", "i", "ori"], ["it", "self", "itself"], ["s", "me", "sme"], ["ll", ".<|WB|>", "ll.<|WB|>"], ["g", "g", "gg"], ["b", "b", "bb"], ["le", "s,<|WB|>", "les,<|WB|>"], ["op", "in", "opin"], ["opin", "ion", "opinion"], ["ou", "t<|WB|>", "out<|WB|>"], ["wa", "y<|WB|>", "way<|WB|>"], ["s", "k", "sk"], ["lear", "n", "learn"], ["o", "se<|WB|>", "ose<|WB|>"], ["ing", "s,<|WB|>", "ings,<|WB|>"], ["me", ",<|WB|>", "me,<|WB|>"], ["ar", "ri", "arri"], ["ap", "o", "apo"], ["apo", "lo", "apolo"], ["apolo", "gi", "apologi"], ["edg", "e<|WB|>", "edge<|WB|>"], ["l", "a", "la"], ["st", "ed<|WB|>", "sted<|WB|>"], ["en", "ti", "enti"], ["on", "es<|WB|>", "ones<|WB|>"], ["n", "a", "na"], ["ath", ",<|WB|>", "ath,<|WB|>"], ["k", "ep", "kep"], ["il", "<|WB|>", "il<|WB|>"], ["i", "es<|WB|>", "ies<|WB|>"], ["f", "ather", "father"], ["tt", "er<|WB|>", "tter<|WB|>"], ["d", "ra", "dra"], ["um", "m", "umm"], ["for", "ge", "forge"], ["ch", "ang", "chang"], ["gh", "<|WB|>", "gh<|WB|>"], ["b", "ack", "back"], ["w", "o", "wo"], ["w", "oo", "woo"], ["woo", "d", "wood"], ["tra", "vel", "travel"], ["h", "ar", "har"], ["win", "ter", "winter"], ["c", "ro", "cro"], ["cro", "ss", "cross"], ["ro", "ad", "road"], ["full", "y<|WB|>", "fully<|WB|>"], ["se", "tt", "sett"], ["th", "ing.<|WB|>", "thing.<|WB|>"], ["in", "d<|WB|>", "ind<|WB|>"], ["gh", "t.<|WB|>", "ght.<|WB|>"], ["stre", "e", "stree"], ["ne", "igh", "neigh"], ["k", "ne", "kne"], ["shop", "<|WB|>", "shop<|WB|>"], ["s", "up", "sup"], ["u", "se", "use"], ["ful", "ne", "fulne"], ["fulne", "s", "fulnes"], ["li", "br", "libr"], ["libr", "ar", "librar"], ["t", "ab", "tab"], ["bu", "il", "buil"], ["se", "em", "seem"], ["c", "ent", "cent"], ["on", "s<|WB|>", "ons<|WB|>"], ["en", ".<|WB|>", "en.<|WB|>"], ["mo", "st", "most"], ["l", "ong", "long"], ["r", "ow", "row"], ["chil", "dre", "childre"], ["ap", "p", "app"], ["d", "er<|WB|>", "der<|WB|>"], ["arg", "um", "argum"], ["min", "ut", "minut"], ["qui", "e", "quie"], ["t", "ed.<|WB|>", "ted.<|WB|>"], ["ss", "ed<|WB|>", "ssed<|WB|>"], ["si", "de<|WB|>", "side<|WB|>"], ["cer", "tain", "certain"], ["on", "e.<|WB|>", "one.<|WB|>"], ["wr", "ong", "wrong"], ["de", ",<|WB|>", "de,<|WB|>"], ["en", "ou", "enou"], ["li", "t", "lit"], ["m", "e<|WB|>", "me<|WB|>"], ["ure", ",<|WB|>", "ure,<|WB|>"], ["on", ".<|WB|>", "on.<|WB|>"], ["f", "ra", "fra"], ["am", "bi", "ambi"], ["l", "an", "lan"], ["o", "ver", "over"], ["n", "i", "ni"], ["fi", "el", "fiel"], ["no", "i", "noi"], ["gr", "own", "grown"], ["ad", "y<|WB|>", "ady<|WB|>"], ["de", "s<|WB|>", "des<|WB|>"], ["un", "<|WB|>", "un<|WB|>"], ["g", "ra", "gra"], ["st", "a", "sta"], ["wi", "ll", "will"], ["sh", "ed<|WB|>", "shed<|WB|>"], ["p", "ain", "pain"], ["t", "ak", "tak"], ["le", "f", "lef"], ["p", "as", "pas"], ["time", "s<|WB|>", "times<|WB|>"], ["o", "ple<|WB|>", "ople<|WB|>"], ["le", "t", "let"], ["her", "self", "herself"], ["c", "or", "cor"], ["h", "un", "hun"], ["g", ",<|WB|>", "g,<|WB|>"], ["el", "y<|WB|>", "ely<|WB|>"], ["b", "ro", "bro"], ["t", "en", "ten"], ["de", "p", "dep"], ["d", "ri", "dri"], ["th", "rou", "throu"], ["it", "u", "itu"], ["em", "ent", "ement"], ["r", "ed<|WB|>", "red<|WB|>"], ["ad", "mit", "admit"], ["fa", "il", "fail"], ["ure", "s<|WB|>", "ures<|WB|>"], ["de", "ca", "deca"], ["h", "el", "hel"], ["l", "in", "lin"], ["ex", "i", "exi"], ["l", "am", "lam"], ["t", "al", "tal"], ["ser", "v", "serv"], ["ro", "om<|WB|>", "room<|WB|>"], ["wa", "y,<|WB|>", "way,<|WB|>"], ["ligh", "t", "light"], ["p", "ic", "pic"], ["da", "y", "day"], ["o", "c", "oc"], ["wa", "it", "wait"], ["N", "o", "No"], ["ar", "rang", "arrang"], ["h", "al", "hal"], ["exp", "ec", "expec"], ["u", "t<|WB|>", "ut<|WB|>"], ["p", "h", "ph"], ["g", "s<|WB|>", "gs<|WB|>"], ["il", "e<|WB|>", "ile<|WB|>"], ["l", "and", "land"], ["g", "ro", "gro"], ["c", "e.<|WB|>", "ce.<|WB|>"], ["on", "d<|WB|>", "ond<|WB|>"], ["an", "k", "ank"], ["ab", "le,<|WB|>", "able,<|WB|>"], ["bu", "sin", "busin"], ["busin", "e", "busine"], ["ap", "<|WB|>", "ap<|WB|>"], ["sh", "or", "shor"], ["an", ".<|WB|>", "an.<|WB|>"], ["st", "er", "ster"], ["y", "oun", "youn"], ["at", "s<|WB|>", "ats<|WB|>"], ["y", "ing<|WB|>", "ying<|WB|>"], ["d", "ark", "dark"], ["r", "y<|WB|>", "ry<|WB|>"], ["ow", "ed<|WB|>", "owed<|WB|>"], ["b", "ar", "bar"], ["ver", "ed<|WB|>", "vered<|WB|>"], ["m", "ent<|WB|>", "ment<|WB|>"], ["ch", ",<|WB|>", "ch,<|WB|>"], ["b", "le<|WB|>", "ble<|WB|>"], ["w", "her", "wher"], ["el", "se", "else"], ["con", "ver", "conver"], ["f", "el", "fel"], ["si", "on<|WB|>", "sion<|WB|>"], ["our", "<|WB|>", "our<|WB|>"], ["c", "ou", "cou"], ["be", "li", "beli"], ["beli", "ev", "believ"], ["fi", "r", "fir"], ["turn", "ed<|WB|>", "turned<|WB|>"], ["deli", "ber", "deliber"], ["par", "tic", "partic"], ["partic", "ul", "particul"], ["com", "for", "comfor"], ["h", "ow<|WB|>", "how<|WB|>"], ["i", "t<|WB|>", "it<|WB|>"], ["tim", "e<|WB|>", "time<|WB|>"], ["hou", "se<|WB|>", "house<|WB|>"], ["a", "s<|WB|>", "as<|WB|>"], ["c", "ame<|WB|>", "came<|WB|>"], ["we", "ather", "weather"], ["l", "at", "lat"], ["wa", "ys<|WB|>", "ways<|WB|>"], ["m", "ak", "mak"], ["it", "s<|WB|>", "its<|WB|>"], ["to", "<|WB|>", "to<|WB|>"], ["boo", "k<|WB|>", "book<|WB|>"], ["an", "ce<|WB|>", "ance<|WB|>"], ["deci", "sion", "decision"], ["um", "bre", "umbre"], ["umbre", "ll", "umbrell"], ["che", "er", "cheer"], ["re", "pa", "repa"], ["na", "me", "name"], ["wa", "y.<|WB|>", "way.<|WB|>"], ["sch", "ed", "sched"], ["ff", "er", "ffer"], ["ffer", "ent<|WB|>", "fferent<|WB|>"], ["ff", "ic", "ffic"], ["ov", "e.<|WB|>", "ove.<|WB|>"], ["er", "men<|WB|>", "ermen<|WB|>"], ["w", "ou", "wou"], ["le", "an<|WB|>", "lean<|WB|>"], ["bridg", "e,<|WB|>", "bridge,<|WB|>"], ["dra", "w", "draw"], ["fo", "l", "fol"], ["fol", "ded<|WB|>", "folded<|WB|>"], ["ag", "e.<|WB|>", "age.<|WB|>"], ["ad", "ing<|WB|>", "ading<|WB|>"], ["rou", "ght<|WB|>", "rought<|WB|>"], ["s", "umm", "summ"], ["mo", "st<|WB|>", "most<|WB|>"], ["hear", "t", "heart"], ["p", "ap", "pap"], ["pap", "er<|WB|>", "paper<|WB|>"], ["wh", "e", "whe"], ["w", "here<|WB|>", "where<|WB|>"], ["it", ".<|WB|>", "it.<|WB|>"], ["vi", "ll", "vill"], ["so", "<|WB|>", "so<|WB|>"], ["th", "ic", "thic"], ["ch", "ur", "chur"], ["oun", "ded<|WB|>", "ounded<|WB|>"], ["f", "ro", "fro"], ["o", "ther<|WB|>", "other<|WB|>"], ["coun", "tr", "countr"], ["bri", "ght<|WB|>", "bright<|WB|>"], ["i", "d<|WB|>", "id<|WB|>"], ["ca", "f", "caf"], ["caf", "\u00e9", "caf\u00e9"], ["arg", "u", "argu"], ["t", "ed,<|WB|>", "ted,<|WB|>"], ["apologi", "z", "apologiz"], ["se", "con", "secon"], ["we", "ep", "weep"], ["weep", "ing<|WB|>", "weeping<|WB|>"], ["ch", "a", "cha"], ["cha", "ir<|WB|>", "chair<|WB|>"], ["loo", "k", "look"], ["s", "po", "spo"], ["vo", "ic", "voic"], ["e", "st<|WB|>", "est<|WB|>"], ["ca", "u", "cau"], ["b", "or<|WB|>", "bor<|WB|>"], ["E", "ver", "Ever"], ["sup", "p", "supp"], ["ev", "id", "evid"], ["use", "fulnes", "usefulnes"], ["s", "qu", "squ"], ["re", ",<|WB|>", "re,<|WB|>"], ["tab", "les<|WB|>", "tables<|WB|>"], ["sl", "ow", "slow"], ["piec", "es.<|WB|>", "pieces.<|WB|>"], ["acc", "um", "accum"], ["accum", "ul", "accumul"], ["se", "s<|WB|>", "ses<|WB|>"], ["reg", "ul", "regul"], ["at", ",<|WB|>", "at,<|WB|>"], ["c", "our", "cour"], ["cent", "ur", "centur"], ["plac", "e<|WB|>", "place<|WB|>"], ["T", "he", "The"], ["ar", "d<|WB|>", "ard<|WB|>"], ["sp", "r", "spr"], ["st", "ood<|WB|>", "stood<|WB|>"], ["o", "ld", "old"], ["childre", "n<|WB|>", "children<|WB|>"], ["c", "li", "cli"], ["for", "med<|WB|>", "formed<|WB|>"], ["f", "re", "fre"], ["ad", "e<|WB|>", "ade<|WB|>"], ["est", ",<|WB|>", "est,<|WB|>"], ["fi", "f", "fif"], ["acc", "ep", "accep"], ["in", "s<|WB|>", "ins<|WB|>"], ["t", "y.<|WB|>", "ty.<|WB|>"], ["ev", "er<|WB|>", "ever<|WB|>"], ["fi", "x", "fix"], ["t", "able<|WB|>", "table<|WB|>"], ["ag", "re", "agre"], ["un", "certain", "uncertain"], ["a", "ch<|WB|>", "ach<|WB|>"], ["v", "e", "ve"], ["wh", "at<|WB|>", "what<|WB|>"], ["s", "and<|WB|>", "sand<|WB|>"], ["ter", "ed<|WB|>", "tered<|WB|>"], ["tur", "e<|WB|>", "ture<|WB|>"], ["sh", "e", "she"], ["b", "ir", "bir"], ["co", "ll", "coll"], ["coll", "ec", "collec"], ["sm", "oo", "smoo"], ["ri", "ed<|WB|>", "ried<|WB|>"], ["c", "ke", "cke"], ["h", "ea", "hea"], ["st", "-", "st-"], ["o", "ff", "off"], ["tre", "as", "treas"], ["w", ",<|WB|>", "w,<|WB|>"], ["gre", "en", "green"], ["ar", "t<|WB|>", "art<|WB|>"], ["el", "s<|WB|>", "els<|WB|>"], ["ep", "<|WB|>", "ep<|WB|>"], ["c", "al", "cal"], ["ang", "le<|WB|>", "angle<|WB|>"], ["co", "l", "col"], ["de", "st<|WB|>", "dest<|WB|>"], ["ru", "mor", "rumor"], ["ro", "lled<|WB|>", "rolled<|WB|>"], ["ni", "ght<|WB|>", "night<|WB|>"], ["be", "com", "becom"], ["po", "s", "pos"], ["pos", "si", "possi"], ["grown", "-", "grown-"], ["grown-", "up", "grown-up"], ["fam", "i", "fami"], ["fami", "li", "famili"], ["t", "ro", "tro"], ["d", "own<|WB|>", "down<|WB|>"], ["sta", "y", "stay"], ["b", "ed", "bed"], ["ad", "mi", "admi"], ["ri", "ver", "river"], ["pain", "ted<|WB|>", "painted<|WB|>"], ["n", "ed<|WB|>", "ned<|WB|>"], ["ish", "<|WB|>", "ish<|WB|>"], ["fish", "<|WB|>", "fish<|WB|>"], ["S", "o", "So"], ["So", "me", "Some"], ["enou", "gh", "enough"], ["w", "hi", "whi"], ["e", "ople<|WB|>", "eople<|WB|>"], ["let", "ter", "letter"], ["s", "on<|WB|>", "son<|WB|>"], ["lea", "v", "leav"], ["qu", "e", "que"], ["c", "ur", "cur"], ["cor", "n", "corn"], ["gr", "at", "grat"], ["att", "en", "atten"], ["sh", "ru", "shru"], ["th", ".<|WB|>", "th.<|WB|>"], ["edg", "es<|WB|>", "edges<|WB|>"], ["t", "ou", "tou"], ["u", "su", "usu"], ["ound", "s<|WB|>", "ounds<|WB|>"], ["f", "ts<|WB|>", "fts<|WB|>"], ["pl", "ow<|WB|>", "plow<|WB|>"], ["st", "itu", "stitu"], ["g", "ard", "gard"], ["be", "h", "beh"], ["l", "arg", "larg"], ["car", "pe", "carpe"], ["co", "a", "coa"], ["re", "bell", "rebell"], ["rebell", "ion", "rebellion"], ["le", "an", "lean"], ["b", "s<|WB|>", "bs<|WB|>"], ["shi", "p<|WB|>", "ship<|WB|>"], ["st", "at", "stat"], ["stat", "ement", "statement"], ["re", "fu", "refu"], ["neigh", "bor", "neighbor"], ["re", "ly<|WB|>", "rely<|WB|>"], ["fiel", "d", "field"], ["bre", "ath", "breath"], ["gr", "own<|WB|>", "grown<|WB|>"], ["t", "we", "twe"], ["twe", "en<|WB|>", "tween<|WB|>"], ["f", "t,<|WB|>", "ft,<|WB|>"], ["con", "tin", "contin"], ["contin", "u", "continu"], ["w", ".<|WB|>", "w.<|WB|>"], ["exi", "st", "exist"], ["nigh", "t,<|WB|>", "night,<|WB|>"], ["sle", "p", "slep"], ["ow", "s<|WB|>", "ows<|WB|>"], ["ag", "es,<|WB|>", "ages,<|WB|>"], ["ack", "now", "acknow"], ["acknow", "l", "acknowl"], ["s", "ing", "sing"], ["m", "an<|WB|>", "man<|WB|>"], ["him", "self", "himself"], ["war", "d", "ward"], ["ward", "s,<|WB|>", "wards,<|WB|>"], ["ic", "e.<|WB|>", "ice.<|WB|>"], ["tt", "le<|WB|>", "ttle<|WB|>"], ["f", "ound", "found"], ["gi", "v", "giv"], ["d", "ed,<|WB|>", "ded,<|WB|>"], ["we", "e", "wee"], ["ar", "y<|WB|>", "ary<|WB|>"], ["a", "i", "ai"], ["se", "a", "sea"], ["f", "arm", "farm"], ["be", "fore", "before"], ["rain", "ed<|WB|>", "rained<|WB|>"], ["finish", "ed<|WB|>", "finished<|WB|>"], ["ste", "ady<|WB|>", "steady<|WB|>"], ["i", "m", "im"], ["h", "all", "hall"], ["c", "up", "cup"], ["ll", "s.<|WB|>", "lls.<|WB|>"], ["oc", "ca", "occa"], ["occa", "sion", "occasion"], ["sp", "ec", "spec"], ["c", "ep", "cep"], ["clo", "s", "clos"], ["bo", "d", "bod"], ["bod", "y<|WB|>", "body<|WB|>"], ["un", "der", "under"], ["fa", "i", "fai"], ["fai", "th", "faith"], ["t", "ings<|WB|>", "tings<|WB|>"], ["m", "ing<|WB|>", "ming<|WB|>"], ["hal", "f", "half"], ["half", "-", "half-"], ["expec", "ting<|WB|>", "expecting<|WB|>"], ["re", "ti", "reti"], ["li", "ved<|WB|>", "lived<|WB|>"], ["s", "al", "sal"], ["stor", "m", "storm"], ["t", "ool", "tool"], ["u", "c", "uc"], ["land", ",<|WB|>", "land,<|WB|>"], ["r", "ul", "rul"], ["S", "t", "St"], ["it", "y.<|WB|>", "ity.<|WB|>"], ["p", "le", "ple"], ["ation", ".<|WB|>", "ation.<|WB|>"], ["ou", "<|WB|>", "ou<|WB|>"], ["ca", "re", "care"], ["at", "ure<|WB|>", "ature<|WB|>"], ["t", "u", "tu"], ["un", "remark", "unremark"], ["ob", "jec", "objec"], ["gh", "o", "gho"], ["grand", "father", "grandfather"], ["busine", "s", "busines"], ["in", "ten", "inten"], ["tion", "s.<|WB|>", "tions.<|WB|>"], ["man", ",<|WB|>", "man,<|WB|>"], ["run", "n", "runn"], ["t", "op", "top"], ["v", "all", "vall"], ["vall", "e", "valle"], ["own", ",<|WB|>", "own,<|WB|>"], ["en", "ded<|WB|>", "ended<|WB|>"], ["enc", "e,<|WB|>", "ence,<|WB|>"], ["answ", "ered<|WB|>", "answered<|WB|>"], ["m", "s<|WB|>", "ms<|WB|>"], ["ste", "am", "steam"], ["po", "st", "post"], ["b", "und", "bund"], ["g", "ri", "gri"], ["end", "ur", "endur"], ["an", "c", "anc"], ["r", "ow<|WB|>", "row<|WB|>"], ["h", "one", "hone"], ["autum", "n", "autumn"], ["mind", "ed<|WB|>", "minded<|WB|>"], ["g", "in", "gin"], ["re", "m", "rem"], ["g", "u", "gu"], ["j", "o", "jo"], ["h", "ab", "hab"], ["sent", "enc", "sentenc"], ["h", "ap", "hap"], ["hap", "s<|WB|>", "haps<|WB|>"], ["con", "si", "consi"], ["consi", "der", "consider"], ["black", "ber", "blackber"], ["ser", "ved<|WB|>", "served<|WB|>"], ["de", "par", "depar"], ["st", "and", "stand"], ["stand", "ing<|WB|>", "standing<|WB|>"], ["fam", "il", "famil"], ["bro", "k", "brok"], ["throu", "gh", "through"], ["tr", "an", "tran"], ["st", "u", "stu"], ["stu", "b", "stub"], ["stub", "bor", "stubbor"], ["sc", "ri", "scri"], ["scri", "p", "scrip"], ["t", "au", "tau"], ["d", "ents<|WB|>", "dents<|WB|>"], ["si", "st", "sist"], ["he", "ad", "head"], ["l", "and<|WB|>", "land<|WB|>"], ["stor", "ed<|WB|>", "stored<|WB|>"], ["in", "v", "inv"], ["en", "tion", "ention"], ["ation", "s.<|WB|>", "ations.<|WB|>"], ["b", "er,<|WB|>", "ber,<|WB|>"], ["c", "ru", "cru"], ["st", "er<|WB|>", "ster<|WB|>"], ["er", "ing<|WB|>", "ering<|WB|>"], ["sc", "re", "scre"], ["ma", "ch", "mach"]], "vocab": {"0": "\u0000", "1": "\u0001", "2": "\u0002", "3": "\u0003", "4": "\u0004", "5": "\u0005", "6": "\u0006", "7": "\u0007", "8": "\b", "9": "\t", "10": "\n", "11": "\u000b", "12": "\f", "13": "\r", "14": "\u000e", "15": "\u000f", "16": "\u0010", "17": "\u0011", "18": "\u0012", "19": "\u0013", "20": "\u0014", "21": "\u0015", "22": "\u0016", "23": "\u0017", "24": "\u0018", "25": "\u0019", "26": "\u001a", "27": "\u001b", "28": "\u001c", "29": "\u001d", "30": "\u001e", "31": "\u001f", "32": " ", "33": "!", "34": "\"", "35": "#", "36": "$", "37": "%", "38": "&", "39": "'", "40": "(", "41": ")", "42": "*", "43": "+", "44": ",", "45": "-", "46": ".", "47": "/", "48": "0", "49": "1", "50": "2", "51": "3", "52": "4", "53": "5", "54": "6", "55": "7", "56": "8", "57": "9", "58": ":", "59": ";", "60": "<", "61": "=", "62": ">", "63": "?", "64": "@", "65": "A", "66": "B", "67": "C", "68": "D", "69": "E", "70": "F", "71": "G", "72": "H", "73": "I", "74": "J", "75": "K", "76": "L", "77": "M", "78": "N", "79": "O", "80": "P", "81": "Q", "82": "R", "83": "S", "84": "T", "85": "U", "86": "V", "87": "W", "88": "X", "89": "Y", "90": "Z", "91": "[", "92": "\\", "93": "]", "94": "^", "95": "_", "96": "`", "97": "a", "98": "b", "99": "c", "100": "d", "101": "e", "102": "f", "103": "g", "104": "h", "105": "i", "106": "j", "107": "k", "108": "l", "109": "m", "110": "n", "111": "o", "112": "p", "113": "q", "114": "r", "115": "s", "116": "t", "117": "u", "118": "v", "119": "w", "120": "x", "121": "y", "122": "z", "123": "{", "124": "|", "125": "}", "126": "~", "127": "\u007f", "128": "\u0080", "129": "\u0081", "130": "\u0082", "131": "\u0083", "132": "\u0084", "133": "\u0085", "134": "\u0086", "135": "\u0087", "136": "\u0088", "137": "\u0089", "138": "\u008a", "139": "\u008b", "140": "\u008c", "141": "\u008d", "142": "\u008e", "143": "\u008f", "144": "\u0090", "145": "\u0091", "146": "\u0092", "147": "\u0093", "148": "\u0094", "149": "\u0095", "150": "\u0096", "151": "\u0097", "152": "\u0098", "153": "\u0099", "154": "\u009a", "155": "\u009b", "156": "\u009c", "157": "\u009d", "158": "\u009e", "159": "\u009f", "160": "\u00a0", "161": "\u00a1", "162": "\u00a2", "163": "\u00a3", "164": "\u00a4", "165": "\u00a5", "166": "\u00a6", "167": "\u00a7", "168": "\u00a8", "169": "\u00a9", "170": "\u00aa", "171": "\u00ab", "172": "\u00ac", "173": "\u00ad", "174": "\u00ae", "175": "\u00af", "176": "\u00b0", "177": "\u00b1", "178": "\u00b2", "179": "\u00b3", "180": "\u00b4", "181": "\u00b5", "182": "\u00b6", "183": "\u00b7", "184": "\u00b8", "185": "\u00b9", "186": "\u00ba", "187": "\u00bb", "188": "\u00bc", "189": "\u00bd", "190": "\u00be", "191": "\u00bf", "192": "\u00c0", "193": "\u00c1", "194": "\u00c2", "195": "\u00c3", "196": "\u00c4", "197": "\u00c5", "198": "\u00c6", "199": "\u00c7", "200": "\u00c8", "201": "\u00c9", "202": "\u00ca", "203": "\u00cb", "204": "\u00cc", "205": "\u00cd", "206": "\u00ce", "207": "\u00cf", "208": "\u00d0", "209": "\u00d1", "210": "\u00d2", "211": "\u00d3", "212": "\u00d4", "213": "\u00d5", "214": "\u00d6", "215": "\u00d7", "216": "\u00d8", "217": "\u00d9", "218": "\u00da", "219": "\u00db", "220": "\u00dc", "221": "\u00dd", "222": "\u00de", "223": "\u00df", "224": "\u00e0", "225": "\u00e1", "226": "\u00e2", "227": "\u00e3", "228": "\u00e4", "229": "\u00e5", "230": "\u00e6", "231": "\u00e7", "232": "\u00e8", "233": "\u00e9", "234": "\u00ea", "235": "\u00eb", "236": "\u00ec", "237": "\u00ed", "238": "\u00ee", "239": "\u00ef", "240": "\u00f0", "241": "\u00f1", "242": "\u00f2", "243": "\u00f3", "244": "\u00f4", "245": "\u00f5", "246": "\u00f6", "247": "\u00f7", "248": "\u00f8", "249": "\u00f9", "250": "\u00fa", "251": "\u00fb", "252": "\u00fc", "253": "\u00fd", "254": "\u00fe", "255": "\u00ff", "256": "<|EOS|>", "257": "<|WB|>", "258": ",<|WB|>", "259": ".<|WB|>", "260": "in", "261": "ed", "262": "er", "263": "s<|WB|>", "264": "e<|WB|>", "265": "ed<|WB|>", "266": "re", "267": "on", "268": "ing", "269": "en", "270": "st", "271": "ar", "272": "an", "273": "at", "274": "or", "275": "ing<|WB|>", "276": "t<|WB|>", "277": "y<|WB|>", "278": "ou", "279": "th", "280": "ll", "281": "ti", "282": "er<|WB|>", "283": "s,<|WB|>", "284": "ow", "285": "li", "286": "le", "287": "ch", "288": "se", "289": "d<|WB|>", "290": "sh", "291": "de", "292": "s.<|WB|>", "293": "me", "294": "ra", "295": "ro", "296": "al", "297": "ri", "298": "gh", "299": "si", "300": "un", "301": "be", "302": "ur", "303": "ac", "304": "oo", "305": "el", "306": "st<|WB|>", "307": "e.<|WB|>", "308": "il", "309": "ed,<|WB|>", "310": "it", "311": "ion", "312": "co", "313": "am", "314": "ad", "315": "e,<|WB|>", "316": "as", "317": "es<|WB|>", "318": "y.<|WB|>", "319": "pl", "320": "y,<|WB|>", "321": "ul", "322": "ent", "323": "ver", "324": "en<|WB|>", "325": "oun", "326": "k<|WB|>", "327": "ab", "328": "wa", "329": "ap", "330": "ic", "331": "ag", "332": "her", "333": "op", "334": "ed.<|WB|>", "335": "ru", "336": "tion", "337": "t,<|WB|>", "338": "ne", "339": "ter", "340": "em", "341": "t.<|WB|>", "342": "n<|WB|>", "343": "for", "344": "ep", "345": "ing.<|WB|>", "346": "con", "347": "ted<|WB|>", "348": "no", "349": "and", "350": "'s<|WB|>", "351": "ation", "352": "fi", "353": "enc", "354": "le<|WB|>", "355": "se<|WB|>", "356": "ca", "357": "lo", "358": "ec", "359": "so", "360": "qu", "361": "po", "362": "hi", "363": "mi", "364": "all", "365": "um", "366": "tra", "367": "ear", "368": "ly<|WB|>", "369": "ing,<|WB|>", "370": "ain", "371": "ow<|WB|>", "372": "ak", "373": "wor", "374": "ent<|WB|>", "375": "ght<|WB|>", "376": "mo", "377": "al<|WB|>", "378": "gr", "379": "pro", "380": "ir", "381": "ind", "382": "we", "383": "tt", "384": "ex", "385": "m<|WB|>", "386": "ll<|WB|>", "387": "ev", "388": "wh", "389": "di", "390": "ch<|WB|>", "391": "bu", "392": "ang", "393": "sp", "394": "own", "395": "one<|WB|>", "396": "sel", "397": "wat", "398": "up", "399": "er,<|WB|>", "400": "ss<|WB|>", "401": "es,<|WB|>", "402": "bo", "403": "ark", "404": "mor", "405": "est", "406": "ath", "407": "to", "408": "ved<|WB|>", "409": "ful", "410": "gi", "411": "ts<|WB|>", "412": "ded<|WB|>", "413": "rou", "414": "ong", "415": "vi", "416": "gre", "417": "da", "418": "ers<|WB|>", "419": "do", "420": "sc", "421": "war", "422": "ci", "423": "on<|WB|>", "424": "com", "425": "bre", "426": "an<|WB|>", "427": "fu", "428": "stor", "429": "fo", "430": "wi", "431": "or<|WB|>", "432": "ack", "433": "ss", "434": "plan", "435": "fa", "436": "bl", "437": "th<|WB|>", "438": "our", "439": "au", "440": "tur", "441": "ea", "442": "lear", "443": "sur", "444": "at<|WB|>", "445": "der", "446": "le,<|WB|>", "447": "ff", "448": "ge", "449": "end", "450": "ke", "451": "igh", "452": "tru", "453": "ure", "454": "ob", "455": "ld<|WB|>", "456": "fin", "457": "ve<|WB|>", "458": "self", "459": "es.<|WB|>", "460": "edg", "461": "mb", "462": "any", "463": "the", "464": "sa", "465": "ther<|WB|>", "466": "loo", "467": "ish", "468": "af", "469": "ation<|WB|>", "470": "time", "471": "ked<|WB|>", "472": "er.<|WB|>", "473": "ste", "474": "and<|WB|>", "475": "some", "476": "side", "477": "ar<|WB|>", "478": "ati", "479": "ence<|WB|>", "480": "watch", "481": "pa", "482": "car", "483": "now", "484": "ir<|WB|>", "485": "year", "486": "man", "487": "hand", "488": "ting<|WB|>", "489": "ding<|WB|>", "490": "go", "491": "ard", "492": "vel", "493": "win", "494": "arg", "495": "w<|WB|>", "496": "les<|WB|>", "497": "pi", "498": "se,<|WB|>", "499": "tre", "500": "dre", "501": "min", "502": "per", "503": "mark", "504": "ser", "505": "shi", "506": "cre", "507": "bor", "508": "run", "509": "ly,<|WB|>", "510": "ool", "511": "ke<|WB|>", "512": "deci", "513": "ma", "514": "meas", "515": "turn", "516": "gl", "517": "sm", "518": "here<|WB|>", "519": "par", "520": "thou", "521": "thing<|WB|>", "522": "one,<|WB|>", "523": "beg", "524": "su", "525": "wind", "526": "ather", "527": "et<|WB|>", "528": "ce<|WB|>", "529": "bri", "530": "own<|WB|>", "531": "ever", "532": "ver<|WB|>", "533": "even", "534": "de<|WB|>", "535": "ood<|WB|>", "536": "keep", "537": "g<|WB|>", "538": "med<|WB|>", "539": "fe", "540": "bi", "541": "stre", "542": "ate<|WB|>", "543": "acc", "544": "ks<|WB|>", "545": "ho", "546": "rain", "547": "plac", "548": "ty<|WB|>", "549": "ck<|WB|>", "550": "und", "551": "able<|WB|>", "552": "liv", "553": "ts,<|WB|>", "554": "pe", "555": "tion.<|WB|>", "556": "att", "557": "ound", "558": "ped<|WB|>", "559": "sed<|WB|>", "560": "ence.<|WB|>", "561": "cl", "562": "pri", "563": "jec", "564": "pre", "565": "sw", "566": "ha", "567": "a<|WB|>", "568": "ut", "569": "lea", "570": "deli", "571": "ber", "572": "tic", "573": "pati", "574": "tim", "575": "bak", "576": "hou", "577": "ound<|WB|>", "578": "estion", "579": "pu", "580": "br", "581": "ld", "582": "sion", "583": "dg", "584": "gen", "585": "ations<|WB|>", "586": "fish", "587": "ent.<|WB|>", "588": "hear", "589": "ong<|WB|>", "590": "act", "591": "bell", "592": "coun", "593": "tr", "594": "ant<|WB|>", "595": "full", "596": "ning<|WB|>", "597": "vo", "598": "ther", "599": "shop", "600": "du", "601": "st.<|WB|>", "602": "reg", "603": "after", "604": "he", "605": "o<|WB|>", "606": "mu", "607": "clo", "608": "te", "609": "cer", "610": "tain", "611": "king<|WB|>", "612": "lled<|WB|>", "613": "town", "614": "ings<|WB|>", "615": ";<|WB|>", "616": "ple<|WB|>", "617": "tion<|WB|>", "618": "p<|WB|>", "619": "tin", "620": "ligh", "621": "rang", "622": "promi", "623": "sin", "624": "answ", "625": "tion,<|WB|>", "626": "de.<|WB|>", "627": "tw", "628": "ice<|WB|>", "629": "ite<|WB|>", "630": "ves<|WB|>", "631": "ated<|WB|>", "632": "window", "633": "ame<|WB|>", "634": "ather<|WB|>", "635": "ps<|WB|>", "636": "dd", "637": "ys<|WB|>", "638": "mind", "639": "boo", "640": "qui", "641": "che", "642": "ful<|WB|>", "643": "bridg", "644": "out", "645": "gener", "646": "men<|WB|>", "647": "reme", "648": "rememb", "649": "ered<|WB|>", "650": "every", "651": "sch", "652": "sl", "653": "id", "654": "ened<|WB|>", "655": "exact", "656": "age<|WB|>", "657": "led<|WB|>", "658": "lif", "659": "day<|WB|>", "660": "them", "661": "work", "662": "ter<|WB|>", "663": "fac", "664": "piec", "665": "sil", "666": "ars<|WB|>", "667": "afterno", "668": "orch", "669": "ous<|WB|>", "670": "chil", "671": "now<|WB|>", "672": "ents<|WB|>", "673": "wr", "674": "ll,<|WB|>", "675": "reli", "676": "wal", "677": "lls<|WB|>", "678": "cks<|WB|>", "679": "pan", "680": "mat", "681": "fam", "682": "nigh", "683": "rac", "684": "sing<|WB|>", "685": "ju", "686": "ad<|WB|>", "687": "ure<|WB|>", "688": "ful.<|WB|>", "689": "mit", "690": "ts.<|WB|>", "691": "on,<|WB|>", "692": "te<|WB|>", "693": "en,<|WB|>", "694": "stop", "695": "sle", "696": "sent", "697": "ry", "698": "hour", "699": "him", "700": "om<|WB|>", "701": "emp", "702": "arm", "703": "fore", "704": "finish", "705": "l<|WB|>", "706": "projec", "707": "dic", "708": "exp", "709": "am<|WB|>", "710": "ark<|WB|>", "711": "clear", "712": "one", "713": "are<|WB|>", "714": "lic", "715": "remark", "716": "grand", "717": "question", "718": "fer", "719": "tea", "720": "ving<|WB|>", "721": "seas", "722": "se.<|WB|>", "723": "memor", "724": "black", "725": "poin", "726": "visi", "727": "dis", "728": "ren", "729": "he<|WB|>", "730": "morn", "731": "warm", "732": "f<|WB|>", "733": "ov", "734": "ally<|WB|>", "735": "sti", "736": "side,<|WB|>", "737": "aut", "738": "autum", "739": "again", "740": "glas", "741": "small", "742": "in<|WB|>", "743": "bread", "744": "d.<|WB|>", "745": "ori", "746": "itself", "747": "sme", "748": "ll.<|WB|>", "749": "gg", "750": "bb", "751": "les,<|WB|>", "752": "opin", "753": "opinion", "754": "out<|WB|>", "755": "way<|WB|>", "756": "sk", "757": "learn", "758": "ose<|WB|>", "759": "ings,<|WB|>", "760": "me,<|WB|>", "761": "arri", "762": "apo", "763": "apolo", "764": "apologi", "765": "edge<|WB|>", "766": "la", "767": "sted<|WB|>", "768": "enti", "769": "ones<|WB|>", "770": "na", "771": "ath,<|WB|>", "772": "kep", "773": "il<|WB|>", "774": "ies<|WB|>", "775": "father", "776": "tter<|WB|>", "777": "dra", "778": "umm", "779": "forge", "780": "chang", "781": "gh<|WB|>", "782": "back", "783": "wo", "784": "woo", "785": "wood", "786": "travel", "787": "har", "788": "winter", "789": "cro", "790": "cross", "791": "road", "792": "fully<|WB|>", "793": "sett", "794": "thing.<|WB|>", "795": "ind<|WB|>", "796": "ght.<|WB|>", "797": "stree", "798": "neigh", "799": "kne", "800": "shop<|WB|>", "801": "sup", "802": "use", "803": "fulne", "804": "fulnes", "805": "libr", "806": "librar", "807": "tab", "808": "buil", "809": "seem", "810": "cent", "811": "ons<|WB|>", "812": "en.<|WB|>", "813": "most", "814": "long", "815": "row", "816": "childre", "817": "app", "818": "der<|WB|>", "819": "argum", "820": "minut", "821": "quie", "822": "ted.<|WB|>", "823": "ssed<|WB|>", "824": "side<|WB|>", "825": "certain", "826": "one.<|WB|>", "827": "wrong", "828": "de,<|WB|>", "829": "enou", "830": "lit", "831": "me<|WB|>", "832": "ure,<|WB|>", "833": "on.<|WB|>", "834": "fra", "835": "ambi", "836": "lan", "837": "over", "838": "ni", "839": "fiel", "840": "noi", "841": "grown", "842": "ady<|WB|>", "843": "des<|WB|>", "844": "un<|WB|>", "845": "gra", "846": "sta", "847": "will", "848": "shed<|WB|>", "849": "pain", "850": "tak", "851": "lef", "852": "pas", "853": "times<|WB|>", "854": "ople<|WB|>", "855": "let", "856": "herself", "857": "cor", "858": "hun", "859": "g,<|WB|>", "860": "ely<|WB|>", "861": "bro", "862": "ten", "863": "dep", "864": "dri", "865": "throu", "866": "itu", "867": "ement", "868": "red<|WB|>", "869": "admit", "870": "fail", "871": "ures<|WB|>", "872": "deca", "873": "hel", "874": "lin", "875": "exi", "876": "lam", "877": "tal", "878": "serv", "879": "room<|WB|>", "880": "way,<|WB|>", "881": "light", "882": "pic", "883": "day", "884": "oc", "885": "wait", "886": "No", "887": "arrang", "888": "hal", "889": "expec", "890": "ut<|WB|>", "891": "ph", "892": "gs<|WB|>", "893": "ile<|WB|>", "894": "land", "895": "gro", "896": "ce.<|WB|>", "897": "ond<|WB|>", "898": "ank", "899": "able,<|WB|>", "900": "busin", "901": "busine", "902": "ap<|WB|>", "903": "shor", "904": "an.<|WB|>", "905": "ster", "906": "youn", "907": "ats<|WB|>", "908": "ying<|WB|>", "909": "dark", "910": "ry<|WB|>", "911": "owed<|WB|>", "912": "bar", "913": "vered<|WB|>", "914": "ment<|WB|>", "915": "ch,<|WB|>", "916": "ble<|WB|>", "917": "wher", "918": "else", "919": "conver", "920": "fel", "921": "sion<|WB|>", "922": "our<|WB|>", "923": "cou", "924": "beli", "925": "believ", "926": "fir", "927": "turned<|WB|>", "928": "deliber", "929": "partic", "930": "particul", "931": "comfor", "932": "how<|WB|>", "933": "it<|WB|>", "934": "time<|WB|>", "935": "house<|WB|>", "936": "as<|WB|>", "937": "came<|WB|>", "938": "weather", "939": "lat", "940": "ways<|WB|>", "941": "mak", "942": "its<|WB|>", "943": "to<|WB|>", "944": "book<|WB|>", "945": "ance<|WB|>", "946": "decision", "947": "umbre", "948": "umbrell", "949": "cheer", "950": "repa", "951": "name", "952": "way.<|WB|>", "953": "sched", "954": "ffer", "955": "fferent<|WB|>", "956": "ffic", "957": "ove.<|WB|>", "958": "ermen<|WB|>", "959": "wou", "960": "lean<|WB|>", "961": "bridge,<|WB|>", "962": "draw", "963": "fol", "964": "folded<|WB|>", "965": "age.<|WB|>", "966": "ading<|WB|>", "967": "rought<|WB|>", "968": "summ", "969": "most<|WB|>", "970": "heart", "971": "pap", "972": "paper<|WB|>", "973": "whe", "974": "where<|WB|>", "975": "it.<|WB|>", "976": "vill", "977": "so<|WB|>", "978": "thic", "979": "chur", "980": "ounded<|WB|>", "981": "fro", "982": "other<|WB|>", "983": "countr", "984": "bright<|WB|>", "985": "id<|WB|>", "986": "caf", "987": "caf\u00e9", "988": "argu", "989": "ted,<|WB|>", "990": "apologiz", "991": "secon", "992": "weep", "993": "weeping<|WB|>", "994": "cha", "995": "chair<|WB|>", "996": "look", "997": "spo", "998": "voic", "999": "est<|WB|>", "1000": "cau", "1001": "bor<|WB|>", "1002": "Ever", "1003": "supp", "1004": "evid", "1005": "usefulnes", "1006": "squ", "1007": "re,<|WB|>", "1008": "tables<|WB|>", "1009": "slow", "1010": "pieces.<|WB|>", "1011": "accum", "1012": "accumul", "1013": "ses<|WB|>", "1014": "regul", "1015": "at,<|WB|>", "1016": "cour", "1017": "centur", "1018": "place<|WB|>", "1019": "The", "1020": "ard<|WB|>", "1021": "spr", "1022": "stood<|WB|>", "1023": "old", "1024": "children<|WB|>", "1025": "cli", "1026": "formed<|WB|>", "1027": "fre", "1028": "ade<|WB|>", "1029": "est,<|WB|>", "1030": "fif", "1031": "accep", "1032": "ins<|WB|>", "1033": "ty.<|WB|>", "1034": "ever<|WB|>", "1035": "fix", "1036": "table<|WB|>", "1037": "agre", "1038": "uncertain", "1039": "ach<|WB|>", "1040": "ve", "1041": "what<|WB|>", "1042": "sand<|WB|>", "1043": "tered<|WB|>", "1044": "ture<|WB|>", "1045": "she", "1046": "bir", "1047": "coll", "1048": "collec", "1049": "smoo", "1050": "ried<|WB|>", "1051": "cke", "1052": "hea", "1053": "st-", "1054": "off", "1055": "treas", "1056": "w,<|WB|>", "1057": "green", "1058": "art<|WB|>", "1059": "els<|WB|>", "1060": "ep<|WB|>", "1061": "cal", "1062": "angle<|WB|>", "1063": "col", "1064": "dest<|WB|>", "1065": "rumor", "1066": "rolled<|WB|>", "1067": "night<|WB|>", "1068": "becom", "1069": "pos", "1070": "possi", "1071": "grown-", "1072": "grown-up", "1073": "fami", "1074": "famili", "1075": "tro", "1076": "down<|WB|>", "1077": "stay", "1078": "bed", "1079": "admi", "1080": "river", "1081": "painted<|WB|>", "1082": "ned<|WB|>", "1083": "ish<|WB|>", "1084": "fish<|WB|>", "1085": "So", "1086": "Some", "1087": "enough", "1088": "whi", "1089": "eople<|WB|>", "1090": "letter", "1091": "son<|WB|>", "1092": "leav", "1093": "que", "1094": "cur", "1095": "corn", "1096": "grat", "1097": "atten", "1098": "shru", "1099": "th.<|WB|>", "1100": "edges<|WB|>", "1101": "tou", "1102": "usu", "1103": "ounds<|WB|>", "1104": "fts<|WB|>", "1105": "plow<|WB|>", "1106": "stitu", "1107": "gard", "1108": "beh", "1109": "larg", "1110": "carpe", "1111": "coa", "1112": "rebell", "1113": "rebellion", "1114": "lean", "1115": "bs<|WB|>", "1116": "ship<|WB|>", "1117": "stat", "1118": "statement", "1119": "refu", "1120": "neighbor", "1121": "rely<|WB|>", "1122": "field", "1123": "breath", "1124": "grown<|WB|>", "1125": "twe", "1126": "tween<|WB|>", "1127": "ft,<|WB|>", "1128": "contin", "1129": "continu", "1130": "w.<|WB|>", "1131": "exist", "1132": "night,<|WB|>", "1133": "slep", "1134": "ows<|WB|>", "1135": "ages,<|WB|>", "1136": "acknow", "1137": "acknowl", "1138": "sing", "1139": "man<|WB|>", "1140": "himself", "1141": "ward", "1142": "wards,<|WB|>", "1143": "ice.<|WB|>", "1144": "ttle<|WB|>", "1145": "found", "1146": "giv", "1147": "ded,<|WB|>", "1148": "wee", "1149": "ary<|WB|>", "1150": "ai", "1151": "sea", "1152": "farm", "1153": "before", "1154": "rained<|WB|>", "1155": "finished<|WB|>", "1156": "steady<|WB|>", "1157": "im", "1158": "hall", "1159": "cup", "1160": "lls.<|WB|>", "1161": "occa", "1162": "occasion", "1163": "spec", "1164": "cep", "1165": "clos", "1166": "bod", "1167": "body<|WB|>", "1168": "under", "1169": "fai", "1170": "faith", "1171": "tings<|WB|>", "1172": "ming<|WB|>", "1173": "half", "1174": "half-", "1175": "expecting<|WB|>", "1176": "reti", "1177": "lived<|WB|>", "1178": "sal", "1179": "storm", "1180": "tool", "1181": "uc", "1182": "land,<|WB|>", "1183": "rul", "1184": "St", "1185": "ity.<|WB|>", "1186": "ple", "1187": "ation.<|WB|>", "1188": "ou<|WB|>", "1189": "care", "1190": "ature<|WB|>", "1191": "tu", "1192": "unremark", "1193": "objec", "1194": "gho", "1195": "grandfather", "1196": "busines", "1197": "inten", "1198": "tions.<|WB|>", "1199": "man,<|WB|>", "1200": "runn", "1201": "top", "1202": "vall", "1203": "valle", "1204": "own,<|WB|>", "1205": "ended<|WB|>", "1206": "ence,<|WB|>", "1207": "answered<|WB|>", "1208": "ms<|WB|>", "1209": "steam", "1210": "post", "1211": "bund", "1212": "gri", "1213": "endur", "1214": "anc", "1215": "row<|WB|>", "1216": "hone", "1217": "autumn", "1218": "minded<|WB|>", "1219": "gin", "1220": "rem", "1221": "gu", "1222": "jo", "1223": "hab", "1224": "sentenc", "1225": "hap", "1226": "haps<|WB|>", "1227": "consi", "1228": "consider", "1229": "blackber", "1230": "served<|WB|>", "1231": "depar", "1232": "stand", "1233": "standing<|WB|>", "1234": "famil", "1235": "brok", "1236": "through", "1237": "tran", "1238": "stu", "1239": "stub", "1240": "stubbor", "1241": "scri", "1242": "scrip", "1243": "tau", "1244": "dents<|WB|>", "1245": "sist", "1246": "head", "1247": "land<|WB|>", "1248": "stored<|WB|>", "1249": "inv", "1250": "ention", "1251": "ations.<|WB|>", "1252": "ber,<|WB|>", "1253": "cru", "1254": "ster<|WB|>", "1255": "ering<|WB|>", "1256": "scre", "1257": "mach"}, "inverse_vocab": {"\u0000": 0, "\u0001": 1, "\u0002": 2, "\u0003": 3, "\u0004": 4, "\u0005": 5, "\u0006": 6, "\u0007": 7, "\b": 8, "\t": 9, "\n": 10, "\u000b": 11, "\f": 12, "\r": 13, "\u000e": 14, "\u000f": 15, "\u0010": 16, "\u0011": 17, "\u0012": 18, "\u0013": 19, "\u0014": 20, "\u0015": 21, "\u0016": 22, "\u0017": 23, "\u0018": 24, "\u0019": 25, "\u001a": 26, "\u001b": 27, "\u001c": 28, "\u001d": 29, "\u001e": 30, "\u001f": 31, " ": 32, "!": 33, "\"": 34, "#": 35, "$": 36, "%": 37, "&": 38, "'": 39, "(": 40, ")": 41, "*": 42, "+": 43, ",": 44, "-": 45, ".": 46, "/": 47, "0": 48, "1": 49, "2": 50, "3": 51, "4": 52, "5": 53, "6": 54, "7": 55, "8": 56, "9": 57, ":": 58, ";": 59, "<": 60, "=": 61, ">": 62, "?": 63, "@": 64, "A": 65, "B": 66, "C": 67, "D": 68, "E": 69, "F": 70, "G": 71, "H": 72, "I": 73, "J": 74, "K": 75, "L": 76, "M": 77, "N": 78, "O": 79, "P": 80, "Q": 81, "R": 82, "S": 83, "T": 84, "U": 85, "V": 86, "W": 87, "X": 88, "Y": 89, "Z": 90, "[": 91, "\\": 92, "]": 93, "^": 94, "_": 95, "`": 96, "a": 97, "b": 98, "c": 99, "d": 100, "e": 101, "f": 102, "g": 103, "h": 104, "i": 105, "j": 106, "k": 107, "l": 108, "m": 109, "n": 110, "o": 111, "p": 112, "q": 113, "r": 114, "s": 115, "t": 116, "u": 117, "v": 118, "w": 119, "x": 120, "y": 121, "z": 122, "{": 123, "|": 124, "}": 125, "~": 126, "\u007f": 127, "\u0080": 128, "\u0081": 129, "\u0082": 130, "\u0083": 131, "\u0084": 132, "\u0085": 133, "\u0086": 134, "\u0087": 135, "\u0088": 136, "\u0089": 137, "\u008a": 138, "\u008b": 139, "\u008c": 140, "\u008d": 141, "\u008e": 142, "\u008f": 143, "\u0090": 144, "\u0091": 145, "\u0092": 146, "\u0093": 147, "\u0094": 148, "\u0095": 149, "\u0096": 150, "\u0097": 151, "\u0098": 152, "\u0099": 153, "\u009a": 154, "\u009b": 155, "\u009c": 156, "\u009d": 157, "\u009e": 158, "\u009f": 159, "\u00a0": 160, "\u00a1": 161, "\u00a2": 162, "\u00a3": 163, "\u00a4": 164, "\u00a5": 165, "\u00a6": 166, "\u00a7": 167, "\u00a8": 168, "\u00a9": 169, "\u00aa": 170, "\u00ab": 171, "\u00ac": 172, "\u00ad": 173, "\u00ae": 174, "\u00af": 175, "\u00b0": 176, "\u00b1": 177, "\u00b2": 178, "\u00b3": 179, "\u00b4": 180, "\u00b5": 181, "\u00b6": 182, "\u00b7": 183, "\u00b8": 184, "\u00b9": 185, "\u00ba": 186, "\u00bb": 187, "\u00bc": 188, "\u00bd": 189, "\u00be": 190, "\u00bf": 191, "\u00c0": 192, "\u00c1": 193, "\u00c2": 194, "\u00c3": 195, "\u00c4": 196, "\u00c5": 197, "\u00c6": 198, "\u00c7": 199, "\u00c8": 200, "\u00c9": 201, "\u00ca": 202, "\u00cb": 203, "\u00cc": 204, "\u00cd": 205, "\u00ce": 206, "\u00cf": 207, "\u00d0": 208, "\u00d1": 209, "\u00d2": 210, "\u00d3": 211, "\u00d4": 212, "\u00d5": 213, "\u00d6": 214, "\u00d7": 215, "\u00d8": 216, "\u00d9": 217, "\u00da": 218, "\u00db": 219, "\u00dc": 220, "\u00dd": 221, "\u00de": 222, "\u00df": 223, "\u00e0": 224, "\u00e1": 225, "\u00e2": 226, "\u00e3": 227, "\u00e4": 228, "\u00e5": 229, "\u00e6": 230, "\u00e7": 231, "\u00e8": 232, "\u00e9": 233, "\u00ea": 234, "\u00eb": 235, "\u00ec": 236, "\u00ed": 237, "\u00ee": 238, "\u00ef": 239, "\u00f0": 240, "\u00f1": 241, "\u00f2": 242, "\u00f3": 243, "\u00f4": 244, "\u00f5": 245, "\u00f6": 246, "\u00f7": 247, "\u00f8": 248, "\u00f9": 249, "\u00fa": 250, "\u00fb": 251, "\u00fc": 252, "\u00fd": 253, "\u00fe": 254, "\u00ff": 255, "<|EOS|>": 256, "<|WB|>": 257, ",<|WB|>": 258, ".<|WB|>": 259, "in": 260, "ed": 261, "er": 262, "s<|WB|>": 263, "e<|WB|>": 264, "ed<|WB|>": 265, "re": 266, "on": 267, "ing": 268, "en": 269, "st": 270, "ar": 271, "an": 272, "at": 273, "or": 274, "ing<|WB|>": 275, "t<|WB|>": 276, "y<|WB|>": 277, "ou": 278, "th": 279, "ll": 280, "ti": 281, "er<|WB|>": 282, "s,<|WB|>": 283, "ow": 284, "li": 285, "le": 286, "ch": 287, "se": 288, "d<|WB|>": 289, "sh": 290, "de": 291, "s.<|WB|>": 292, "me": 293, "ra": 294, "ro": 295, "al": 296, "ri": 297, "gh": 298, "si": 299, "un": 300, "be": 301, "ur": 302, "ac": 303, "oo": 304, "el": 305, "st<|WB|>": 306, "e.<|WB|>": 307, "il": 308, "ed,<|WB|>": 309, "it": 310, "ion": 311, "co": 312, "am": 313, "ad": 314, "e,<|WB|>": 315, "as": 316, "es<|WB|>": 317, "y.<|WB|>": 318, "pl": 319, "y,<|WB|>": 320, "ul": 321, "ent": 322, "ver": 323, "en<|WB|>": 324, "oun": 325, "k<|WB|>": 326, "ab": 327, "wa": 328, "ap": 329, "ic": 330, "ag": 331, "her": 332, "op": 333, "ed.<|WB|>": 334, "ru": 335, "tion": 336, "t,<|WB|>": 337, "ne": 338, "ter": 339, "em": 340, "t.<|WB|>": 341, "n<|WB|>": 342, "for": 343, "ep": 344, "ing.<|WB|>": 345, "con": 346, "ted<|WB|>": 347, "no": 348, "and": 349, "'s<|WB|>": 350, "ation": 351, "fi": 352, "enc": 353, "le<|WB|>": 354, "se<|WB|>": 355, "ca": 356, "lo": 357, "ec": 358, "so": 359, "qu": 360, "po": 361, "hi": 362, "mi": 363, "all": 364, "um": 365, "tra": 366, "ear": 367, "ly<|WB|>": 368, "ing,<|WB|>": 369, "ain": 370, "ow<|WB|>": 371, "ak": 372, "wor": 373, "ent<|WB|>": 374, "ght<|WB|>": 375, "mo": 376, "al<|WB|>": 377, "gr": 378, "pro": 379, "ir": 380, "ind": 381, "we": 382, "tt": 383, "ex": 384, "m<|WB|>": 385, "ll<|WB|>": 386, "ev": 387, "wh": 388, "di": 389, "ch<|WB|>": 390, "bu": 391, "ang": 392, "sp": 393, "own": 394, "one<|WB|>": 395, "sel": 396, "wat": 397, "up": 398, "er,<|WB|>": 399, "ss<|WB|>": 400, "es,<|WB|>": 401, "bo": 402, "ark": 403, "mor": 404, "est": 405, "ath": 406, "to": 407, "ved<|WB|>": 408, "ful": 409, "gi": 410, "ts<|WB|>": 411, "ded<|WB|>": 412, "rou": 413, "ong": 414, "vi": 415, "gre": 416, "da": 417, "ers<|WB|>": 418, "do": 419, "sc": 420, "war": 421, "ci": 422, "on<|WB|>": 423, "com": 424, "bre": 425, "an<|WB|>": 426, "fu": 427, "stor": 428, "fo": 429, "wi": 430, "or<|WB|>": 431, "ack": 432, "ss": 433, "plan": 434, "fa": 435, "bl": 436, "th<|WB|>": 437, "our": 438, "au": 439, "tur": 440, "ea": 441, "lear": 442, "sur": 443, "at<|WB|>": 444, "der": 445, "le,<|WB|>": 446, "ff": 447, "ge": 448, "end": 449, "ke": 450, "igh": 451, "tru": 452, "ure": 453, "ob": 454, "ld<|WB|>": 455, "fin": 456, "ve<|WB|>": 457, "self": 458, "es.<|WB|>": 459, "edg": 460, "mb": 461, "any": 462, "the": 463, "sa": 464, "ther<|WB|>": 465, "loo": 466, "ish": 467, "af": 468, "ation<|WB|>": 469, "time": 470, "ked<|WB|>": 471, "er.<|WB|>": 472, "ste": 473, "and<|WB|>": 474, "some": 475, "side": 476, "ar<|WB|>": 477, "ati": 478, "ence<|WB|>": 479, "watch": 480, "pa": 481, "car": 482, "now": 483, "ir<|WB|>": 484, "year": 485, "man": 486, "hand": 487, "ting<|WB|>": 488, "ding<|WB|>": 489, "go": 490, "ard": 491, "vel": 492, "win": 493, "arg": 494, "w<|WB|>": 495, "les<|WB|>": 496, "pi": 497, "se,<|WB|>": 498, "tre": 499, "dre": 500, "min": 501, "per": 502, "mark": 503, "ser": 504, "shi": 505, "cre": 506, "bor": 507, "run": 508, "ly,<|WB|>": 509, "ool": 510, "ke<|WB|>": 511, "deci": 512, "ma": 513, "meas": 514, "turn": 515, "gl": 516, "sm": 517, "here<|WB|>": 518, "par": 519, "thou": 520, "thing<|WB|>": 521, "one,<|WB|>": 522, "beg": 523, "su": 524, "wind": 525, "ather": 526, "et<|WB|>": 527, "ce<|WB|>": 528, "bri": 529, "own<|WB|>": 530, "ever": 531, "ver<|WB|>": 532, "even": 533, "de<|WB|>": 534, "ood<|WB|>": 535, "keep": 536, "g<|WB|>": 537, "med<|WB|>": 538, "fe": 539, "bi": 540, "stre": 541, "ate<|WB|>": 542, "acc": 543, "ks<|WB|>": 544, "ho": 545, "rain": 546, "plac": 547, "ty<|WB|>": 548, "ck<|WB|>": 549, "und": 550, "able<|WB|>": 551, "liv": 552, "ts,<|WB|>": 553, "pe": 554, "tion.<|WB|>": 555, "att": 556, "ound": 557, "ped<|WB|>": 558, "sed<|WB|>": 559, "ence.<|WB|>": 560, "cl": 561, "pri": 562, "jec": 563, "pre": 564, "sw": 565, "ha": 566, "a<|WB|>": 567, "ut": 568, "lea": 569, "deli": 570, "ber": 571, "tic": 572, "pati": 573, "tim": 574, "bak": 575, "hou": 576, "ound<|WB|>": 577, "estion": 578, "pu": 579, "br": 580, "ld": 581, "sion": 582, "dg": 583, "gen": 584, "ations<|WB|>": 585, "fish": 586, "ent.<|WB|>": 587, "hear": 588, "ong<|WB|>": 589, "act": 590, "bell": 591, "coun": 592, "tr": 593, "ant<|WB|>": 594, "full": 595, "ning<|WB|>": 596, "vo": 597, "ther": 598, "shop": 599, "du": 600, "st.<|WB|>": 601, "reg": 602, "after": 603, "he": 604, "o<|WB|>": 605, "mu": 606, "clo": 607, "te": 608, "cer": 609, "tain": 610, "king<|WB|>": 611, "lled<|WB|>": 612, "town": 613, "ings<|WB|>": 614, ";<|WB|>": 615, "ple<|WB|>": 616, "tion<|WB|>": 617, "p<|WB|>": 618, "tin": 619, "ligh": 620, "rang": 621, "promi": 622, "sin": 623, "answ": 624, "tion,<|WB|>": 625, "de.<|WB|>": 626, "tw": 627, "ice<|WB|>": 628, "ite<|WB|>": 629, "ves<|WB|>": 630, "ated<|WB|>": 631, "window": 632, "ame<|WB|>": 633, "ather<|WB|>": 634, "ps<|WB|>": 635, "dd": 636, "ys<|WB|>": 637, "mind": 638, "boo": 639, "qui": 640, "che": 641, "ful<|WB|>": 642, "bridg": 643, "out": 644, "gener": 645, "men<|WB|>": 646, "reme": 647, "rememb": 648, "ered<|WB|>": 649, "every": 650, "sch": 651, "sl": 652, "id": 653, "ened<|WB|>": 654, "exact": 655, "age<|WB|>": 656, "led<|WB|>": 657, "lif": 658, "day<|WB|>": 659, "them": 660, "work": 661, "ter<|WB|>": 662, "fac": 663, "piec": 664, "sil": 665, "ars<|WB|>": 666, "afterno": 667, "orch": 668, "ous<|WB|>": 669, "chil": 670, "now<|WB|>": 671, "ents<|WB|>": 672, "wr": 673, "ll,<|WB|>": 674, "reli": 675, "wal": 676, "lls<|WB|>": 677, "cks<|WB|>": 678, "pan": 679, "mat": 680, "fam": 681, "nigh": 682, "rac": 683, "sing<|WB|>": 684, "ju": 685, "ad<|WB|>": 686, "ure<|WB|>": 687, "ful.<|WB|>": 688, "mit": 689, "ts.<|WB|>": 690, "on,<|WB|>": 691, "te<|WB|>": 692, "en,<|WB|>": 693, "stop": 694, "sle": 695, "sent": 696, "ry": 697, "hour": 698, "him": 699, "om<|WB|>": 700, "emp": 701, "arm": 702, "fore": 703, "finish": 704, "l<|WB|>": 705, "projec": 706, "dic": 707, "exp": 708, "am<|WB|>": 709, "ark<|WB|>": 710, "clear": 711, "one": 712, "are<|WB|>": 713, "lic": 714, "remark": 715, "grand": 716, "question": 717, "fer": 718, "tea": 719, "ving<|WB|>": 720, "seas": 721, "se.<|WB|>": 722, "memor": 723, "black": 724, "poin": 725, "visi": 726, "dis": 727, "ren": 728, "he<|WB|>": 729, "morn": 730, "warm": 731, "f<|WB|>": 732, "ov": 733, "ally<|WB|>": 734, "sti": 735, "side,<|WB|>": 736, "aut": 737, "autum": 738, "again": 739, "glas": 740, "small": 741, "in<|WB|>": 742, "bread": 743, "d.<|WB|>": 744, "ori": 745, "itself": 746, "sme": 747, "ll.<|WB|>": 748, "gg": 749, "bb": 750, "les,<|WB|>": 751, "opin": 752, "opinion": 753, "out<|WB|>": 754, "way<|WB|>": 755, "sk": 756, "learn": 757, "ose<|WB|>": 758, "ings,<|WB|>": 759, "me,<|WB|>": 760, "arri": 761, "apo": 762, "apolo": 763, "apologi": 764, "edge<|WB|>": 765, "la": 766, "sted<|WB|>": 767, "enti": 768, "ones<|WB|>": 769, "na": 770, "ath,<|WB|>": 771, "kep": 772, "il<|WB|>": 773, "ies<|WB|>": 774, "father": 775, "tter<|WB|>": 776, "dra": 777, "umm": 778, "forge": 779, "chang": 780, "gh<|WB|>": 781, "back": 782, "wo": 783, "woo": 784, "wood": 785, "travel": 786, "har": 787, "winter": 788, "cro": 789, "cross": 790, "road": 791, "fully<|WB|>": 792, "sett": 793, "thing.<|WB|>": 794, "ind<|WB|>": 795, "ght.<|WB|>": 796, "stree": 797, "neigh": 798, "kne": 799, "shop<|WB|>": 800, "sup": 801, "use": 802, "fulne": 803, "fulnes": 804, "libr": 805, "librar": 806, "tab": 807, "buil": 808, "seem": 809, "cent": 810, "ons<|WB|>": 811, "en.<|WB|>": 812, "most": 813, "long": 814, "row": 815, "childre": 816, "app": 817, "der<|WB|>": 818, "argum": 819, "minut": 820, "quie": 821, "ted.<|WB|>": 822, "ssed<|WB|>": 823, "side<|WB|>": 824, "certain": 825, "one.<|WB|>": 826, "wrong": 827, "de,<|WB|>": 828, "enou": 829, "lit": 830, "me<|WB|>": 831, "ure,<|WB|>": 832, "on.<|WB|>": 833, "fra": 834, "ambi": 835, "lan": 836, "over": 837, "ni": 838, "fiel": 839, "noi": 840, "grown": 841, "ady<|WB|>": 842, "des<|WB|>": 843, "un<|WB|>": 844, "gra": 845, "sta": 846, "will": 847, "shed<|WB|>": 848, "pain": 849, "tak": 850, "lef": 851, "pas": 852, "times<|WB|>": 853, "ople<|WB|>": 854, "let": 855, "herself": 856, "cor": 857, "hun": 858, "g,<|WB|>": 859, "ely<|WB|>": 860, "bro": 861, "ten": 862, "dep": 863, "dri": 864, "throu": 865, "itu": 866, "ement": 867, "red<|WB|>": 868, "admit": 869, "fail": 870, "ures<|WB|>": 871, "deca": 872, "hel": 873, "lin": 874, "exi": 875, "lam": 876, "tal": 877, "serv": 878, "room<|WB|>": 879, "way,<|WB|>": 880, "light": 881, "pic": 882, "day": 883, "oc": 884, "wait": 885, "No": 886, "arrang": 887, "hal": 888, "expec": 889, "ut<|WB|>": 890, "ph": 891, "gs<|WB|>": 892, "ile<|WB|>": 893, "land": 894, "gro": 895, "ce.<|WB|>": 896, "ond<|WB|>": 897, "ank": 898, "able,<|WB|>": 899, "busin": 900, "busine": 901, "ap<|WB|>": 902, "shor": 903, "an.<|WB|>": 904, "ster": 905, "youn": 906, "ats<|WB|>": 907, "ying<|WB|>": 908, "dark": 909, "ry<|WB|>": 910, "owed<|WB|>": 911, "bar": 912, "vered<|WB|>": 913, "ment<|WB|>": 914, "ch,<|WB|>": 915, "ble<|WB|>": 916, "wher": 917, "else": 918, "conver": 919, "fel": 920, "sion<|WB|>": 921, "our<|WB|>": 922, "cou": 923, "beli": 924, "believ": 925, "fir": 926, "turned<|WB|>": 927, "deliber": 928, "partic": 929, "particul": 930, "comfor": 931, "how<|WB|>": 932, "it<|WB|>": 933, "time<|WB|>": 934, "house<|WB|>": 935, "as<|WB|>": 936, "came<|WB|>": 937, "weather": 938, "lat": 939, "ways<|WB|>": 940, "mak": 941, "its<|WB|>": 942, "to<|WB|>": 943, "book<|WB|>": 944, "ance<|WB|>": 945, "decision": 946, "umbre": 947, "umbrell": 948, "cheer": 949, "repa": 950, "name": 951, "way.<|WB|>": 952, "sched": 953, "ffer": 954, "fferent<|WB|>": 955, "ffic": 956, "ove.<|WB|>": 957, "ermen<|WB|>": 958, "wou": 959, "lean<|WB|>": 960, "bridge,<|WB|>": 961, "draw": 962, "fol": 963, "folded<|WB|>": 964, "age.<|WB|>": 965, "ading<|WB|>": 966, "rought<|WB|>": 967, "summ": 968, "most<|WB|>": 969, "heart": 970, "pap": 971, "paper<|WB|>": 972, "whe": 973, "where<|WB|>": 974, "it.<|WB|>": 975, "vill": 976, "so<|WB|>": 977, "thic": 978, "chur": 979, "ounded<|WB|>": 980, "fro": 981, "other<|WB|>": 982, "countr": 983, "bright<|WB|>": 984, "id<|WB|>": 985, "caf": 986, "caf\u00e9": 987, "argu": 988, "ted,<|WB|>": 989, "apologiz": 990, "secon": 991, "weep": 992, "weeping<|WB|>": 993, "cha": 994, "chair<|WB|>": 995, "look": 996, "spo": 997, "voic": 998, "est<|WB|>": 999, "cau": 1000, "bor<|WB|>": 1001, "Ever": 1002, "supp": 1003, "evid": 1004, "usefulnes": 1005, "squ": 1006, "re,<|WB|>": 1007, "tables<|WB|>": 1008, "slow": 1009, "pieces.<|WB|>": 1010, "accum": 1011, "accumul": 1012, "ses<|WB|>": 1013, "regul": 1014, "at,<|WB|>": 1015, "cour": 1016, "centur": 1017, "place<|WB|>": 1018, "The": 1019, "ard<|WB|>": 1020, "spr": 1021, "stood<|WB|>": 1022, "old": 1023, "children<|WB|>": 1024, "cli": 1025, "formed<|WB|>": 1026, "fre": 1027, "ade<|WB|>": 1028, "est,<|WB|>": 1029, "fif": 1030, "accep": 1031, "ins<|WB|>": 1032, "ty.<|WB|>": 1033, "ever<|WB|>": 1034, "fix": 1035, "table<|WB|>": 1036, "agre": 1037, "uncertain": 1038, "ach<|WB|>": 1039, "ve": 1040, "what<|WB|>": 1041, "sand<|WB|>": 1042, "tered<|WB|>": 1043, "ture<|WB|>": 1044, "she": 1045, "bir": 1046, "coll": 1047, "collec": 1048, "smoo": 1049, "ried<|WB|>": 1050, "cke": 1051, "hea": 1052, "st-": 1053, "off": 1054, "treas": 1055, "w,<|WB|>": 1056, "green": 1057, "art<|WB|>": 1058, "els<|WB|>": 1059, "ep<|WB|>": 1060, "cal": 1061, "angle<|WB|>": 1062, "col": 1063, "dest<|WB|>": 1064, "rumor": 1065, "rolled<|WB|>": 1066, "night<|WB|>": 1067, "becom": 1068, "pos": 1069, "possi": 1070, "grown-": 1071, "grown-up": 1072, "fami": 1073, "famili": 1074, "tro": 1075, "down<|WB|>": 1076, "stay": 1077, "bed": 1078, "admi": 1079, "river": 1080, "painted<|WB|>": 1081, "ned<|WB|>": 1082, "ish<|WB|>": 1083, "fish<|WB|>": 1084, "So": 1085, "Some": 1086, "enough": 1087, "whi": 1088, "eople<|WB|>": 1089, "letter": 1090, "son<|WB|>": 1091, "leav": 1092, "que": 1093, "cur": 1094, "corn": 1095, "grat": 1096, "atten": 1097, "shru": 1098, "th.<|WB|>": 1099, "edges<|WB|>": 1100, "tou": 1101, "usu": 1102, "ounds<|WB|>": 1103, "fts<|WB|>": 1104, "plow<|WB|>": 1105, "stitu": 1106, "gard": 1107, "beh": 1108, "larg": 1109, "carpe": 1110, "coa": 1111, "rebell": 1112, "rebellion": 1113, "lean": 1114, "bs<|WB|>": 1115, "ship<|WB|>": 1116, "stat": 1117, "statement": 1118, "refu": 1119, "neighbor": 1120, "rely<|WB|>": 1121, "field": 1122, "breath": 1123, "grown<|WB|>": 1124, "twe": 1125, "tween<|WB|>": 1126, "ft,<|WB|>": 1127, "contin": 1128, "continu": 1129, "w.<|WB|>": 1130, "exist": 1131, "night,<|WB|>": 1132, "slep": 1133, "ows<|WB|>": 1134, "ages,<|WB|>": 1135, "acknow": 1136, "acknowl": 1137, "sing": 1138, "man<|WB|>": 1139, "himself": 1140, "ward": 1141, "wards,<|WB|>": 1142, "ice.<|WB|>": 1143, "ttle<|WB|>": 1144, "found": 1145, "giv": 1146, "ded,<|WB|>": 1147, "wee": 1148, "ary<|WB|>": 1149, "ai": 1150, "sea": 1151, "farm": 1152, "before": 1153, "rained<|WB|>": 1154, "finished<|WB|>": 1155, "steady<|WB|>": 1156, "im": 1157, "hall": 1158, "cup": 1159, "lls.<|WB|>": 1160, "occa": 1161, "occasion": 1162, "spec": 1163, "cep": 1164, "clos": 1165, "bod": 1166, "body<|WB|>": 1167, "under": 1168, "fai": 1169, "faith": 1170, "tings<|WB|>": 1171, "ming<|WB|>": 1172, "half": 1173, "half-": 1174, "expecting<|WB|>": 1175, "reti": 1176, "lived<|WB|>": 1177, "sal": 1178, "storm": 1179, "tool": 1180, "uc": 1181, "land,<|WB|>": 1182, "rul": 1183, "St": 1184, "ity.<|WB|>": 1185, "ple": 1186, "ation.<|WB|>": 1187, "ou<|WB|>": 1188, "care": 1189, "ature<|WB|>": 1190, "tu": 1191, "unremark": 1192, "objec": 1193, "gho": 1194, "grandfather": 1195, "busines": 1196, "inten": 1197, "tions.<|WB|>": 1198, "man,<|WB|>": 1199, "runn": 1200, "top": 1201, "vall": 1202, "valle": 1203, "own,<|WB|>": 1204, "ended<|WB|>": 1205, "ence,<|WB|>": 1206, "answered<|WB|>": 1207, "ms<|WB|>": 1208, "steam": 1209, "post": 1210, "bund": 1211, "gri": 1212, "endur": 1213, "anc": 1214, "row<|WB|>": 1215, "hone": 1216, "autumn": 1217, "minded<|WB|>": 1218, "gin": 1219, "rem": 1220, "gu": 1221, "jo": 1222, "hab": 1223, "sentenc": 1224, "hap": 1225, "haps<|WB|>": 1226, "consi": 1227, "consider": 1228, "blackber": 1229, "served<|WB|>": 1230, "depar": 1231, "stand": 1232, "standing<|WB|>": 1233, "famil": 1234, "brok": 1235, "through": 1236, "tran": 1237, "stu": 1238, "stub": 1239, "stubbor": 1240, "scri": 1241, "scrip": 1242, "tau": 1243, "dents<|WB|>": 1244, "sist": 1245, "head": 1246, "land<|WB|>": 1247, "stored<|WB|>": 1248, "inv": 1249, "ention": 1250, "ations.<|WB|>": 1251, "ber,<|WB|>": 1252, "cru": 1253, "ster<|WB|>": 1254, "ering<|WB|>": 1255, "scre": 1256, "mach": 1257}}