{"merges": [[".", "<|WB|>", ".<|WB|>"], ["d", "<|WB|>", "d<|WB|>"], ["e", "<|WB|>", "e<|WB|>"], ["i", "n", "in"], ["s", "<|WB|>", "s<|WB|>"], ["e", "r", "er"], ["e", "d<|WB|>", "ed<|WB|>"], [",", "<|WB|>", ",<|WB|>"], ["t", "<|WB|>", "t<|WB|>"], ["in", "g", "ing"], ["e", "n", "en"], ["a", "n", "an"], ["a", "r", "ar"], ["t", "h", "th"], ["o", "n", "on"], ["s", "t", "st"], ["r", "e", "re"], ["y", "<|WB|>", "y<|WB|>"], ["o", "r", "or"], ["ing", "<|WB|>", "ing<|WB|>"], ["o", "u", "ou"], ["er", "<|WB|>", "er<|WB|>"], ["l", "l", "ll"], ["o", "w", "ow"], ["t", "i", "ti"], ["s", "e", "se"], ["g", "h", "gh"], ["o", "m", "om"], ["l", "e", "le"], ["i", "t", "it"], ["d", "e", "de"], ["c", "h", "ch"], ["o", "o", "oo"], ["w", "a", "wa"], ["d", ",<|WB|>", "d,<|WB|>"], ["i", "gh", "igh"], ["e", ".<|WB|>", "e.<|WB|>"], ["w", "h", "wh"], ["r", "a", "ra"], ["r", "i", "ri"], ["b", "e", "be"], ["s", ".<|WB|>", "s.<|WB|>"], ["s", "h", "sh"], ["m", "a", "ma"], ["n", "e", "ne"], ["s", "t<|WB|>", "st<|WB|>"], ["re", "a", "rea"], ["i", "l", "il"], ["e", "l", "el"], ["t", ".<|WB|>", "t.<|WB|>"], ["e", "s<|WB|>", "es<|WB|>"], ["u", "n", "un"], ["p", "a", "pa"], ["l", "a", "la"], ["d", ".<|WB|>", "d.<|WB|>"], ["r", "o", "ro"], ["en", "<|WB|>", "en<|WB|>"], ["k", "<|WB|>", "k<|WB|>"], ["o", "l", "ol"], ["'", "s<|WB|>", "'s<|WB|>"], ["l", "i", "li"], ["t", "ed<|WB|>", "ted<|WB|>"], ["ow", "n", "own"], ["i", "r", "ir"], ["t", "a", "ta"], ["l", "e<|WB|>", "le<|WB|>"], ["e", "v", "ev"], ["w", "e", "we"], ["e", "m", "em"], ["e", "a", "ea"], ["s", "u", "su"], ["y", ".<|WB|>", "y.<|WB|>"], ["s", "a", "sa"], ["h", "a", "ha"], ["ll", "<|WB|>", "ll<|WB|>"], ["r", "an", "ran"], ["t", "t", "tt"], ["g", "<|WB|>", "g<|WB|>"], ["d", "a", "da"], ["k", "e", "ke"], ["b", "o", "bo"], ["p", "o", "po"], ["l", "y<|WB|>", "ly<|WB|>"], ["l", "o", "lo"], ["p", "e", "pe"], ["g", "e<|WB|>", "ge<|WB|>"], ["m", "o", "mo"], ["q", "u", "qu"], ["s", "e<|WB|>", "se<|WB|>"], ["c", "a", "ca"], ["d", "o", "do"], ["i", "m", "im"], ["s", ",<|WB|>", "s,<|WB|>"], ["d", "ed<|WB|>", "ded<|WB|>"], ["s", "s<|WB|>", "ss<|WB|>"], ["ou", "n", "oun"], ["in", "<|WB|>", "in<|WB|>"], ["g", "a", "ga"], ["f", "or", "for"], ["o", "<|WB|>", "o<|WB|>"], ["c", "i", "ci"], ["u", "l", "ul"], ["v", "ed<|WB|>", "ved<|WB|>"], ["c", "om", "com"], ["c", "k", "ck"], ["w", "i", "wi"], ["s", "k", "sk"], ["ing", ".<|WB|>", "ing.<|WB|>"], ["f", "<|WB|>", "f<|WB|>"], ["d", "s<|WB|>", "ds<|WB|>"], ["l", "ow", "low"], ["h", "e", "he"], ["f", "i", "fi"], ["f", "e", "fe"], ["on", "e<|WB|>", "one<|WB|>"], ["th", "er<|WB|>", "ther<|WB|>"], ["v", "e<|WB|>", "ve<|WB|>"], ["k", "e<|WB|>", "ke<|WB|>"], ["ou", "r", "our"], ["n", "o", "no"], ["de", "ci", "deci"], ["m", "e", "me"], ["s", "i", "si"], ["m", "e<|WB|>", "me<|WB|>"], ["m", "ar", "mar"], ["d", "i", "di"], ["y", ",<|WB|>", "y,<|WB|>"], ["t", "s<|WB|>", "ts<|WB|>"], ["ti", "on", "tion"], ["s", "om", "som"], ["r", "u", "ru"], ["b", "a", "ba"], ["ch", "<|WB|>", "ch<|WB|>"], ["e", "d.<|WB|>", "ed.<|WB|>"], ["s", "on", "son"], ["se", ".<|WB|>", "se.<|WB|>"], ["h", "an", "han"], ["igh", "t<|WB|>", "ight<|WB|>"], ["ev", "er", "ever"], ["a", "l", "al"], ["a", "t<|WB|>", "at<|WB|>"], ["s", "ma", "sma"], ["c", "ar", "car"], ["p", "r", "pr"], ["w", "in", "win"], ["w", "<|WB|>", "w<|WB|>"], ["w", "or", "wor"], ["e", "t<|WB|>", "et<|WB|>"], ["c", "e<|WB|>", "ce<|WB|>"], ["wh", "i", "whi"], ["c", "o", "co"], ["b", "u", "bu"], ["ti", "c", "tic"], ["ing", ",<|WB|>", "ing,<|WB|>"], ["d", "ing<|WB|>", "ding<|WB|>"], ["u", "r", "ur"], ["en", "t<|WB|>", "ent<|WB|>"], ["t", "er", "ter"], ["s", "w", "sw"], ["do", "or", "door"], ["t", "e<|WB|>", "te<|WB|>"], ["b", "oo", "boo"], ["ar", "<|WB|>", "ar<|WB|>"], ["l", "an", "lan"], ["s", "ed<|WB|>", "sed<|WB|>"], ["som", "e", "some"], ["ou", "gh", "ough"], ["p", "la", "pla"], ["g", "o", "go"], ["th", ".<|WB|>", "th.<|WB|>"], ["own", "<|WB|>", "own<|WB|>"], ["o", "p", "op"], ["su", "r", "sur"], ["u", "m", "um"], ["a", "d", "ad"], ["th", "er", "ther"], ["m", "or", "mor"], ["p", "i", "pi"], ["ll", "ed<|WB|>", "lled<|WB|>"], ["d", "e<|WB|>", "de<|WB|>"], ["ever", "y", "every"], ["th", "ing<|WB|>", "thing<|WB|>"], ["e", "st", "est"], ["g", "ran", "gran"], ["p", "p", "pp"], ["ow", "<|WB|>", "ow<|WB|>"], ["a", "<|WB|>", "a<|WB|>"], ["m", "<|WB|>", "m<|WB|>"], ["g", "re", "gre"], ["we", "e", "wee"], ["l", "on", "lon"], ["v", "er", "ver"], ["qu", "i", "qui"], ["p", "<|WB|>", "p<|WB|>"], ["b", "r", "br"], ["v", "er<|WB|>", "ver<|WB|>"], ["h", "o", "ho"], ["f", "ul", "ful"], ["an", "t<|WB|>", "ant<|WB|>"], ["igh", "t.<|WB|>", "ight.<|WB|>"], ["y", "ing<|WB|>", "ying<|WB|>"], ["w", "r", "wr"], ["v", "ing<|WB|>", "ving<|WB|>"], ["er", "e<|WB|>", "ere<|WB|>"], ["p", "s<|WB|>", "ps<|WB|>"], ["t", "ra", "tra"], ["g", "er<|WB|>", "ger<|WB|>"], ["e", "x", "ex"], ["b", "rea", "brea"], ["f", "a", "fa"], ["t", ",<|WB|>", "t,<|WB|>"], ["f", "ir", "fir"], ["c", "e", "ce"], ["e", "d,<|WB|>", "ed,<|WB|>"], ["l", "ed<|WB|>", "led<|WB|>"], ["on", ".<|WB|>", "on.<|WB|>"], ["s", "it", "sit"], ["se", "l", "sel"], ["han", "d", "hand"], ["h", "e<|WB|>", "he<|WB|>"], ["n", "ing<|WB|>", "ning<|WB|>"], ["ta", "b", "tab"], ["l", "oo", "loo"], ["an", "<|WB|>", "an<|WB|>"], ["en", "t", "ent"], ["a", "ga", "aga"], ["aga", "in", "again"], ["ch", "ed<|WB|>", "ched<|WB|>"], ["ol", "d<|WB|>", "old<|WB|>"], ["c", "k<|WB|>", "ck<|WB|>"], ["wa", "ll", "wall"], ["ti", "m", "tim"], ["un", "d", "und"], ["oo", "d<|WB|>", "ood<|WB|>"], ["i", "t<|WB|>", "it<|WB|>"], ["a", "sk", "ask"], ["g", "ar", "gar"], ["su", "m", "sum"], ["sum", "m", "summ"], ["er", "s.<|WB|>", "ers.<|WB|>"], ["st", "or", "stor"], ["ch", "an", "chan"], ["l", "d<|WB|>", "ld<|WB|>"], ["t", "er<|WB|>", "ter<|WB|>"], ["k", "ed<|WB|>", "ked<|WB|>"], ["fi", "el", "fiel"], ["u", "st<|WB|>", "ust<|WB|>"], ["w", "n", "wn"], ["on", "e.<|WB|>", "one.<|WB|>"], ["p", "t<|WB|>", "pt<|WB|>"], ["st", "u", "stu"], ["pa", "ti", "pati"], ["wa", "it", "wait"], ["tt", "er", "tter"], ["th", "<|WB|>", "th<|WB|>"], ["i", "ma", "ima"], ["boo", "k", "book"], ["v", "en", "ven"], ["s", "low", "slow"], ["a", "s<|WB|>", "as<|WB|>"], ["c", "t", "ct"], ["c", "on", "con"], ["p", "re", "pre"], ["s", "si", "ssi"], ["en", "d<|WB|>", "end<|WB|>"], ["ou", "se<|WB|>", "ouse<|WB|>"], ["g", "i", "gi"], ["st", "ra", "stra"], ["t", "oo", "too"], ["l", "y.<|WB|>", "ly.<|WB|>"], ["en", "ti", "enti"], ["ou", "t<|WB|>", "out<|WB|>"], ["ll", "e", "lle"], ["st", "a", "sta"], ["gran", "d", "grand"], ["ba", "k", "bak"], ["bak", "er", "baker"], ["st", "ran", "stran"], ["y", "e", "ye"], ["d", "y<|WB|>", "dy<|WB|>"], ["da", "y<|WB|>", "day<|WB|>"], ["f", "in", "fin"], ["da", "y", "day"], ["be", "a", "bea"], ["k", ".<|WB|>", "k.<|WB|>"], ["whi", "st", "whist"], ["se", "a", "sea"], ["pa", "s", "pas"], ["en", "ded<|WB|>", "ended<|WB|>"], ["en", "t.<|WB|>", "ent.<|WB|>"], ["st", ",<|WB|>", "st,<|WB|>"], ["v", "i", "vi"], ["u", "gh", "ugh"], ["or", "<|WB|>", "or<|WB|>"], ["w", "ar", "war"], ["um", "b", "umb"], ["po", "in", "poin"], ["f", "ri", "fri"], ["h", "im", "him"], ["wa", "y,<|WB|>", "way,<|WB|>"], ["sma", "ll", "small"], ["en", "d", "end"], ["a", "c", "ac"], ["it", "ch", "itch"], ["tab", "le<|WB|>", "table<|WB|>"], ["b", "ri", "bri"], ["ri", "ed<|WB|>", "ried<|WB|>"], ["t", "ched<|WB|>", "tched<|WB|>"], ["c", "lo", "clo"], ["on", "<|WB|>", "on<|WB|>"], ["ea", "d<|WB|>", "ead<|WB|>"], ["tt", "er<|WB|>", "tter<|WB|>"], ["re", "e<|WB|>", "ree<|WB|>"], ["tim", "es<|WB|>", "times<|WB|>"], ["st", "ood<|WB|>", "stood<|WB|>"], ["gar", "d", "gard"], ["w", "il", "wil"], ["summ", "er", "summer"], ["f", "u", "fu"], ["u", "ne", "une"], ["c", "ted<|WB|>", "cted<|WB|>"], ["f", "low", "flow"], ["chan", "g", "chang"], ["wa", "y<|WB|>", "way<|WB|>"], ["y", "ou", "you"], ["you", "<|WB|>", "you<|WB|>"], ["t", "o<|WB|>", "to<|WB|>"], ["d", "ge<|WB|>", "dge<|WB|>"], ["en", "ce<|WB|>", "ence<|WB|>"], ["c", "ol", "col"], ["th", "em", "them"], ["our", "<|WB|>", "our<|WB|>"], ["da", "wn", "dawn"], ["g", "s<|WB|>", "gs<|WB|>"], ["ke", "t<|WB|>", "ket<|WB|>"], ["stu", "b", "stub"], ["o", "ver", "over"], ["le", "ar", "lear"], ["n", "ed<|WB|>", "ned<|WB|>"], ["li", "br", "libr"], ["libr", "ar", "librar"], ["s", "me", "sme"], ["deci", "si", "decisi"], ["il", "t<|WB|>", "ilt<|WB|>"], ["a", "ge<|WB|>", "age<|WB|>"], ["win", "ter", "winter"], ["om", "e<|WB|>", "ome<|WB|>"], ["qu", "est", "quest"], ["quest", "i", "questi"], ["on", "s<|WB|>", "ons<|WB|>"], ["an", "sw", "answ"], ["answ", "er", "answer"], ["th", "e", "the"], ["se", "em", "seem"], ["an", "d.<|WB|>", "and.<|WB|>"], ["ho", "pe", "hope"], ["hope", "ful", "hopeful"], ["an", "ima", "anima"], ["anima", "l", "animal"], ["w", "ro", "wro"], ["n", "a", "na"], ["a", "t", "at"], ["el", "y.<|WB|>", "ely.<|WB|>"], ["ou", "ld<|WB|>", "ould<|WB|>"], ["ri", "ver<|WB|>", "river<|WB|>"], ["f", "r", "fr"], ["fr", "om", "from"], ["i", "s<|WB|>", "is<|WB|>"], ["mo", "st<|WB|>", "most<|WB|>"], ["n", "igh", "nigh"], ["tion", "s<|WB|>", "tions<|WB|>"], ["t", "r", "tr"], ["v", "e.<|WB|>", "ve.<|WB|>"], ["lan", "ter", "lanter"], ["lanter", "n", "lantern"], ["ti", "de", "tide"], ["he", "ar", "hear"], ["a", "p", "ap"], ["o", "g", "og"], ["wr", "on", "wron"], ["h", "ouse<|WB|>", "house<|WB|>"], ["an", "ed<|WB|>", "aned<|WB|>"], ["l", "igh", "ligh"], ["t", "ly<|WB|>", "tly<|WB|>"], ["st", "ar", "star"], ["l", "<|WB|>", "l<|WB|>"], ["ga", "ve<|WB|>", "gave<|WB|>"], ["wh", "ere<|WB|>", "where<|WB|>"], ["p", "ar", "par"], ["par", "tic", "partic"], ["partic", "ul", "particul"], ["e", "ss<|WB|>", "ess<|WB|>"], ["enti", "re", "entire"], ["ar", "g", "arg"], ["ough", "<|WB|>", "ough<|WB|>"], ["i", "de", "ide"], ["it", "e<|WB|>", "ite<|WB|>"], ["f", "er", "fer"], ["co", "lle", "colle"], ["po", "st", "post"], ["post", "car", "postcar"], ["p", "ro", "pro"], ["sta", "tion", "station"], ["s", "igh", "sigh"], ["ti", "r", "tir"], ["oun", "d<|WB|>", "ound<|WB|>"], ["grand", "mo", "grandmo"], ["p", "u", "pu"], ["ar", "d<|WB|>", "ard<|WB|>"], ["it", ".<|WB|>", "it.<|WB|>"], ["h", "ow<|WB|>", "how<|WB|>"], ["m", "il", "mil"], ["p", "lan", "plan"], ["l", "ou", "lou"], ["sh", "o", "sho"], ["ck", "ed<|WB|>", "cked<|WB|>"], ["s", "un", "sun"], ["sh", "<|WB|>", "sh<|WB|>"], ["ough", ".<|WB|>", "ough.<|WB|>"], ["d", "ar", "dar"], ["m", "i", "mi"], ["t", "own", "town"], ["le", "a", "lea"], ["c", "r", "cr"], ["fin", "i", "fini"], ["fini", "sh", "finish"], ["pe", "op", "peop"], ["pr", "om", "prom"], ["prom", "i", "promi"], ["promi", "se", "promise"], ["fe", "el", "feel"], ["whist", "le", "whistle"], ["li", "f", "lif"], ["sea", "son", "season"], ["op", "en", "open"], ["c", "er", "cer"], ["ta", "in<|WB|>", "tain<|WB|>"], ["th", "ing", "thing"], ["ne", "w<|WB|>", "new<|WB|>"], ["or", "n", "orn"], ["n", "ight<|WB|>", "night<|WB|>"], ["sk", ",<|WB|>", "sk,<|WB|>"], ["k", "ing<|WB|>", "king<|WB|>"], ["a", "gre", "agre"], ["v", "or", "vor"], ["m", "ed<|WB|>", "med<|WB|>"], ["vi", "sit", "visit"], ["d", "ra", "dra"], ["la", "ugh", "laugh"], ["re", "m", "rem"], ["rem", "em", "remem"], ["remem", "b", "rememb"], ["er", "ed<|WB|>", "ered<|WB|>"], ["sh", "ar", "shar"], ["j", "our", "jour"], ["rea", "d,<|WB|>", "read,<|WB|>"], ["m", "om", "mom"], ["ne", "ss<|WB|>", "ness<|WB|>"], ["go", "t<|WB|>", "got<|WB|>"], ["ke", "d,<|WB|>", "ked,<|WB|>"], ["son", "g<|WB|>", "song<|WB|>"], ["s", "po", "spo"], ["a", "pp", "app"], ["on", "e", "one"], ["umb", "re", "umbre"], ["umbre", "ll", "umbrell"], ["y", "ed<|WB|>", "yed<|WB|>"], ["t", "ea", "tea"], ["i", "g", "ig"], ["ev", "er<|WB|>", "ever<|WB|>"], ["ow", "s<|WB|>", "ows<|WB|>"], ["ther", "ed<|WB|>", "thered<|WB|>"], ["d", "u", "du"], ["g", "in", "gin"], ["qui", "e", "quie"], ["h", "er", "her"], ["sel", "f", "self"], ["self", ".<|WB|>", "self.<|WB|>"], ["k", "in", "kin"], ["g", "ers.<|WB|>", "gers.<|WB|>"], ["li", "ved<|WB|>", "lived<|WB|>"], ["e", "ll<|WB|>", "ell<|WB|>"], ["ca", "me<|WB|>", "came<|WB|>"], ["le", "s<|WB|>", "les<|WB|>"], ["n", "ow", "now"], ["g", "oo", "goo"], ["goo", "d", "good"], ["good", "b", "goodb"], ["k", "s<|WB|>", "ks<|WB|>"], ["y", "'s<|WB|>", "y's<|WB|>"], ["ke", "e", "kee"], ["on", "d<|WB|>", "ond<|WB|>"], ["c", "ra", "cra"], ["cra", "ck", "crack"], ["th", "ing.<|WB|>", "thing.<|WB|>"], ["c", "rea", "crea"], ["sel", "f<|WB|>", "self<|WB|>"], ["sh", "or", "shor"], ["ch", "il", "chil"], ["ch", "im", "chim"], ["d", "own", "down"], ["e", ",<|WB|>", "e,<|WB|>"], ["er", "'s<|WB|>", "er's<|WB|>"], ["g", ",<|WB|>", "g,<|WB|>"], ["fri", "end", "friend"], ["th", "in", "thin"], ["b", "ir", "bir"], ["ne", "y<|WB|>", "ney<|WB|>"], ["sur", "p", "surp"], ["surp", "ri", "surpri"], ["ou", "t", "out"], ["ir", "<|WB|>", "ir<|WB|>"], ["ou", "s<|WB|>", "ous<|WB|>"], ["T", "he<|WB|>", "The<|WB|>"], ["mor", "ning<|WB|>", "morning<|WB|>"], ["l", "ight<|WB|>", "light<|WB|>"], ["s", "pi", "spi"], ["spi", "lled<|WB|>", "spilled<|WB|>"], ["ac", "ro", "acro"], ["acro", "ss<|WB|>", "across<|WB|>"], ["th", "e<|WB|>", "the<|WB|>"], ["k", "itch", "kitch"], ["kitch", "en<|WB|>", "kitchen<|WB|>"], ["an", "d<|WB|>", "and<|WB|>"], ["ma", "de<|WB|>", "made<|WB|>"], ["every", "thing<|WB|>", "everything<|WB|>"], ["loo", "k<|WB|>", "look<|WB|>"], ["bri", "e", "brie"], ["brie", "f", "brief"], ["brief", "ly<|WB|>", "briefly<|WB|>"], ["ne", "w", "new"], ["new", ".<|WB|>", "new.<|WB|>"], ["S", "he<|WB|>", "She<|WB|>"], ["ha", "d<|WB|>", "had<|WB|>"], ["al", "wa", "alwa"], ["alwa", "y", "alway"], ["alway", "s<|WB|>", "always<|WB|>"], ["be", "li", "beli"], ["beli", "ev", "believ"], ["believ", "ed<|WB|>", "believed<|WB|>"], ["th", "at<|WB|>", "that<|WB|>"], ["sma", "ll<|WB|>", "small<|WB|>"], ["g", "est", "gest"], ["gest", "u", "gestu"], ["gestu", "re", "gesture"], ["gesture", "s<|WB|>", "gestures<|WB|>"], ["car", "ried<|WB|>", "carried<|WB|>"], ["mor", "e<|WB|>", "more<|WB|>"], ["we", "ight<|WB|>", "weight<|WB|>"], ["th", "an<|WB|>", "than<|WB|>"], ["gran", "d<|WB|>", "grand<|WB|>"], ["pr", "on", "pron"], ["pron", "oun", "pronoun"], ["pronoun", "c", "pronounc"], ["pronounc", "em", "pronouncem"], ["pronouncem", "ent", "pronouncement"], ["pronouncement", "s.<|WB|>", "pronouncements.<|WB|>"], ["R", "a", "Ra"], ["Ra", "in<|WB|>", "Rain<|WB|>"], ["ta", "pp", "tapp"], ["tapp", "ed<|WB|>", "tapped<|WB|>"], ["again", "st<|WB|>", "against<|WB|>"], ["win", "d", "wind"], ["wind", "ow<|WB|>", "window<|WB|>"], ["r", "h", "rh"], ["rh", "y", "rhy"], ["rhy", "th", "rhyth"], ["rhyth", "m<|WB|>", "rhythm<|WB|>"], ["ma", "tched<|WB|>", "matched<|WB|>"], ["clo", "ck<|WB|>", "clock<|WB|>"], ["wall", ".<|WB|>", "wall.<|WB|>"], ["H", "e<|WB|>", "He<|WB|>"], ["r", "er", "rer"], ["rer", "ead<|WB|>", "reread<|WB|>"], ["le", "tter<|WB|>", "letter<|WB|>"], ["th", "ree<|WB|>", "three<|WB|>"], ["be", "for", "befor"], ["befor", "e<|WB|>", "before<|WB|>"], ["und", "er", "under"], ["under", "stood<|WB|>", "understood<|WB|>"], ["wh", "at<|WB|>", "what<|WB|>"], ["wa", "s<|WB|>", "was<|WB|>"], ["rea", "ll", "reall"], ["reall", "y<|WB|>", "really<|WB|>"], ["ask", "ing.<|WB|>", "asking.<|WB|>"], ["gard", "en<|WB|>", "garden<|WB|>"], ["gre", "w<|WB|>", "grew<|WB|>"], ["wil", "d<|WB|>", "wild<|WB|>"], ["summer", ",<|WB|>", "summer,<|WB|>"], ["fu", "ll<|WB|>", "full<|WB|>"], ["o", "f<|WB|>", "of<|WB|>"], ["wee", "ds<|WB|>", "weeds<|WB|>"], ["une", "x", "unex"], ["unex", "pe", "unexpe"], ["unexpe", "cted<|WB|>", "unexpected<|WB|>"], ["flow", "ers.<|WB|>", "flowers.<|WB|>"], ["A", "<|WB|>", "A<|WB|>"], ["g", "ood<|WB|>", "good<|WB|>"], ["stor", "y<|WB|>", "story<|WB|>"], ["chang", "es<|WB|>", "changes<|WB|>"], ["se", "e<|WB|>", "see<|WB|>"], ["wor", "ld<|WB|>", "world<|WB|>"], ["ev", "en<|WB|>", "even<|WB|>"], ["a", "f", "af"], ["af", "ter<|WB|>", "after<|WB|>"], ["for", "g", "forg"], ["forg", "et<|WB|>", "forget<|WB|>"], ["de", "ta", "deta"], ["deta", "il", "detail"], ["detail", "s.<|WB|>", "details.<|WB|>"], ["T", "he", "The"], ["The", "y<|WB|>", "They<|WB|>"], ["wa", "l", "wal"], ["wal", "ked<|WB|>", "walked<|WB|>"], ["e", "dge<|WB|>", "edge<|WB|>"], ["fiel", "d<|WB|>", "field<|WB|>"], ["s", "il", "sil"], ["sil", "ence<|WB|>", "silence<|WB|>"], ["for", "<|WB|>", "for<|WB|>"], ["lon", "g<|WB|>", "long<|WB|>"], ["whi", "le", "while"], ["while", ".<|WB|>", "while.<|WB|>"], ["co", "f", "cof"], ["cof", "fe", "coffe"], ["coffe", "e<|WB|>", "coffee<|WB|>"], ["g", "one<|WB|>", "gone<|WB|>"], ["col", "d,<|WB|>", "cold,<|WB|>"], ["bu", "t<|WB|>", "but<|WB|>"], ["ne", "i", "nei"], ["nei", "ther<|WB|>", "neither<|WB|>"], ["them", "<|WB|>", "them<|WB|>"], ["w", "an", "wan"], ["wan", "ted<|WB|>", "wanted<|WB|>"], ["mo", "ve<|WB|>", "move<|WB|>"], ["ma", "ke<|WB|>", "make<|WB|>"], ["mo", "re", "more"], ["more", ".<|WB|>", "more.<|WB|>"], ["E", "ver", "Ever"], ["Ever", "y<|WB|>", "Every<|WB|>"], ["c", "it", "cit"], ["cit", "y<|WB|>", "city<|WB|>"], ["ha", "s<|WB|>", "has<|WB|>"], ["qui", "et<|WB|>", "quiet<|WB|>"], ["h", "our<|WB|>", "hour<|WB|>"], ["j", "ust<|WB|>", "just<|WB|>"], ["dawn", "<|WB|>", "dawn<|WB|>"], ["wh", "en<|WB|>", "when<|WB|>"], ["be", "lon", "belon"], ["belon", "gs<|WB|>", "belongs<|WB|>"], ["n", "o<|WB|>", "no<|WB|>"], ["ke", "pt<|WB|>", "kept<|WB|>"], ["tic", "ket<|WB|>", "ticket<|WB|>"], ["stub", "<|WB|>", "stub<|WB|>"], ["h", "er<|WB|>", "her<|WB|>"], ["wall", "et<|WB|>", "wallet<|WB|>"], ["t", "ri", "tri"], ["tri", "p<|WB|>", "trip<|WB|>"], ["over", ".<|WB|>", "over.<|WB|>"], ["lear", "ned<|WB|>", "learned<|WB|>"], ["pati", "ence<|WB|>", "patience<|WB|>"], ["no", "t<|WB|>", "not<|WB|>"], ["wait", "ing,<|WB|>", "waiting,<|WB|>"], ["deci", "ding<|WB|>", "deciding<|WB|>"], ["h", "ur", "hur"], ["hur", "r", "hurr"], ["hurr", "y.<|WB|>", "hurry.<|WB|>"], ["librar", "y<|WB|>", "library<|WB|>"], ["sme", "lled<|WB|>", "smelled<|WB|>"], ["pa", "p", "pap"], ["pap", "er<|WB|>", "paper<|WB|>"], ["d", "ust<|WB|>", "dust<|WB|>"], ["decisi", "on", "decision"], ["decision", "s.<|WB|>", "decisions.<|WB|>"], ["su", "d", "sud"], ["sud", "d", "sudd"], ["sudd", "en<|WB|>", "sudden<|WB|>"], ["g", "ust<|WB|>", "gust<|WB|>"], ["win", "d<|WB|>", "wind<|WB|>"], ["s", "ent<|WB|>", "sent<|WB|>"], ["loo", "se<|WB|>", "loose<|WB|>"], ["pa", "g", "pag"], ["pag", "es<|WB|>", "pages<|WB|>"], ["s", "ca", "sca"], ["sca", "tter", "scatter"], ["scatter", "ing<|WB|>", "scattering<|WB|>"], ["la", "wn", "lawn"], ["lawn", ".<|WB|>", "lawn.<|WB|>"], ["bu", "ilt<|WB|>", "built<|WB|>"], ["bo", "at<|WB|>", "boat<|WB|>"], ["gar", "age<|WB|>", "garage<|WB|>"], ["o", "ver<|WB|>", "over<|WB|>"], ["c", "our", "cour"], ["cour", "se<|WB|>", "course<|WB|>"], ["winter", ".<|WB|>", "winter.<|WB|>"], ["S", "ome<|WB|>", "Some<|WB|>"], ["questi", "ons<|WB|>", "questions<|WB|>"], ["ar", "e<|WB|>", "are<|WB|>"], ["wor", "th<|WB|>", "worth<|WB|>"], ["answer", "s<|WB|>", "answers<|WB|>"], ["the", "y<|WB|>", "they<|WB|>"], ["seem", "<|WB|>", "seem<|WB|>"], ["de", "m", "dem"], ["dem", "and.<|WB|>", "demand.<|WB|>"], ["do", "g<|WB|>", "dog<|WB|>"], ["wait", "ed<|WB|>", "waited<|WB|>"], ["b", "y<|WB|>", "by<|WB|>"], ["door", ",<|WB|>", "door,<|WB|>"], ["hopeful", "<|WB|>", "hopeful<|WB|>"], ["on", "ly<|WB|>", "only<|WB|>"], ["animal", "s<|WB|>", "animals<|WB|>"], ["c", "an<|WB|>", "can<|WB|>"], ["b", "e.<|WB|>", "be.<|WB|>"], ["wro", "te<|WB|>", "wrote<|WB|>"], ["na", "me<|WB|>", "name<|WB|>"], ["mar", "g", "marg"], ["marg", "in<|WB|>", "margin<|WB|>"], ["book", ",<|WB|>", "book,<|WB|>"], ["th", "en<|WB|>", "then<|WB|>"], ["re", "gre", "regre"], ["regre", "t", "regret"], ["regret", "ted<|WB|>", "regretted<|WB|>"], ["im", "me", "imme"], ["imme", "di", "immedi"], ["immedi", "at", "immediat"], ["immediat", "ely.<|WB|>", "immediately.<|WB|>"], ["E", "ven", "Even"], ["Even", "ing<|WB|>", "Evening<|WB|>"], ["ar", "ri", "arri"], ["arri", "ved<|WB|>", "arrived<|WB|>"], ["slow", "l", "slowl"], ["slowl", "y,<|WB|>", "slowly,<|WB|>"], ["i", "f<|WB|>", "if<|WB|>"], ["re", "l", "rel"], ["rel", "u", "relu"], ["relu", "ct", "reluct"], ["reluct", "ant<|WB|>", "reluctant<|WB|>"], ["com", "m", "comm"], ["comm", "it<|WB|>", "commit<|WB|>"], ["en", "ding<|WB|>", "ending<|WB|>"], ["da", "y.<|WB|>", "day.<|WB|>"], ["c", "ould<|WB|>", "could<|WB|>"], ["he", "ar<|WB|>", "hear<|WB|>"], ["from", "<|WB|>", "from<|WB|>"], ["h", "is<|WB|>", "his<|WB|>"], ["ro", "om", "room"], ["room", "<|WB|>", "room<|WB|>"], ["nigh", "ts<|WB|>", "nights<|WB|>"], ["r", "ight.<|WB|>", "right.<|WB|>"], ["be", "st<|WB|>", "best<|WB|>"], ["con", "ver", "conver"], ["conver", "sa", "conversa"], ["conversa", "tions<|WB|>", "conversations<|WB|>"], ["ha", "pp", "happ"], ["happ", "en<|WB|>", "happen<|WB|>"], ["tr", "ying<|WB|>", "trying<|WB|>"], ["b", "e<|WB|>", "be<|WB|>"], ["im", "pre", "impre"], ["impre", "ssi", "impressi"], ["impressi", "ve.<|WB|>", "impressive.<|WB|>"], ["s", "ing", "sing"], ["sing", "le<|WB|>", "single<|WB|>"], ["lantern", "<|WB|>", "lantern<|WB|>"], ["h", "un", "hun"], ["hun", "g<|WB|>", "hung<|WB|>"], ["do", "ck", "dock"], ["dock", ",<|WB|>", "dock,<|WB|>"], ["s", "wa", "swa"], ["swa", "ying<|WB|>", "swaying<|WB|>"], ["wi", "th<|WB|>", "with<|WB|>"], ["tide", ".<|WB|>", "tide.<|WB|>"], ["re", "hear", "rehear"], ["rehear", "sed<|WB|>", "rehearsed<|WB|>"], ["ap", "ol", "apol"], ["apol", "og", "apolog"], ["apolog", "y<|WB|>", "apology<|WB|>"], ["wee", "k<|WB|>", "week<|WB|>"], ["st", "i", "sti"], ["sti", "ll<|WB|>", "still<|WB|>"], ["sa", "i", "sai"], ["sai", "d<|WB|>", "said<|WB|>"], ["a", "ll<|WB|>", "all<|WB|>"], ["wron", "g", "wrong"], ["wrong", ".<|WB|>", "wrong.<|WB|>"], ["f", "ar", "far"], ["far", "m", "farm"], ["farm", "house<|WB|>", "farmhouse<|WB|>"], ["le", "aned<|WB|>", "leaned<|WB|>"], ["s", "ligh", "sligh"], ["sligh", "tly<|WB|>", "slightly<|WB|>"], ["si", "de", "side"], ["side", ",<|WB|>", "side,<|WB|>"], ["ha", "ving<|WB|>", "having<|WB|>"], ["gi", "v", "giv"], ["giv", "en<|WB|>", "given<|WB|>"], ["u", "p<|WB|>", "up<|WB|>"], ["be", "ing<|WB|>", "being<|WB|>"], ["stra", "ight.<|WB|>", "straight.<|WB|>"], ["c", "oun", "coun"], ["coun", "ted<|WB|>", "counted<|WB|>"], ["star", "s<|WB|>", "stars<|WB|>"], ["un", "ti", "unti"], ["unti", "l<|WB|>", "until<|WB|>"], ["ne", "ck<|WB|>", "neck<|WB|>"], ["a", "ched<|WB|>", "ached<|WB|>"], ["some", "where<|WB|>", "somewhere<|WB|>"], ["pa", "st<|WB|>", "past<|WB|>"], ["h", "und", "hund"], ["hund", "re", "hundre"], ["hundre", "d.<|WB|>", "hundred.<|WB|>"], ["T", "h", "Th"], ["Th", "ere<|WB|>", "There<|WB|>"], ["particul", "ar<|WB|>", "particular<|WB|>"], ["lon", "el", "lonel"], ["lonel", "in", "lonelin"], ["lonelin", "ess<|WB|>", "loneliness<|WB|>"], ["com", "es<|WB|>", "comes<|WB|>"], ["too", "<|WB|>", "too<|WB|>"], ["qui", "ck", "quick"], ["quick", "ly.<|WB|>", "quickly.<|WB|>"], ["pi", "e<|WB|>", "pie<|WB|>"], ["c", "ru", "cru"], ["cru", "st<|WB|>", "crust<|WB|>"], ["di", "sa", "disa"], ["disa", "st", "disast"], ["disast", "er", "disaster"], ["disaster", ",<|WB|>", "disaster,<|WB|>"], ["fi", "ll", "fill"], ["fill", "ing<|WB|>", "filling<|WB|>"], ["entire", "ly.<|WB|>", "entirely.<|WB|>"], ["arg", "u", "argu"], ["argu", "ed<|WB|>", "argued<|WB|>"], ["a", "b", "ab"], ["ab", "out<|WB|>", "about<|WB|>"], ["ma", "ps<|WB|>", "maps<|WB|>"], ["th", "ough<|WB|>", "though<|WB|>"], ["an", "y<|WB|>", "any<|WB|>"], ["ide", "a<|WB|>", "idea<|WB|>"], ["w", "er", "wer"], ["wer", "e.<|WB|>", "were.<|WB|>"], ["F", "ro", "Fro"], ["Fro", "st<|WB|>", "Frost<|WB|>"], ["pa", "in", "pain"], ["pain", "ted<|WB|>", "painted<|WB|>"], ["g", "la", "gla"], ["gla", "ss<|WB|>", "glass<|WB|>"], ["de", "li", "deli"], ["deli", "ca", "delica"], ["delica", "te<|WB|>", "delicate<|WB|>"], ["wh", "ite<|WB|>", "white<|WB|>"], ["fer", "n", "fern"], ["fern", "s<|WB|>", "ferns<|WB|>"], ["over", "n", "overn"], ["overn", "ight.<|WB|>", "overnight.<|WB|>"], ["colle", "cted<|WB|>", "collected<|WB|>"], ["postcar", "ds<|WB|>", "postcards<|WB|>"], ["pla", "c", "plac"], ["plac", "es<|WB|>", "places<|WB|>"], ["sh", "e<|WB|>", "she<|WB|>"], ["ne", "ver<|WB|>", "never<|WB|>"], ["be", "en<|WB|>", "been<|WB|>"], ["pro", "ba", "proba"], ["proba", "b", "probab"], ["probab", "ly<|WB|>", "probably<|WB|>"], ["w", "ould<|WB|>", "would<|WB|>"], ["go", ".<|WB|>", "go.<|WB|>"], ["tra", "in<|WB|>", "train<|WB|>"], ["slow", "ed<|WB|>", "slowed<|WB|>"], ["en", "ter", "enter"], ["enter", "ed<|WB|>", "entered<|WB|>"], ["station", ",<|WB|>", "station,<|WB|>"], ["sigh", "ing<|WB|>", "sighing<|WB|>"], ["li", "ke<|WB|>", "like<|WB|>"], ["tir", "ed<|WB|>", "tired<|WB|>"], ["animal", ".<|WB|>", "animal.<|WB|>"], ["f", "ound<|WB|>", "found<|WB|>"], ["p", "ho", "pho"], ["pho", "t", "phot"], ["phot", "og", "photog"], ["photog", "ra", "photogra"], ["photogra", "p", "photograp"], ["photograp", "h", "photograph"], ["photograph", "<|WB|>", "photograph<|WB|>"], ["grandmo", "ther<|WB|>", "grandmother<|WB|>"], ["stu", "di", "studi"], ["studi", "ed<|WB|>", "studied<|WB|>"], ["m", "u", "mu"], ["mu", "ch<|WB|>", "much<|WB|>"], ["lon", "ger<|WB|>", "longer<|WB|>"], ["ex", "pe", "expe"], ["expe", "ct", "expect"], ["expect", "ed.<|WB|>", "expected.<|WB|>"], ["sme", "ll<|WB|>", "smell<|WB|>"], ["brea", "d<|WB|>", "bread<|WB|>"], ["d", "ri", "dri"], ["dri", "f", "drif"], ["drif", "ted<|WB|>", "drifted<|WB|>"], ["baker", "y<|WB|>", "bakery<|WB|>"], ["pu", "lled<|WB|>", "pulled<|WB|>"], ["wh", "ol", "whol"], ["whol", "e<|WB|>", "whole<|WB|>"], ["st", "re", "stre"], ["stre", "et<|WB|>", "street<|WB|>"], ["t", "ow", "tow"], ["tow", "ard<|WB|>", "toward<|WB|>"], ["I", "t<|WB|>", "It<|WB|>"], ["stran", "ge<|WB|>", "strange<|WB|>"], ["fa", "mil", "famil"], ["famil", "i", "famili"], ["famili", "ar<|WB|>", "familiar<|WB|>"], ["br", "ing<|WB|>", "bring<|WB|>"], ["ba", "ck<|WB|>", "back<|WB|>"], ["enti", "r", "entir"], ["entir", "e<|WB|>", "entire<|WB|>"], ["ye", "ar<|WB|>", "year<|WB|>"], ["in", "st", "inst"], ["inst", "an", "instan"], ["instan", "t.<|WB|>", "instant.<|WB|>"], ["plan", "ted<|WB|>", "planted<|WB|>"], ["t", "ree<|WB|>", "tree<|WB|>"], ["c", "lou", "clou"], ["clou", "dy<|WB|>", "cloudy<|WB|>"], ["s", "o<|WB|>", "so<|WB|>"], ["sho", "cked<|WB|>", "shocked<|WB|>"], ["sun", ".<|WB|>", "sun.<|WB|>"], ["sw", "itch", "switch"], ["switch", "ing<|WB|>", "switching<|WB|>"], ["be", "t", "bet"], ["bet", "we", "betwe"], ["betwe", "en<|WB|>", "between<|WB|>"], ["sa", "ying<|WB|>", "saying<|WB|>"], ["fin", "e<|WB|>", "fine<|WB|>"], ["no", "t,<|WB|>", "not,<|WB|>"], ["me", "ant<|WB|>", "meant<|WB|>"], ["bo", "th.<|WB|>", "both.<|WB|>"], ["mar", "ket<|WB|>", "market<|WB|>"], ["S", "at", "Sat"], ["Sat", "ur", "Satur"], ["Satur", "day<|WB|>", "Saturday<|WB|>"], ["lou", "d,<|WB|>", "loud,<|WB|>"], ["col", "or", "color"], ["color", "ful", "colorful"], ["colorful", ",<|WB|>", "colorful,<|WB|>"], ["com", "p", "comp"], ["comp", "le", "comple"], ["comple", "t", "complet"], ["complet", "el", "completel"], ["completel", "y<|WB|>", "completely<|WB|>"], ["im", "po", "impo"], ["impo", "ssi", "impossi"], ["impossi", "b", "impossib"], ["impossib", "le<|WB|>", "impossible<|WB|>"], ["ru", "sh<|WB|>", "rush<|WB|>"], ["th", "r", "thr"], ["thr", "ough.<|WB|>", "through.<|WB|>"], ["ide", "as<|WB|>", "ideas<|WB|>"], ["d", "own<|WB|>", "down<|WB|>"], ["dar", "k<|WB|>", "dark<|WB|>"], ["day", "l", "dayl"], ["dayl", "ight.<|WB|>", "daylight.<|WB|>"], ["car", "ved<|WB|>", "carved<|WB|>"], ["v", "a", "va"], ["va", "lle", "valle"], ["valle", "y<|WB|>", "valley<|WB|>"], ["mi", "ll", "mill"], ["mill", "en", "millen"], ["millen", "n", "millenn"], ["millenn", "i", "millenni"], ["millenni", "a", "millennia"], ["millennia", ",<|WB|>", "millennia,<|WB|>"], ["pati", "ent<|WB|>", "patient<|WB|>"], ["st", "one<|WB|>", "stone<|WB|>"], ["stran", "ger<|WB|>", "stranger<|WB|>"], ["s", "mil", "smil"], ["smil", "ed<|WB|>", "smiled<|WB|>"], ["bu", "s,<|WB|>", "bus,<|WB|>"], ["loo", "ked<|WB|>", "looked<|WB|>"], ["a", "way<|WB|>", "away<|WB|>"], ["fir", "st", "first"], ["first", ".<|WB|>", "first.<|WB|>"], ["s", "n", "sn"], ["sn", "ow<|WB|>", "snow<|WB|>"], ["s", "wall", "swall"], ["swall", "ow", "swallow"], ["swallow", "ed<|WB|>", "swallowed<|WB|>"], ["town", "'s<|WB|>", "town's<|WB|>"], ["s", "oun", "soun"], ["soun", "d,<|WB|>", "sound,<|WB|>"], ["lea", "ving<|WB|>", "leaving<|WB|>"], ["cr", "un", "crun"], ["crun", "ch<|WB|>", "crunch<|WB|>"], ["boo", "ts<|WB|>", "boots<|WB|>"], ["h", "om", "hom"], ["hom", "e.<|WB|>", "home.<|WB|>"], ["ha", "b", "hab"], ["hab", "it<|WB|>", "habit<|WB|>"], ["finish", "ing<|WB|>", "finishing<|WB|>"], ["o", "ther<|WB|>", "other<|WB|>"], ["peop", "le", "people"], ["people", "'s<|WB|>", "people's<|WB|>"], ["s", "ent", "sent"]], "vocab": {"0": "\u0000", "1": "\u0001", "2": "\u0002", "3": "\u0003", "4": "\u0004", "5": "\u0005", "6": "\u0006", "7": "\u0007", "8": "\b", "9": "\t", "10": "\n", "11": "\u000b", "12": "\f", "13": "\r", "14": "\u000e", "15": "\u000f", "16": "\u0010", "17": "\u0011", "18": "\u0012", "19": "\u0013", "20": "\u0014", "21": "\u0015", "22": "\u0016", "23": "\u0017", "24": "\u0018", "25": "\u0019", "26": "\u001a", "27": "\u001b", "28": "\u001c", "29": "\u001d", "30": "\u001e", "31": "\u001f", "32": " ", "33": "!", "34": "\"", "35": "#", "36": "$", "37": "%", "38": "&", "39": "'", "40": "(", "41": ")", "42": "*", "43": "+", "44": ",", "45": "-", "46": ".", "47": "/", "48": "0", "49": "1", "50": "2", "51": "3", "52": "4", "53": "5", "54": "6", "55": "7", "56": "8", "57": "9", "58": ":", "59": ";", "60": "<", "61": "=", "62": ">", "63": "?", "64": "@", "65": "A", "66": "B", "67": "C", "68": "D", "69": "E", "70": "F", "71": "G", "72": "H", "73": "I", "74": "J", "75": "K", "76": "L", "77": "M", "78": "N", "79": "O", "80": "P", "81": "Q", "82": "R", "83": "S", "84": "T", "85": "U", "86": "V", "87": "W", "88": "X", "89": "Y", "90": "Z", "91": "[", "92": "\\", "93": "]", "94": "^", "95": "_", "96": "`", "97": "a", "98": "b", "99": "c", "100": "d", "101": "e", "102": "f", "103": "g", "104": "h", "105": "i", "106": "j", "107": "k", "108": "l", "109": "m", "110": "n", "111": "o", "112": "p", "113": "q", "114": "r", "115": "s", "116": "t", "117": "u", "118": "v", "119": "w", "120": "x", "121": "y", "122": "z", "123": "{", "124": "|", "125": "}", "126": "~", "127": "\u007f", "128": "\u0080", "129": "\u0081", "130": "\u0082", "131": "\u0083", "132": "\u0084", "133": "\u0085", "134": "\u0086", "135": "\u0087", "136": "\u0088", "137": "\u0089", "138": "\u008a", "139": "\u008b", "140": "\u008c", "141": "\u008d", "142": "\u008e", "143": "\u008f", "144": "\u0090", "145": "\u0091", "146": "\u0092", "147": "\u0093", "148": "\u0094", "149": "\u0095", "150": "\u0096", "151": "\u0097", "152": "\u0098", "153": "\u0099", "154": "\u009a", "155": "\u009b", "156": "\u009c", "157": "\u009d", "158": "\u009e", "159": "\u009f", "160": "\u00a0", "161": "\u00a1", "162": "\u00a2", "163": "\u00a3", "164": "\u00a4", "165": "\u00a5", "166": "\u00a6", "167": "\u00a7", "168": "\u00a8", "169": "\u00a9", "170": "\u00aa", "171": "\u00ab", "172": "\u00ac", "173": "\u00ad", "174": "\u00ae", "175": "\u00af", "176": "\u00b0", "177": "\u00b1", "178": "\u00b2", "179": "\u00b3", "180": "\u00b4", "181": "\u00b5", "182": "\u00b6", "183": "\u00b7", "184": "\u00b8", "185": "\u00b9", "186": "\u00ba", "187": "\u00bb", "188": "\u00bc", "189": "\u00bd", "190": "\u00be", "191": "\u00bf", "192": "\u00c0", "193": "\u00c1", "194": "\u00c2", "195": "\u00c3", "196": "\u00c4", "197": "\u00c5", "198": "\u00c6", "199": "\u00c7", "200": "\u00c8", "201": "\u00c9", "202": "\u00ca", "203": "\u00cb", "204": "\u00cc", "205": "\u00cd", "206": "\u00ce", "207": "\u00cf", "208": "\u00d0", "209": "\u00d1", "210": "\u00d2", "211": "\u00d3", "212": "\u00d4", "213": "\u00d5", "214": "\u00d6", "215": "\u00d7", "216": "\u00d8", "217": "\u00d9", "218": "\u00da", "219": "\u00db", "220": "\u00dc", "221": "\u00dd", "222": "\u00de", "223": "\u00df", "224": "\u00e0", "225": "\u00e1", "226": "\u00e2", "227": "\u00e3", "228": "\u00e4", "229": "\u00e5", "230": "\u00e6", "231": "\u00e7", "232": "\u00e8", "233": "\u00e9", "234": "\u00ea", "235": "\u00eb", "236": "\u00ec", "237": "\u00ed", "238": "\u00ee", "239": "\u00ef", "240": "\u00f0", "241": "\u00f1", "242": "\u00f2", "243": "\u00f3", "244": "\u00f4", "245": "\u00f5", "246": "\u00f6", "247": "\u00f7", "248": "\u00f8", "249": "\u00f9", "250": "\u00fa", "251": "\u00fb", "252": "\u00fc", "253": "\u00fd", "254": "\u00fe", "255": "\u00ff", "256": "<|EOS|>", "257": "<|WB|>", "258": ".<|WB|>", "259": "d<|WB|>", "260": "e<|WB|>", "261": "in", "262": "s<|WB|>", "263": "er", "264": "ed<|WB|>", "265": ",<|WB|>", "266": "t<|WB|>", "267": "ing", "268": "en", "269": "an", "270": "ar", "271": "th", "272": "on", "273": "st", "274": "re", "275": "y<|WB|>", "276": "or", "277": "ing<|WB|>", "278": "ou", "279": "er<|WB|>", "280": "ll", "281": "ow", "282": "ti", "283": "se", "284": "gh", "285": "om", "286": "le", "287": "it", "288": "de", "289": "ch", "290": "oo", "291": "wa", "292": "d,<|WB|>", "293": "igh", "294": "e.<|WB|>", "295": "wh", "296": "ra", "297": "ri", "298": "be", "299": "s.<|WB|>", "300": "sh", "301": "ma", "302": "ne", "303": "st<|WB|>", "304": "rea", "305": "il", "306": "el", "307": "t.<|WB|>", "308": "es<|WB|>", "309": "un", "310": "pa", "311": "la", "312": "d.<|WB|>", "313": "ro", "314": "en<|WB|>", "315": "k<|WB|>", "316": "ol", "317": "'s<|WB|>", "318": "li", "319": "ted<|WB|>", "320": "own", "321": "ir", "322": "ta", "323": "le<|WB|>", "324": "ev", "325": "we", "326": "em", "327": "ea", "328": "su", "329": "y.<|WB|>", "330": "sa", "331": "ha", "332": "ll<|WB|>", "333": "ran", "334": "tt", "335": "g<|WB|>", "336": "da", "337": "ke", "338": "bo", "339": "po", "340": "ly<|WB|>", "341": "lo", "342": "pe", "343": "ge<|WB|>", "344": "mo", "345": "qu", "346": "se<|WB|>", "347": "ca", "348": "do", "349": "im", "350": "s,<|WB|>", "351": "ded<|WB|>", "352": "ss<|WB|>", "353": "oun", "354": "in<|WB|>", "355": "ga", "356": "for", "357": "o<|WB|>", "358": "ci", "359": "ul", "360": "ved<|WB|>", "361": "com", "362": "ck", "363": "wi", "364": "sk", "365": "ing.<|WB|>", "366": "f<|WB|>", "367": "ds<|WB|>", "368": "low", "369": "he", "370": "fi", "371": "fe", "372": "one<|WB|>", "373": "ther<|WB|>", "374": "ve<|WB|>", "375": "ke<|WB|>", "376": "our", "377": "no", "378": "deci", "379": "me", "380": "si", "381": "me<|WB|>", "382": "mar", "383": "di", "384": "y,<|WB|>", "385": "ts<|WB|>", "386": "tion", "387": "som", "388": "ru", "389": "ba", "390": "ch<|WB|>", "391": "ed.<|WB|>", "392": "son", "393": "se.<|WB|>", "394": "han", "395": "ight<|WB|>", "396": "ever", "397": "al", "398": "at<|WB|>", "399": "sma", "400": "car", "401": "pr", "402": "win", "403": "w<|WB|>", "404": "wor", "405": "et<|WB|>", "406": "ce<|WB|>", "407": "whi", "408": "co", "409": "bu", "410": "tic", "411": "ing,<|WB|>", "412": "ding<|WB|>", "413": "ur", "414": "ent<|WB|>", "415": "ter", "416": "sw", "417": "door", "418": "te<|WB|>", "419": "boo", "420": "ar<|WB|>", "421": "lan", "422": "sed<|WB|>", "423": "some", "424": "ough", "425": "pla", "426": "go", "427": "th.<|WB|>", "428": "own<|WB|>", "429": "op", "430": "sur", "431": "um", "432": "ad", "433": "ther", "434": "mor", "435": "pi", "436": "lled<|WB|>", "437": "de<|WB|>", "438": "every", "439": "thing<|WB|>", "440": "est", "441": "gran", "442": "pp", "443": "ow<|WB|>", "444": "a<|WB|>", "445": "m<|WB|>", "446": "gre", "447": "wee", "448": "lon", "449": "ver", "450": "qui", "451": "p<|WB|>", "452": "br", "453": "ver<|WB|>", "454": "ho", "455": "ful", "456": "ant<|WB|>", "457": "ight.<|WB|>", "458": "ying<|WB|>", "459": "wr", "460": "ving<|WB|>", "461": "ere<|WB|>", "462": "ps<|WB|>", "463": "tra", "464": "ger<|WB|>", "465": "ex", "466": "brea", "467": "fa", "468": "t,<|WB|>", "469": "fir", "470": "ce", "471": "ed,<|WB|>", "472": "led<|WB|>", "473": "on.<|WB|>", "474": "sit", "475": "sel", "476": "hand", "477": "he<|WB|>", "478": "ning<|WB|>", "479": "tab", "480": "loo", "481": "an<|WB|>", "482": "ent", "483": "aga", "484": "again", "485": "ched<|WB|>", "486": "old<|WB|>", "487": "ck<|WB|>", "488": "wall", "489": "tim", "490": "und", "491": "ood<|WB|>", "492": "it<|WB|>", "493": "ask", "494": "gar", "495": "sum", "496": "summ", "497": "ers.<|WB|>", "498": "stor", "499": "chan", "500": "ld<|WB|>", "501": "ter<|WB|>", "502": "ked<|WB|>", "503": "fiel", "504": "ust<|WB|>", "505": "wn", "506": "one.<|WB|>", "507": "pt<|WB|>", "508": "stu", "509": "pati", "510": "wait", "511": "tter", "512": "th<|WB|>", "513": "ima", "514": "book", "515": "ven", "516": "slow", "517": "as<|WB|>", "518": "ct", "519": "con", "520": "pre", "521": "ssi", "522": "end<|WB|>", "523": "ouse<|WB|>", "524": "gi", "525": "stra", "526": "too", "527": "ly.<|WB|>", "528": "enti", "529": "out<|WB|>", "530": "lle", "531": "sta", "532": "grand", "533": "bak", "534": "baker", "535": "stran", "536": "ye", "537": "dy<|WB|>", "538": "day<|WB|>", "539": "fin", "540": "day", "541": "bea", "542": "k.<|WB|>", "543": "whist", "544": "sea", "545": "pas", "546": "ended<|WB|>", "547": "ent.<|WB|>", "548": "st,<|WB|>", "549": "vi", "550": "ugh", "551": "or<|WB|>", "552": "war", "553": "umb", "554": "poin", "555": "fri", "556": "him", "557": "way,<|WB|>", "558": "small", "559": "end", "560": "ac", "561": "itch", "562": "table<|WB|>", "563": "bri", "564": "ried<|WB|>", "565": "tched<|WB|>", "566": "clo", "567": "on<|WB|>", "568": "ead<|WB|>", "569": "tter<|WB|>", "570": "ree<|WB|>", "571": "times<|WB|>", "572": "stood<|WB|>", "573": "gard", "574": "wil", "575": "summer", "576": "fu", "577": "une", "578": "cted<|WB|>", "579": "flow", "580": "chang", "581": "way<|WB|>", "582": "you", "583": "you<|WB|>", "584": "to<|WB|>", "585": "dge<|WB|>", "586": "ence<|WB|>", "587": "col", "588": "them", "589": "our<|WB|>", "590": "dawn", "591": "gs<|WB|>", "592": "ket<|WB|>", "593": "stub", "594": "over", "595": "lear", "596": "ned<|WB|>", "597": "libr", "598": "librar", "599": "sme", "600": "decisi", "601": "ilt<|WB|>", "602": "age<|WB|>", "603": "winter", "604": "ome<|WB|>", "605": "quest", "606": "questi", "607": "ons<|WB|>", "608": "answ", "609": "answer", "610": "the", "611": "seem", "612": "and.<|WB|>", "613": "hope", "614": "hopeful", "615": "anima", "616": "animal", "617": "wro", "618": "na", "619": "at", "620": "ely.<|WB|>", "621": "ould<|WB|>", "622": "river<|WB|>", "623": "fr", "624": "from", "625": "is<|WB|>", "626": "most<|WB|>", "627": "nigh", "628": "tions<|WB|>", "629": "tr", "630": "ve.<|WB|>", "631": "lanter", "632": "lantern", "633": "tide", "634": "hear", "635": "ap", "636": "og", "637": "wron", "638": "house<|WB|>", "639": "aned<|WB|>", "640": "ligh", "641": "tly<|WB|>", "642": "star", "643": "l<|WB|>", "644": "gave<|WB|>", "645": "where<|WB|>", "646": "par", "647": "partic", "648": "particul", "649": "ess<|WB|>", "650": "entire", "651": "arg", "652": "ough<|WB|>", "653": "ide", "654": "ite<|WB|>", "655": "fer", "656": "colle", "657": "post", "658": "postcar", "659": "pro", "660": "station", "661": "sigh", "662": "tir", "663": "ound<|WB|>", "664": "grandmo", "665": "pu", "666": "ard<|WB|>", "667": "it.<|WB|>", "668": "how<|WB|>", "669": "mil", "670": "plan", "671": "lou", "672": "sho", "673": "cked<|WB|>", "674": "sun", "675": "sh<|WB|>", "676": "ough.<|WB|>", "677": "dar", "678": "mi", "679": "town", "680": "lea", "681": "cr", "682": "fini", "683": "finish", "684": "peop", "685": "prom", "686": "promi", "687": "promise", "688": "feel", "689": "whistle", "690": "lif", "691": "season", "692": "open", "693": "cer", "694": "tain<|WB|>", "695": "thing", "696": "new<|WB|>", "697": "orn", "698": "night<|WB|>", "699": "sk,<|WB|>", "700": "king<|WB|>", "701": "agre", "702": "vor", "703": "med<|WB|>", "704": "visit", "705": "dra", "706": "laugh", "707": "rem", "708": "remem", "709": "rememb", "710": "ered<|WB|>", "711": "shar", "712": "jour", "713": "read,<|WB|>", "714": "mom", "715": "ness<|WB|>", "716": "got<|WB|>", "717": "ked,<|WB|>", "718": "song<|WB|>", "719": "spo", "720": "app", "721": "one", "722": "umbre", "723": "umbrell", "724": "yed<|WB|>", "725": "tea", "726": "ig", "727": "ever<|WB|>", "728": "ows<|WB|>", "729": "thered<|WB|>", "730": "du", "731": "gin", "732": "quie", "733": "her", "734": "self", "735": "self.<|WB|>", "736": "kin", "737": "gers.<|WB|>", "738": "lived<|WB|>", "739": "ell<|WB|>", "740": "came<|WB|>", "741": "les<|WB|>", "742": "now", "743": "goo", "744": "good", "745": "goodb", "746": "ks<|WB|>", "747": "y's<|WB|>", "748": "kee", "749": "ond<|WB|>", "750": "cra", "751": "crack", "752": "thing.<|WB|>", "753": "crea", "754": "self<|WB|>", "755": "shor", "756": "chil", "757": "chim", "758": "down", "759": "e,<|WB|>", "760": "er's<|WB|>", "761": "g,<|WB|>", "762": "friend", "763": "thin", "764": "bir", "765": "ney<|WB|>", "766": "surp", "767": "surpri", "768": "out", "769": "ir<|WB|>", "770": "ous<|WB|>", "771": "The<|WB|>", "772": "morning<|WB|>", "773": "light<|WB|>", "774": "spi", "775": "spilled<|WB|>", "776": "acro", "777": "across<|WB|>", "778": "the<|WB|>", "779": "kitch", "780": "kitchen<|WB|>", "781": "and<|WB|>", "782": "made<|WB|>", "783": "everything<|WB|>", "784": "look<|WB|>", "785": "brie", "786": "brief", "787": "briefly<|WB|>", "788": "new", "789": "new.<|WB|>", "790": "She<|WB|>", "791": "had<|WB|>", "792": "alwa", "793": "alway", "794": "always<|WB|>", "795": "beli", "796": "believ", "797": "believed<|WB|>", "798": "that<|WB|>", "799": "small<|WB|>", "800": "gest", "801": "gestu", "802": "gesture", "803": "gestures<|WB|>", "804": "carried<|WB|>", "805": "more<|WB|>", "806": "weight<|WB|>", "807": "than<|WB|>", "808": "grand<|WB|>", "809": "pron", "810": "pronoun", "811": "pronounc", "812": "pronouncem", "813": "pronouncement", "814": "pronouncements.<|WB|>", "815": "Ra", "816": "Rain<|WB|>", "817": "tapp", "818": "tapped<|WB|>", "819": "against<|WB|>", "820": "wind", "821": "window<|WB|>", "822": "rh", "823": "rhy", "824": "rhyth", "825": "rhythm<|WB|>", "826": "matched<|WB|>", "827": "clock<|WB|>", "828": "wall.<|WB|>", "829": "He<|WB|>", "830": "rer", "831": "reread<|WB|>", "832": "letter<|WB|>", "833": "three<|WB|>", "834": "befor", "835": "before<|WB|>", "836": "under", "837": "understood<|WB|>", "838": "what<|WB|>", "839": "was<|WB|>", "840": "reall", "841": "really<|WB|>", "842": "asking.<|WB|>", "843": "garden<|WB|>", "844": "grew<|WB|>", "845": "wild<|WB|>", "846": "summer,<|WB|>", "847": "full<|WB|>", "848": "of<|WB|>", "849": "weeds<|WB|>", "850": "unex", "851": "unexpe", "852": "unexpected<|WB|>", "853": "flowers.<|WB|>", "854": "A<|WB|>", "855": "good<|WB|>", "856": "story<|WB|>", "857": "changes<|WB|>", "858": "see<|WB|>", "859": "world<|WB|>", "860": "even<|WB|>", "861": "af", "862": "after<|WB|>", "863": "forg", "864": "forget<|WB|>", "865": "deta", "866": "detail", "867": "details.<|WB|>", "868": "The", "869": "They<|WB|>", "870": "wal", "871": "walked<|WB|>", "872": "edge<|WB|>", "873": "field<|WB|>", "874": "sil", "875": "silence<|WB|>", "876": "for<|WB|>", "877": "long<|WB|>", "878": "while", "879": "while.<|WB|>", "880": "cof", "881": "coffe", "882": "coffee<|WB|>", "883": "gone<|WB|>", "884": "cold,<|WB|>", "885": "but<|WB|>", "886": "nei", "887": "neither<|WB|>", "888": "them<|WB|>", "889": "wan", "890": "wanted<|WB|>", "891": "move<|WB|>", "892": "make<|WB|>", "893": "more", "894": "more.<|WB|>", "895": "Ever", "896": "Every<|WB|>", "897": "cit", "898": "city<|WB|>", "899": "has<|WB|>", "900": "quiet<|WB|>", "901": "hour<|WB|>", "902": "just<|WB|>", "903": "dawn<|WB|>", "904": "when<|WB|>", "905": "belon", "906": "belongs<|WB|>", "907": "no<|WB|>", "908": "kept<|WB|>", "909": "ticket<|WB|>", "910": "stub<|WB|>", "911": "her<|WB|>", "912": "wallet<|WB|>", "913": "tri", "914": "trip<|WB|>", "915": "over.<|WB|>", "916": "learned<|WB|>", "917": "patience<|WB|>", "918": "not<|WB|>", "919": "waiting,<|WB|>", "920": "deciding<|WB|>", "921": "hur", "922": "hurr", "923": "hurry.<|WB|>", "924": "library<|WB|>", "925": "smelled<|WB|>", "926": "pap", "927": "paper<|WB|>", "928": "dust<|WB|>", "929": "decision", "930": "decisions.<|WB|>", "931": "sud", "932": "sudd", "933": "sudden<|WB|>", "934": "gust<|WB|>", "935": "wind<|WB|>", "936": "sent<|WB|>", "937": "loose<|WB|>", "938": "pag", "939": "pages<|WB|>", "940": "sca", "941": "scatter", "942": "scattering<|WB|>", "943": "lawn", "944": "lawn.<|WB|>", "945": "built<|WB|>", "946": "boat<|WB|>", "947": "garage<|WB|>", "948": "over<|WB|>", "949": "cour", "950": "course<|WB|>", "951": "winter.<|WB|>", "952": "Some<|WB|>", "953": "questions<|WB|>", "954": "are<|WB|>", "955": "worth<|WB|>", "956": "answers<|WB|>", "957": "they<|WB|>", "958": "seem<|WB|>", "959": "dem", "960": "demand.<|WB|>", "961": "dog<|WB|>", "962": "waited<|WB|>", "963": "by<|WB|>", "964": "door,<|WB|>", "965": "hopeful<|WB|>", "966": "only<|WB|>", "967": "animals<|WB|>", "968": "can<|WB|>", "969": "be.<|WB|>", "970": "wrote<|WB|>", "971": "name<|WB|>", "972": "marg", "973": "margin<|WB|>", "974": "book,<|WB|>", "975": "then<|WB|>", "976": "regre", "977": "regret", "978": "regretted<|WB|>", "979": "imme", "980": "immedi", "981": "immediat", "982": "immediately.<|WB|>", "983": "Even", "984": "Evening<|WB|>", "985": "arri", "986": "arrived<|WB|>", "987": "slowl", "988": "slowly,<|WB|>", "989": "if<|WB|>", "990": "rel", "991": "relu", "992": "reluct", "993": "reluctant<|WB|>", "994": "comm", "995": "commit<|WB|>", "996": "ending<|WB|>", "997": "day.<|WB|>", "998": "could<|WB|>", "999": "hear<|WB|>", "1000": "from<|WB|>", "1001": "his<|WB|>", "1002": "room", "1003": "room<|WB|>", "1004": "nights<|WB|>", "1005": "right.<|WB|>", "1006": "best<|WB|>", "1007": "conver", "1008": "conversa", "1009": "conversations<|WB|>", "1010": "happ", "1011": "happen<|WB|>", "1012": "trying<|WB|>", "1013": "be<|WB|>", "1014": "impre", "1015": "impressi", "1016": "impressive.<|WB|>", "1017": "sing", "1018": "single<|WB|>", "1019": "lantern<|WB|>", "1020": "hun", "1021": "hung<|WB|>", "1022": "dock", "1023": "dock,<|WB|>", "1024": "swa", "1025": "swaying<|WB|>", "1026": "with<|WB|>", "1027": "tide.<|WB|>", "1028": "rehear", "1029": "rehearsed<|WB|>", "1030": "apol", "1031": "apolog", "1032": "apology<|WB|>", "1033": "week<|WB|>", "1034": "sti", "1035": "still<|WB|>", "1036": "sai", "1037": "said<|WB|>", "1038": "all<|WB|>", "1039": "wrong", "1040": "wrong.<|WB|>", "1041": "far", "1042": "farm", "1043": "farmhouse<|WB|>", "1044": "leaned<|WB|>", "1045": "sligh", "1046": "slightly<|WB|>", "1047": "side", "1048": "side,<|WB|>", "1049": "having<|WB|>", "1050": "giv", "1051": "given<|WB|>", "1052": "up<|WB|>", "1053": "being<|WB|>", "1054": "straight.<|WB|>", "1055": "coun", "1056": "counted<|WB|>", "1057": "stars<|WB|>", "1058": "unti", "1059": "until<|WB|>", "1060": "neck<|WB|>", "1061": "ached<|WB|>", "1062": "somewhere<|WB|>", "1063": "past<|WB|>", "1064": "hund", "1065": "hundre", "1066": "hundred.<|WB|>", "1067": "Th", "1068": "There<|WB|>", "1069": "particular<|WB|>", "1070": "lonel", "1071": "lonelin", "1072": "loneliness<|WB|>", "1073": "comes<|WB|>", "1074": "too<|WB|>", "1075": "quick", "1076": "quickly.<|WB|>", "1077": "pie<|WB|>", "1078": "cru", "1079": "crust<|WB|>", "1080": "disa", "1081": "disast", "1082": "disaster", "1083": "disaster,<|WB|>", "1084": "fill", "1085": "filling<|WB|>", "1086": "entirely.<|WB|>", "1087": "argu", "1088": "argued<|WB|>", "1089": "ab", "1090": "about<|WB|>", "1091": "maps<|WB|>", "1092": "though<|WB|>", "1093": "any<|WB|>", "1094": "idea<|WB|>", "1095": "wer", "1096": "were.<|WB|>", "1097": "Fro", "1098": "Frost<|WB|>", "1099": "pain", "1100": "painted<|WB|>", "1101": "gla", "1102": "glass<|WB|>", "1103": "deli", "1104": "delica", "1105": "delicate<|WB|>", "1106": "white<|WB|>", "1107": "fern", "1108": "ferns<|WB|>", "1109": "overn", "1110": "overnight.<|WB|>", "1111": "collected<|WB|>", "1112": "postcards<|WB|>", "1113": "plac", "1114": "places<|WB|>", "1115": "she<|WB|>", "1116": "never<|WB|>", "1117": "been<|WB|>", "1118": "proba", "1119": "probab", "1120": "probably<|WB|>", "1121": "would<|WB|>", "1122": "go.<|WB|>", "1123": "train<|WB|>", "1124": "slowed<|WB|>", "1125": "enter", "1126": "entered<|WB|>", "1127": "station,<|WB|>", "1128": "sighing<|WB|>", "1129": "like<|WB|>", "1130": "tired<|WB|>", "1131": "animal.<|WB|>", "1132": "found<|WB|>", "1133": "pho", "1134": "phot", "1135": "photog", "1136": "photogra", "1137": "photograp", "1138": "photograph", "1139": "photograph<|WB|>", "1140": "grandmother<|WB|>", "1141": "studi", "1142": "studied<|WB|>", "1143": "mu", "1144": "much<|WB|>", "1145": "longer<|WB|>", "1146": "expe", "1147": "expect", "1148": "expected.<|WB|>", "1149": "smell<|WB|>", "1150": "bread<|WB|>", "1151": "dri", "1152": "drif", "1153": "drifted<|WB|>", "1154": "bakery<|WB|>", "1155": "pulled<|WB|>", "1156": "whol", "1157": "whole<|WB|>", "1158": "stre", "1159": "street<|WB|>", "1160": "tow", "1161": "toward<|WB|>", "1162": "It<|WB|>", "1163": "strange<|WB|>", "1164": "famil", "1165": "famili", "1166": "familiar<|WB|>", "1167": "bring<|WB|>", "1168": "back<|WB|>", "1169": "entir", "1170": "entire<|WB|>", "1171": "year<|WB|>", "1172": "inst", "1173": "instan", "1174": "instant.<|WB|>", "1175": "planted<|WB|>", "1176": "tree<|WB|>", "1177": "clou", "1178": "cloudy<|WB|>", "1179": "so<|WB|>", "1180": "shocked<|WB|>", "1181": "sun.<|WB|>", "1182": "switch", "1183": "switching<|WB|>", "1184": "bet", "1185": "betwe", "1186": "between<|WB|>", "1187": "saying<|WB|>", "1188": "fine<|WB|>", "1189": "not,<|WB|>", "1190": "meant<|WB|>", "1191": "both.<|WB|>", "1192": "market<|WB|>", "1193": "Sat", "1194": "Satur", "1195": "Saturday<|WB|>", "1196": "loud,<|WB|>", "1197": "color", "1198": "colorful", "1199": "colorful,<|WB|>", "1200": "comp", "1201": "comple", "1202": "complet", "1203": "completel", "1204": "completely<|WB|>", "1205": "impo", "1206": "impossi", "1207": "impossib", "1208": "impossible<|WB|>", "1209": "rush<|WB|>", "1210": "thr", "1211": "through.<|WB|>", "1212": "ideas<|WB|>", "1213": "down<|WB|>", "1214": "dark<|WB|>", "1215": "dayl", "1216": "daylight.<|WB|>", "1217": "carved<|WB|>", "1218": "va", "1219": "valle", "1220": "valley<|WB|>", "1221": "mill", "1222": "millen", "1223": "millenn", "1224": "millenni", "1225": "millennia", "1226": "millennia,<|WB|>", "1227": "patient<|WB|>", "1228": "stone<|WB|>", "1229": "stranger<|WB|>", "1230": "smil", "1231": "smiled<|WB|>", "1232": "bus,<|WB|>", "1233": "looked<|WB|>", "1234": "away<|WB|>", "1235": "first", "1236": "first.<|WB|>", "1237": "sn", "1238": "snow<|WB|>", "1239": "swall", "1240": "swallow", "1241": "swallowed<|WB|>", "1242": "town's<|WB|>", "1243": "soun", "1244": "sound,<|WB|>", "1245": "leaving<|WB|>", "1246": "crun", "1247": "crunch<|WB|>", "1248": "boots<|WB|>", "1249": "hom", "1250": "home.<|WB|>", "1251": "hab", "1252": "habit<|WB|>", "1253": "finishing<|WB|>", "1254": "other<|WB|>", "1255": "people", "1256": "people's<|WB|>", "1257": "sent"}, "inverse_vocab": {"\u0000": 0, "\u0001": 1, "\u0002": 2, "\u0003": 3, "\u0004": 4, "\u0005": 5, "\u0006": 6, "\u0007": 7, "\b": 8, "\t": 9, "\n": 10, "\u000b": 11, "\f": 12, "\r": 13, "\u000e": 14, "\u000f": 15, "\u0010": 16, "\u0011": 17, "\u0012": 18, "\u0013": 19, "\u0014": 20, "\u0015": 21, "\u0016": 22, "\u0017": 23, "\u0018": 24, "\u0019": 25, "\u001a": 26, "\u001b": 27, "\u001c": 28, "\u001d": 29, "\u001e": 30, "\u001f": 31, " ": 32, "!": 33, "\"": 34, "#": 35, "$": 36, "%": 37, "&": 38, "'": 39, "(": 40, ")": 41, "*": 42, "+": 43, ",": 44, "-": 45, ".": 46, "/": 47, "0": 48, "1": 49, "2": 50, "3": 51, "4": 52, "5": 53, "6": 54, "7": 55, "8": 56, "9": 57, ":": 58, ";": 59, "<": 60, "=": 61, ">": 62, "?": 63, "@": 64, "A": 65, "B": 66, "C": 67, "D": 68, "E": 69, "F": 70, "G": 71, "H": 72, "I": 73, "J": 74, "K": 75, "L": 76, "M": 77, "N": 78, "O": 79, "P": 80, "Q": 81, "R": 82, "S": 83, "T": 84, "U": 85, "V": 86, "W": 87, "X": 88, "Y": 89, "Z": 90, "[": 91, "\\": 92, "]": 93, "^": 94, "_": 95, "`": 96, "a": 97, "b": 98, "c": 99, "d": 100, "e": 101, "f": 102, "g": 103, "h": 104, "i": 105, "j": 106, "k": 107, "l": 108, "m": 109, "n": 110, "o": 111, "p": 112, "q": 113, "r": 114, "s": 115, "t": 116, "u": 117, "v": 118, "w": 119, "x": 120, "y": 121, "z": 122, "{": 123, "|": 124, "}": 125, "~": 126, "\u007f": 127, "\u0080": 128, "\u0081": 129, "\u0082": 130, "\u0083": 131, "\u0084": 132, "\u0085": 133, "\u0086": 134, "\u0087": 135, "\u0088": 136, "\u0089": 137, "\u008a": 138, "\u008b": 139, "\u008c": 140, "\u008d": 141, "\u008e": 142, "\u008f": 143, "\u0090": 144, "\u0091": 145, "\u0092": 146, "\u0093": 147, "\u0094": 148, "\u0095": 149, "\u0096": 150, "\u0097": 151, "\u0098": 152, "\u0099": 153, "\u009a": 154, "\u009b": 155, "\u009c": 156, "\u009d": 157, "\u009e": 158, "\u009f": 159, "\u00a0": 160, "\u00a1": 161, "\u00a2": 162, "\u00a3": 163, "\u00a4": 164, "\u00a5": 165, "\u00a6": 166, "\u00a7": 167, "\u00a8": 168, "\u00a9": 169, "\u00aa": 170, "\u00ab": 171, "\u00ac": 172, "\u00ad": 173, "\u00ae": 174, "\u00af": 175, "\u00b0": 176, "\u00b1": 177, "\u00b2": 178, "\u00b3": 179, "\u00b4": 180, "\u00b5": 181, "\u00b6": 182, "\u00b7": 183, "\u00b8": 184, "\u00b9": 185, "\u00ba": 186, "\u00bb": 187, "\u00bc": 188, "\u00bd": 189, "\u00be": 190, "\u00bf": 191, "\u00c0": 192, "\u00c1": 193, "\u00c2": 194, "\u00c3": 195, "\u00c4": 196, "\u00c5": 197, "\u00c6": 198, "\u00c7": 199, "\u00c8": 200, "\u00c9": 201, "\u00ca": 202, "\u00cb": 203, "\u00cc": 204, "\u00cd": 205, "\u00ce": 206, "\u00cf": 207, "\u00d0": 208, "\u00d1": 209, "\u00d2": 210, "\u00d3": 211, "\u00d4": 212, "\u00d5": 213, "\u00d6": 214, "\u00d7": 215, "\u00d8": 216, "\u00d9": 217, "\u00da": 218, "\u00db": 219, "\u00dc": 220, "\u00dd": 221, "\u00de": 222, "\u00df": 223, "\u00e0": 224, "\u00e1": 225, "\u00e2": 226, "\u00e3": 227, "\u00e4": 228, "\u00e5": 229, "\u00e6": 230, "\u00e7": 231, "\u00e8": 232, "\u00e9": 233, "\u00ea": 234, "\u00eb": 235, "\u00ec": 236, "\u00ed": 237, "\u00ee": 238, "\u00ef": 239, "\u00f0": 240, "\u00f1": 241, "\u00f2": 242, "\u00f3": 243, "\u00f4": 244, "\u00f5": 245, "\u00f6": 246, "\u00f7": 247, "\u00f8": 248, "\u00f9": 249, "\u00fa": 250, "\u00fb": 251, "\u00fc": 252, "\u00fd": 253, "\u00fe": 254, "\u00ff": 255, "<|EOS|>": 256, "<|WB|>": 257, ".<|WB|>": 258, "d<|WB|>": 259, "e<|WB|>": 260, "in": 261, "s<|WB|>": 262, "er": 263, "ed<|WB|>": 264, ",<|WB|>": 265, "t<|WB|>": 266, "ing": 267, "en": 268, "an": 269, "ar": 270, "th": 271, "on": 272, "st": 273, "re": 274, "y<|WB|>": 275, "or": 276, "ing<|WB|>": 277, "ou": 278, "er<|WB|>": 279, "ll": 280, "ow": 281, "ti": 282, "se": 283, "gh": 284, "om": 285, "le": 286, "it": 287, "de": 288, "ch": 289, "oo": 290, "wa": 291, "d,<|WB|>": 292, "igh": 293, "e.<|WB|>": 294, "wh": 295, "ra": 296, "ri": 297, "be": 298, "s.<|WB|>": 299, "sh": 300, "ma": 301, "ne": 302, "st<|WB|>": 303, "rea": 304, "il": 305, "el": 306, "t.<|WB|>": 307, "es<|WB|>": 308, "un": 309, "pa": 310, "la": 311, "d.<|WB|>": 312, "ro": 313, "en<|WB|>": 314, "k<|WB|>": 315, "ol": 316, "'s<|WB|>": 317, "li": 318, "ted<|WB|>": 319, "own": 320, "ir": 321, "ta": 322, "le<|WB|>": 323, "ev": 324, "we": 325, "em": 326, "ea": 327, "su": 328, "y.<|WB|>": 329, "sa": 330, "ha": 331, "ll<|WB|>": 332, "ran": 333, "tt": 334, "g<|WB|>": 335, "da": 336, "ke": 337, "bo": 338, "po": 339, "ly<|WB|>": 340, "lo": 341, "pe": 342, "ge<|WB|>": 343, "mo": 344, "qu": 345, "se<|WB|>": 346, "ca": 347, "do": 348, "im": 349, "s,<|WB|>": 350, "ded<|WB|>": 351, "ss<|WB|>": 352, "oun": 353, "in<|WB|>": 354, "ga": 355, "for": 356, "o<|WB|>": 357, "ci": 358, "ul": 359, "ved<|WB|>": 360, "com": 361, "ck": 362, "wi": 363, "sk": 364, "ing.<|WB|>": 365, "f<|WB|>": 366, "ds<|WB|>": 367, "low": 368, "he": 369, "fi": 370, "fe": 371, "one<|WB|>": 372, "ther<|WB|>": 373, "ve<|WB|>": 374, "ke<|WB|>": 375, "our": 376, "no": 377, "deci": 378, "me": 379, "si": 380, "me<|WB|>": 381, "mar": 382, "di": 383, "y,<|WB|>": 384, "ts<|WB|>": 385, "tion": 386, "som": 387, "ru": 388, "ba": 389, "ch<|WB|>": 390, "ed.<|WB|>": 391, "son": 392, "se.<|WB|>": 393, "han": 394, "ight<|WB|>": 395, "ever": 396, "al": 397, "at<|WB|>": 398, "sma": 399, "car": 400, "pr": 401, "win": 402, "w<|WB|>": 403, "wor": 404, "et<|WB|>": 405, "ce<|WB|>": 406, "whi": 407, "co": 408, "bu": 409, "tic": 410, "ing,<|WB|>": 411, "ding<|WB|>": 412, "ur": 413, "ent<|WB|>": 414, "ter": 415, "sw": 416, "door": 417, "te<|WB|>": 418, "boo": 419, "ar<|WB|>": 420, "lan": 421, "sed<|WB|>": 422, "some": 423, "ough": 424, "pla": 425, "go": 426, "th.<|WB|>": 427, "own<|WB|>": 428, "op": 429, "sur": 430, "um": 431, "ad": 432, "ther": 433, "mor": 434, "pi": 435, "lled<|WB|>": 436, "de<|WB|>": 437, "every": 438, "thing<|WB|>": 439, "est": 440, "gran": 441, "pp": 442, "ow<|WB|>": 443, "a<|WB|>": 444, "m<|WB|>": 445, "gre": 446, "wee": 447, "lon": 448, "ver": 449, "qui": 450, "p<|WB|>": 451, "br": 452, "ver<|WB|>": 453, "ho": 454, "ful": 455, "ant<|WB|>": 456, "ight.<|WB|>": 457, "ying<|WB|>": 458, "wr": 459, "ving<|WB|>": 460, "ere<|WB|>": 461, "ps<|WB|>": 462, "tra": 463, "ger<|WB|>": 464, "ex": 465, "brea": 466, "fa": 467, "t,<|WB|>": 468, "fir": 469, "ce": 470, "ed,<|WB|>": 471, "led<|WB|>": 472, "on.<|WB|>": 473, "sit": 474, "sel": 475, "hand": 476, "he<|WB|>": 477, "ning<|WB|>": 478, "tab": 479, "loo": 480, "an<|WB|>": 481, "ent": 482, "aga": 483, "again": 484, "ched<|WB|>": 485, "old<|WB|>": 486, "ck<|WB|>": 487, "wall": 488, "tim": 489, "und": 490, "ood<|WB|>": 491, "it<|WB|>": 492, "ask": 493, "gar": 494, "sum": 495, "summ": 496, "ers.<|WB|>": 497, "stor": 498, "chan": 499, "ld<|WB|>": 500, "ter<|WB|>": 501, "ked<|WB|>": 502, "fiel": 503, "ust<|WB|>": 504, "wn": 505, "one.<|WB|>": 506, "pt<|WB|>": 507, "stu": 508, "pati": 509, "wait": 510, "tter": 511, "th<|WB|>": 512, "ima": 513, "book": 514, "ven": 515, "slow": 516, "as<|WB|>": 517, "ct": 518, "con": 519, "pre": 520, "ssi": 521, "end<|WB|>": 522, "ouse<|WB|>": 523, "gi": 524, "stra": 525, "too": 526, "ly.<|WB|>": 527, "enti": 528, "out<|WB|>": 529, "lle": 530, "sta": 531, "grand": 532, "bak": 533, "baker": 534, "stran": 535, "ye": 536, "dy<|WB|>": 537, "day<|WB|>": 538, "fin": 539, "day": 540, "bea": 541, "k.<|WB|>": 542, "whist": 543, "sea": 544, "pas": 545, "ended<|WB|>": 546, "ent.<|WB|>": 547, "st,<|WB|>": 548, "vi": 549, "ugh": 550, "or<|WB|>": 551, "war": 552, "umb": 553, "poin": 554, "fri": 555, "him": 556, "way,<|WB|>": 557, "small": 558, "end": 559, "ac": 560, "itch": 561, "table<|WB|>": 562, "bri": 563, "ried<|WB|>": 564, "tched<|WB|>": 565, "clo": 566, "on<|WB|>": 567, "ead<|WB|>": 568, "tter<|WB|>": 569, "ree<|WB|>": 570, "times<|WB|>": 571, "stood<|WB|>": 572, "gard": 573, "wil": 574, "summer": 575, "fu": 576, "une": 577, "cted<|WB|>": 578, "flow": 579, "chang": 580, "way<|WB|>": 581, "you": 582, "you<|WB|>": 583, "to<|WB|>": 584, "dge<|WB|>": 585, "ence<|WB|>": 586, "col": 587, "them": 588, "our<|WB|>": 589, "dawn": 590, "gs<|WB|>": 591, "ket<|WB|>": 592, "stub": 593, "over": 594, "lear": 595, "ned<|WB|>": 596, "libr": 597, "librar": 598, "sme": 599, "decisi": 600, "ilt<|WB|>": 601, "age<|WB|>": 602, "winter": 603, "ome<|WB|>": 604, "quest": 605, "questi": 606, "ons<|WB|>": 607, "answ": 608, "answer": 609, "the": 610, "seem": 611, "and.<|WB|>": 612, "hope": 613, "hopeful": 614, "anima": 615, "animal": 616, "wro": 617, "na": 618, "at": 619, "ely.<|WB|>": 620, "ould<|WB|>": 621, "river<|WB|>": 622, "fr": 623, "from": 624, "is<|WB|>": 625, "most<|WB|>": 626, "nigh": 627, "tions<|WB|>": 628, "tr": 629, "ve.<|WB|>": 630, "lanter": 631, "lantern": 632, "tide": 633, "hear": 634, "ap": 635, "og": 636, "wron": 637, "house<|WB|>": 638, "aned<|WB|>": 639, "ligh": 640, "tly<|WB|>": 641, "star": 642, "l<|WB|>": 643, "gave<|WB|>": 644, "where<|WB|>": 645, "par": 646, "partic": 647, "particul": 648, "ess<|WB|>": 649, "entire": 650, "arg": 651, "ough<|WB|>": 652, "ide": 653, "ite<|WB|>": 654, "fer": 655, "colle": 656, "post": 657, "postcar": 658, "pro": 659, "station": 660, "sigh": 661, "tir": 662, "ound<|WB|>": 663, "grandmo": 664, "pu": 665, "ard<|WB|>": 666, "it.<|WB|>": 667, "how<|WB|>": 668, "mil": 669, "plan": 670, "lou": 671, "sho": 672, "cked<|WB|>": 673, "sun": 674, "sh<|WB|>": 675, "ough.<|WB|>": 676, "dar": 677, "mi": 678, "town": 679, "lea": 680, "cr": 681, "fini": 682, "finish": 683, "peop": 684, "prom": 685, "promi": 686, "promise": 687, "feel": 688, "whistle": 689, "lif": 690, "season": 691, "open": 692, "cer": 693, "tain<|WB|>": 694, "thing": 695, "new<|WB|>": 696, "orn": 697, "night<|WB|>": 698, "sk,<|WB|>": 699, "king<|WB|>": 700, "agre": 701, "vor": 702, "med<|WB|>": 703, "visit": 704, "dra": 705, "laugh": 706, "rem": 707, "remem": 708, "rememb": 709, "ered<|WB|>": 710, "shar": 711, "jour": 712, "read,<|WB|>": 713, "mom": 714, "ness<|WB|>": 715, "got<|WB|>": 716, "ked,<|WB|>": 717, "song<|WB|>": 718, "spo": 719, "app": 720, "one": 721, "umbre": 722, "umbrell": 723, "yed<|WB|>": 724, "tea": 725, "ig": 726, "ever<|WB|>": 727, "ows<|WB|>": 728, "thered<|WB|>": 729, "du": 730, "gin": 731, "quie": 732, "her": 733, "self": 734, "self.<|WB|>": 735, "kin": 736, "gers.<|WB|>": 737, "lived<|WB|>": 738, "ell<|WB|>": 739, "came<|WB|>": 740, "les<|WB|>": 741, "now": 742, "goo": 743, "good": 744, "goodb": 745, "ks<|WB|>": 746, "y's<|WB|>": 747, "kee": 748, "ond<|WB|>": 749, "cra": 750, "crack": 751, "thing.<|WB|>": 752, "crea": 753, "self<|WB|>": 754, "shor": 755, "chil": 756, "chim": 757, "down": 758, "e,<|WB|>": 759, "er's<|WB|>": 760, "g,<|WB|>": 761, "friend": 762, "thin": 763, "bir": 764, "ney<|WB|>": 765, "surp": 766, "surpri": 767, "out": 768, "ir<|WB|>": 769, "ous<|WB|>": 770, "The<|WB|>": 771, "morning<|WB|>": 772, "light<|WB|>": 773, "spi": 774, "spilled<|WB|>": 775, "acro": 776, "across<|WB|>": 777, "the<|WB|>": 778, "kitch": 779, "kitchen<|WB|>": 780, "and<|WB|>": 781, "made<|WB|>": 782, "everything<|WB|>": 783, "look<|WB|>": 784, "brie": 785, "brief": 786, "briefly<|WB|>": 787, "new": 788, "new.<|WB|>": 789, "She<|WB|>": 790, "had<|WB|>": 791, "alwa": 792, "alway": 793, "always<|WB|>": 794, "beli": 795, "believ": 796, "believed<|WB|>": 797, "that<|WB|>": 798, "small<|WB|>": 799, "gest": 800, "gestu": 801, "gesture": 802, "gestures<|WB|>": 803, "carried<|WB|>": 804, "more<|WB|>": 805, "weight<|WB|>": 806, "than<|WB|>": 807, "grand<|WB|>": 808, "pron": 809, "pronoun": 810, "pronounc": 811, "pronouncem": 812, "pronouncement": 813, "pronouncements.<|WB|>": 814, "Ra": 815, "Rain<|WB|>": 816, "tapp": 817, "tapped<|WB|>": 818, "against<|WB|>": 819, "wind": 820, "window<|WB|>": 821, "rh": 822, "rhy": 823, "rhyth": 824, "rhythm<|WB|>": 825, "matched<|WB|>": 826, "clock<|WB|>": 827, "wall.<|WB|>": 828, "He<|WB|>": 829, "rer": 830, "reread<|WB|>": 831, "letter<|WB|>": 832, "three<|WB|>": 833, "befor": 834, "before<|WB|>": 835, "under": 836, "understood<|WB|>": 837, "what<|WB|>": 838, "was<|WB|>": 839, "reall": 840, "really<|WB|>": 841, "asking.<|WB|>": 842, "garden<|WB|>": 843, "grew<|WB|>": 844, "wild<|WB|>": 845, "summer,<|WB|>": 846, "full<|WB|>": 847, "of<|WB|>": 848, "weeds<|WB|>": 849, "unex": 850, "unexpe": 851, "unexpected<|WB|>": 852, "flowers.<|WB|>": 853, "A<|WB|>": 854, "good<|WB|>": 855, "story<|WB|>": 856, "changes<|WB|>": 857, "see<|WB|>": 858, "world<|WB|>": 859, "even<|WB|>": 860, "af": 861, "after<|WB|>": 862, "forg": 863, "forget<|WB|>": 864, "deta": 865, "detail": 866, "details.<|WB|>": 867, "The": 868, "They<|WB|>": 869, "wal": 870, "walked<|WB|>": 871, "edge<|WB|>": 872, "field<|WB|>": 873, "sil": 874, "silence<|WB|>": 875, "for<|WB|>": 876, "long<|WB|>": 877, "while": 878, "while.<|WB|>": 879, "cof": 880, "coffe": 881, "coffee<|WB|>": 882, "gone<|WB|>": 883, "cold,<|WB|>": 884, "but<|WB|>": 885, "nei": 886, "neither<|WB|>": 887, "them<|WB|>": 888, "wan": 889, "wanted<|WB|>": 890, "move<|WB|>": 891, "make<|WB|>": 892, "more": 893, "more.<|WB|>": 894, "Ever": 895, "Every<|WB|>": 896, "cit": 897, "city<|WB|>": 898, "has<|WB|>": 899, "quiet<|WB|>": 900, "hour<|WB|>": 901, "just<|WB|>": 902, "dawn<|WB|>": 903, "when<|WB|>": 904, "belon": 905, "belongs<|WB|>": 906, "no<|WB|>": 907, "kept<|WB|>": 908, "ticket<|WB|>": 909, "stub<|WB|>": 910, "her<|WB|>": 911, "wallet<|WB|>": 912, "tri": 913, "trip<|WB|>": 914, "over.<|WB|>": 915, "learned<|WB|>": 916, "patience<|WB|>": 917, "not<|WB|>": 918, "waiting,<|WB|>": 919, "deciding<|WB|>": 920, "hur": 921, "hurr": 922, "hurry.<|WB|>": 923, "library<|WB|>": 924, "smelled<|WB|>": 925, "pap": 926, "paper<|WB|>": 927, "dust<|WB|>": 928, "decision": 929, "decisions.<|WB|>": 930, "sud": 931, "sudd": 932, "sudden<|WB|>": 933, "gust<|WB|>": 934, "wind<|WB|>": 935, "sent<|WB|>": 936, "loose<|WB|>": 937, "pag": 938, "pages<|WB|>": 939, "sca": 940, "scatter": 941, "scattering<|WB|>": 942, "lawn": 943, "lawn.<|WB|>": 944, "built<|WB|>": 945, "boat<|WB|>": 946, "garage<|WB|>": 947, "over<|WB|>": 948, "cour": 949, "course<|WB|>": 950, "winter.<|WB|>": 951, "Some<|WB|>": 952, "questions<|WB|>": 953, "are<|WB|>": 954, "worth<|WB|>": 955, "answers<|WB|>": 956, "they<|WB|>": 957, "seem<|WB|>": 958, "dem": 959, "demand.<|WB|>": 960, "dog<|WB|>": 961, "waited<|WB|>": 962, "by<|WB|>": 963, "door,<|WB|>": 964, "hopeful<|WB|>": 965, "only<|WB|>": 966, "animals<|WB|>": 967, "can<|WB|>": 968, "be.<|WB|>": 969, "wrote<|WB|>": 970, "name<|WB|>": 971, "marg": 972, "margin<|WB|>": 973, "book,<|WB|>": 974, "then<|WB|>": 975, "regre": 976, "regret": 977, "regretted<|WB|>": 978, "imme": 979, "immedi": 980, "immediat": 981, "immediately.<|WB|>": 982, "Even": 983, "Evening<|WB|>": 984, "arri": 985, "arrived<|WB|>": 986, "slowl": 987, "slowly,<|WB|>": 988, "if<|WB|>": 989, "rel": 990, "relu": 991, "reluct": 992, "reluctant<|WB|>": 993, "comm": 994, "commit<|WB|>": 995, "ending<|WB|>": 996, "day.<|WB|>": 997, "could<|WB|>": 998, "hear<|WB|>": 999, "from<|WB|>": 1000, "his<|WB|>": 1001, "room": 1002, "room<|WB|>": 1003, "nights<|WB|>": 1004, "right.<|WB|>": 1005, "best<|WB|>": 1006, "conver": 1007, "conversa": 1008, "conversations<|WB|>": 1009, "happ": 1010, "happen<|WB|>": 1011, "trying<|WB|>": 1012, "be<|WB|>": 1013, "impre": 1014, "impressi": 1015, "impressive.<|WB|>": 1016, "sing": 1017, "single<|WB|>": 1018, "lantern<|WB|>": 1019, "hun": 1020, "hung<|WB|>": 1021, "dock": 1022, "dock,<|WB|>": 1023, "swa": 1024, "swaying<|WB|>": 1025, "with<|WB|>": 1026, "tide.<|WB|>": 1027, "rehear": 1028, "rehearsed<|WB|>": 1029, "apol": 1030, "apolog": 1031, "apology<|WB|>": 1032, "week<|WB|>": 1033, "sti": 1034, "still<|WB|>": 1035, "sai": 1036, "said<|WB|>": 1037, "all<|WB|>": 1038, "wrong": 1039, "wrong.<|WB|>": 1040, "far": 1041, "farm": 1042, "farmhouse<|WB|>": 1043, "leaned<|WB|>": 1044, "sligh": 1045, "slightly<|WB|>": 1046, "side": 1047, "side,<|WB|>": 1048, "having<|WB|>": 1049, "giv": 1050, "given<|WB|>": 1051, "up<|WB|>": 1052, "being<|WB|>": 1053, "straight.<|WB|>": 1054, "coun": 1055, "counted<|WB|>": 1056, "stars<|WB|>": 1057, "unti": 1058, "until<|WB|>": 1059, "neck<|WB|>": 1060, "ached<|WB|>": 1061, "somewhere<|WB|>": 1062, "past<|WB|>": 1063, "hund": 1064, "hundre": 1065, "hundred.<|WB|>": 1066, "Th": 1067, "There<|WB|>": 1068, "particular<|WB|>": 1069, "lonel": 1070, "lonelin": 1071, "loneliness<|WB|>": 1072, "comes<|WB|>": 1073, "too<|WB|>": 1074, "quick": 1075, "quickly.<|WB|>": 1076, "pie<|WB|>": 1077, "cru": 1078, "crust<|WB|>": 1079, "disa": 1080, "disast": 1081, "disaster": 1082, "disaster,<|WB|>": 1083, "fill": 1084, "filling<|WB|>": 1085, "entirely.<|WB|>": 1086, "argu": 1087, "argued<|WB|>": 1088, "ab": 1089, "about<|WB|>": 1090, "maps<|WB|>": 1091, "though<|WB|>": 1092, "any<|WB|>": 1093, "idea<|WB|>": 1094, "wer": 1095, "were.<|WB|>": 1096, "Fro": 1097, "Frost<|WB|>": 1098, "pain": 1099, "painted<|WB|>": 1100, "gla": 1101, "glass<|WB|>": 1102, "deli": 1103, "delica": 1104, "delicate<|WB|>": 1105, "white<|WB|>": 1106, "fern": 1107, "ferns<|WB|>": 1108, "overn": 1109, "overnight.<|WB|>": 1110, "collected<|WB|>": 1111, "postcards<|WB|>": 1112, "plac": 1113, "places<|WB|>": 1114, "she<|WB|>": 1115, "never<|WB|>": 1116, "been<|WB|>": 1117, "proba": 1118, "probab": 1119, "probably<|WB|>": 1120, "would<|WB|>": 1121, "go.<|WB|>": 1122, "train<|WB|>": 1123, "slowed<|WB|>": 1124, "enter": 1125, "entered<|WB|>": 1126, "station,<|WB|>": 1127, "sighing<|WB|>": 1128, "like<|WB|>": 1129, "tired<|WB|>": 1130, "animal.<|WB|>": 1131, "found<|WB|>": 1132, "pho": 1133, "phot": 1134, "photog": 1135, "photogra": 1136, "photograp": 1137, "photograph": 1138, "photograph<|WB|>": 1139, "grandmother<|WB|>": 1140, "studi": 1141, "studied<|WB|>": 1142, "mu": 1143, "much<|WB|>": 1144, "longer<|WB|>": 1145, "expe": 1146, "expect": 1147, "expected.<|WB|>": 1148, "smell<|WB|>": 1149, "bread<|WB|>": 1150, "dri": 1151, "drif": 1152, "drifted<|WB|>": 1153, "bakery<|WB|>": 1154, "pulled<|WB|>": 1155, "whol": 1156, "whole<|WB|>": 1157, "stre": 1158, "street<|WB|>": 1159, "tow": 1160, "toward<|WB|>": 1161, "It<|WB|>": 1162, "strange<|WB|>": 1163, "famil": 1164, "famili": 1165, "familiar<|WB|>": 1166, "bring<|WB|>": 1167, "back<|WB|>": 1168, "entir": 1169, "entire<|WB|>": 1170, "year<|WB|>": 1171, "inst": 1172, "instan": 1173, "instant.<|WB|>": 1174, "planted<|WB|>": 1175, "tree<|WB|>": 1176, "clou": 1177, "cloudy<|WB|>": 1178, "so<|WB|>": 1179, "shocked<|WB|>": 1180, "sun.<|WB|>": 1181, "switch": 1182, "switching<|WB|>": 1183, "bet": 1184, "betwe": 1185, "between<|WB|>": 1186, "saying<|WB|>": 1187, "fine<|WB|>": 1188, "not,<|WB|>": 1189, "meant<|WB|>": 1190, "both.<|WB|>": 1191, "market<|WB|>": 1192, "Sat": 1193, "Satur": 1194, "Saturday<|WB|>": 1195, "loud,<|WB|>": 1196, "color": 1197, "colorful": 1198, "colorful,<|WB|>": 1199, "comp": 1200, "comple": 1201, "complet": 1202, "completel": 1203, "completely<|WB|>": 1204, "impo": 1205, "impossi": 1206, "impossib": 1207, "impossible<|WB|>": 1208, "rush<|WB|>": 1209, "thr": 1210, "through.<|WB|>": 1211, "ideas<|WB|>": 1212, "down<|WB|>": 1213, "dark<|WB|>": 1214, "dayl": 1215, "daylight.<|WB|>": 1216, "carved<|WB|>": 1217, "va": 1218, "valle": 1219, "valley<|WB|>": 1220, "mill": 1221, "millen": 1222, "millenn": 1223, "millenni": 1224, "millennia": 1225, "millennia,<|WB|>": 1226, "patient<|WB|>": 1227, "stone<|WB|>": 1228, "stranger<|WB|>": 1229, "smil": 1230, "smiled<|WB|>": 1231, "bus,<|WB|>": 1232, "looked<|WB|>": 1233, "away<|WB|>": 1234, "first": 1235, "first.<|WB|>": 1236, "sn": 1237, "snow<|WB|>": 1238, "swall": 1239, "swallow": 1240, "swallowed<|WB|>": 1241, "town's<|WB|>": 1242, "soun": 1243, "sound,<|WB|>": 1244, "leaving<|WB|>": 1245, "crun": 1246, "crunch<|WB|>": 1247, "boots<|WB|>": 1248, "hom": 1249, "home.<|WB|>": 1250, "hab": 1251, "habit<|WB|>": 1252, "finishing<|WB|>": 1253, "other<|WB|>": 1254, "people": 1255, "people's<|WB|>": 1256, "sent": 1257}}