{"merges": [[".", "<|WB|>", ".<|WB|>"], ["d", "<|WB|>", "d<|WB|>"], ["s", "<|WB|>", "s<|WB|>"], ["i", "n", "in"], ["e", "r", "er"], ["e", "d<|WB|>", "ed<|WB|>"], [",", "<|WB|>", ",<|WB|>"], ["e", "<|WB|>", "e<|WB|>"], ["e", "n", "en"], ["s", "t", "st"], ["a", "r", "ar"], ["in", "g", "ing"], ["o", "n", "on"], ["r", "e", "re"], ["o", "r", "or"], ["a", "n", "an"], ["t", "<|WB|>", "t<|WB|>"], ["t", "h", "th"], ["l", "l", "ll"], ["o", "u", "ou"], ["ing", "<|WB|>", "ing<|WB|>"], ["y", "<|WB|>", "y<|WB|>"], ["a", "t", "at"], ["o", "w", "ow"], ["c", "h", "ch"], ["er", "<|WB|>", "er<|WB|>"], ["e", "d", "ed"], ["s", "e", "se"], ["'", "s<|WB|>", "'s<|WB|>"], ["s", ".<|WB|>", "s.<|WB|>"], ["o", "o", "oo"], ["r", "a", "ra"], ["l", "i", "li"], ["s", "h", "sh"], ["r", "i", "ri"], ["e", "s<|WB|>", "es<|WB|>"], ["t", "i", "ti"], ["e", ".<|WB|>", "e.<|WB|>"], ["g", "h", "gh"], ["c", "k", "ck"], ["l", "a", "la"], ["a", "l", "al"], ["r", "o", "ro"], ["i", "t", "it"], ["e", "a", "ea"], ["c", "o", "co"], ["i", "l", "il"], ["e", "t", "et"], ["u", "n", "un"], ["e", "l", "el"], ["y", ".<|WB|>", "y.<|WB|>"], ["en", "<|WB|>", "en<|WB|>"], ["a", "ll", "all"], ["d", "e", "de"], ["ed", ".<|WB|>", "ed.<|WB|>"], ["l", "e<|WB|>", "le<|WB|>"], ["i", "r", "ir"], ["en", "t", "ent"], ["a", "p", "ap"], ["s", ",<|WB|>", "s,<|WB|>"], ["a", "d", "ad"], ["n", "e", "ne"], ["w", "a", "wa"], ["m", "e", "me"], ["s", "p", "sp"], ["l", "o", "lo"], ["w", "h", "wh"], ["u", "r", "ur"], ["m", "i", "mi"], ["a", "g", "ag"], ["s", "i", "si"], ["u", "m", "um"], ["k", "<|WB|>", "k<|WB|>"], ["st", "<|WB|>", "st<|WB|>"], ["l", "e", "le"], ["an", "d", "and"], ["p", "o", "po"], ["w", "e", "we"], ["m", "<|WB|>", "m<|WB|>"], ["n", "o", "no"], ["b", "o", "bo"], ["l", "y<|WB|>", "ly<|WB|>"], ["ing", ".<|WB|>", "ing.<|WB|>"], ["m", "o", "mo"], ["i", "on", "ion"], ["o", "p", "op"], ["ed", ",<|WB|>", "ed,<|WB|>"], ["t", "a", "ta"], ["v", "er", "ver"], ["ou", "n", "oun"], ["t", "er", "ter"], ["d", "i", "di"], ["b", "e", "be"], ["a", "s", "as"], ["f", "i", "fi"], ["c", "i", "ci"], ["i", "gh", "igh"], ["ow", "<|WB|>", "ow<|WB|>"], ["ll", "<|WB|>", "ll<|WB|>"], ["n", "<|WB|>", "n<|WB|>"], ["u", "l", "ul"], ["m", "p", "mp"], ["w", "i", "wi"], ["s", "o", "so"], ["f", "or", "for"], ["t", "ed<|WB|>", "ted<|WB|>"], ["c", "e<|WB|>", "ce<|WB|>"], ["d", "a", "da"], ["d", "o", "do"], ["en", "d", "end"], ["e", "ar", "ear"], ["t", ".<|WB|>", "t.<|WB|>"], ["re", "a", "rea"], ["e", ",<|WB|>", "e,<|WB|>"], ["r", "an", "ran"], ["in", "<|WB|>", "in<|WB|>"], ["q", "u", "qu"], ["y", ",<|WB|>", "y,<|WB|>"], ["th", "er", "ther"], ["w", "or", "wor"], ["e", "t<|WB|>", "et<|WB|>"], ["on", "g", "ong"], ["s", "e<|WB|>", "se<|WB|>"], ["f", "a", "fa"], ["f", "l", "fl"], ["m", "e<|WB|>", "me<|WB|>"], ["c", "on", "con"], ["h", "a", "ha"], ["c", "ar", "car"], ["e", "x", "ex"], ["b", "u", "bu"], ["e", "p", "ep"], ["th", "<|WB|>", "th<|WB|>"], ["i", "m", "im"], ["m", "ar", "mar"], ["r", "u", "ru"], ["m", "or", "mor"], ["li", "gh", "ligh"], ["w", "in", "win"], ["o", "l", "ol"], ["ck", "<|WB|>", "ck<|WB|>"], ["on", "<|WB|>", "on<|WB|>"], ["f", "<|WB|>", "f<|WB|>"], ["h", "ou", "hou"], ["at", "ion", "ation"], ["c", "a", "ca"], ["s", "s", "ss"], ["s", "s<|WB|>", "ss<|WB|>"], ["at", "ch", "atch"], ["ar", "d", "ard"], ["th", "er<|WB|>", "ther<|WB|>"], ["v", "e<|WB|>", "ve<|WB|>"], ["d", "u", "du"], ["s", "a", "sa"], ["p", "la", "pla"], ["t", "ra", "tra"], ["p", "l", "pl"], ["c", "e.<|WB|>", "ce.<|WB|>"], ["m", "b", "mb"], ["c", "e", "ce"], ["p", "ed<|WB|>", "ped<|WB|>"], ["e", "c", "ec"], ["k", "ed<|WB|>", "ked<|WB|>"], ["t", "o", "to"], ["on", "e<|WB|>", "one<|WB|>"], ["g", "u", "gu"], ["en", "t<|WB|>", "ent<|WB|>"], ["d", ".<|WB|>", "d.<|WB|>"], ["g", "ra", "gra"], ["t", "ow", "tow"], ["t", "t", "tt"], ["h", "and", "hand"], ["er", ".<|WB|>", "er.<|WB|>"], ["v", "ed<|WB|>", "ved<|WB|>"], ["et", "t", "ett"], ["g", "re", "gre"], ["st", "or", "stor"], ["co", "l", "col"], ["d", ",<|WB|>", "d,<|WB|>"], ["a", "k", "ak"], ["s", "w", "sw"], ["t", "s<|WB|>", "ts<|WB|>"], ["p", "a", "pa"], ["ar", "<|WB|>", "ar<|WB|>"], ["g", "r", "gr"], ["or", "<|WB|>", "or<|WB|>"], ["e", "m", "em"], ["ent", ".<|WB|>", "ent.<|WB|>"], ["al", "<|WB|>", "al<|WB|>"], ["er", "'s<|WB|>", "er's<|WB|>"], ["b", "le<|WB|>", "ble<|WB|>"], ["all", "<|WB|>", "all<|WB|>"], ["e", "st", "est"], ["un", "d", "und"], ["w", "<|WB|>", "w<|WB|>"], ["g", "e<|WB|>", "ge<|WB|>"], ["ing", ",<|WB|>", "ing,<|WB|>"], ["s", "c", "sc"], ["g", "<|WB|>", "g<|WB|>"], ["h", "i", "hi"], ["h", "er", "her"], ["l", "y.<|WB|>", "ly.<|WB|>"], ["d", "s<|WB|>", "ds<|WB|>"], ["p", "ro", "pro"], ["g", "o", "go"], ["ch", "<|WB|>", "ch<|WB|>"], ["t", ",<|WB|>", "t,<|WB|>"], ["l", "ed<|WB|>", "led<|WB|>"], ["s", "k", "sk"], ["d", "ed<|WB|>", "ded<|WB|>"], ["on", ".<|WB|>", "on.<|WB|>"], ["v", "i", "vi"], ["st", "a", "sta"], ["b", "ar", "bar"], ["t", "e", "te"], ["oo", "l", "ool"], ["b", "ri", "bri"], ["s", "m", "sm"], ["e", "v", "ev"], ["de", "ci", "deci"], ["ou", "r", "our"], ["er", "s<|WB|>", "ers<|WB|>"], ["b", "oo", "boo"], ["co", "m", "com"], ["ar", "m", "arm"], ["ti", "c", "tic"], ["ou", "gh", "ough"], ["mi", "ll", "mill"], ["w", "at", "wat"], ["s", "ur", "sur"], ["re", "ad", "read"], ["o", "<|WB|>", "o<|WB|>"], ["d", "e<|WB|>", "de<|WB|>"], ["b", "or", "bor"], ["se", ".<|WB|>", "se.<|WB|>"], ["ow", "n", "own"], ["bo", "x", "box"], ["ir", "<|WB|>", "ir<|WB|>"], ["mor", "n", "morn"], ["a", "c", "ac"], ["e", "ver", "ever"], ["igh", "t<|WB|>", "ight<|WB|>"], ["oo", "d<|WB|>", "ood<|WB|>"], ["um", "m", "umm"], ["fl", "ow", "flow"], ["t", "er<|WB|>", "ter<|WB|>"], ["f", "e", "fe"], ["d", "ing<|WB|>", "ding<|WB|>"], ["b", "r", "br"], ["f", "ul", "ful"], ["l", "ow", "low"], ["an", "t<|WB|>", "ant<|WB|>"], ["s", "ed<|WB|>", "sed<|WB|>"], ["a", "b", "ab"], ["er", "ed<|WB|>", "ered<|WB|>"], ["k", "e<|WB|>", "ke<|WB|>"], ["h", "o", "ho"], ["y", "ear", "year"], ["st", ".<|WB|>", "st.<|WB|>"], ["b", "i", "bi"], ["c", "er", "cer"], ["s", "it", "sit"], ["r", "y<|WB|>", "ry<|WB|>"], ["an", "y", "any"], ["c", "u", "cu"], ["se", "l", "sel"], ["n", "ow", "now"], ["st", "ed<|WB|>", "sted<|WB|>"], ["l", "in", "lin"], ["e", "s.<|WB|>", "es.<|WB|>"], ["t", "ing<|WB|>", "ting<|WB|>"], ["ch", "a", "cha"], ["en", "er", "ener"], ["ll", "ed<|WB|>", "lled<|WB|>"], ["ever", "y", "every"], ["a", "t<|WB|>", "at<|WB|>"], ["an", "<|WB|>", "an<|WB|>"], ["win", "d", "wind"], ["ol", "d<|WB|>", "old<|WB|>"], ["er", ",<|WB|>", "er,<|WB|>"], ["ch", "an", "chan"], ["h", "e", "he"], ["ong", "<|WB|>", "ong<|WB|>"], ["o", "ver", "over"], ["d", "d", "dd"], ["do", "or", "door"], ["f", "ro", "fro"], ["r", "oo", "roo"], ["s", "si", "ssi"], ["l", "an", "lan"], ["g", "i", "gi"], ["so", "me", "some"], ["p", "i", "pi"], ["m", "u", "mu"], ["p", "u", "pu"], ["ar", "d<|WB|>", "ard<|WB|>"], ["t", "re", "tre"], ["l", "ou", "lou"], ["f", "in", "fin"], ["th", ".<|WB|>", "th.<|WB|>"], ["mar", "k", "mark"], ["da", "y", "day"], ["r", "un", "run"], ["k", ".<|WB|>", "k.<|WB|>"], ["lo", "ck", "lock"], ["el", "<|WB|>", "el<|WB|>"], ["c", "or", "cor"], ["d", "ra", "dra"], ["en", ".<|WB|>", "en.<|WB|>"], ["on", ",<|WB|>", "on,<|WB|>"], ["on", "e", "one"], ["um", "b", "umb"], ["po", "in", "poin"], ["s", "s.<|WB|>", "ss.<|WB|>"], ["ow", "s<|WB|>", "ows<|WB|>"], ["k", "ing<|WB|>", "king<|WB|>"], ["ch", "il", "chil"], ["w", "ri", "wri"], ["wh", "e", "whe"], ["ou", "t", "out"], ["ur", "n", "urn"], ["b", "b", "bb"], ["g", "e", "ge"], ["m", "at", "mat"], ["s", "ch", "sch"], ["c", "re", "cre"], ["f", "oo", "foo"], ["g", "ener", "gener"], ["ri", "ed<|WB|>", "ried<|WB|>"], ["a", "<|WB|>", "a<|WB|>"], ["ti", "m", "tim"], ["g", "ard", "gard"], ["s", "umm", "summ"], ["er", "s.<|WB|>", "ers.<|WB|>"], ["l", "d<|WB|>", "ld<|WB|>"], ["a", "f", "af"], ["w", "al", "wal"], ["qu", "i", "qui"], ["hou", "r", "hour"], ["b", "el", "bel"], ["on", "e.<|WB|>", "one.<|WB|>"], ["ri", "p", "rip"], ["wa", "it", "wait"], ["ar", "y<|WB|>", "ary<|WB|>"], ["on", "s.<|WB|>", "ons.<|WB|>"], ["s", "u", "su"], ["ag", "e<|WB|>", "age<|WB|>"], ["v", "er<|WB|>", "ver<|WB|>"], ["n", "a", "na"], ["l", "u", "lu"], ["h", "ear", "hear"], ["y", "ing<|WB|>", "ying<|WB|>"], ["en", "d<|WB|>", "end<|WB|>"], ["we", "e", "wee"], ["v", "ing<|WB|>", "ving<|WB|>"], ["c", "oun", "coun"], ["p", "ar", "par"], ["ou", "t<|WB|>", "out<|WB|>"], ["li", "c", "lic"], ["at", "e<|WB|>", "ate<|WB|>"], ["it", "e<|WB|>", "ite<|WB|>"], ["f", "er", "fer"], ["p", "h", "ph"], ["gr", "and", "grand"], ["b", "ak", "bak"], ["st", "re", "stre"], ["sh", "o", "sho"], ["s", "un", "sun"], ["co", "mp", "comp"], ["ran", "g", "rang"], ["f", "ir", "fir"], ["l", "ea", "lea"], ["p", "e", "pe"], ["wh", "i", "whi"], ["b", "ea", "bea"], ["se", "as", "seas"], ["in", ".<|WB|>", "in.<|WB|>"], ["p", "re", "pre"], ["end", "ed<|WB|>", "ended<|WB|>"], ["h", "al", "hal"], ["sh", "ed<|WB|>", "shed<|WB|>"], ["me", "mb", "memb"], ["in", "s<|WB|>", "ins<|WB|>"], ["ul", "ar", "ular"], ["ne", "igh", "neigh"], ["on", "s<|WB|>", "ons<|WB|>"], ["k", "s<|WB|>", "ks<|WB|>"], ["f", "o", "fo"], ["f", ".<|WB|>", "f.<|WB|>"], ["k", "in", "kin"], ["oo", "d", "ood"], ["o", "f", "of"], ["c", "rea", "crea"], ["sh", "or", "shor"], ["in", ",<|WB|>", "in,<|WB|>"], ["b", "ir", "bir"], ["i", "p", "ip"], ["t", "urn", "turn"], ["box", "<|WB|>", "box<|WB|>"], ["l", "es<|WB|>", "les<|WB|>"], ["c", "ed<|WB|>", "ced<|WB|>"], ["ou", "s<|WB|>", "ous<|WB|>"], ["m", "in", "min"], ["u", "t", "ut"], ["d", "er<|WB|>", "der<|WB|>"], ["ter", "no", "terno"], ["b", "la", "bla"], ["gre", "en", "green"], ["v", "el", "vel"], ["la", "mp", "lamp"], ["t", "m", "tm"], ["fi", "sh", "fish"], ["it", "ch", "itch"], ["an", "d<|WB|>", "and<|WB|>"], ["th", "ing<|WB|>", "thing<|WB|>"], ["l", "oo", "loo"], ["ne", "w", "new"], ["ent", "s.<|WB|>", "ents.<|WB|>"], ["w", "all", "wall"], ["und", "er", "under"], ["wa", "y<|WB|>", "way<|WB|>"], ["for", "g", "forg"], ["en", "ce<|WB|>", "ence<|WB|>"], ["th", "e", "the"], ["ck", "et<|WB|>", "cket<|WB|>"], ["st", "u", "stu"], ["p", "at", "pat"], ["deci", "si", "decisi"], ["ag", "es<|WB|>", "ages<|WB|>"], ["h", "op", "hop"], ["l", "y,<|WB|>", "ly,<|WB|>"], ["n", "igh", "nigh"], ["v", "e.<|WB|>", "ve.<|WB|>"], ["i", "d<|WB|>", "id<|WB|>"], ["w", "r", "wr"], ["t", "ly<|WB|>", "tly<|WB|>"], ["de", ",<|WB|>", "de,<|WB|>"], ["u", "p", "up"], ["st", "ra", "stra"], ["l", "<|WB|>", "l<|WB|>"], ["er", "e<|WB|>", "ere<|WB|>"], ["ll", "ing<|WB|>", "lling<|WB|>"], ["en", "ti", "enti"], ["m", "ap", "map"], ["i", "d", "id"], ["co", "ll", "coll"], ["coll", "ec", "collec"], ["po", "st", "post"], ["al", ".<|WB|>", "al.<|WB|>"], ["f", "oun", "foun"], ["b", "rea", "brea"], ["b", "a", "ba"], ["pl", "an", "plan"], ["ck", "ed<|WB|>", "cked<|WB|>"], ["il", "ed<|WB|>", "iled<|WB|>"], ["s", "we", "swe"], ["se", "s<|WB|>", "ses<|WB|>"], ["whi", "st", "whist"], ["p", "as", "pas"], ["ing", "s<|WB|>", "ings<|WB|>"], ["st", "ep", "step"], ["f", "-", "f-"], ["ing", "s.<|WB|>", "ings.<|WB|>"], ["ag", "re", "agre"], ["m", "ed<|WB|>", "med<|WB|>"], ["dra", "w", "draw"], ["re", "memb", "rememb"], ["d", "re", "dre"], ["t", "w", "tw"], ["gh", "t<|WB|>", "ght<|WB|>"], ["ne", "ss<|WB|>", "ness<|WB|>"], ["il", "e<|WB|>", "ile<|WB|>"], ["s", "le", "sle"], ["neigh", "bor", "neighbor"], ["t", "ea", "tea"], ["il", "<|WB|>", "il<|WB|>"], ["we", "ll", "well"], ["ther", "ed<|WB|>", "thered<|WB|>"], ["sel", "f.<|WB|>", "self.<|WB|>"], ["f", "ri", "fri"], ["et", ".<|WB|>", "et.<|WB|>"], ["at", ".<|WB|>", "at.<|WB|>"], ["k", "e", "ke"], ["le", ",<|WB|>", "le,<|WB|>"], ["c", "ra", "cra"], ["ck", "s<|WB|>", "cks<|WB|>"], ["sh", "ap", "shap"], ["v", "es<|WB|>", "ves<|WB|>"], ["h", "ea", "hea"], ["t", "wi", "twi"], ["chil", "d", "child"], ["ev", "en", "even"], ["c", "e,<|WB|>", "ce,<|WB|>"], ["p", "er", "per"], ["h", "ar", "har"], ["at", "s<|WB|>", "ats<|WB|>"], ["p", "ri", "pri"], ["sh", "ad", "shad"], ["d", "an", "dan"], ["ss", "ed<|WB|>", "ssed<|WB|>"], ["me", "mor", "memor"], ["z", "ed<|WB|>", "zed<|WB|>"], ["sch", "ool", "school"], ["af", "terno", "afterno"], ["ll", "s<|WB|>", "lls<|WB|>"], ["p", "ea", "pea"], ["or", "ch", "orch"], ["c", "ted<|WB|>", "cted<|WB|>"], ["w", "atch", "watch"], ["se", "cre", "secre"], ["do", "g", "dog"], ["ro", "p", "rop"], ["op", "<|WB|>", "op<|WB|>"], ["foo", "t", "foot"], ["re", "g", "reg"], ["v", "o", "vo"], ["fa", "ther", "father"], ["b", "er", "ber"], ["h", "e<|WB|>", "he<|WB|>"], ["ligh", "t<|WB|>", "light<|WB|>"], ["ta", "ble<|WB|>", "table<|WB|>"], ["bri", "e", "brie"], ["ag", "a", "aga"], ["m", "atch", "match"], ["i", "t<|WB|>", "it<|WB|>"], ["w", "il", "wil"], ["ed", "s<|WB|>", "eds<|WB|>"], ["ex", "p", "exp"], ["chan", "g", "chang"], ["to", "<|WB|>", "to<|WB|>"], ["fi", "el", "fiel"], ["s", "il", "sil"], ["m", "ak", "mak"], ["re", ".<|WB|>", "re.<|WB|>"], ["j", "u", "ju"], ["bel", "ong", "belong"], ["stu", "b", "stub"], ["ar", "n", "arn"], ["pat", "i", "pati"], ["li", "br", "libr"], ["s", "me", "sme"], ["dd", "en<|WB|>", "dden<|WB|>"], ["n", ".<|WB|>", "n.<|WB|>"], ["bu", "il", "buil"], ["win", "ter", "winter"], ["est", "ion", "estion"], ["ar", "e<|WB|>", "are<|WB|>"], ["an", "sw", "answ"], ["e", "ful", "eful"], ["t", "e<|WB|>", "te<|WB|>"], ["boo", "k", "book"], ["s", "low", "slow"], ["a", "s<|WB|>", "as<|WB|>"], ["c", "t", "ct"], ["ou", "ld<|WB|>", "ould<|WB|>"], ["ri", "ver<|WB|>", "river<|WB|>"], ["s", "ation", "sation"], ["ap", "p", "app"], ["ck", ",<|WB|>", "ck,<|WB|>"], ["ap", "o", "apo"], ["apo", "lo", "apolo"], ["hou", "se<|WB|>", "house<|WB|>"], ["an", "ed<|WB|>", "aned<|WB|>"], ["v", "en<|WB|>", "ven<|WB|>"], ["ch", "ed<|WB|>", "ched<|WB|>"], ["wh", "ere<|WB|>", "where<|WB|>"], ["e", "ss<|WB|>", "ess<|WB|>"], ["ough", "<|WB|>", "ough<|WB|>"], ["g", "la", "gla"], ["n", "s<|WB|>", "ns<|WB|>"], ["st", "ation", "station"], ["r", "ed<|WB|>", "red<|WB|>"], ["t", "ed.<|WB|>", "ted.<|WB|>"], ["it", ".<|WB|>", "it.<|WB|>"], ["st", "an", "stan"], ["c", "lou", "clou"], ["da", "y<|WB|>", "day<|WB|>"], ["col", "or", "color"], ["l", "et", "let"], ["im", "po", "impo"], ["impo", "ssi", "impossi"], ["th", "r", "thr"], ["ow", "n<|WB|>", "own<|WB|>"], ["ligh", "t.<|WB|>", "light.<|WB|>"], ["n", "i", "ni"], ["st", "rang", "strang"], ["n", "ow<|WB|>", "now<|WB|>"], ["ow", "ed<|WB|>", "owed<|WB|>"], ["s", "oun", "soun"], ["m", "e.<|WB|>", "me.<|WB|>"], ["fin", "i", "fini"], ["s", "ent", "sent"], ["th", "ou", "thou"], ["st", "ea", "stea"], ["le", "f", "lef"], ["ex", "pla", "expla"], ["pro", "mi", "promi"], ["li", "f", "lif"], ["cer", "ta", "certa"], ["con", "t", "cont"], ["ent", "s<|WB|>", "ents<|WB|>"], ["ir", "c", "irc"], ["n", "ight<|WB|>", "night<|WB|>"], ["r", "oun", "roun"], ["hal", "f-", "half-"], ["st", ",<|WB|>", "st,<|WB|>"], ["g", "er<|WB|>", "ger<|WB|>"], ["f", "ru", "fru"], ["f", "fi", "ffi"], ["ffi", "c", "ffic"], ["vi", "sit", "visit"], ["ar", "m<|WB|>", "arm<|WB|>"], ["wi", "ll", "will"], ["c", "ap", "cap"], ["for", "go", "forgo"], ["k", "ed,<|WB|>", "ked,<|WB|>"], ["in", "v", "inv"], ["sp", "o", "spo"], ["c", "ti", "cti"], ["et", ",<|WB|>", "et,<|WB|>"], ["u", "sed<|WB|>", "used<|WB|>"], ["i", "g", "ig"], ["sp", "r", "spr"], ["ev", "er<|WB|>", "ever<|WB|>"], ["re", "ce", "rece"], ["or", ".<|WB|>", "or.<|WB|>"], ["se", "a", "sea"], ["sh", "e", "she"], ["p", "ra", "pra"], ["y", "'s<|WB|>", "y's<|WB|>"], ["w", "arm", "warm"], ["wa", "y,<|WB|>", "way,<|WB|>"], ["e", "mp", "emp"], ["th", "ing.<|WB|>", "thing.<|WB|>"], ["me", "s,<|WB|>", "mes,<|WB|>"], ["ion", ".<|WB|>", "ion.<|WB|>"], ["sel", "f<|WB|>", "self<|WB|>"], ["t", "ru", "tru"], ["sm", "all", "small"], ["k", "now", "know"], ["n", "or", "nor"], ["th", "read", "thread"], ["d", "own", "down"], ["h", "im", "him"], ["gard", "en", "garden"], ["fri", "end", "friend"], ["oo", "k<|WB|>", "ook<|WB|>"], ["f", "lo", "flo"], ["at", "ed<|WB|>", "ated<|WB|>"], ["pas", "s", "pass"], ["en", "g", "eng"], ["hand", "wri", "handwri"], ["ar", "g", "arg"], ["arg", "um", "argum"], ["ation", ".<|WB|>", "ation.<|WB|>"], ["f", "ra", "fra"], ["s", "'", "s'"], ["s'", "<|WB|>", "s'<|WB|>"], ["com", "for", "comfor"], ["c", "lock", "clock"], ["de", "st<|WB|>", "dest<|WB|>"], ["mi", "d", "mid"], ["lin", "ed<|WB|>", "lined<|WB|>"], ["th", "ir", "thir"], ["v", "ed.<|WB|>", "ved.<|WB|>"], ["il", "y<|WB|>", "ily<|WB|>"], ["at", "ed.<|WB|>", "ated.<|WB|>"], ["l", "at", "lat"], ["c", "la", "cla"], ["m", "en<|WB|>", "men<|WB|>"], ["c", "li", "cli"], ["v", "est", "vest"], ["wa", "y.<|WB|>", "way.<|WB|>"], ["en", "ce.<|WB|>", "ence.<|WB|>"], ["l", "e.<|WB|>", "le.<|WB|>"], ["c", "al", "cal"], ["all", "s<|WB|>", "alls<|WB|>"], ["h", "ed", "hed"], ["s", "in", "sin"], ["oo", "d.<|WB|>", "ood.<|WB|>"], ["h", "or", "hor"], ["k", "no", "kno"], ["v", "in", "vin"], ["stre", "et", "street"], ["tt", "en<|WB|>", "tten<|WB|>"], ["c", "ro", "cro"], ["cro", "ss", "cross"], ["f", "all", "fall"], ["t", "y,<|WB|>", "ty,<|WB|>"], ["si", "de<|WB|>", "side<|WB|>"], ["m", "an", "man"], ["b", "en", "ben"], ["ri", "ver", "river"], ["w", "o", "wo"], ["gener", "ation", "generation"], ["t", "s.<|WB|>", "ts.<|WB|>"], ["stor", "y.<|WB|>", "story.<|WB|>"], ["w", "ea", "wea"], ["p", "ur", "pur"], ["bla", "ck", "black"], ["all", "o", "allo"], ["allo", "tm", "allotm"], ["ber", "ri", "berri"], ["berri", "es<|WB|>", "berries<|WB|>"], ["f", "la", "fla"], ["st", "rea", "strea"], ["t", "ter", "tter"], ["lo", "y", "loy"], ["ow", ",<|WB|>", "ow,<|WB|>"], ["y", "ard", "yard"], ["sp", "i", "spi"], ["th", "e<|WB|>", "the<|WB|>"], ["k", "itch", "kitch"], ["ad", "e<|WB|>", "ade<|WB|>"], ["f", "ly<|WB|>", "fly<|WB|>"], ["new", ".<|WB|>", "new.<|WB|>"], ["y", "s<|WB|>", "ys<|WB|>"], ["re", "s<|WB|>", "res<|WB|>"], ["mor", "e<|WB|>", "more<|WB|>"], ["we", "ight<|WB|>", "weight<|WB|>"], ["g", "ran", "gran"], ["c", "lo", "clo"], ["l", "ett", "lett"], ["th", "re", "thre"], ["tim", "es<|WB|>", "times<|WB|>"], ["under", "st", "underst"], ["all", "y<|WB|>", "ally<|WB|>"], ["as", "k", "ask"], ["exp", "ec", "expec"], ["stor", "y<|WB|>", "story<|WB|>"], ["y", "ou", "you"], ["you", "<|WB|>", "you<|WB|>"], ["et", "a", "eta"], ["i", "ther<|WB|>", "ither<|WB|>"], ["w", "an", "wan"], ["da", "w", "daw"], ["ep", "t<|WB|>", "ept<|WB|>"], ["ti", "cket<|WB|>", "ticket<|WB|>"], ["le", "arn", "learn"], ["r", "y.<|WB|>", "ry.<|WB|>"], ["p", "ap", "pap"], ["gu", "st<|WB|>", "gust<|WB|>"], ["ter", "ing<|WB|>", "tering<|WB|>"], ["la", "w", "law"], ["g", "ar", "gar"], ["qu", "estion", "question"], ["e", "m<|WB|>", "em<|WB|>"], ["and", ".<|WB|>", "and.<|WB|>"], ["hop", "eful", "hopeful"], ["an", "im", "anim"], ["al", "s<|WB|>", "als<|WB|>"], ["w", "ro", "wro"], ["mar", "g", "marg"], ["t", "ted<|WB|>", "tted<|WB|>"], ["el", "y.<|WB|>", "ely.<|WB|>"], ["v", "en", "ven"], ["ar", "ri", "arri"], ["da", "y.<|WB|>", "day.<|WB|>"], ["roo", "m<|WB|>", "room<|WB|>"], ["mo", "st<|WB|>", "most<|WB|>"], ["con", "ver", "conver"], ["conver", "sation", "conversation"], ["i", "s<|WB|>", "is<|WB|>"], ["t", "r", "tr"], ["i", "mp", "imp"], ["s", "ing", "sing"], ["lan", "ter", "lanter"], ["s", "wa", "swa"], ["ti", "d", "tid"], ["st", "i", "sti"], ["sa", "id<|WB|>", "said<|WB|>"], ["wr", "ong", "wrong"], ["st", "ar", "star"], ["g", "a", "ga"], ["h", "und", "hund"], ["par", "tic", "partic"], ["ul", "ar<|WB|>", "ular<|WB|>"], ["oo", "<|WB|>", "oo<|WB|>"], ["enti", "re", "entire"], ["id", "ea", "idea"], ["pa", "in", "pain"], ["post", "car", "postcar"], ["pla", "c", "plac"], ["ab", "ly<|WB|>", "ably<|WB|>"], ["si", "gh", "sigh"], ["gra", "ph", "graph"], ["grand", "mo", "grandmo"], ["l", "ong", "long"], ["bak", "er", "baker"], ["wh", "o", "who"], ["h", "ow<|WB|>", "how<|WB|>"], ["fa", "mi", "fami"], ["fami", "li", "famili"], ["r", "e<|WB|>", "re<|WB|>"], ["clou", "d", "cloud"], ["sw", "itch", "switch"], ["b", "et", "bet"], ["at", "ur", "atur"], ["ru", "sh", "rush"], ["ough", ".<|WB|>", "ough.<|WB|>"], ["d", "ar", "dar"], ["sw", "all", "swall"], ["tow", "n", "town"], ["c", "run", "crun"], ["bi", "t<|WB|>", "bit<|WB|>"], ["pe", "op", "peop"], ["en", "ce", "ence"], ["ligh", "thou", "lighthou"], ["p", "t<|WB|>", "pt<|WB|>"], ["wat", "er<|WB|>", "water<|WB|>"], ["se", "con", "secon"], ["stea", "d", "stead"], ["in", "ed<|WB|>", "ined<|WB|>"], ["m", "ou", "mou"], ["k", "ett", "kett"], ["co", "me<|WB|>", "come<|WB|>"], ["ea", "sur", "easur"], ["ent", "ly.<|WB|>", "ently.<|WB|>"], ["op", "en", "open"], ["chan", "ge<|WB|>", "change<|WB|>"], ["step", "s<|WB|>", "steps<|WB|>"], ["k", "ne", "kne"], ["ha", "w", "haw"], ["c", "irc", "circ"], ["cor", "n", "corn"], ["sk", ",<|WB|>", "sk,<|WB|>"], ["fini", "shed<|WB|>", "finished<|WB|>"], ["agre", "em", "agreem"], ["v", "or", "vor"], ["bri", "d", "brid"], ["g", "ro", "gro"], ["tra", "ffic", "traffic"], ["h", "el", "hel"], ["la", "u", "lau"], ["lau", "gh", "laugh"], ["dre", "w<|WB|>", "drew<|WB|>"], ["m", "ir", "mir"], ["mir", "r", "mirr"], ["o", ",<|WB|>", "o,<|WB|>"], ["sh", "ar", "shar"], ["cer", "em", "cerem"], ["cerem", "on", "ceremon"], ["j", "our", "jour"], ["mo", "m", "mom"], ["ti", "me<|WB|>", "time<|WB|>"], ["umm", "ed<|WB|>", "ummed<|WB|>"], ["s", "ong<|WB|>", "song<|WB|>"], ["inv", "ent", "invent"], ["morn", "ing.<|WB|>", "morning.<|WB|>"], ["ap", "pro", "appro"], ["ular", ".<|WB|>", "ular.<|WB|>"], ["one", "'s<|WB|>", "one's<|WB|>"], ["umb", "re", "umbre"], ["umbre", "ll", "umbrell"], ["poin", "t", "point"], ["point", "le", "pointle"], ["pla", "y", "play"], ["st", "op", "stop"], ["rea", "d<|WB|>", "read<|WB|>"], ["h", "one", "hone"], ["ro", "lled<|WB|>", "rolled<|WB|>"], ["re", "f", "ref"], ["r", "ows<|WB|>", "rows<|WB|>"], ["p", "ing<|WB|>", "ping<|WB|>"], ["lan", "gu", "langu"], ["th", "an", "than"], ["rece", "i", "recei"], ["qui", "et", "quiet"], ["kin", "d", "kind"], ["li", "ved<|WB|>", "lived<|WB|>"], ["r", "um", "rum"], ["she", "ll<|WB|>", "shell<|WB|>"], ["ca", "me<|WB|>", "came<|WB|>"], ["m", ".<|WB|>", "m.<|WB|>"], ["in", "k", "ink"], ["pra", "c", "prac"], ["prac", "tic", "practic"], ["g", "ood", "good"], ["good", "b", "goodb"], ["goodb", "y", "goodby"], ["libr", "ar", "librar"], ["se", "tt", "sett"], ["ke", "ep", "keep"], ["ne", "ed", "need"], ["on", "d<|WB|>", "ond<|WB|>"], ["dra", "g", "drag"], ["s", "er", "ser"], ["let", "ter", "letter"], ["fl", "our", "flour"], ["flour", "-", "flour-"], ["flour-", "du", "flour-du"], ["st", "ed,<|WB|>", "sted,<|WB|>"], ["p", "roo", "proo"], ["h", "all", "hall"], ["c", "le<|WB|>", "cle<|WB|>"], ["ti", "mes,<|WB|>", "times,<|WB|>"], ["sun", "se", "sunse"], ["la", "sted<|WB|>", "lasted<|WB|>"], ["be", "ll", "bell"], ["in", "y<|WB|>", "iny<|WB|>"], ["k", "s,<|WB|>", "ks,<|WB|>"], ["j", "o", "jo"], ["k", "e.<|WB|>", "ke.<|WB|>"], ["rememb", "er<|WB|>", "remember<|WB|>"], ["m", "oun", "moun"], ["ta", "in<|WB|>", "tain<|WB|>"], ["stub", "bor", "stubbor"], ["ful", ".<|WB|>", "ful.<|WB|>"], ["ough", "t<|WB|>", "ought<|WB|>"], ["u", "s", "us"], ["child", "r", "childr"], ["day", "s<|WB|>", "days<|WB|>"], ["ch", "al", "chal"], ["bo", "ard<|WB|>", "board<|WB|>"], ["ch", "i", "chi"], ["wi", "sh", "wish"], ["f", "ea", "fea"], ["boo", "k<|WB|>", "book<|WB|>"], ["d", "in", "din"], ["g", ",<|WB|>", "g,<|WB|>"], ["s", "qu", "squ"], ["ther", "'s<|WB|>", "ther's<|WB|>"], ["re", "ci", "reci"], ["reci", "p", "recip"], ["ad", "ding<|WB|>", "adding<|WB|>"], ["fro", "z", "froz"], ["s", "k<|WB|>", "sk<|WB|>"], ["d", "river<|WB|>", "driver<|WB|>"], ["po", "li", "poli"], ["per", "f", "perf"], ["perf", "ec", "perfec"], ["turn", "ed<|WB|>", "turned<|WB|>"], ["g", "ol", "gol"], ["br", "own", "brown"], ["t", "ool", "tool"], ["sm", "oo", "smoo"], ["be", "ll<|WB|>", "bell<|WB|>"], ["p", "en", "pen"], ["pen", "c", "penc"], ["s", "mo", "smo"], ["ne", "y<|WB|>", "ney<|WB|>"], ["se", ",<|WB|>", "se,<|WB|>"], ["b", "or<|WB|>", "bor<|WB|>"], ["sur", "pri", "surpri"], ["fra", "me<|WB|>", "frame<|WB|>"], ["co", "bb", "cobb"], ["cobb", "l", "cobbl"], ["pa", "ir<|WB|>", "pair<|WB|>"], ["stor", "i", "stori"], ["l", "ow<|WB|>", "low<|WB|>"], ["im", "ag", "imag"], ["imag", "in", "imagin"], ["bir", "d", "bird"], ["c", "ran", "cran"], ["re", "as", "reas"], ["ta", "b", "tab"], ["ran", "k<|WB|>", "rank<|WB|>"], ["ac", "t<|WB|>", "act<|WB|>"], ["fa", "ther<|WB|>", "father<|WB|>"], ["min", "ut", "minut"], ["flow", "er<|WB|>", "flower<|WB|>"], ["t", "al", "tal"], ["t", "y<|WB|>", "ty<|WB|>"], ["ch", ",<|WB|>", "ch,<|WB|>"], ["ar", ".<|WB|>", "ar.<|WB|>"], ["s", "wi", "swi"], ["t", "'s<|WB|>", "t's<|WB|>"], ["li", "t<|WB|>", "lit<|WB|>"], ["as", "e<|WB|>", "ase<|WB|>"], ["di", "stan", "distan"], ["ck", "ing<|WB|>", "cking<|WB|>"], ["pl", "at", "plat"], ["ti", "ed<|WB|>", "tied<|WB|>"], ["draw", "n<|WB|>", "drawn<|WB|>"], ["at", ",<|WB|>", "at,<|WB|>"], ["over", "flow", "overflow"], ["v", "e,<|WB|>", "ve,<|WB|>"], ["har", "vest", "harvest"], ["memor", "i", "memori"], ["low", ".<|WB|>", "low.<|WB|>"], ["st", "e", "ste"], ["gu", "e", "gue"], ["mi", "ll<|WB|>", "mill<|WB|>"], ["whe", "el<|WB|>", "wheel<|WB|>"], ["m", "a", "ma"], ["mo", "th", "moth"], ["m", "on", "mon"], ["b", "ran", "bran"], ["r", "ing<|WB|>", "ring<|WB|>"], ["wal", "k<|WB|>", "walk<|WB|>"], ["child", "h", "childh"], ["ou", "t,<|WB|>", "out,<|WB|>"], ["box", ",<|WB|>", "box,<|WB|>"], ["al", "ou", "alou"], ["to", "ge", "toge"], ["ther", ".<|WB|>", "ther.<|WB|>"], ["cre", "e", "cree"], ["ch", "ur", "chur"], ["u", "it", "uit"], ["ett", "ing<|WB|>", "etting<|WB|>"]], "vocab": {"0": "\u0000", "1": "\u0001", "2": "\u0002", "3": "\u0003", "4": "\u0004", "5": "\u0005", "6": "\u0006", "7": "\u0007", "8": "\b", "9": "\t", "10": "\n", "11": "\u000b", "12": "\f", "13": "\r", "14": "\u000e", "15": "\u000f", "16": "\u0010", "17": "\u0011", "18": "\u0012", "19": "\u0013", "20": "\u0014", "21": "\u0015", "22": "\u0016", "23": "\u0017", "24": "\u0018", "25": "\u0019", "26": "\u001a", "27": "\u001b", "28": "\u001c", "29": "\u001d", "30": "\u001e", "31": "\u001f", "32": " ", "33": "!", "34": "\"", "35": "#", "36": "$", "37": "%", "38": "&", "39": "'", "40": "(", "41": ")", "42": "*", "43": "+", "44": ",", "45": "-", "46": ".", "47": "/", "48": "0", "49": "1", "50": "2", "51": "3", "52": "4", "53": "5", "54": "6", "55": "7", "56": "8", "57": "9", "58": ":", "59": ";", "60": "<", "61": "=", "62": ">", "63": "?", "64": "@", "65": "A", "66": "B", "67": "C", "68": "D", "69": "E", "70": "F", "71": "G", "72": "H", "73": "I", "74": "J", "75": "K", "76": "L", "77": "M", "78": "N", "79": "O", "80": "P", "81": "Q", "82": "R", "83": "S", "84": "T", "85": "U", "86": "V", "87": "W", "88": "X", "89": "Y", "90": "Z", "91": "[", "92": "\\", "93": "]", "94": "^", "95": "_", "96": "`", "97": "a", "98": "b", "99": "c", "100": "d", "101": "e", "102": "f", "103": "g", "104": "h", "105": "i", "106": "j", "107": "k", "108": "l", "109": "m", "110": "n", "111": "o", "112": "p", "113": "q", "114": "r", "115": "s", "116": "t", "117": "u", "118": "v", "119": "w", "120": "x", "121": "y", "122": "z", "123": "{", "124": "|", "125": "}", "126": "~", "127": "\u007f", "128": "\u0080", "129": "\u0081", "130": "\u0082", "131": "\u0083", "132": "\u0084", "133": "\u0085", "134": "\u0086", "135": "\u0087", "136": "\u0088", "137": "\u0089", "138": "\u008a", "139": "\u008b", "140": "\u008c", "141": "\u008d", "142": "\u008e", "143": "\u008f", "144": "\u0090", "145": "\u0091", "146": "\u0092", "147": "\u0093", "148": "\u0094", "149": "\u0095", "150": "\u0096", "151": "\u0097", "152": "\u0098", "153": "\u0099", "154": "\u009a", "155": "\u009b", "156": "\u009c", "157": "\u009d", "158": "\u009e", "159": "\u009f", "160": "\u00a0", "161": "\u00a1", "162": "\u00a2", "163": "\u00a3", "164": "\u00a4", "165": "\u00a5", "166": "\u00a6", "167": "\u00a7", "168": "\u00a8", "169": "\u00a9", "170": "\u00aa", "171": "\u00ab", "172": "\u00ac", "173": "\u00ad", "174": "\u00ae", "175": "\u00af", "176": "\u00b0", "177": "\u00b1", "178": "\u00b2", "179": "\u00b3", "180": "\u00b4", "181": "\u00b5", "182": "\u00b6", "183": "\u00b7", "184": "\u00b8", "185": "\u00b9", "186": "\u00ba", "187": "\u00bb", "188": "\u00bc", "189": "\u00bd", "190": "\u00be", "191": "\u00bf", "192": "\u00c0", "193": "\u00c1", "194": "\u00c2", "195": "\u00c3", "196": "\u00c4", "197": "\u00c5", "198": "\u00c6", "199": "\u00c7", "200": "\u00c8", "201": "\u00c9", "202": "\u00ca", "203": "\u00cb", "204": "\u00cc", "205": "\u00cd", "206": "\u00ce", "207": "\u00cf", "208": "\u00d0", "209": "\u00d1", "210": "\u00d2", "211": "\u00d3", "212": "\u00d4", "213": "\u00d5", "214": "\u00d6", "215": "\u00d7", "216": "\u00d8", "217": "\u00d9", "218": "\u00da", "219": "\u00db", "220": "\u00dc", "221": "\u00dd", "222": "\u00de", "223": "\u00df", "224": "\u00e0", "225": "\u00e1", "226": "\u00e2", "227": "\u00e3", "228": "\u00e4", "229": "\u00e5", "230": "\u00e6", "231": "\u00e7", "232": "\u00e8", "233": "\u00e9", "234": "\u00ea", "235": "\u00eb", "236": "\u00ec", "237": "\u00ed", "238": "\u00ee", "239": "\u00ef", "240": "\u00f0", "241": "\u00f1", "242": "\u00f2", "243": "\u00f3", "244": "\u00f4", "245": "\u00f5", "246": "\u00f6", "247": "\u00f7", "248": "\u00f8", "249": "\u00f9", "250": "\u00fa", "251": "\u00fb", "252": "\u00fc", "253": "\u00fd", "254": "\u00fe", "255": "\u00ff", "256": "<|EOS|>", "257": "<|WB|>", "258": ".<|WB|>", "259": "d<|WB|>", "260": "s<|WB|>", "261": "in", "262": "er", "263": "ed<|WB|>", "264": ",<|WB|>", "265": "e<|WB|>", "266": "en", "267": "st", "268": "ar", "269": "ing", "270": "on", "271": "re", "272": "or", "273": "an", "274": "t<|WB|>", "275": "th", "276": "ll", "277": "ou", "278": "ing<|WB|>", "279": "y<|WB|>", "280": "at", "281": "ow", "282": "ch", "283": "er<|WB|>", "284": "ed", "285": "se", "286": "'s<|WB|>", "287": "s.<|WB|>", "288": "oo", "289": "ra", "290": "li", "291": "sh", "292": "ri", "293": "es<|WB|>", "294": "ti", "295": "e.<|WB|>", "296": "gh", "297": "ck", "298": "la", "299": "al", "300": "ro", "301": "it", "302": "ea", "303": "co", "304": "il", "305": "et", "306": "un", "307": "el", "308": "y.<|WB|>", "309": "en<|WB|>", "310": "all", "311": "de", "312": "ed.<|WB|>", "313": "le<|WB|>", "314": "ir", "315": "ent", "316": "ap", "317": "s,<|WB|>", "318": "ad", "319": "ne", "320": "wa", "321": "me", "322": "sp", "323": "lo", "324": "wh", "325": "ur", "326": "mi", "327": "ag", "328": "si", "329": "um", "330": "k<|WB|>", "331": "st<|WB|>", "332": "le", "333": "and", "334": "po", "335": "we", "336": "m<|WB|>", "337": "no", "338": "bo", "339": "ly<|WB|>", "340": "ing.<|WB|>", "341": "mo", "342": "ion", "343": "op", "344": "ed,<|WB|>", "345": "ta", "346": "ver", "347": "oun", "348": "ter", "349": "di", "350": "be", "351": "as", "352": "fi", "353": "ci", "354": "igh", "355": "ow<|WB|>", "356": "ll<|WB|>", "357": "n<|WB|>", "358": "ul", "359": "mp", "360": "wi", "361": "so", "362": "for", "363": "ted<|WB|>", "364": "ce<|WB|>", "365": "da", "366": "do", "367": "end", "368": "ear", "369": "t.<|WB|>", "370": "rea", "371": "e,<|WB|>", "372": "ran", "373": "in<|WB|>", "374": "qu", "375": "y,<|WB|>", "376": "ther", "377": "wor", "378": "et<|WB|>", "379": "ong", "380": "se<|WB|>", "381": "fa", "382": "fl", "383": "me<|WB|>", "384": "con", "385": "ha", "386": "car", "387": "ex", "388": "bu", "389": "ep", "390": "th<|WB|>", "391": "im", "392": "mar", "393": "ru", "394": "mor", "395": "ligh", "396": "win", "397": "ol", "398": "ck<|WB|>", "399": "on<|WB|>", "400": "f<|WB|>", "401": "hou", "402": "ation", "403": "ca", "404": "ss", "405": "ss<|WB|>", "406": "atch", "407": "ard", "408": "ther<|WB|>", "409": "ve<|WB|>", "410": "du", "411": "sa", "412": "pla", "413": "tra", "414": "pl", "415": "ce.<|WB|>", "416": "mb", "417": "ce", "418": "ped<|WB|>", "419": "ec", "420": "ked<|WB|>", "421": "to", "422": "one<|WB|>", "423": "gu", "424": "ent<|WB|>", "425": "d.<|WB|>", "426": "gra", "427": "tow", "428": "tt", "429": "hand", "430": "er.<|WB|>", "431": "ved<|WB|>", "432": "ett", "433": "gre", "434": "stor", "435": "col", "436": "d,<|WB|>", "437": "ak", "438": "sw", "439": "ts<|WB|>", "440": "pa", "441": "ar<|WB|>", "442": "gr", "443": "or<|WB|>", "444": "em", "445": "ent.<|WB|>", "446": "al<|WB|>", "447": "er's<|WB|>", "448": "ble<|WB|>", "449": "all<|WB|>", "450": "est", "451": "und", "452": "w<|WB|>", "453": "ge<|WB|>", "454": "ing,<|WB|>", "455": "sc", "456": "g<|WB|>", "457": "hi", "458": "her", "459": "ly.<|WB|>", "460": "ds<|WB|>", "461": "pro", "462": "go", "463": "ch<|WB|>", "464": "t,<|WB|>", "465": "led<|WB|>", "466": "sk", "467": "ded<|WB|>", "468": "on.<|WB|>", "469": "vi", "470": "sta", "471": "bar", "472": "te", "473": "ool", "474": "bri", "475": "sm", "476": "ev", "477": "deci", "478": "our", "479": "ers<|WB|>", "480": "boo", "481": "com", "482": "arm", "483": "tic", "484": "ough", "485": "mill", "486": "wat", "487": "sur", "488": "read", "489": "o<|WB|>", "490": "de<|WB|>", "491": "bor", "492": "se.<|WB|>", "493": "own", "494": "box", "495": "ir<|WB|>", "496": "morn", "497": "ac", "498": "ever", "499": "ight<|WB|>", "500": "ood<|WB|>", "501": "umm", "502": "flow", "503": "ter<|WB|>", "504": "fe", "505": "ding<|WB|>", "506": "br", "507": "ful", "508": "low", "509": "ant<|WB|>", "510": "sed<|WB|>", "511": "ab", "512": "ered<|WB|>", "513": "ke<|WB|>", "514": "ho", "515": "year", "516": "st.<|WB|>", "517": "bi", "518": "cer", "519": "sit", "520": "ry<|WB|>", "521": "any", "522": "cu", "523": "sel", "524": "now", "525": "sted<|WB|>", "526": "lin", "527": "es.<|WB|>", "528": "ting<|WB|>", "529": "cha", "530": "ener", "531": "lled<|WB|>", "532": "every", "533": "at<|WB|>", "534": "an<|WB|>", "535": "wind", "536": "old<|WB|>", "537": "er,<|WB|>", "538": "chan", "539": "he", "540": "ong<|WB|>", "541": "over", "542": "dd", "543": "door", "544": "fro", "545": "roo", "546": "ssi", "547": "lan", "548": "gi", "549": "some", "550": "pi", "551": "mu", "552": "pu", "553": "ard<|WB|>", "554": "tre", "555": "lou", "556": "fin", "557": "th.<|WB|>", "558": "mark", "559": "day", "560": "run", "561": "k.<|WB|>", "562": "lock", "563": "el<|WB|>", "564": "cor", "565": "dra", "566": "en.<|WB|>", "567": "on,<|WB|>", "568": "one", "569": "umb", "570": "poin", "571": "ss.<|WB|>", "572": "ows<|WB|>", "573": "king<|WB|>", "574": "chil", "575": "wri", "576": "whe", "577": "out", "578": "urn", "579": "bb", "580": "ge", "581": "mat", "582": "sch", "583": "cre", "584": "foo", "585": "gener", "586": "ried<|WB|>", "587": "a<|WB|>", "588": "tim", "589": "gard", "590": "summ", "591": "ers.<|WB|>", "592": "ld<|WB|>", "593": "af", "594": "wal", "595": "qui", "596": "hour", "597": "bel", "598": "one.<|WB|>", "599": "rip", "600": "wait", "601": "ary<|WB|>", "602": "ons.<|WB|>", "603": "su", "604": "age<|WB|>", "605": "ver<|WB|>", "606": "na", "607": "lu", "608": "hear", "609": "ying<|WB|>", "610": "end<|WB|>", "611": "wee", "612": "ving<|WB|>", "613": "coun", "614": "par", "615": "out<|WB|>", "616": "lic", "617": "ate<|WB|>", "618": "ite<|WB|>", "619": "fer", "620": "ph", "621": "grand", "622": "bak", "623": "stre", "624": "sho", "625": "sun", "626": "comp", "627": "rang", "628": "fir", "629": "lea", "630": "pe", "631": "whi", "632": "bea", "633": "seas", "634": "in.<|WB|>", "635": "pre", "636": "ended<|WB|>", "637": "hal", "638": "shed<|WB|>", "639": "memb", "640": "ins<|WB|>", "641": "ular", "642": "neigh", "643": "ons<|WB|>", "644": "ks<|WB|>", "645": "fo", "646": "f.<|WB|>", "647": "kin", "648": "ood", "649": "of", "650": "crea", "651": "shor", "652": "in,<|WB|>", "653": "bir", "654": "ip", "655": "turn", "656": "box<|WB|>", "657": "les<|WB|>", "658": "ced<|WB|>", "659": "ous<|WB|>", "660": "min", "661": "ut", "662": "der<|WB|>", "663": "terno", "664": "bla", "665": "green", "666": "vel", "667": "lamp", "668": "tm", "669": "fish", "670": "itch", "671": "and<|WB|>", "672": "thing<|WB|>", "673": "loo", "674": "new", "675": "ents.<|WB|>", "676": "wall", "677": "under", "678": "way<|WB|>", "679": "forg", "680": "ence<|WB|>", "681": "the", "682": "cket<|WB|>", "683": "stu", "684": "pat", "685": "decisi", "686": "ages<|WB|>", "687": "hop", "688": "ly,<|WB|>", "689": "nigh", "690": "ve.<|WB|>", "691": "id<|WB|>", "692": "wr", "693": "tly<|WB|>", "694": "de,<|WB|>", "695": "up", "696": "stra", "697": "l<|WB|>", "698": "ere<|WB|>", "699": "lling<|WB|>", "700": "enti", "701": "map", "702": "id", "703": "coll", "704": "collec", "705": "post", "706": "al.<|WB|>", "707": "foun", "708": "brea", "709": "ba", "710": "plan", "711": "cked<|WB|>", "712": "iled<|WB|>", "713": "swe", "714": "ses<|WB|>", "715": "whist", "716": "pas", "717": "ings<|WB|>", "718": "step", "719": "f-", "720": "ings.<|WB|>", "721": "agre", "722": "med<|WB|>", "723": "draw", "724": "rememb", "725": "dre", "726": "tw", "727": "ght<|WB|>", "728": "ness<|WB|>", "729": "ile<|WB|>", "730": "sle", "731": "neighbor", "732": "tea", "733": "il<|WB|>", "734": "well", "735": "thered<|WB|>", "736": "self.<|WB|>", "737": "fri", "738": "et.<|WB|>", "739": "at.<|WB|>", "740": "ke", "741": "le,<|WB|>", "742": "cra", "743": "cks<|WB|>", "744": "shap", "745": "ves<|WB|>", "746": "hea", "747": "twi", "748": "child", "749": "even", "750": "ce,<|WB|>", "751": "per", "752": "har", "753": "ats<|WB|>", "754": "pri", "755": "shad", "756": "dan", "757": "ssed<|WB|>", "758": "memor", "759": "zed<|WB|>", "760": "school", "761": "afterno", "762": "lls<|WB|>", "763": "pea", "764": "orch", "765": "cted<|WB|>", "766": "watch", "767": "secre", "768": "dog", "769": "rop", "770": "op<|WB|>", "771": "foot", "772": "reg", "773": "vo", "774": "father", "775": "ber", "776": "he<|WB|>", "777": "light<|WB|>", "778": "table<|WB|>", "779": "brie", "780": "aga", "781": "match", "782": "it<|WB|>", "783": "wil", "784": "eds<|WB|>", "785": "exp", "786": "chang", "787": "to<|WB|>", "788": "fiel", "789": "sil", "790": "mak", "791": "re.<|WB|>", "792": "ju", "793": "belong", "794": "stub", "795": "arn", "796": "pati", "797": "libr", "798": "sme", "799": "dden<|WB|>", "800": "n.<|WB|>", "801": "buil", "802": "winter", "803": "estion", "804": "are<|WB|>", "805": "answ", "806": "eful", "807": "te<|WB|>", "808": "book", "809": "slow", "810": "as<|WB|>", "811": "ct", "812": "ould<|WB|>", "813": "river<|WB|>", "814": "sation", "815": "app", "816": "ck,<|WB|>", "817": "apo", "818": "apolo", "819": "house<|WB|>", "820": "aned<|WB|>", "821": "ven<|WB|>", "822": "ched<|WB|>", "823": "where<|WB|>", "824": "ess<|WB|>", "825": "ough<|WB|>", "826": "gla", "827": "ns<|WB|>", "828": "station", "829": "red<|WB|>", "830": "ted.<|WB|>", "831": "it.<|WB|>", "832": "stan", "833": "clou", "834": "day<|WB|>", "835": "color", "836": "let", "837": "impo", "838": "impossi", "839": "thr", "840": "own<|WB|>", "841": "light.<|WB|>", "842": "ni", "843": "strang", "844": "now<|WB|>", "845": "owed<|WB|>", "846": "soun", "847": "me.<|WB|>", "848": "fini", "849": "sent", "850": "thou", "851": "stea", "852": "lef", "853": "expla", "854": "promi", "855": "lif", "856": "certa", "857": "cont", "858": "ents<|WB|>", "859": "irc", "860": "night<|WB|>", "861": "roun", "862": "half-", "863": "st,<|WB|>", "864": "ger<|WB|>", "865": "fru", "866": "ffi", "867": "ffic", "868": "visit", "869": "arm<|WB|>", "870": "will", "871": "cap", "872": "forgo", "873": "ked,<|WB|>", "874": "inv", "875": "spo", "876": "cti", "877": "et,<|WB|>", "878": "used<|WB|>", "879": "ig", "880": "spr", "881": "ever<|WB|>", "882": "rece", "883": "or.<|WB|>", "884": "sea", "885": "she", "886": "pra", "887": "y's<|WB|>", "888": "warm", "889": "way,<|WB|>", "890": "emp", "891": "thing.<|WB|>", "892": "mes,<|WB|>", "893": "ion.<|WB|>", "894": "self<|WB|>", "895": "tru", "896": "small", "897": "know", "898": "nor", "899": "thread", "900": "down", "901": "him", "902": "garden", "903": "friend", "904": "ook<|WB|>", "905": "flo", "906": "ated<|WB|>", "907": "pass", "908": "eng", "909": "handwri", "910": "arg", "911": "argum", "912": "ation.<|WB|>", "913": "fra", "914": "s'", "915": "s'<|WB|>", "916": "comfor", "917": "clock", "918": "dest<|WB|>", "919": "mid", "920": "lined<|WB|>", "921": "thir", "922": "ved.<|WB|>", "923": "ily<|WB|>", "924": "ated.<|WB|>", "925": "lat", "926": "cla", "927": "men<|WB|>", "928": "cli", "929": "vest", "930": "way.<|WB|>", "931": "ence.<|WB|>", "932": "le.<|WB|>", "933": "cal", "934": "alls<|WB|>", "935": "hed", "936": "sin", "937": "ood.<|WB|>", "938": "hor", "939": "kno", "940": "vin", "941": "street", "942": "tten<|WB|>", "943": "cro", "944": "cross", "945": "fall", "946": "ty,<|WB|>", "947": "side<|WB|>", "948": "man", "949": "ben", "950": "river", "951": "wo", "952": "generation", "953": "ts.<|WB|>", "954": "story.<|WB|>", "955": "wea", "956": "pur", "957": "black", "958": "allo", "959": "allotm", "960": "berri", "961": "berries<|WB|>", "962": "fla", "963": "strea", "964": "tter", "965": "loy", "966": "ow,<|WB|>", "967": "yard", "968": "spi", "969": "the<|WB|>", "970": "kitch", "971": "ade<|WB|>", "972": "fly<|WB|>", "973": "new.<|WB|>", "974": "ys<|WB|>", "975": "res<|WB|>", "976": "more<|WB|>", "977": "weight<|WB|>", "978": "gran", "979": "clo", "980": "lett", "981": "thre", "982": "times<|WB|>", "983": "underst", "984": "ally<|WB|>", "985": "ask", "986": "expec", "987": "story<|WB|>", "988": "you", "989": "you<|WB|>", "990": "eta", "991": "ither<|WB|>", "992": "wan", "993": "daw", "994": "ept<|WB|>", "995": "ticket<|WB|>", "996": "learn", "997": "ry.<|WB|>", "998": "pap", "999": "gust<|WB|>", "1000": "tering<|WB|>", "1001": "law", "1002": "gar", "1003": "question", "1004": "em<|WB|>", "1005": "and.<|WB|>", "1006": "hopeful", "1007": "anim", "1008": "als<|WB|>", "1009": "wro", "1010": "marg", "1011": "tted<|WB|>", "1012": "ely.<|WB|>", "1013": "ven", "1014": "arri", "1015": "day.<|WB|>", "1016": "room<|WB|>", "1017": "most<|WB|>", "1018": "conver", "1019": "conversation", "1020": "is<|WB|>", "1021": "tr", "1022": "imp", "1023": "sing", "1024": "lanter", "1025": "swa", "1026": "tid", "1027": "sti", "1028": "said<|WB|>", "1029": "wrong", "1030": "star", "1031": "ga", "1032": "hund", "1033": "partic", "1034": "ular<|WB|>", "1035": "oo<|WB|>", "1036": "entire", "1037": "idea", "1038": "pain", "1039": "postcar", "1040": "plac", "1041": "ably<|WB|>", "1042": "sigh", "1043": "graph", "1044": "grandmo", "1045": "long", "1046": "baker", "1047": "who", "1048": "how<|WB|>", "1049": "fami", "1050": "famili", "1051": "re<|WB|>", "1052": "cloud", "1053": "switch", "1054": "bet", "1055": "atur", "1056": "rush", "1057": "ough.<|WB|>", "1058": "dar", "1059": "swall", "1060": "town", "1061": "crun", "1062": "bit<|WB|>", "1063": "peop", "1064": "ence", "1065": "lighthou", "1066": "pt<|WB|>", "1067": "water<|WB|>", "1068": "secon", "1069": "stead", "1070": "ined<|WB|>", "1071": "mou", "1072": "kett", "1073": "come<|WB|>", "1074": "easur", "1075": "ently.<|WB|>", "1076": "open", "1077": "change<|WB|>", "1078": "steps<|WB|>", "1079": "kne", "1080": "haw", "1081": "circ", "1082": "corn", "1083": "sk,<|WB|>", "1084": "finished<|WB|>", "1085": "agreem", "1086": "vor", "1087": "brid", "1088": "gro", "1089": "traffic", "1090": "hel", "1091": "lau", "1092": "laugh", "1093": "drew<|WB|>", "1094": "mir", "1095": "mirr", "1096": "o,<|WB|>", "1097": "shar", "1098": "cerem", "1099": "ceremon", "1100": "jour", "1101": "mom", "1102": "time<|WB|>", "1103": "ummed<|WB|>", "1104": "song<|WB|>", "1105": "invent", "1106": "morning.<|WB|>", "1107": "appro", "1108": "ular.<|WB|>", "1109": "one's<|WB|>", "1110": "umbre", "1111": "umbrell", "1112": "point", "1113": "pointle", "1114": "play", "1115": "stop", "1116": "read<|WB|>", "1117": "hone", "1118": "rolled<|WB|>", "1119": "ref", "1120": "rows<|WB|>", "1121": "ping<|WB|>", "1122": "langu", "1123": "than", "1124": "recei", "1125": "quiet", "1126": "kind", "1127": "lived<|WB|>", "1128": "rum", "1129": "shell<|WB|>", "1130": "came<|WB|>", "1131": "m.<|WB|>", "1132": "ink", "1133": "prac", "1134": "practic", "1135": "good", "1136": "goodb", "1137": "goodby", "1138": "librar", "1139": "sett", "1140": "keep", "1141": "need", "1142": "ond<|WB|>", "1143": "drag", "1144": "ser", "1145": "letter", "1146": "flour", "1147": "flour-", "1148": "flour-du", "1149": "sted,<|WB|>", "1150": "proo", "1151": "hall", "1152": "cle<|WB|>", "1153": "times,<|WB|>", "1154": "sunse", "1155": "lasted<|WB|>", "1156": "bell", "1157": "iny<|WB|>", "1158": "ks,<|WB|>", "1159": "jo", "1160": "ke.<|WB|>", "1161": "remember<|WB|>", "1162": "moun", "1163": "tain<|WB|>", "1164": "stubbor", "1165": "ful.<|WB|>", "1166": "ought<|WB|>", "1167": "us", "1168": "childr", "1169": "days<|WB|>", "1170": "chal", "1171": "board<|WB|>", "1172": "chi", "1173": "wish", "1174": "fea", "1175": "book<|WB|>", "1176": "din", "1177": "g,<|WB|>", "1178": "squ", "1179": "ther's<|WB|>", "1180": "reci", "1181": "recip", "1182": "adding<|WB|>", "1183": "froz", "1184": "sk<|WB|>", "1185": "driver<|WB|>", "1186": "poli", "1187": "perf", "1188": "perfec", "1189": "turned<|WB|>", "1190": "gol", "1191": "brown", "1192": "tool", "1193": "smoo", "1194": "bell<|WB|>", "1195": "pen", "1196": "penc", "1197": "smo", "1198": "ney<|WB|>", "1199": "se,<|WB|>", "1200": "bor<|WB|>", "1201": "surpri", "1202": "frame<|WB|>", "1203": "cobb", "1204": "cobbl", "1205": "pair<|WB|>", "1206": "stori", "1207": "low<|WB|>", "1208": "imag", "1209": "imagin", "1210": "bird", "1211": "cran", "1212": "reas", "1213": "tab", "1214": "rank<|WB|>", "1215": "act<|WB|>", "1216": "father<|WB|>", "1217": "minut", "1218": "flower<|WB|>", "1219": "tal", "1220": "ty<|WB|>", "1221": "ch,<|WB|>", "1222": "ar.<|WB|>", "1223": "swi", "1224": "t's<|WB|>", "1225": "lit<|WB|>", "1226": "ase<|WB|>", "1227": "distan", "1228": "cking<|WB|>", "1229": "plat", "1230": "tied<|WB|>", "1231": "drawn<|WB|>", "1232": "at,<|WB|>", "1233": "overflow", "1234": "ve,<|WB|>", "1235": "harvest", "1236": "memori", "1237": "low.<|WB|>", "1238": "ste", "1239": "gue", "1240": "mill<|WB|>", "1241": "wheel<|WB|>", "1242": "ma", "1243": "moth", "1244": "mon", "1245": "bran", "1246": "ring<|WB|>", "1247": "walk<|WB|>", "1248": "childh", "1249": "out,<|WB|>", "1250": "box,<|WB|>", "1251": "alou", "1252": "toge", "1253": "ther.<|WB|>", "1254": "cree", "1255": "chur", "1256": "uit", "1257": "etting<|WB|>"}, "inverse_vocab": {"\u0000": 0, "\u0001": 1, "\u0002": 2, "\u0003": 3, "\u0004": 4, "\u0005": 5, "\u0006": 6, "\u0007": 7, "\b": 8, "\t": 9, "\n": 10, "\u000b": 11, "\f": 12, "\r": 13, "\u000e": 14, "\u000f": 15, "\u0010": 16, "\u0011": 17, "\u0012": 18, "\u0013": 19, "\u0014": 20, "\u0015": 21, "\u0016": 22, "\u0017": 23, "\u0018": 24, "\u0019": 25, "\u001a": 26, "\u001b": 27, "\u001c": 28, "\u001d": 29, "\u001e": 30, "\u001f": 31, " ": 32, "!": 33, "\"": 34, "#": 35, "$": 36, "%": 37, "&": 38, "'": 39, "(": 40, ")": 41, "*": 42, "+": 43, ",": 44, "-": 45, ".": 46, "/": 47, "0": 48, "1": 49, "2": 50, "3": 51, "4": 52, "5": 53, "6": 54, "7": 55, "8": 56, "9": 57, ":": 58, ";": 59, "<": 60, "=": 61, ">": 62, "?": 63, "@": 64, "A": 65, "B": 66, "C": 67, "D": 68, "E": 69, "F": 70, "G": 71, "H": 72, "I": 73, "J": 74, "K": 75, "L": 76, "M": 77, "N": 78, "O": 79, "P": 80, "Q": 81, "R": 82, "S": 83, "T": 84, "U": 85, "V": 86, "W": 87, "X": 88, "Y": 89, "Z": 90, "[": 91, "\\": 92, "]": 93, "^": 94, "_": 95, "`": 96, "a": 97, "b": 98, "c": 99, "d": 100, "e": 101, "f": 102, "g": 103, "h": 104, "i": 105, "j": 106, "k": 107, "l": 108, "m": 109, "n": 110, "o": 111, "p": 112, "q": 113, "r": 114, "s": 115, "t": 116, "u": 117, "v": 118, "w": 119, "x": 120, "y": 121, "z": 122, "{": 123, "|": 124, "}": 125, "~": 126, "\u007f": 127, "\u0080": 128, "\u0081": 129, "\u0082": 130, "\u0083": 131, "\u0084": 132, "\u0085": 133, "\u0086": 134, "\u0087": 135, "\u0088": 136, "\u0089": 137, "\u008a": 138, "\u008b": 139, "\u008c": 140, "\u008d": 141, "\u008e": 142, "\u008f": 143, "\u0090": 144, "\u0091": 145, "\u0092": 146, "\u0093": 147, "\u0094": 148, "\u0095": 149, "\u0096": 150, "\u0097": 151, "\u0098": 152, "\u0099": 153, "\u009a": 154, "\u009b": 155, "\u009c": 156, "\u009d": 157, "\u009e": 158, "\u009f": 159, "\u00a0": 160, "\u00a1": 161, "\u00a2": 162, "\u00a3": 163, "\u00a4": 164, "\u00a5": 165, "\u00a6": 166, "\u00a7": 167, "\u00a8": 168, "\u00a9": 169, "\u00aa": 170, "\u00ab": 171, "\u00ac": 172, "\u00ad": 173, "\u00ae": 174, "\u00af": 175, "\u00b0": 176, "\u00b1": 177, "\u00b2": 178, "\u00b3": 179, "\u00b4": 180, "\u00b5": 181, "\u00b6": 182, "\u00b7": 183, "\u00b8": 184, "\u00b9": 185, "\u00ba": 186, "\u00bb": 187, "\u00bc": 188, "\u00bd": 189, "\u00be": 190, "\u00bf": 191, "\u00c0": 192, "\u00c1": 193, "\u00c2": 194, "\u00c3": 195, "\u00c4": 196, "\u00c5": 197, "\u00c6": 198, "\u00c7": 199, "\u00c8": 200, "\u00c9": 201, "\u00ca": 202, "\u00cb": 203, "\u00cc": 204, "\u00cd": 205, "\u00ce": 206, "\u00cf": 207, "\u00d0": 208, "\u00d1": 209, "\u00d2": 210, "\u00d3": 211, "\u00d4": 212, "\u00d5": 213, "\u00d6": 214, "\u00d7": 215, "\u00d8": 216, "\u00d9": 217, "\u00da": 218, "\u00db": 219, "\u00dc": 220, "\u00dd": 221, "\u00de": 222, "\u00df": 223, "\u00e0": 224, "\u00e1": 225, "\u00e2": 226, "\u00e3": 227, "\u00e4": 228, "\u00e5": 229, "\u00e6": 230, "\u00e7": 231, "\u00e8": 232, "\u00e9": 233, "\u00ea": 234, "\u00eb": 235, "\u00ec": 236, "\u00ed": 237, "\u00ee": 238, "\u00ef": 239, "\u00f0": 240, "\u00f1": 241, "\u00f2": 242, "\u00f3": 243, "\u00f4": 244, "\u00f5": 245, "\u00f6": 246, "\u00f7": 247, "\u00f8": 248, "\u00f9": 249, "\u00fa": 250, "\u00fb": 251, "\u00fc": 252, "\u00fd": 253, "\u00fe": 254, "\u00ff": 255, "<|EOS|>": 256, "<|WB|>": 257, ".<|WB|>": 258, "d<|WB|>": 259, "s<|WB|>": 260, "in": 261, "er": 262, "ed<|WB|>": 263, ",<|WB|>": 264, "e<|WB|>": 265, "en": 266, "st": 267, "ar": 268, "ing": 269, "on": 270, "re": 271, "or": 272, "an": 273, "t<|WB|>": 274, "th": 275, "ll": 276, "ou": 277, "ing<|WB|>": 278, "y<|WB|>": 279, "at": 280, "ow": 281, "ch": 282, "er<|WB|>": 283, "ed": 284, "se": 285, "'s<|WB|>": 286, "s.<|WB|>": 287, "oo": 288, "ra": 289, "li": 290, "sh": 291, "ri": 292, "es<|WB|>": 293, "ti": 294, "e.<|WB|>": 295, "gh": 296, "ck": 297, "la": 298, "al": 299, "ro": 300, "it": 301, "ea": 302, "co": 303, "il": 304, "et": 305, "un": 306, "el": 307, "y.<|WB|>": 308, "en<|WB|>": 309, "all": 310, "de": 311, "ed.<|WB|>": 312, "le<|WB|>": 313, "ir": 314, "ent": 315, "ap": 316, "s,<|WB|>": 317, "ad": 318, "ne": 319, "wa": 320, "me": 321, "sp": 322, "lo": 323, "wh": 324, "ur": 325, "mi": 326, "ag": 327, "si": 328, "um": 329, "k<|WB|>": 330, "st<|WB|>": 331, "le": 332, "and": 333, "po": 334, "we": 335, "m<|WB|>": 336, "no": 337, "bo": 338, "ly<|WB|>": 339, "ing.<|WB|>": 340, "mo": 341, "ion": 342, "op": 343, "ed,<|WB|>": 344, "ta": 345, "ver": 346, "oun": 347, "ter": 348, "di": 349, "be": 350, "as": 351, "fi": 352, "ci": 353, "igh": 354, "ow<|WB|>": 355, "ll<|WB|>": 356, "n<|WB|>": 357, "ul": 358, "mp": 359, "wi": 360, "so": 361, "for": 362, "ted<|WB|>": 363, "ce<|WB|>": 364, "da": 365, "do": 366, "end": 367, "ear": 368, "t.<|WB|>": 369, "rea": 370, "e,<|WB|>": 371, "ran": 372, "in<|WB|>": 373, "qu": 374, "y,<|WB|>": 375, "ther": 376, "wor": 377, "et<|WB|>": 378, "ong": 379, "se<|WB|>": 380, "fa": 381, "fl": 382, "me<|WB|>": 383, "con": 384, "ha": 385, "car": 386, "ex": 387, "bu": 388, "ep": 389, "th<|WB|>": 390, "im": 391, "mar": 392, "ru": 393, "mor": 394, "ligh": 395, "win": 396, "ol": 397, "ck<|WB|>": 398, "on<|WB|>": 399, "f<|WB|>": 400, "hou": 401, "ation": 402, "ca": 403, "ss": 404, "ss<|WB|>": 405, "atch": 406, "ard": 407, "ther<|WB|>": 408, "ve<|WB|>": 409, "du": 410, "sa": 411, "pla": 412, "tra": 413, "pl": 414, "ce.<|WB|>": 415, "mb": 416, "ce": 417, "ped<|WB|>": 418, "ec": 419, "ked<|WB|>": 420, "to": 421, "one<|WB|>": 422, "gu": 423, "ent<|WB|>": 424, "d.<|WB|>": 425, "gra": 426, "tow": 427, "tt": 428, "hand": 429, "er.<|WB|>": 430, "ved<|WB|>": 431, "ett": 432, "gre": 433, "stor": 434, "col": 435, "d,<|WB|>": 436, "ak": 437, "sw": 438, "ts<|WB|>": 439, "pa": 440, "ar<|WB|>": 441, "gr": 442, "or<|WB|>": 443, "em": 444, "ent.<|WB|>": 445, "al<|WB|>": 446, "er's<|WB|>": 447, "ble<|WB|>": 448, "all<|WB|>": 449, "est": 450, "und": 451, "w<|WB|>": 452, "ge<|WB|>": 453, "ing,<|WB|>": 454, "sc": 455, "g<|WB|>": 456, "hi": 457, "her": 458, "ly.<|WB|>": 459, "ds<|WB|>": 460, "pro": 461, "go": 462, "ch<|WB|>": 463, "t,<|WB|>": 464, "led<|WB|>": 465, "sk": 466, "ded<|WB|>": 467, "on.<|WB|>": 468, "vi": 469, "sta": 470, "bar": 471, "te": 472, "ool": 473, "bri": 474, "sm": 475, "ev": 476, "deci": 477, "our": 478, "ers<|WB|>": 479, "boo": 480, "com": 481, "arm": 482, "tic": 483, "ough": 484, "mill": 485, "wat": 486, "sur": 487, "read": 488, "o<|WB|>": 489, "de<|WB|>": 490, "bor": 491, "se.<|WB|>": 492, "own": 493, "box": 494, "ir<|WB|>": 495, "morn": 496, "ac": 497, "ever": 498, "ight<|WB|>": 499, "ood<|WB|>": 500, "umm": 501, "flow": 502, "ter<|WB|>": 503, "fe": 504, "ding<|WB|>": 505, "br": 506, "ful": 507, "low": 508, "ant<|WB|>": 509, "sed<|WB|>": 510, "ab": 511, "ered<|WB|>": 512, "ke<|WB|>": 513, "ho": 514, "year": 515, "st.<|WB|>": 516, "bi": 517, "cer": 518, "sit": 519, "ry<|WB|>": 520, "any": 521, "cu": 522, "sel": 523, "now": 524, "sted<|WB|>": 525, "lin": 526, "es.<|WB|>": 527, "ting<|WB|>": 528, "cha": 529, "ener": 530, "lled<|WB|>": 531, "every": 532, "at<|WB|>": 533, "an<|WB|>": 534, "wind": 535, "old<|WB|>": 536, "er,<|WB|>": 537, "chan": 538, "he": 539, "ong<|WB|>": 540, "over": 541, "dd": 542, "door": 543, "fro": 544, "roo": 545, "ssi": 546, "lan": 547, "gi": 548, "some": 549, "pi": 550, "mu": 551, "pu": 552, "ard<|WB|>": 553, "tre": 554, "lou": 555, "fin": 556, "th.<|WB|>": 557, "mark": 558, "day": 559, "run": 560, "k.<|WB|>": 561, "lock": 562, "el<|WB|>": 563, "cor": 564, "dra": 565, "en.<|WB|>": 566, "on,<|WB|>": 567, "one": 568, "umb": 569, "poin": 570, "ss.<|WB|>": 571, "ows<|WB|>": 572, "king<|WB|>": 573, "chil": 574, "wri": 575, "whe": 576, "out": 577, "urn": 578, "bb": 579, "ge": 580, "mat": 581, "sch": 582, "cre": 583, "foo": 584, "gener": 585, "ried<|WB|>": 586, "a<|WB|>": 587, "tim": 588, "gard": 589, "summ": 590, "ers.<|WB|>": 591, "ld<|WB|>": 592, "af": 593, "wal": 594, "qui": 595, "hour": 596, "bel": 597, "one.<|WB|>": 598, "rip": 599, "wait": 600, "ary<|WB|>": 601, "ons.<|WB|>": 602, "su": 603, "age<|WB|>": 604, "ver<|WB|>": 605, "na": 606, "lu": 607, "hear": 608, "ying<|WB|>": 609, "end<|WB|>": 610, "wee": 611, "ving<|WB|>": 612, "coun": 613, "par": 614, "out<|WB|>": 615, "lic": 616, "ate<|WB|>": 617, "ite<|WB|>": 618, "fer": 619, "ph": 620, "grand": 621, "bak": 622, "stre": 623, "sho": 624, "sun": 625, "comp": 626, "rang": 627, "fir": 628, "lea": 629, "pe": 630, "whi": 631, "bea": 632, "seas": 633, "in.<|WB|>": 634, "pre": 635, "ended<|WB|>": 636, "hal": 637, "shed<|WB|>": 638, "memb": 639, "ins<|WB|>": 640, "ular": 641, "neigh": 642, "ons<|WB|>": 643, "ks<|WB|>": 644, "fo": 645, "f.<|WB|>": 646, "kin": 647, "ood": 648, "of": 649, "crea": 650, "shor": 651, "in,<|WB|>": 652, "bir": 653, "ip": 654, "turn": 655, "box<|WB|>": 656, "les<|WB|>": 657, "ced<|WB|>": 658, "ous<|WB|>": 659, "min": 660, "ut": 661, "der<|WB|>": 662, "terno": 663, "bla": 664, "green": 665, "vel": 666, "lamp": 667, "tm": 668, "fish": 669, "itch": 670, "and<|WB|>": 671, "thing<|WB|>": 672, "loo": 673, "new": 674, "ents.<|WB|>": 675, "wall": 676, "under": 677, "way<|WB|>": 678, "forg": 679, "ence<|WB|>": 680, "the": 681, "cket<|WB|>": 682, "stu": 683, "pat": 684, "decisi": 685, "ages<|WB|>": 686, "hop": 687, "ly,<|WB|>": 688, "nigh": 689, "ve.<|WB|>": 690, "id<|WB|>": 691, "wr": 692, "tly<|WB|>": 693, "de,<|WB|>": 694, "up": 695, "stra": 696, "l<|WB|>": 697, "ere<|WB|>": 698, "lling<|WB|>": 699, "enti": 700, "map": 701, "id": 702, "coll": 703, "collec": 704, "post": 705, "al.<|WB|>": 706, "foun": 707, "brea": 708, "ba": 709, "plan": 710, "cked<|WB|>": 711, "iled<|WB|>": 712, "swe": 713, "ses<|WB|>": 714, "whist": 715, "pas": 716, "ings<|WB|>": 717, "step": 718, "f-": 719, "ings.<|WB|>": 720, "agre": 721, "med<|WB|>": 722, "draw": 723, "rememb": 724, "dre": 725, "tw": 726, "ght<|WB|>": 727, "ness<|WB|>": 728, "ile<|WB|>": 729, "sle": 730, "neighbor": 731, "tea": 732, "il<|WB|>": 733, "well": 734, "thered<|WB|>": 735, "self.<|WB|>": 736, "fri": 737, "et.<|WB|>": 738, "at.<|WB|>": 739, "ke": 740, "le,<|WB|>": 741, "cra": 742, "cks<|WB|>": 743, "shap": 744, "ves<|WB|>": 745, "hea": 746, "twi": 747, "child": 748, "even": 749, "ce,<|WB|>": 750, "per": 751, "har": 752, "ats<|WB|>": 753, "pri": 754, "shad": 755, "dan": 756, "ssed<|WB|>": 757, "memor": 758, "zed<|WB|>": 759, "school": 760, "afterno": 761, "lls<|WB|>": 762, "pea": 763, "orch": 764, "cted<|WB|>": 765, "watch": 766, "secre": 767, "dog": 768, "rop": 769, "op<|WB|>": 770, "foot": 771, "reg": 772, "vo": 773, "father": 774, "ber": 775, "he<|WB|>": 776, "light<|WB|>": 777, "table<|WB|>": 778, "brie": 779, "aga": 780, "match": 781, "it<|WB|>": 782, "wil": 783, "eds<|WB|>": 784, "exp": 785, "chang": 786, "to<|WB|>": 787, "fiel": 788, "sil": 789, "mak": 790, "re.<|WB|>": 791, "ju": 792, "belong": 793, "stub": 794, "arn": 795, "pati": 796, "libr": 797, "sme": 798, "dden<|WB|>": 799, "n.<|WB|>": 800, "buil": 801, "winter": 802, "estion": 803, "are<|WB|>": 804, "answ": 805, "eful": 806, "te<|WB|>": 807, "book": 808, "slow": 809, "as<|WB|>": 810, "ct": 811, "ould<|WB|>": 812, "river<|WB|>": 813, "sation": 814, "app": 815, "ck,<|WB|>": 816, "apo": 817, "apolo": 818, "house<|WB|>": 819, "aned<|WB|>": 820, "ven<|WB|>": 821, "ched<|WB|>": 822, "where<|WB|>": 823, "ess<|WB|>": 824, "ough<|WB|>": 825, "gla": 826, "ns<|WB|>": 827, "station": 828, "red<|WB|>": 829, "ted.<|WB|>": 830, "it.<|WB|>": 831, "stan": 832, "clou": 833, "day<|WB|>": 834, "color": 835, "let": 836, "impo": 837, "impossi": 838, "thr": 839, "own<|WB|>": 840, "light.<|WB|>": 841, "ni": 842, "strang": 843, "now<|WB|>": 844, "owed<|WB|>": 845, "soun": 846, "me.<|WB|>": 847, "fini": 848, "sent": 849, "thou": 850, "stea": 851, "lef": 852, "expla": 853, "promi": 854, "lif": 855, "certa": 856, "cont": 857, "ents<|WB|>": 858, "irc": 859, "night<|WB|>": 860, "roun": 861, "half-": 862, "st,<|WB|>": 863, "ger<|WB|>": 864, "fru": 865, "ffi": 866, "ffic": 867, "visit": 868, "arm<|WB|>": 869, "will": 870, "cap": 871, "forgo": 872, "ked,<|WB|>": 873, "inv": 874, "spo": 875, "cti": 876, "et,<|WB|>": 877, "used<|WB|>": 878, "ig": 879, "spr": 880, "ever<|WB|>": 881, "rece": 882, "or.<|WB|>": 883, "sea": 884, "she": 885, "pra": 886, "y's<|WB|>": 887, "warm": 888, "way,<|WB|>": 889, "emp": 890, "thing.<|WB|>": 891, "mes,<|WB|>": 892, "ion.<|WB|>": 893, "self<|WB|>": 894, "tru": 895, "small": 896, "know": 897, "nor": 898, "thread": 899, "down": 900, "him": 901, "garden": 902, "friend": 903, "ook<|WB|>": 904, "flo": 905, "ated<|WB|>": 906, "pass": 907, "eng": 908, "handwri": 909, "arg": 910, "argum": 911, "ation.<|WB|>": 912, "fra": 913, "s'": 914, "s'<|WB|>": 915, "comfor": 916, "clock": 917, "dest<|WB|>": 918, "mid": 919, "lined<|WB|>": 920, "thir": 921, "ved.<|WB|>": 922, "ily<|WB|>": 923, "ated.<|WB|>": 924, "lat": 925, "cla": 926, "men<|WB|>": 927, "cli": 928, "vest": 929, "way.<|WB|>": 930, "ence.<|WB|>": 931, "le.<|WB|>": 932, "cal": 933, "alls<|WB|>": 934, "hed": 935, "sin": 936, "ood.<|WB|>": 937, "hor": 938, "kno": 939, "vin": 940, "street": 941, "tten<|WB|>": 942, "cro": 943, "cross": 944, "fall": 945, "ty,<|WB|>": 946, "side<|WB|>": 947, "man": 948, "ben": 949, "river": 950, "wo": 951, "generation": 952, "ts.<|WB|>": 953, "story.<|WB|>": 954, "wea": 955, "pur": 956, "black": 957, "allo": 958, "allotm": 959, "berri": 960, "berries<|WB|>": 961, "fla": 962, "strea": 963, "tter": 964, "loy": 965, "ow,<|WB|>": 966, "yard": 967, "spi": 968, "the<|WB|>": 969, "kitch": 970, "ade<|WB|>": 971, "fly<|WB|>": 972, "new.<|WB|>": 973, "ys<|WB|>": 974, "res<|WB|>": 975, "more<|WB|>": 976, "weight<|WB|>": 977, "gran": 978, "clo": 979, "lett": 980, "thre": 981, "times<|WB|>": 982, "underst": 983, "ally<|WB|>": 984, "ask": 985, "expec": 986, "story<|WB|>": 987, "you": 988, "you<|WB|>": 989, "eta": 990, "ither<|WB|>": 991, "wan": 992, "daw": 993, "ept<|WB|>": 994, "ticket<|WB|>": 995, "learn": 996, "ry.<|WB|>": 997, "pap": 998, "gust<|WB|>": 999, "tering<|WB|>": 1000, "law": 1001, "gar": 1002, "question": 1003, "em<|WB|>": 1004, "and.<|WB|>": 1005, "hopeful": 1006, "anim": 1007, "als<|WB|>": 1008, "wro": 1009, "marg": 1010, "tted<|WB|>": 1011, "ely.<|WB|>": 1012, "ven": 1013, "arri": 1014, "day.<|WB|>": 1015, "room<|WB|>": 1016, "most<|WB|>": 1017, "conver": 1018, "conversation": 1019, "is<|WB|>": 1020, "tr": 1021, "imp": 1022, "sing": 1023, "lanter": 1024, "swa": 1025, "tid": 1026, "sti": 1027, "said<|WB|>": 1028, "wrong": 1029, "star": 1030, "ga": 1031, "hund": 1032, "partic": 1033, "ular<|WB|>": 1034, "oo<|WB|>": 1035, "entire": 1036, "idea": 1037, "pain": 1038, "postcar": 1039, "plac": 1040, "ably<|WB|>": 1041, "sigh": 1042, "graph": 1043, "grandmo": 1044, "long": 1045, "baker": 1046, "who": 1047, "how<|WB|>": 1048, "fami": 1049, "famili": 1050, "re<|WB|>": 1051, "cloud": 1052, "switch": 1053, "bet": 1054, "atur": 1055, "rush": 1056, "ough.<|WB|>": 1057, "dar": 1058, "swall": 1059, "town": 1060, "crun": 1061, "bit<|WB|>": 1062, "peop": 1063, "ence": 1064, "lighthou": 1065, "pt<|WB|>": 1066, "water<|WB|>": 1067, "secon": 1068, "stead": 1069, "ined<|WB|>": 1070, "mou": 1071, "kett": 1072, "come<|WB|>": 1073, "easur": 1074, "ently.<|WB|>": 1075, "open": 1076, "change<|WB|>": 1077, "steps<|WB|>": 1078, "kne": 1079, "haw": 1080, "circ": 1081, "corn": 1082, "sk,<|WB|>": 1083, "finished<|WB|>": 1084, "agreem": 1085, "vor": 1086, "brid": 1087, "gro": 1088, "traffic": 1089, "hel": 1090, "lau": 1091, "laugh": 1092, "drew<|WB|>": 1093, "mir": 1094, "mirr": 1095, "o,<|WB|>": 1096, "shar": 1097, "cerem": 1098, "ceremon": 1099, "jour": 1100, "mom": 1101, "time<|WB|>": 1102, "ummed<|WB|>": 1103, "song<|WB|>": 1104, "invent": 1105, "morning.<|WB|>": 1106, "appro": 1107, "ular.<|WB|>": 1108, "one's<|WB|>": 1109, "umbre": 1110, "umbrell": 1111, "point": 1112, "pointle": 1113, "play": 1114, "stop": 1115, "read<|WB|>": 1116, "hone": 1117, "rolled<|WB|>": 1118, "ref": 1119, "rows<|WB|>": 1120, "ping<|WB|>": 1121, "langu": 1122, "than": 1123, "recei": 1124, "quiet": 1125, "kind": 1126, "lived<|WB|>": 1127, "rum": 1128, "shell<|WB|>": 1129, "came<|WB|>": 1130, "m.<|WB|>": 1131, "ink": 1132, "prac": 1133, "practic": 1134, "good": 1135, "goodb": 1136, "goodby": 1137, "librar": 1138, "sett": 1139, "keep": 1140, "need": 1141, "ond<|WB|>": 1142, "drag": 1143, "ser": 1144, "letter": 1145, "flour": 1146, "flour-": 1147, "flour-du": 1148, "sted,<|WB|>": 1149, "proo": 1150, "hall": 1151, "cle<|WB|>": 1152, "times,<|WB|>": 1153, "sunse": 1154, "lasted<|WB|>": 1155, "bell": 1156, "iny<|WB|>": 1157, "ks,<|WB|>": 1158, "jo": 1159, "ke.<|WB|>": 1160, "remember<|WB|>": 1161, "moun": 1162, "tain<|WB|>": 1163, "stubbor": 1164, "ful.<|WB|>": 1165, "ought<|WB|>": 1166, "us": 1167, "childr": 1168, "days<|WB|>": 1169, "chal": 1170, "board<|WB|>": 1171, "chi": 1172, "wish": 1173, "fea": 1174, "book<|WB|>": 1175, "din": 1176, "g,<|WB|>": 1177, "squ": 1178, "ther's<|WB|>": 1179, "reci": 1180, "recip": 1181, "adding<|WB|>": 1182, "froz": 1183, "sk<|WB|>": 1184, "driver<|WB|>": 1185, "poli": 1186, "perf": 1187, "perfec": 1188, "turned<|WB|>": 1189, "gol": 1190, "brown": 1191, "tool": 1192, "smoo": 1193, "bell<|WB|>": 1194, "pen": 1195, "penc": 1196, "smo": 1197, "ney<|WB|>": 1198, "se,<|WB|>": 1199, "bor<|WB|>": 1200, "surpri": 1201, "frame<|WB|>": 1202, "cobb": 1203, "cobbl": 1204, "pair<|WB|>": 1205, "stori": 1206, "low<|WB|>": 1207, "imag": 1208, "imagin": 1209, "bird": 1210, "cran": 1211, "reas": 1212, "tab": 1213, "rank<|WB|>": 1214, "act<|WB|>": 1215, "father<|WB|>": 1216, "minut": 1217, "flower<|WB|>": 1218, "tal": 1219, "ty<|WB|>": 1220, "ch,<|WB|>": 1221, "ar.<|WB|>": 1222, "swi": 1223, "t's<|WB|>": 1224, "lit<|WB|>": 1225, "ase<|WB|>": 1226, "distan": 1227, "cking<|WB|>": 1228, "plat": 1229, "tied<|WB|>": 1230, "drawn<|WB|>": 1231, "at,<|WB|>": 1232, "overflow": 1233, "ve,<|WB|>": 1234, "harvest": 1235, "memori": 1236, "low.<|WB|>": 1237, "ste": 1238, "gue": 1239, "mill<|WB|>": 1240, "wheel<|WB|>": 1241, "ma": 1242, "moth": 1243, "mon": 1244, "bran": 1245, "ring<|WB|>": 1246, "walk<|WB|>": 1247, "childh": 1248, "out,<|WB|>": 1249, "box,<|WB|>": 1250, "alou": 1251, "toge": 1252, "ther.<|WB|>": 1253, "cree": 1254, "chur": 1255, "uit": 1256, "etting<|WB|>": 1257}}